{
  "version": "1.0",
  "truncation": null,
  "padding": null,
  "added_tokens": [
    {
      "id": 0,
      "content": "<pad>",
      "single_word": false,
      "lstrip": false,
      "rstrip": false,
      "normalized": false,
      "special": true
    },
    {
      "id": 1,
      "content": "<s>",
      "single_word": false,
      "lstrip": false,
      "rstrip": false,
      "normalized": false,
      "special": true
    },
    {
      "id": 2,
      "content": "</s>",
      "single_word": false,
      "lstrip": false,
      "rstrip": false,
      "normalized": false,
      "special": true
    },
    {
      "id": 3,
      "content": "<unk>",
      "single_word": false,
      "lstrip": false,
      "rstrip": false,
      "normalized": false,
      "special": true
    }
  ],
  "normalizer": {
    "type": "NFC"
  },
  "pre_tokenizer": {
    "type": "Whitespace"
  },
  "post_processor": {
    "type": "TemplateProcessing",
    "single": [
      {
        "SpecialToken": {
          "id": "<s>",
          "type_id": 0
        }
      },
      {
        "Sequence": {
          "id": "A",
          "type_id": 0
        }
      },
      {
        "SpecialToken": {
          "id": "</s>",
          "type_id": 0
        }
      }
    ],
    "pair": [
      {
        "SpecialToken": {
          "id": "<s>",
          "type_id": 0
        }
      },
      {
        "Sequence": {
          "id": "A",
          "type_id": 0
        }
      },
      {
        "SpecialToken": {
          "id": "</s>",
          "type_id": 0
        }
      },
      {
        "SpecialToken": {
          "id": "</s>",
          "type_id": 0
        }
      },
      {
        "Sequence": {
          "id": "B",
          "type_id": 0
        }
      },
      {
        "SpecialToken": {
          "id": "</s>",
          "type_id": 0
        }
      }
    ],
    "special_tokens": {
      "</s>": {
        "id": "</s>",
        "ids": [
          2
        ],
        "tokens": [
          "</s>"
        ]
      },
      "<s>": {
        "id": "<s>",
        "ids": [
          1
        ],
        "tokens": [
          "<s>"
        ]
      }
    }
  },
  "decoder": {
    "type": "BPEDecoder",
    "suffix": "</w>"
  },
  "model": {
    "type": "BPE",
    "dropout": null,
    "unk_token": "<unk>",
    "continuing_subword_prefix": null,
    "end_of_word_suffix": null,
    "fuse_unk": false,
    "byte_fallback": false,
    "ignore_merges": false,
    "vocab": {
      "<pad>": 0,
      "<s>": 1,
      "</s>": 2,
      "<unk>": 3,
      "A": 4,
      "B": 5,
      "C": 6,
      "D": 7,
      "E": 8,
      "F": 9,
      "G": 10,
      "H": 11,
      "I": 12,
      "J": 13,
      "K": 14,
      "L": 15,
      "M": 16,
      "N": 17,
      "O": 18,
      "P": 19,
      "Q": 20,
      "R": 21,
      "S": 22,
      "T": 23,
      "U": 24,
      "V": 25,
      "W": 26,
      "X": 27,
      "Y": 28,
      "Z": 29,
      "a": 30,
      "b": 31,
      "c": 32,
      "d": 33,
      "e": 34,
      "f": 35,
      "g": 36,
      "h": 37,
      "i": 38,
      "j": 39,
      "k": 40,
      "l": 41,
      "m": 42,
      "n": 43,
      "o": 44,
      "p": 45,
      "q": 46,
      "r": 47,
      "s": 48,
      "t": 49,
      "u": 50,
      "v": 51,
      "w": 52,
      "x": 53,
      "y": 54,
      "z": 55,
      "À": 56,
      "Á": 57,
      "Â": 58,
      "Ã": 59,
      "Ç": 60,
      "È": 61,
      "É": 62,
      "Ê": 63,
      "Ì": 64,
      "Í": 65,
      "Ï": 66,
      "Ò": 67,
      "Ó": 68,
      "Ô": 69,
      "Õ": 70,
      "Ö": 71,
      "×": 72,
      "Ù": 73,
      "Ú": 74,
      "Ý": 75,
      "ß": 76,
      "à": 77,
      "á": 78,
      "â": 79,
      "ã": 80,
      "ä": 81,
      "å": 82,
      "è": 83,
      "é": 84,
      "ê": 85,
      "ì": 86,
      "í": 87,
      "ï": 88,
      "ò": 89,
      "ó": 90,
      "ô": 91,
      "õ": 92,
      "ö": 93,
      "÷": 94,
      "ø": 95,
      "ù": 96,
      "ú": 97,
      "ü": 98,
      "ý": 99,
      "ÿ": 100,
      "ā": 101,
      "Ă": 102,
      "ă": 103,
      "Ą": 104,
      "ą": 105,
      "Č": 106,
      "Đ": 107,
      "đ": 108,
      "ē": 109,
      "Ę": 110,
      "ě": 111,
      "Ģ": 112,
      "Ĩ": 113,
      "ĩ": 114,
      "ī": 115,
      "Į": 116,
      "į": 117,
      "ń": 118,
      "Ő": 119,
      "ő": 120,
      "Ũ": 121,
      "ũ": 122,
      "ū": 123,
      "ů": 124,
      "Ų": 125,
      "ƈ": 126,
      "Ơ": 127,
      "ơ": 128,
      "Ư": 129,
      "ư": 130,
      "ǹ": 131,
      "̀": 132,
      "́": 133,
      "̂": 134,
      "̃": 135,
      "̆": 136,
      "̈": 137,
      "̉": 138,
      "̛": 139,
      "̣": 140,
      "̷": 141,
      "̿": 142,
      "͟": 143,
      "Ạ": 144,
      "ạ": 145,
      "Ả": 146,
      "ả": 147,
      "Ấ": 148,
      "ấ": 149,
      "Ầ": 150,
      "ầ": 151,
      "Ẩ": 152,
      "ẩ": 153,
      "Ẫ": 154,
      "ẫ": 155,
      "Ậ": 156,
      "ậ": 157,
      "Ắ": 158,
      "ắ": 159,
      "Ằ": 160,
      "ằ": 161,
      "Ẳ": 162,
      "ẳ": 163,
      "Ẵ": 164,
      "ẵ": 165,
      "Ặ": 166,
      "ặ": 167,
      "Ẹ": 168,
      "ẹ": 169,
      "Ẻ": 170,
      "ẻ": 171,
      "Ẽ": 172,
      "ẽ": 173,
      "Ế": 174,
      "ế": 175,
      "Ề": 176,
      "ề": 177,
      "Ể": 178,
      "ể": 179,
      "Ễ": 180,
      "ễ": 181,
      "Ệ": 182,
      "ệ": 183,
      "Ỉ": 184,
      "ỉ": 185,
      "Ị": 186,
      "ị": 187,
      "Ọ": 188,
      "ọ": 189,
      "Ỏ": 190,
      "ỏ": 191,
      "Ố": 192,
      "ố": 193,
      "Ồ": 194,
      "ồ": 195,
      "Ổ": 196,
      "ổ": 197,
      "Ỗ": 198,
      "ỗ": 199,
      "Ộ": 200,
      "ộ": 201,
      "Ớ": 202,
      "ớ": 203,
      "Ờ": 204,
      "ờ": 205,
      "Ở": 206,
      "ở": 207,
      "Ỡ": 208,
      "ỡ": 209,
      "Ợ": 210,
      "ợ": 211,
      "Ụ": 212,
      "ụ": 213,
      "Ủ": 214,
      "ủ": 215,
      "Ứ": 216,
      "ứ": 217,
      "Ừ": 218,
      "ừ": 219,
      "Ử": 220,
      "ử": 221,
      "Ữ": 222,
      "ữ": 223,
      "Ự": 224,
      "ự": 225,
      "Ỳ": 226,
      "ỳ": 227,
      "Ỵ": 228,
      "ỵ": 229,
      "Ỷ": 230,
      "ỷ": 231,
      "Ỹ": 232,
      "ỹ": 233,
      "ng": 234,
      "nh": 235,
      "ch": 236,
      "th": 237,
      "kh": 238,
      "gi": 239,
      "tr": 240,
      "ất": 241,
      "ình": 242,
      "ph": 243,
      "ên": 244,
      "ao": 245,
      "là": 246,
      "ua": 247,
      "ông": 248,
      "ượ": 249,
      "àng": 250,
      "mà": 251,
      "có": 252,
      "ới": 253,
      "anh": 254,
      "ày": 255,
      "iệ": 256,
      "như": 257,
      "thì": 258,
      "qu": 259,
      "iế": 260,
      "ấy": 261,
      "ay": 262,
      "ời": 263,
      "hàng": 264,
      "mua": 265,
      "rất": 266,
      "và": 267,
      "cá": 268,
      "in": 269,
      "ho": 270,
      "ại": 271,
      "không": 272,
      "ơi": 273,
      "am": 274,
      "ài": 275,
      "áy": 276,
      "uy": 277,
      "nó": 278,
      "on": 279,
      "ần": 280,
      "iề": 281,
      "mình": 282,
      "nhanh": 283,
      "ược": 284,
      "này": 285,
      "ản": 286,
      "ân": 287,
      "tố": 288,
      "được": 289,
      "ẹp": 290,
      "ùng": 291,
      "âu": 292,
      "cho": 293,
      "ong": 294,
      "ko": 295,
      "giá": 296,
      "ận": 297,
      "đẹp": 298,
      "ồi": 299,
      "ra": 300,
      "cũ": 301,
      "ai": 302,
      "tốt": 303,
      "ải": 304,
      "máy": 305,
      "cũng": 306,
      "em": 307,
      "ơn": 308,
      "ẩm": 309,
      "quá": 310,
      "nhưng": 311,
      "ok": 312,
      "nên": 313,
      "phẩm": 314,
      "ười": 315,
      "cả": 316,
      "đi": 317,
      "hop": 318,
      "ôi": 319,
      "Ch": 320,
      "ung": 321,
      "bị": 322,
      "khá": 323,
      "lại": 324,
      "òn": 325,
      "củ": 326,
      "lu": 327,
      "ngh": 328,
      "ướ": 329,
      "an": 330,
      "ết": 331,
      "ang": 332,
      "hình": 333,
      "rồi": 334,
      "iên": 335,
      "của": 336,
      "iều": 337,
      "ame": 338,
      "kk": 339,
      "dùng": 340,
      "thấy": 341,
      "cái": 342,
      "giao": 343,
      "áng": 344,
      "pin": 345,
      "với": 346,
      "iết": 347,
      "au": 348,
      "inh": 349,
      "ôn": 350,
      "người": 351,
      "ói": 352,
      "mới": 353,
      "lắ": 354,
      "đó": 355,
      "ật": 356,
      "Th": 357,
      "còn": 358,
      "ắc": 359,
      "shop": 360,
      "con": 361,
      "ưa": 362,
      "iện": 363,
      "ượng": 364,
      "gì": 365,
      "để": 366,
      "ào": 367,
      "hơn": 368,
      "lắm": 369,
      "chất": 370,
      "hi": 371,
      "ước": 372,
      "ạn": 373,
      "luôn": 374,
      "lo": 375,
      "úc": 376,
      "ữa": 377,
      "iệt": 378,
      "sản": 379,
      "lượng": 380,
      "ăn": 381,
      "sao": 382,
      "nói": 383,
      "ây": 384,
      "qua": 385,
      "Gi": 386,
      "iền": 387,
      "phải": 388,
      "ặt": 389,
      "Nh": 390,
      "ống": 391,
      "làm": 392,
      "về": 393,
      "khi": 394,
      "hơi": 395,
      "úng": 396,
      "nhiều": 397,
      "ổn": 398,
      "chỉ": 399,
      "êu": 400,
      "ngày": 401,
      "đã": 402,
      "ki": 403,
      "ọi": 404,
      "ầm": 405,
      "nào": 406,
      "gói": 407,
      "hay": 408,
      "ạc": 409,
      "ụng": 410,
      "trong": 411,
      "nhận": 412,
      "ầu": 413,
      "đc": 414,
      "chơi": 415,
      "biết": 416,
      "ích": 417,
      "ẫn": 418,
      "Ng": 419,
      "to": 420,
      "àn": 421,
      "chưa": 422,
      "ươ": 423,
      "độ": 424,
      "ậy": 425,
      "ính": 426,
      "game": 427,
      "ương": 428,
      "òng": 429,
      "sẽ": 430,
      "hộ": 431,
      "ắt": 432,
      "dụng": 433,
      "nữa": 434,
      "ii": 435,
      "en": 436,
      "ỗi": 437,
      "pp": 438,
      "án": 439,
      "tu": 440,
      "bạn": 441,
      "tiền": 442,
      "êm": 443,
      "nha": 444,
      "ẩn": 445,
      "ột": 446,
      "eo": 447,
      "ực": 448,
      "các": 449,
      "cảm": 450,
      "ục": 451,
      "oi": 452,
      "ượt": 453,
      "ưng": 454,
      "ứng": 455,
      "thế": 456,
      "Máy": 457,
      "lần": 458,
      "tt": 459,
      "ảnh": 460,
      "ườ": 461,
      "ắn": 462,
      "sau": 463,
      "vậy": 464,
      "ọc": 465,
      "hết": 466,
      "vẫn": 467,
      "ằng": 468,
      "ường": 469,
      "lên": 470,
      "ầy": 471,
      "uố": 472,
      "tiế": 473,
      "chắc": 474,
      "uyệ": 475,
      "tình": 476,
      "ức": 477,
      "ến": 478,
      "đóng": 479,
      "thôi": 480,
      "hh": 481,
      "nn": 482,
      "mượt": 483,
      "vào": 484,
      "Tr": 485,
      "mấy": 486,
      "ăng": 487,
      "ánh": 488,
      "ừa": 489,
      "ành": 490,
      "Sản": 491,
      "lâu": 492,
      "sử": 493,
      "tay": 494,
      "ảo": 495,
      "aa": 496,
      "thích": 497,
      "nhà": 498,
      "đúng": 499,
      "óng": 500,
      "ác": 501,
      "ụp": 502,
      "ổi": 503,
      "nhé": 504,
      "nghe": 505,
      "Mình": 506,
      "từ": 507,
      "xài": 508,
      "ạy": 509,
      "Giao": 510,
      "át": 511,
      "ái": 512,
      "lúc": 513,
      "si": 514,
      "sạc": 515,
      "ìn": 516,
      "tầm": 517,
      "âm": 518,
      "đầu": 519,
      "đâu": 520,
      "la": 521,
      "chị": 522,
      "ngon": 523,
      "chung": 524,
      "chứ": 525,
      "xem": 526,
      "ấu": 527,
      "chụp": 528,
      "ủng": 529,
      "mọi": 530,
      "er": 531,
      "ặc": 532,
      "ọng": 533,
      "ti": 534,
      "đến": 535,
      "vì": 536,
      "tho": 537,
      "xu": 538,
      "khác": 539,
      "tao": 540,
      "lòng": 541,
      "vi": 542,
      "amera": 543,
      "ếu": 544,
      "một": 545,
      "viên": 546,
      "kkkk": 547,
      "tư": 548,
      "ợp": 549,
      "dễ": 550,
      "ta": 551,
      "nhiệt": 552,
      "ọn": 553,
      "ểu": 554,
      "út": 555,
      "do": 556,
      "ỏi": 557,
      "ồn": 558,
      "áo": 559,
      "ui": 560,
      "iệu": 561,
      "vừa": 562,
      "ấn": 563,
      "ee": 564,
      "hợp": 565,
      "trâu": 566,
      "giờ": 567,
      "thật": 568,
      "ảm": 569,
      "hài": 570,
      "đồ": 571,
      "lỗi": 572,
      "thận": 573,
      "đề": 574,
      "cẩn": 575,
      "ôm": 576,
      "rẻ": 577,
      "dj": 578,
      "màu": 579,
      "nước": 580,
      "so": 581,
      "màn": 582,
      "ặng": 583,
      "Hàng": 584,
      "ha": 585,
      "ập": 586,
      "Ph": 587,
      "ăm": 588,
      "tháng": 589,
      "éo": 590,
      "uyệt": 591,
      "nhìn": 592,
      "nhân": 593,
      "ững": 594,
      "Kh": 595,
      "chu": 596,
      "thứ": 597,
      "chi": 598,
      "thể": 599,
      "te": 600,
      "trước": 601,
      "uyên": 602,
      "đặt": 603,
      "ối": 604,
      "mặt": 605,
      "đủ": 606,
      "tôi": 607,
      "ma": 608,
      "ngo": 609,
      "ạnh": 610,
      "đây": 611,
      "bảo": 612,
      "uốn": 613,
      "ễn": 614,
      "những": 615,
      "thêm": 616,
      "iến": 617,
      "camera": 618,
      "nhất": 619,
      "đáng": 620,
      "ạt": 621,
      "chắn": 622,
      "ãi": 623,
      "di": 624,
      "ảng": 625,
      "ạm": 626,
      "tuyệt": 627,
      "nay": 628,
      "ấp": 629,
      "ửi": 630,
      "nhỏ": 631,
      "cứ": 632,
      "Shop": 633,
      "al": 634,
      "kho": 635,
      "sự": 636,
      "cao": 637,
      "ịch": 638,
      "gg": 639,
      "đang": 640,
      "mẹ": 641,
      "ền": 642,
      "óc": 643,
      "trên": 644,
      "ét": 645,
      "ểm": 646,
      "ba": 647,
      "ển": 648,
      "tính": 649,
      "muốn": 650,
      "cực": 651,
      "dc": 652,
      "mang": 653,
      "bao": 654,
      "hôm": 655,
      "ởng": 656,
      "Nguy": 657,
      "ừng": 658,
      "co": 659,
      "sj": 660,
      "thời": 661,
      "fi": 662,
      "đị": 663,
      "gh": 664,
      "ùi": 665,
      "vụ": 666,
      "đánh": 667,
      "tự": 668,
      "yêu": 669,
      "mày": 670,
      "uu": 671,
      "sáng": 672,
      "nóng": 673,
      "đều": 674,
      "điện": 675,
      "chạy": 676,
      "ơm": 677,
      "vời": 678,
      "mất": 679,
      "vọng": 680,
      "Qu": 681,
      "bên": 682,
      "Mua": 683,
      "ít": 684,
      "thương": 685,
      "mm": 686,
      "số": 687,
      "ạo": 688,
      "vấn": 689,
      "phục": 690,
      "ngoài": 691,
      "be": 692,
      "động": 693,
      "cần": 694,
      "da": 695,
      "năm": 696,
      "tiếp": 697,
      "ội": 698,
      "ngu": 699,
      "dd": 700,
      "Pin": 701,
      "công": 702,
      "vs": 703,
      "gian": 704,
      "sài": 705,
      "bu": 706,
      "liên": 707,
      "tin": 708,
      "đổi": 709,
      "ạng": 710,
      "hã": 711,
      "tttt": 712,
      "ks": 713,
      "li": 714,
      "ấm": 715,
      "re": 716,
      "thu": 717,
      "mi": 718,
      "thằng": 719,
      "thoại": 720,
      "siêu": 721,
      "Mới": 722,
      "chính": 723,
      "úi": 724,
      "Chất": 725,
      "Nguyễn": 726,
      "gọi": 727,
      "xong": 728,
      "iệm": 729,
      "bán": 730,
      "dân": 731,
      "học": 732,
      "cu": 733,
      "im": 734,
      "tới": 735,
      "Có": 736,
      "cô": 737,
      "dn": 738,
      "nghĩ": 739,
      "bằng": 740,
      "tiếng": 741,
      "định": 742,
      "bi": 743,
      "bình": 744,
      "cách": 745,
      "vô": 746,
      "ợi": 747,
      "Nói": 748,
      "iếu": 749,
      "he": 750,
      "bắt": 751,
      "ậm": 752,
      "lớ": 753,
      "ộc": 754,
      "tâm": 755,
      "tặng": 756,
      "giống": 757,
      "đấy": 758,
      "thử": 759,
      "dù": 760,
      "iiii": 761,
      "thường": 762,
      "loại": 763,
      "tụ": 764,
      "xinh": 765,
      "Ti": 766,
      "ss": 767,
      "điều": 768,
      "đồng": 769,
      "nếu": 770,
      "thầy": 771,
      "cùng": 772,
      "khó": 773,
      "đầy": 774,
      "vân": 775,
      "hành": 776,
      "bé": 777,
      "tệ": 778,
      "theo": 779,
      "tại": 780,
      "ịn": 781,
      "uyện": 782,
      "mặc": 783,
      "nhẹ": 784,
      "quan": 785,
      "vid": 786,
      "ắng": 787,
      "lấy": 788,
      "ac": 789,
      "ém": 790,
      "thành": 791,
      "vui": 792,
      "db": 793,
      "pppp": 794,
      "ốc": 795,
      "năng": 796,
      "Nhưng": 797,
      "wi": 798,
      "xe": 799,
      "aaaa": 800,
      "hỏi": 801,
      "sp": 802,
      "nhiên": 803,
      "ách": 804,
      "lý": 805,
      "tuần": 806,
      "ửa": 807,
      "sn": 808,
      "dài": 809,
      "đéo": 810,
      "nnnn": 811,
      "Anh": 812,
      "ồng": 813,
      "NG": 814,
      "ke": 815,
      "mn": 816,
      "bản": 817,
      "chết": 818,
      "Tiki": 819,
      "du": 820,
      "tí": 821,
      "me": 822,
      "toàn": 823,
      "per": 824,
      "loa": 825,
      "ỏng": 826,
      "xin": 827,
      "se": 828,
      "ro": 829,
      "phần": 830,
      "gần": 831,
      "lag": 832,
      "tạm": 833,
      "ám": 834,
      "mở": 835,
      "Đóng": 836,
      "mong": 837,
      "sợ": 838,
      "Rất": 839,
      "điểm": 840,
      "hiện": 841,
      "mỗi": 842,
      "ốt": 843,
      "chửi": 844,
      "Cảm": 845,
      "ộng": 846,
      "mạnh": 847,
      "chậm": 848,
      "hộp": 849,
      "shi": 850,
      "chịu": 851,
      "hãng": 852,
      "bỏ": 853,
      "kém": 854,
      "hiểu": 855,
      "oo": 856,
      "sinh": 857,
      "dịch": 858,
      "jj": 859,
      "kế": 860,
      "thơm": 861,
      "ướng": 862,
      "Đã": 863,
      "nhau": 864,
      "chuy": 865,
      "chúng": 866,
      "ạch": 867,
      "ngay": 868,
      "kiểu": 869,
      "kkkkkkkk": 870,
      "video": 871,
      "thất": 872,
      "bộ": 873,
      "cười": 874,
      "hhhh": 875,
      "àu": 876,
      "iệc": 877,
      "chuẩn": 878,
      "hiệu": 879,
      "áp": 880,
      "chó": 881,
      "ắm": 882,
      "phí": 883,
      "no": 884,
      "dk": 885,
      "kì": 886,
      "ou": 887,
      "tưởng": 888,
      "Việt": 889,
      "nè": 890,
      "sắc": 891,
      "tục": 892,
      "chuyện": 893,
      "báo": 894,
      "ck": 895,
      "may": 896,
      "vãi": 897,
      "chê": 898,
      "đường": 899,
      "sống": 900,
      "Ho": 901,
      "rõ": 902,
      "le": 903,
      "phim": 904,
      "sang": 905,
      "thiết": 906,
      "kết": 907,
      "dh": 908,
      "việc": 909,
      "èm": 910,
      "ca": 911,
      "de": 912,
      "ép": 913,
      "nhạy": 914,
      "mùi": 915,
      "túi": 916,
      "nhi": 917,
      "tiki": 918,
      "yếu": 919,
      "iệp": 920,
      "bo": 921,
      "ve": 922,
      "thân": 923,
      "bác": 924,
      "thanh": 925,
      "mắt": 926,
      "tối": 927,
      "gia": 928,
      "OK": 929,
      "đơ": 930,
      "giảm": 931,
      "quy": 932,
      "Giá": 933,
      "nhớ": 934,
      "nét": 935,
      "mề": 936,
      "mạng": 937,
      "Không": 938,
      "wifi": 939,
      "tiện": 940,
      "cấu": 941,
      "giật": 942,
      "họ": 943,
      "thi": 944,
      "vl": 945,
      "chuyển": 946,
      "cơ": 947,
      "phát": 948,
      "quay": 949,
      "cc": 950,
      "sung": 951,
      "mềm": 952,
      "ứa": 953,
      "haha": 954,
      "đừng": 955,
      "sai": 956,
      "quả": 957,
      "phù": 958,
      "ướt": 959,
      "Trần": 960,
      "tụt": 961,
      "nhật": 962,
      "ad": 963,
      "bà": 964,
      "lớn": 965,
      "Nam": 966,
      "bb": 967,
      "ẫu": 968,
      "nguyên": 969,
      "nhỉ": 970,
      "trả": 971,
      "chán": 972,
      "thông": 973,
      "minh": 974,
      "vẻ": 975,
      "tuy": 976,
      "èo": 977,
      "vài": 978,
      "su": 979,
      "ựa": 980,
      "nghiệm": 981,
      "bọn": 982,
      "Còn": 983,
      "lắp": 984,
      "sh": 985,
      "cam": 986,
      "tai": 987,
      "dư": 988,
      "thị": 989,
      "giới": 990,
      "cm": 991,
      "ri": 992,
      "st": 993,
      "trời": 994,
      "cầu": 995,
      "cầm": 996,
      "ẳng": 997,
      "buồn": 998,
      "bàn": 999,
      "coi": 1000,
      "úp": 1001,
      "chút": 1002,
      "khỏi": 1003,
      "trung": 1004,
      "chân": 1005,
      "bài": 1006,
      "kèm": 1007,
      "ll": 1008,
      "ưởng": 1009,
      "nhạc": 1010,
      "thức": 1011,
      "ka": 1012,
      "Hình": 1013,
      "vải": 1014,
      "bố": 1015,
      "ặp": 1016,
      "ghê": 1017,
      "đt": 1018,
      "chả": 1019,
      "chế": 1020,
      "Nhân": 1021,
      "quân": 1022,
      "ặn": 1023,
      "ale": 1024,
      "kg": 1025,
      "òi": 1026,
      "sb": 1027,
      "đọc": 1028,
      "sóng": 1029,
      "koko": 1030,
      "trợ": 1031,
      "oke": 1032,
      "nhu": 1033,
      "et": 1034,
      "fj": 1035,
      "thực": 1036,
      "tiên": 1037,
      "chọn": 1038,
      "hồi": 1039,
      "thiện": 1040,
      "nam": 1041,
      "ưu": 1042,
      "xuống": 1043,
      "giải": 1044,
      "chỗ": 1045,
      "kinh": 1046,
      "ắp": 1047,
      "NH": 1048,
      "zz": 1049,
      "tội": 1050,
      "xa": 1051,
      "càng": 1052,
      "mẫu": 1053,
      "dung": 1054,
      "sale": 1055,
      "nặng": 1056,
      "đợi": 1057,
      "ổng": 1058,
      "dòng": 1059,
      "hu": 1060,
      "bền": 1061,
      "mã": 1062,
      "xi": 1063,
      "tắt": 1064,
      "óp": 1065,
      "kia": 1066,
      "xuất": 1067,
      "kỹ": 1068,
      "Con": 1069,
      "chống": 1070,
      "cáo": 1071,
      "Minh": 1072,
      "Cho": 1073,
      "khách": 1074,
      "chủ": 1075,
      "câu": 1076,
      "má": 1077,
      "yy": 1078,
      "tác": 1079,
      "đời": 1080,
      "trọng": 1081,
      "amsung": 1082,
      "eeee": 1083,
      "ship": 1084,
      "Dùng": 1085,
      "VN": 1086,
      "vị": 1087,
      "djdj": 1088,
      "Camera": 1089,
      "yên": 1090,
      "gọn": 1091,
      "mát": 1092,
      "tả": 1093,
      "trai": 1094,
      "êng": 1095,
      "tất": 1096,
      "trang": 1097,
      "hai": 1098,
      "Sẽ": 1099,
      "cứng": 1100,
      "ze": 1101,
      "Em": 1102,
      "dày": 1103,
      "dây": 1104,
      "quần": 1105,
      "ỉnh": 1106,
      "tui": 1107,
      "at": 1108,
      "lướt": 1109,
      "đen": 1110,
      "cấp": 1111,
      "vàng": 1112,
      "ệnh": 1113,
      "gửi": 1114,
      "đêm": 1115,
      "ớt": 1116,
      "one": 1117,
      "ậu": 1118,
      "lời": 1119,
      "đơn": 1120,
      "đo": 1121,
      "đứa": 1122,
      "giác": 1123,
      "gggg": 1124,
      "eu": 1125,
      "tg": 1126,
      "kiến": 1127,
      "thay": 1128,
      "tttttttt": 1129,
      "hihi": 1130,
      "íu": 1131,
      "biến": 1132,
      "mỏng": 1133,
      "kĩ": 1134,
      "oc": 1135,
      "cập": 1136,
      "we": 1137,
      "ởi": 1138,
      "giúp": 1139,
      "ngủ": 1140,
      "fb": 1141,
      "gái": 1142,
      "mức": 1143,
      "Quá": 1144,
      "hoa": 1145,
      "việt": 1146,
      "ru": 1147,
      "ùa": 1148,
      "bây": 1149,
      "xn": 1150,
      "uối": 1151,
      "iếc": 1152,
      "fu": 1153,
      "xịn": 1154,
      "nghiệp": 1155,
      "nổi": 1156,
      "mo": 1157,
      "chờ": 1158,
      "hỗ": 1159,
      "thua": 1160,
      "thiếu": 1161,
      "tri": 1162,
      "Chỉ": 1163,
      "khoảng": 1164,
      "dự": 1165,
      "dán": 1166,
      "uuuu": 1167,
      "CH": 1168,
      "Mọi": 1169,
      "bất": 1170,
      "gặp": 1171,
      "xấu": 1172,
      "quảng": 1173,
      "size": 1174,
      "phân": 1175,
      "ban": 1176,
      "Lo": 1177,
      "xanh": 1178,
      "ìm": 1179,
      "ẩu": 1180,
      "bật": 1181,
      "dẫn": 1182,
      "xj": 1183,
      "uyết": 1184,
      "Ai": 1185,
      "Nên": 1186,
      "xíu": 1187,
      "bệnh": 1188,
      "tra": 1189,
      "trải": 1190,
      "hoặc": 1191,
      "Nghe": 1192,
      "biệt": 1193,
      "đối": 1194,
      "mô": 1195,
      "tượng": 1196,
      "ly": 1197,
      "or": 1198,
      "uốc": 1199,
      "hả": 1200,
      "hồ": 1201,
      "kỳ": 1202,
      "liệu": 1203,
      "ớm": 1204,
      "khu": 1205,
      "Chi": 1206,
      "mãi": 1207,
      "Nhìn": 1208,
      "đất": 1209,
      "mái": 1210,
      "lun": 1211,
      "kêu": 1212,
      "vv": 1213,
      "Tôi": 1214,
      "àm": 1215,
      "lợi": 1216,
      "đôi": 1217,
      "Chị": 1218,
      "cj": 1219,
      "sạch": 1220,
      "tận": 1221,
      "quốc": 1222,
      "TH": 1223,
      "ọt": 1224,
      "cuộc": 1225,
      "uyền": 1226,
      "lí": 1227,
      "tiết": 1228,
      "đau": 1229,
      "phụ": 1230,
      "Sau": 1231,
      "ww": 1232,
      "triệu": 1233,
      "tế": 1234,
      "tên": 1235,
      "uống": 1236,
      "xo": 1237,
      "giấy": 1238,
      "Chơi": 1239,
      "lớp": 1240,
      "Tra": 1241,
      "Ko": 1242,
      "TG": 1243,
      "cl": 1244,
      "chú": 1245,
      "trừ": 1246,
      "đứng": 1247,
      "nguồn": 1248,
      "ae": 1249,
      "cố": 1250,
      "Cái": 1251,
      "vận": 1252,
      "ỏe": 1253,
      "ngồi": 1254,
      "pppppppp": 1255,
      "tìm": 1256,
      "hoàn": 1257,
      "ppo": 1258,
      "vo": 1259,
      "đa": 1260,
      "khỏe": 1261,
      "chức": 1262,
      "cài": 1263,
      "trường": 1264,
      "phòng": 1265,
      "trắng": 1266,
      "iếm": 1267,
      "Sp": 1268,
      "phone": 1269,
      "ms": 1270,
      "chóng": 1271,
      "Hoàng": 1272,
      "alo": 1273,
      "lưng": 1274,
      "you": 1275,
      "đỡ": 1276,
      "đeo": 1277,
      "trẻ": 1278,
      "dưới": 1279,
      "lồn": 1280,
      "nối": 1281,
      "tuổi": 1282,
      "Màn": 1283,
      "fan": 1284,
      "TGD": 1285,
      "hướng": 1286,
      "roi": 1287,
      "rộng": 1288,
      "đăng": 1289,
      "ốp": 1290,
      "tuột": 1291,
      "mmmm": 1292,
      "dị": 1293,
      "ff": 1294,
      "tinh": 1295,
      "tập": 1296,
      "ảy": 1297,
      "chấp": 1298,
      "iếng": 1299,
      "nnnnnnnn": 1300,
      "ew": 1301,
      "từng": 1302,
      "diện": 1303,
      "sớm": 1304,
      "quà": 1305,
      "Chưa": 1306,
      "iiiiiiii": 1307,
      "ace": 1308,
      "nc": 1309,
      "ẳn": 1310,
      "mịn": 1311,
      "nấu": 1312,
      "pu": 1313,
      "chiếc": 1314,
      "già": 1315,
      "cửa": 1316,
      "ếp": 1317,
      "hoạt": 1318,
      "thoải": 1319,
      "bay": 1320,
      "tóc": 1321,
      "văn": 1322,
      "Lần": 1323,
      "Vi": 1324,
      "sức": 1325,
      "tgdd": 1326,
      "lin": 1327,
      "Qua": 1328,
      "lực": 1329,
      "samsung": 1330,
      "óa": 1331,
      "sjsj": 1332,
      "Sao": 1333,
      "bg": 1334,
      "dt": 1335,
      "hẳn": 1336,
      "ão": 1337,
      "đòi": 1338,
      "ệt": 1339,
      "nt": 1340,
      "nu": 1341,
      "Tuy": 1342,
      "chẳng": 1343,
      "aaaaaaaa": 1344,
      "ón": 1345,
      "tụi": 1346,
      "tài": 1347,
      "ũng": 1348,
      "ựng": 1349,
      "mai": 1350,
      "pro": 1351,
      "Trung": 1352,
      "Lê": 1353,
      "cung": 1354,
      "đem": 1355,
      "chiều": 1356,
      "vn": 1357,
      "sữa": 1358,
      "xb": 1359,
      "ợt": 1360,
      "chữ": 1361,
      "Các": 1362,
      "hội": 1363,
      "cộng": 1364,
      "èn": 1365,
      "Thanh": 1366,
      "chỉnh": 1367,
      "tube": 1368,
      "Ok": 1369,
      "bóng": 1370,
      "bấm": 1371,
      "nhắn": 1372,
      "rt": 1373,
      "sách": 1374,
      "cuối": 1375,
      "tù": 1376,
      "ag": 1377,
      "ằm": 1378,
      "Nếu": 1379,
      "cơm": 1380,
      "lũ": 1381,
      "sk": 1382,
      "tương": 1383,
      "giáo": 1384,
      "kiểm": 1385,
      "tiếc": 1386,
      "Cô": 1387,
      "Lúc": 1388,
      "lịch": 1389,
      "mồ": 1390,
      "mờ": 1391,
      "áu": 1392,
      "chai": 1393,
      "Chúc": 1394,
      "phản": 1395,
      "Sài": 1396,
      "Điện": 1397,
      "Đúng": 1398,
      "đại": 1399,
      "nhựa": 1400,
      "chí": 1401,
      "mắc": 1402,
      "chúc": 1403,
      "lol": 1404,
      "like": 1405,
      "Hi": 1406,
      "ạp": 1407,
      "trình": 1408,
      "ty": 1409,
      "Xin": 1410,
      "kiện": 1411,
      "mu": 1412,
      "ẹn": 1413,
      "che": 1414,
      "pper": 1415,
      "bò": 1416,
      "hút": 1417,
      "kích": 1418,
      "abe": 1419,
      "Đẹp": 1420,
      "thần": 1421,
      "kkkkkkkkkkkkkkkk": 1422,
      "ghi": 1423,
      "ni": 1424,
      "rr": 1425,
      "óm": 1426,
      "đặc": 1427,
      "dndn": 1428,
      "Xài": 1429,
      "Ngọc": 1430,
      "kể": 1431,
      "oki": 1432,
      "mk": 1433,
      "Linh": 1434,
      "Tu": 1435,
      "cụ": 1436,
      "đáo": 1437,
      "ốn": 1438,
      "chiến": 1439,
      "quyền": 1440,
      "viết": 1441,
      "tham": 1442,
      "nơi": 1443,
      "vợ": 1444,
      "đạo": 1445,
      "uốt": 1446,
      "riêng": 1447,
      "cây": 1448,
      "fk": 1449,
      "noi": 1450,
      "thủ": 1451,
      "cmt": 1452,
      "tăng": 1453,
      "ót": 1454,
      "thuyết": 1455,
      "trí": 1456,
      "dám": 1457,
      "ẩy": 1458,
      "phím": 1459,
      "the": 1460,
      "An": 1461,
      "Mong": 1462,
      "xử": 1463,
      "ưỡ": 1464,
      "linh": 1465,
      "mau": 1466,
      "hhhhhhhh": 1467,
      "Tốt": 1468,
      "thấp": 1469,
      "Thu": 1470,
      "cân": 1471,
      "xác": 1472,
      "đu": 1473,
      "dbdb": 1474,
      "ah": 1475,
      "cục": 1476,
      "dần": 1477,
      "kính": 1478,
      "miếng": 1479,
      "ram": 1480,
      "sd": 1481,
      "tạo": 1482,
      "Ông": 1483,
      "Phạm": 1484,
      "nội": 1485,
      "va": 1486,
      "giữ": 1487,
      "quen": 1488,
      "and": 1489,
      "view": 1490,
      "dddd": 1491,
      "dính": 1492,
      "ne": 1493,
      "đưa": 1494,
      "cháu": 1495,
      "nhờ": 1496,
      "cha": 1497,
      "chip": 1498,
      "web": 1499,
      "Túi": 1500,
      "dặn": 1501,
      "ủa": 1502,
      "hãy": 1503,
      "Màu": 1504,
      "bt": 1505,
      "âng": 1506,
      "trc": 1507,
      "note": 1508,
      "dầu": 1509,
      "đựng": 1510,
      "cà": 1511,
      "dm": 1512,
      "hệ": 1513,
      "lạnh": 1514,
      "mèo": 1515,
      "vật": 1516,
      "ãn": 1517,
      "Nhận": 1518,
      "end": 1519,
      "ênh": 1520,
      "mart": 1521,
      "Mà": 1522,
      "gj": 1523,
      "Độ": 1524,
      "nghi": 1525,
      "nằm": 1526,
      "đình": 1527,
      "phút": 1528,
      "lương": 1529,
      "up": 1530,
      "trị": 1531,
      "tốc": 1532,
      "chia": 1533,
      "Dần": 1534,
      "Về": 1535,
      "ak": 1536,
      "cắt": 1537,
      "hao": 1538,
      "khắc": 1539,
      "aomi": 1540,
      "nhiêu": 1541,
      "lam": 1542,
      "xh": 1543,
      "khô": 1544,
      "giả": 1545,
      "trở": 1546,
      "Thị": 1547,
      "cổ": 1548,
      "liền": 1549,
      "test": 1550,
      "mùa": 1551,
      "nghỉ": 1552,
      "bánh": 1553,
      "fh": 1554,
      "góp": 1555,
      "Chụp": 1556,
      "snsn": 1557,
      "quyết": 1558,
      "nữ": 1559,
      "tức": 1560,
      "đá": 1561,
      "ộn": 1562,
      "trông": 1563,
      "Hà": 1564,
      "Mỹ": 1565,
      "cx": 1566,
      "tử": 1567,
      "tín": 1568,
      "TGDD": 1569,
      "ej": 1570,
      "mng": 1571,
      "oppo": 1572,
      "khẩu": 1573,
      "Thấy": 1574,
      "khuôn": 1575,
      "ìu": 1576,
      "thiệt": 1577,
      "khủng": 1578,
      "Hiếu": 1579,
      "Với": 1580,
      "bọc": 1581,
      "hư": 1582,
      "đàn": 1583,
      "luận": 1584,
      "max": 1585,
      "book": 1586,
      "Mấy": 1587,
      "Văn": 1588,
      "ap": 1589,
      "vệ": 1590,
      "xét": 1591,
      "thẻ": 1592,
      "youtube": 1593,
      "Đi": 1594,
      "nhập": 1595,
      "giàu": 1596,
      "kkk": 1597,
      "seal": 1598,
      "Ba": 1599,
      "Vừa": 1600,
      "lai": 1601,
      "nồi": 1602,
      "đỏ": 1603,
      "kiếm": 1604,
      "phê": 1605,
      "Mi": 1606,
      "TR": 1607,
      "dáng": 1608,
      "ep": 1609,
      "lỗ": 1610,
      "lưu": 1611,
      "mừng": 1612,
      "giày": 1613,
      "khóa": 1614,
      "aj": 1615,
      "iphone": 1616,
      "sks": 1617,
      "ứt": 1618,
      "khổ": 1619,
      "tre": 1620,
      "Thời": 1621,
      "hạn": 1622,
      "xưa": 1623,
      "ụi": 1624,
      "ngờ": 1625,
      "than": 1626,
      "cua": 1627,
      "não": 1628,
      "xứng": 1629,
      "ỉu": 1630,
      "nhảy": 1631,
      "lip": 1632,
      "Sạc": 1633,
      "danh": 1634,
      "ãnh": 1635,
      "nhiệm": 1636,
      "chuyên": 1637,
      "giặt": 1638,
      "lus": 1639,
      "dhdh": 1640,
      "mồm": 1641,
      "el": 1642,
      "face": 1643,
      "rửa": 1644,
      "sa": 1645,
      "xy": 1646,
      "Nguyen": 1647,
      "shipper": 1648,
      "ip": 1649,
      "ing": 1650,
      "đắt": 1651,
      "Chu": 1652,
      "app": 1653,
      "kéo": 1654,
      "đm": 1655,
      "cảnh": 1656,
      "nghĩa": 1657,
      "Vì": 1658,
      "mệt": 1659,
      "pubg": 1660,
      "Co": 1661,
      "bì": 1662,
      "hạt": 1663,
      "đợt": 1664,
      "ộp": 1665,
      "gà": 1666,
      "đổ": 1667,
      "ẻo": 1668,
      "nguy": 1669,
      "thái": 1670,
      "thui": 1671,
      "khúc": 1672,
      "bắn": 1673,
      "cắm": 1674,
      "zj": 1675,
      "kem": 1676,
      "tết": 1677,
      "zalo": 1678,
      "nhìu": 1679,
      "date": 1680,
      "Bạn": 1681,
      "Vân": 1682,
      "lẽ": 1683,
      "săn": 1684,
      "trưởng": 1685,
      "hoá": 1686,
      "Thầy": 1687,
      "khoẻ": 1688,
      "son": 1689,
      "lành": 1690,
      "iệng": 1691,
      "dành": 1692,
      "ree": 1693,
      "khởi": 1694,
      "Khi": 1695,
      "méo": 1696,
      "Đây": 1697,
      "khuyên": 1698,
      "Trang": 1699,
      "lon": 1700,
      "mũ": 1701,
      "nút": 1702,
      "ngta": 1703,
      "ngoại": 1704,
      "thịt": 1705,
      "nửa": 1706,
      "tải": 1707,
      "Đáng": 1708,
      "trạng": 1709,
      "lạ": 1710,
      "môi": 1711,
      "tộc": 1712,
      "nuôi": 1713,
      "Quốc": 1714,
      "ỳnh": 1715,
      "nhe": 1716,
      "chồng": 1717,
      "Như": 1718,
      "kaka": 1719,
      "To": 1720,
      "dạy": 1721,
      "vỡ": 1722,
      "ịp": 1723,
      "iii": 1724,
      "Phải": 1725,
      "bữa": 1726,
      "cai": 1727,
      "mê": 1728,
      "ns": 1729,
      "Được": 1730,
      "Đang": 1731,
      "Thế": 1732,
      "Phương": 1733,
      "review": 1734,
      "age": 1735,
      "Pho": 1736,
      "Xu": 1737,
      "ar": 1738,
      "kệ": 1739,
      "plus": 1740,
      "sĩ": 1741,
      "thiên": 1742,
      "Cam": 1743,
      "Hay": 1744,
      "KH": 1745,
      "bù": 1746,
      "ci": 1747,
      "hưởng": 1748,
      "móp": 1749,
      "suy": 1750,
      "trần": 1751,
      "dol": 1752,
      "Do": 1753,
      "nv": 1754,
      "sửa": 1755,
      "eeeeeeee": 1756,
      "Mỗi": 1757,
      "Nó": 1758,
      "Và": 1759,
      "lông": 1760,
      "xk": 1761,
      "đỉnh": 1762,
      "nhắc": 1763,
      "khuy": 1764,
      "sim": 1765,
      "tiêu": 1766,
      "hehe": 1767,
      "hại": 1768,
      "hạnh": 1769,
      "lựa": 1770,
      "răng": 1771,
      "wj": 1772,
      "nhung": 1773,
      "khóc": 1774,
      "phúc": 1775,
      "Nhung": 1776,
      "hiếu": 1777,
      "mỹ": 1778,
      "miệng": 1779,
      "rút": 1780,
      "vay": 1781,
      "ỉa": 1782,
      "quên": 1783,
      "Chắc": 1784,
      "Loa": 1785,
      "ntn": 1786,
      "gạo": 1787,
      "hóa": 1788,
      "hẹn": 1789,
      "iu": 1790,
      "top": 1791,
      "huhu": 1792,
      "full": 1793,
      "Huy": 1794,
      "cưng": 1795,
      "món": 1796,
      "Để": 1797,
      "đập": 1798,
      "nhầm": 1799,
      "kìa": 1800,
      "Cực": 1801,
      "fn": 1802,
      "hỏng": 1803,
      "ịt": 1804,
      "tốn": 1805,
      "Nhà": 1806,
      "Người": 1807,
      "Samsung": 1808,
      "bụng": 1809,
      "hận": 1810,
      "xx": 1811,
      "õi": 1812,
      "ẵn": 1813,
      "chua": 1814,
      "trái": 1815,
      "Khánh": 1816,
      "Bảo": 1817,
      "Shi": 1818,
      "hà": 1819,
      "lầm": 1820,
      "xước": 1821,
      "đèn": 1822,
      "phá": 1823,
      "nghệ": 1824,
      "Thật": 1825,
      "Nhật": 1826,
      "live": 1827,
      "ei": 1828,
      "for": 1829,
      "nắng": 1830,
      "xã": 1831,
      "xỉu": 1832,
      "ngang": 1833,
      "loạn": 1834,
      "đội": 1835,
      "máu": 1836,
      "cải": 1837,
      "góc": 1838,
      "goo": 1839,
      "ote": 1840,
      "rùi": 1841,
      "vc": 1842,
      "Đức": 1843,
      "ễm": 1844,
      "nhá": 1845,
      "nghèo": 1846,
      "độc": 1847,
      "Quần": 1848,
      "Làm": 1849,
      "PH": 1850,
      "hang": 1851,
      "phong": 1852,
      "luật": 1853,
      "bh": 1854,
      "gây": 1855,
      "úa": 1856,
      "thiệu": 1857,
      "khoá": 1858,
      "kokokoko": 1859,
      "bổ": 1860,
      "cạnh": 1861,
      "dữ": 1862,
      "stre": 1863,
      "vk": 1864,
      "đông": 1865,
      "phạt": 1866,
      "clip": 1867,
      "duy": 1868,
      "free": 1869,
      "go": 1870,
      "hát": 1871,
      "ãy": 1872,
      "ún": 1873,
      "ẹo": 1874,
      "hoàng": 1875,
      "Than": 1876,
      "Thiết": 1877,
      "cute": 1878,
      "Vũ": 1879,
      "sơ": 1880,
      "suốt": 1881,
      "vòng": 1882,
      "ngọt": 1883,
      "hoi": 1884,
      "line": 1885,
      "dàng": 1886,
      "nâng": 1887,
      "sướng": 1888,
      "tem": 1889,
      "Hải": 1890,
      "bớt": 1891,
      "ce": 1892,
      "cs": 1893,
      "dai": 1894,
      "Ảnh": 1895,
      "giỏi": 1896,
      "hoài": 1897,
      "thoảng": 1898,
      "Quang": 1899,
      "gb": 1900,
      "hối": 1901,
      "long": 1902,
      "ngắn": 1903,
      "trò": 1904,
      "iếp": 1905,
      "điên": 1906,
      "hiểm": 1907,
      "Khá": 1908,
      "Bình": 1909,
      "Duy": 1910,
      "Hu": 1911,
      "Tùng": 1912,
      "dấu": 1913,
      "tắm": 1914,
      "vj": 1915,
      "Cũng": 1916,
      "Yêu": 1917,
      "bin": 1918,
      "lệ": 1919,
      "lao": 1920,
      "min": 1921,
      "rớt": 1922,
      "sắp": 1923,
      "thuốc": 1924,
      "quê": 1925,
      "gggggggg": 1926,
      "Hài": 1927,
      "bụi": 1928,
      "dy": 1929,
      "sam": 1930,
      "tổ": 1931,
      "tàu": 1932,
      "wa": 1933,
      "nhạt": 1934,
      "wwww": 1935,
      "Hộp": 1936,
      "lala": 1937,
      "diễn": 1938,
      "lừa": 1939,
      "ps": 1940,
      "zn": 1941,
      "chục": 1942,
      "buổi": 1943,
      "ssss": 1944,
      "uuuuuuuu": 1945,
      "Công": 1946,
      "cn": 1947,
      "mụ": 1948,
      "man": 1949,
      "mưa": 1950,
      "mỏi": 1951,
      "tích": 1952,
      "vu": 1953,
      "viền": 1954,
      "trend": 1955,
      "nguoi": 1956,
      "thuật": 1957,
      "Dễ": 1958,
      "Hôm": 1959,
      "kí": 1960,
      "màng": 1961,
      "sẵn": 1962,
      "xò": 1963,
      "chăm": 1964,
      "ksks": 1965,
      "biển": 1966,
      "tttttttttttttttt": 1967,
      "Một": 1968,
      "Từ": 1969,
      "ga": 1970,
      "hề": 1971,
      "kịp": 1972,
      "sánh": 1973,
      "smart": 1974,
      "Áo": 1975,
      "Đặt": 1976,
      "thao": 1977,
      "khen": 1978,
      "giản": 1979,
      "trận": 1980,
      "Thích": 1981,
      "hiển": 1982,
      "Tất": 1983,
      "Tuyệt": 1984,
      "duyên": 1985,
      "rơi": 1986,
      "san": 1987,
      "vặn": 1988,
      "ịa": 1989,
      "khuyến": 1990,
      "stream": 1991,
      "Xem": 1992,
      "bn": 1993,
      "lay": 1994,
      "tung": 1995,
      "cám": 1996,
      "Thành": 1997,
      "nhiễm": 1998,
      "bút": 1999,
      "cmn": 2000,
      "oy": 2001,
      "page": 2002,
      "ấc": 2003,
      "ỡng": 2004,
      "ụt": 2005,
      "ngăn": 2006,
      "nho": 2007,
      "Trong": 2008,
      "ưỡi": 2009,
      "Bộ": 2010,
      "GB": 2011,
      "dơ": 2012,
      "lãnh": 2013,
      "miền": 2014,
      "Đồng": 2015,
      "Ngon": 2016,
      "too": 2017,
      "toán": 2018,
      "chuột": 2019,
      "ghét": 2020,
      "Di": 2021,
      "Mai": 2022,
      "hj": 2023,
      "hương": 2024,
      "kênh": 2025,
      "po": 2026,
      "rằng": 2027,
      "sát": 2028,
      "tỏ": 2029,
      "tấm": 2030,
      "voi": 2031,
      "xúc": 2032,
      "Đánh": 2033,
      "thư": 2034,
      "trầy": 2035,
      "iềm": 2036,
      "thoát": 2037,
      "biểu": 2038,
      "họa": 2039,
      "HD": 2040,
      "You": 2041,
      "bẩn": 2042,
      "fa": 2043,
      "gắn": 2044,
      "hôi": 2045,
      "keo": 2046,
      "lan": 2047,
      "of": 2048,
      "tổng": 2049,
      "vũ": 2050,
      "Thảo": 2051,
      "dưỡng": 2052,
      "TI": 2053,
      "bông": 2054,
      "bếp": 2055,
      "hd": 2056,
      "ráp": 2057,
      "sư": 2058,
      "tô": 2059,
      "đế": 2060,
      "ĩnh": 2061,
      "thú": 2062,
      "khăn": 2063,
      "rat": 2064,
      "Thái": 2065,
      "Phan": 2066,
      "zzzz": 2067,
      "triển": 2068,
      "Huyền": 2069,
      "Sống": 2070,
      "dạng": 2071,
      "gối": 2072,
      "hy": 2073,
      "rè": 2074,
      "tỷ": 2075,
      "ộm": 2076,
      "trách": 2077,
      "pháp": 2078,
      "hoạ": 2079,
      "all": 2080,
      "địa": 2081,
      "dume": 2082,
      "dep": 2083,
      "hạ": 2084,
      "mì": 2085,
      "Ăn": 2086,
      "ữu": 2087,
      "thừa": 2088,
      "cứu": 2089,
      "roid": 2090,
      "bát": 2091,
      "nắp": 2092,
      "đk": 2093,
      "đảng": 2094,
      "thấm": 2095,
      "khai": 2096,
      "treo": 2097,
      "quản": 2098,
      "cánh": 2099,
      "com": 2100,
      "fjfj": 2101,
      "So": 2102,
      "bực": 2103,
      "eng": 2104,
      "gu": 2105,
      "hồng": 2106,
      "tôm": 2107,
      "vẽ": 2108,
      "én": 2109,
      "chăng": 2110,
      "real": 2111,
      "Bác": 2112,
      "Li": 2113,
      "Long": 2114,
      "dmi": 2115,
      "ml": 2116,
      "sâu": 2117,
      "tỉnh": 2118,
      "nhan": 2119,
      "chạm": 2120,
      "trăm": 2121,
      "bbbb": 2122,
      "Wi": 2123,
      "dậy": 2124,
      "gấp": 2125,
      "moi": 2126,
      "nền": 2127,
      "ow": 2128,
      "ràng": 2129,
      "un": 2130,
      "vcl": 2131,
      "xạo": 2132,
      "Đồ": 2133,
      "pha": 2134,
      "cáp": 2135,
      "lue": 2136,
      "nghị": 2137,
      "Giờ": 2138,
      "miễn": 2139,
      "xiaomi": 2140,
      "Hơi": 2141,
      "Si": 2142,
      "idol": 2143,
      "ký": 2144,
      "lm": 2145,
      "ví": 2146,
      "ớp": 2147,
      "giữa": 2148,
      "Thằng": 2149,
      "kiệm": 2150,
      "lau": 2151,
      "nỗi": 2152,
      "zb": 2153,
      "ât": 2154,
      "ùm": 2155,
      "chữa": 2156,
      "ướp": 2157,
      "vivo": 2158,
      "yyyy": 2159,
      "Cao": 2160,
      "Hy": 2161,
      "Lại": 2162,
      "bj": 2163,
      "cư": 2164,
      "cay": 2165,
      "tẩy": 2166,
      "vỏ": 2167,
      "đảm": 2168,
      "gió": 2169,
      "tru": 2170,
      "Chán": 2171,
      "tươi": 2172,
      "Quỳnh": 2173,
      "Tran": 2174,
      "nnnnnnnnnnnnnnnn": 2175,
      "Oppo": 2176,
      "QU": 2177,
      "gắng": 2178,
      "hồn": 2179,
      "rung": 2180,
      "sóc": 2181,
      "ver": 2182,
      "vạch": 2183,
      "xuyên": 2184,
      "Đt": 2185,
      "thoi": 2186,
      "tranh": 2187,
      "trưa": 2188,
      "truyền": 2189,
      "mmmmmmmm": 2190,
      "CM": 2191,
      "Vải": 2192,
      "lá": 2193,
      "lót": 2194,
      "sg": 2195,
      "sủa": 2196,
      "xả": 2197,
      "Ủa": 2198,
      "chứng": 2199,
      "ona": 2200,
      "love": 2201,
      "kim": 2202,
      "toi": 2203,
      "AN": 2204,
      "Lu": 2205,
      "lộ": 2206,
      "tủ": 2207,
      "đậm": 2208,
      "khí": 2209,
      "online": 2210,
      "Giang": 2211,
      "Bắt": 2212,
      "béo": 2213,
      "fe": 2214,
      "hậu": 2215,
      "lq": 2216,
      "rj": 2217,
      "chui": 2218,
      "tha": 2219,
      "khong": 2220,
      "khoe": 2221,
      "Bu": 2222,
      "Dương": 2223,
      "cỡ": 2224,
      "dép": 2225,
      "rách": 2226,
      "wk": 2227,
      "Đm": 2228,
      "phạm": 2229,
      "phép": 2230,
      "Ngh": 2231,
      "ack": 2232,
      "jjjj": 2233,
      "cccc": 2234,
      "xnxn": 2235,
      "Phone": 2236,
      "Ca": 2237,
      "Cấu": 2238,
      "Dân": 2239,
      "Gói": 2240,
      "Ki": 2241,
      "Mặc": 2242,
      "cờ": 2243,
      "gle": 2244,
      "hk": 2245,
      "nọ": 2246,
      "xây": 2247,
      "òa": 2248,
      "đáp": 2249,
      "ẹt": 2250,
      "nhàng": 2251,
      "tránh": 2252,
      "tim": 2253,
      "dnd": 2254,
      "đoạn": 2255,
      "ưỡng": 2256,
      "Cám": 2257,
      "Tao": 2258,
      "đảo": 2259,
      "châu": 2260,
      "set": 2261,
      "Thanks": 2262,
      "Abe": 2263,
      "Tú": 2264,
      "dan": 2265,
      "huy": 2266,
      "nạn": 2267,
      "ÔNG": 2268,
      "đạt": 2269,
      "chương": 2270,
      "khung": 2271,
      "Thất": 2272,
      "duoc": 2273,
      "Ha": 2274,
      "Re": 2275,
      "Vẫn": 2276,
      "căng": 2277,
      "ib": 2278,
      "vd": 2279,
      "thơ": 2280,
      "giết": 2281,
      "giọng": 2282,
      "Thôi": 2283,
      "Ngo": 2284,
      "tien": 2285,
      "phía": 2286,
      "tooth": 2287,
      "CS": 2288,
      "Nội": 2289,
      "Sử": 2290,
      "Vậy": 2291,
      "Xi": 2292,
      "bạc": 2293,
      "cong": 2294,
      "dong": 2295,
      "goi": 2296,
      "mật": 2297,
      "ny": 2298,
      "nát": 2299,
      "tý": 2300,
      "thùng": 2301,
      "thang": 2302,
      "khả": 2303,
      "củng": 2304,
      "hhh": 2305,
      "TGDĐ": 2306,
      "iiiiiiiiiiiiiiii": 2307,
      "Bao": 2308,
      "Cu": 2309,
      "GI": 2310,
      "bởi": 2311,
      "fps": 2312,
      "iPhone": 2313,
      "zk": 2314,
      "phủ": 2315,
      "Thương": 2316,
      "Nhiều": 2317,
      "tiến": 2318,
      "thuộc": 2319,
      "link": 2320,
      "AM": 2321,
      "Hồ": 2322,
      "Tiền": 2323,
      "cướp": 2324,
      "hào": 2325,
      "lỡ": 2326,
      "lạc": 2327,
      "pe": 2328,
      "sẻ": 2329,
      "ngại": 2330,
      "thống": 2331,
      "thắng": 2332,
      "dddddddd": 2333,
      "KI": 2334,
      "May": 2335,
      "cy": 2336,
      "cậu": 2337,
      "dã": 2338,
      "lây": 2339,
      "qq": 2340,
      "vai": 2341,
      "xg": 2342,
      "đê": 2343,
      "thề": 2344,
      "giãn": 2345,
      "phết": 2346,
      "quý": 2347,
      "khoản": 2348,
      "chíp": 2349,
      "Ad": 2350,
      "Da": 2351,
      "Hồng": 2352,
      "Nồi": 2353,
      "dở": 2354,
      "hảo": 2355,
      "niên": 2356,
      "nướng": 2357,
      "tây": 2358,
      "ịnh": 2359,
      "cháy": 2360,
      "hong": 2361,
      "lắc": 2362,
      "Xiaomi": 2363,
      "Game": 2364,
      "ON": 2365,
      "bể": 2366,
      "deo": 2367,
      "hở": 2368,
      "viện": 2369,
      "xm": 2370,
      "bịch": 2371,
      "djd": 2372,
      "redmi": 2373,
      "mik": 2374,
      "dkdk": 2375,
      "dịp": 2376,
      "AY": 2377,
      "bóc": 2378,
      "ct": 2379,
      "lung": 2380,
      "mại": 2381,
      "nd": 2382,
      "nổ": 2383,
      "sờ": 2384,
      "ợn": 2385,
      "Ủng": 2386,
      "Chào": 2387,
      "mat": 2388,
      "oooo": 2389,
      "rrrr": 2390,
      "Chuẩn": 2391,
      "mũi": 2392,
      "kẻ": 2393,
      "nao": 2394,
      "ngược": 2395,
      "trơn": 2396,
      "dùm": 2397,
      "aaaaaaaaaaaaaaaa": 2398,
      "Cứ": 2399,
      "Du": 2400,
      "HO": 2401,
      "Liên": 2402,
      "cb": 2403,
      "mp": 2404,
      "tờ": 2405,
      "xl": 2406,
      "ưi": 2407,
      "nhục": 2408,
      "chừng": 2409,
      "địt": 2410,
      "ghép": 2411,
      "facebook": 2412,
      "luetooth": 2413,
      "TB": 2414,
      "bè": 2415,
      "cường": 2416,
      "dhh": 2417,
      "pt": 2418,
      "Đừng": 2419,
      "ệm": 2420,
      "thỉnh": 2421,
      "tro": 2422,
      "cứt": 2423,
      "Bé": 2424,
      "CA": 2425,
      "Là": 2426,
      "MI": 2427,
      "Tại": 2428,
      "day": 2429,
      "dạo": 2430,
      "km": 2431,
      "lỏng": 2432,
      "xay": 2433,
      "xóa": 2434,
      "zh": 2435,
      "đức": 2436,
      "thước": 2437,
      "khiến": 2438,
      "trụ": 2439,
      "phai": 2440,
      "Chứ": 2441,
      "biet": 2442,
      "Ship": 2443,
      "Ma": 2444,
      "dg": 2445,
      "dao": 2446,
      "mơ": 2447,
      "sân": 2448,
      "táo": 2449,
      "vùng": 2450,
      "vượt": 2451,
      "đỗ": 2452,
      "trà": 2453,
      "quang": 2454,
      "wei": 2455,
      "fy": 2456,
      "nua": 2457,
      "vh": 2458,
      "vít": 2459,
      "ye": 2460,
      "đĩ": 2461,
      "khịa": 2462,
      "quán": 2463,
      "Giày": 2464,
      "said": 2465,
      "Tuấn": 2466,
      "Bên": 2467,
      "Face": 2468,
      "Võ": 2469,
      "Vsmart": 2470,
      "Yến": 2471,
      "hôn": 2472,
      "van": 2473,
      "vầy": 2474,
      "thẳng": 2475,
      "phi": 2476,
      "choi": 2477,
      "Chúng": 2478,
      "quanh": 2479,
      "tot": 2480,
      "aaa": 2481,
      "lap": 2482,
      "djj": 2483,
      "team": 2484,
      "thuế": 2485,
      "msms": 2486,
      "check": 2487,
      "mụn": 2488,
      "Dù": 2489,
      "Dung": 2490,
      "Goo": 2491,
      "Kim": 2492,
      "Mo": 2493,
      "Tui": 2494,
      "bám": 2495,
      "hô": 2496,
      "súc": 2497,
      "vy": 2498,
      "xàm": 2499,
      "ÊN": 2500,
      "êt": 2501,
      "Đình": 2502,
      "đài": 2503,
      "khùng": 2504,
      "phu": 2505,
      "ent": 2506,
      "ding": 2507,
      "rom": 2508,
      "shsh": 2509,
      "form": 2510,
      "Wifi": 2511,
      "Cần": 2512,
      "Dây": 2513,
      "Mặt": 2514,
      "băng": 2515,
      "can": 2516,
      "gáy": 2517,
      "hông": 2518,
      "lập": 2519,
      "na": 2520,
      "trốn": 2521,
      "pham": 2522,
      "eno": 2523,
      "realme": 2524,
      "Dép": 2525,
      "Muốn": 2526,
      "Su": 2527,
      "Săn": 2528,
      "dẻo": 2529,
      "sy": 2530,
      "tam": 2531,
      "tịch": 2532,
      "wn": 2533,
      "chào": 2534,
      "ượn": 2535,
      "Trước": 2536,
      "thoáng": 2537,
      "Quả": 2538,
      "Xuân": 2539,
      "lệch": 2540,
      "Facebook": 2541,
      "Nhi": 2542,
      "Tiên": 2543,
      "bả": 2544,
      "lóc": 2545,
      "nợ": 2546,
      "sói": 2547,
      "wb": 2548,
      "wo": 2549,
      "Đường": 2550,
      "chấm": 2551,
      "thánh": 2552,
      "phố": 2553,
      "Theo": 2554,
      "Gia": 2555,
      "hahahaha": 2556,
      "pppppppppppppppp": 2557,
      "kkkkkkkkkkkkkkkkkkkkkkkkkkkkkkkk": 2558,
      "LÀ": 2559,
      "Quy": 2560,
      "Tết": 2561,
      "cắn": 2562,
      "cấm": 2563,
      "cặp": 2564,
      "hàn": 2565,
      "hữu": 2566,
      "xạc": 2567,
      "ãng": 2568,
      "đứt": 2569,
      "nge": 2570,
      "ngã": 2571,
      "ngôn": 2572,
      "ngọc": 2573,
      "chặt": 2574,
      "thèm": 2575,
      "phương": 2576,
      "uawei": 2577,
      "viru": 2578,
      "mess": 2579,
      "xbxb": 2580,
      "okia": 2581,
      "Mùi": 2582,
      "Sơn": 2583,
      "Sói": 2584,
      "Tạm": 2585,
      "canh": 2586,
      "gy": 2587,
      "hè": 2588,
      "lọc": 2589,
      "lộn": 2590,
      "mh": 2591,
      "mắn": 2592,
      "tan": 2593,
      "vẹn": 2594,
      "chat": 2595,
      "thả": 2596,
      "Chửi": 2597,
      "Những": 2598,
      "AT": 2599,
      "Fan": 2600,
      "Hai": 2601,
      "bắc": 2602,
      "bước": 2603,
      "dau": 2604,
      "gốc": 2605,
      "lười": 2606,
      "pi": 2607,
      "sở": 2608,
      "đào": 2609,
      "đít": 2610,
      "tháo": 2611,
      "giòn": 2612,
      "luong": 2613,
      "Ngu": 2614,
      "chim": 2615,
      "vsmart": 2616,
      "dựng": 2617,
      "xoá": 2618,
      "Bắc": 2619,
      "Te": 2620,
      "VI": 2621,
      "bê": 2622,
      "cãi": 2623,
      "dí": 2624,
      "jh": 2625,
      "tv": 2626,
      "đống": 2627,
      "phông": 2628,
      "Thi": 2629,
      "doanh": 2630,
      "cor": 2631,
      "Quân": 2632,
      "thuận": 2633,
      "djdjdjdj": 2634,
      "dịu": 2635,
      "Điểm": 2636,
      "good": 2637,
      "Lên": 2638,
      "Tóm": 2639,
      "cận": 2640,
      "dục": 2641,
      "dọn": 2642,
      "dừng": 2643,
      "heo": 2644,
      "lồi": 2645,
      "tỉ": 2646,
      "đô": 2647,
      "đám": 2648,
      "đẳng": 2649,
      "nhấn": 2650,
      "chập": 2651,
      "nghề": 2652,
      "shopee": 2653,
      "buôn": 2654,
      "box": 2655,
      "hhhhhhhhhhhhhhhh": 2656,
      "Buồn": 2657,
      "Coi": 2658,
      "Kết": 2659,
      "My": 2660,
      "Phi": 2661,
      "Tâm": 2662,
      "gỗ": 2663,
      "jsj": 2664,
      "manh": 2665,
      "nma": 2666,
      "pa": 2667,
      "tớ": 2668,
      "tướng": 2669,
      "xịt": 2670,
      "Đo": 2671,
      "đương": 2672,
      "chốt": 2673,
      "giận": 2674,
      "Giống": 2675,
      "Nhanh": 2676,
      "xoay": 2677,
      "tùy": 2678,
      "Toàn": 2679,
      "dõi": 2680,
      "is": 2681,
      "lợn": 2682,
      "mẽ": 2683,
      "nàn": 2684,
      "rd": 2685,
      "rưỡi": 2686,
      "song": 2687,
      "ts": 2688,
      "tùng": 2689,
      "tiệm": 2690,
      "xứ": 2691,
      "đấu": 2692,
      "Ổn": 2693,
      "ngáo": 2694,
      "chiên": 2695,
      "kha": 2696,
      "trực": 2697,
      "trộm": 2698,
      "hoang": 2699,
      "ksk": 2700,
      "thuong": 2701,
      "chảy": 2702,
      "android": 2703,
      "Mũ": 2704,
      "bong": 2705,
      "bậy": 2706,
      "hứng": 2707,
      "len": 2708,
      "sông": 2709,
      "xt": 2710,
      "địch": 2711,
      "đốt": 2712,
      "ẤT": 2713,
      "chay": 2714,
      "khôn": 2715,
      "phiên": 2716,
      "cát": 2717,
      "Châu": 2718,
      "loz": 2719,
      "Ngày": 2720,
      "suất": 2721,
      "Biết": 2722,
      "Lan": 2723,
      "Mn": 2724,
      "Mày": 2725,
      "Note": 2726,
      "Tầm": 2727,
      "bày": 2728,
      "cg": 2729,
      "cặc": 2730,
      "cốc": 2731,
      "eb": 2732,
      "kỷ": 2733,
      "lượt": 2734,
      "mộ": 2735,
      "móc": 2736,
      "nắm": 2737,
      "rh": 2738,
      "sắm": 2739,
      "tường": 2740,
      "văng": 2741,
      "đái": 2742,
      "đùa": 2743,
      "Ưng": 2744,
      "ỗng": 2745,
      "ngàn": 2746,
      "nhũng": 2747,
      "giọt": 2748,
      "tròn": 2749,
      "quạt": 2750,
      "Trinh": 2751,
      "Phù": 2752,
      "Khuyên": 2753,
      "thuê": 2754,
      "Hoa": 2755,
      "nhieu": 2756,
      "vvvv": 2757,
      "nghiêm": 2758,
      "kín": 2759,
      "Bọn": 2760,
      "Gh": 2761,
      "Hương": 2762,
      "IN": 2763,
      "Oke": 2764,
      "PU": 2765,
      "Ra": 2766,
      "Sai": 2767,
      "call": 2768,
      "dạ": 2769,
      "kê": 2770,
      "kẹo": 2771,
      "tán": 2772,
      "Đặc": 2773,
      "đẻ": 2774,
      "đậu": 2775,
      "thắc": 2776,
      "trứng": 2777,
      "phàn": 2778,
      "hok": 2779,
      "kok": 2780,
      "hieu": 2781,
      "comm": 2782,
      "cap": 2783,
      "ruột": 2784,
      "muộn": 2785,
      "Bài": 2786,
      "Ban": 2787,
      "Hưng": 2788,
      "Rẻ": 2789,
      "cổng": 2790,
      "dl": 2791,
      "láo": 2792,
      "nấy": 2793,
      "om": 2794,
      "qá": 2795,
      "sl": 2796,
      "súng": 2797,
      "sti": 2798,
      "xắn": 2799,
      "Đéo": 2800,
      "đạp": 2801,
      "đep": 2802,
      "ngộ": 2803,
      "chật": 2804,
      "thà": 2805,
      "nhưg": 2806,
      "Chính": 2807,
      "nghìn": 2808,
      "Thì": 2809,
      "Trường": 2810,
      "dit": 2811,
      "sbsb": 2812,
      "đoàn": 2813,
      "thanks": 2814,
      "cưới": 2815,
      "Cả": 2816,
      "Hợp": 2817,
      "Tự": 2818,
      "Tân": 2819,
      "Tặng": 2820,
      "Zalo": 2821,
      "cú": 2822,
      "cuốn": 2823,
      "dang": 2824,
      "ky": 2825,
      "lô": 2826,
      "lọ": 2827,
      "niềm": 2828,
      "sz": 2829,
      "sò": 2830,
      "sha": 2831,
      "vết": 2832,
      "wh": 2833,
      "xếp": 2834,
      "zi": 2835,
      "ỜI": 2836,
      "thâm": 2837,
      "that": 2838,
      "truy": 2839,
      "trúng": 2840,
      "làng": 2841,
      "Ngô": 2842,
      "Trọng": 2843,
      "laxy": 2844,
      "admin": 2845,
      "pppppppppppp": 2846,
      "google": 2847,
      "Youtube": 2848,
      "Ae": 2849,
      "Bàn": 2850,
      "bung": 2851,
      "cac": 2852,
      "dđ": 2853,
      "hổ": 2854,
      "kẹp": 2855,
      "lẻ": 2856,
      "lễ": 2857,
      "lẫn": 2858,
      "mb": 2859,
      "mục": 2860,
      "nx": 2861,
      "rác": 2862,
      "sho": 2863,
      "sương": 2864,
      "tấu": 2865,
      "ter": 2866,
      "tóm": 2867,
      "vao": 2868,
      "vẩn": 2869,
      "Đào": 2870,
      "ồm": 2871,
      "ngầu": 2872,
      "cher": 2873,
      "thẩm": 2874,
      "lắng": 2875,
      "toang": 2876,
      "time": 2877,
      "Phùng": 2878,
      "chuông": 2879,
      "khoan": 2880,
      "uuu": 2881,
      "mixi": 2882,
      "bik": 2883,
      "chờn": 2884,
      "Video": 2885,
      "đuổi": 2886,
      "corona": 2887,
      "App": 2888,
      "HN": 2889,
      "Mở": 2890,
      "Mạnh": 2891,
      "Ram": 2892,
      "TQ": 2893,
      "Tiến": 2894,
      "Xe": 2895,
      "bức": 2896,
      "ett": 2897,
      "vang": 2898,
      "Đọc": 2899,
      "ện": 2900,
      "ngón": 2901,
      "khui": 2902,
      "giây": 2903,
      "tráng": 2904,
      "Trời": 2905,
      "ghé": 2906,
      "tím": 2907,
      "dkd": 2908,
      "update": 2909,
      "Ah": 2910,
      "Bi": 2911,
      "Bố": 2912,
      "CÓ": 2913,
      "Hãy": 2914,
      "Tủ": 2915,
      "Tưởng": 2916,
      "dụ": 2917,
      "der": 2918,
      "gàng": 2919,
      "hấp": 2920,
      "lẹ": 2921,
      "mỏ": 2922,
      "nen": 2923,
      "nạp": 2924,
      "sơn": 2925,
      "sập": 2926,
      "vực": 2927,
      "xóm": 2928,
      "õm": 2929,
      "đụ": 2930,
      "trùng": 2931,
      "trượt": 2932,
      "Nguyên": 2933,
      "tting": 2934,
      "nnn": 2935,
      "tion": 2936,
      "rep": 2937,
      "bile": 2938,
      "out": 2939,
      "okie": 2940,
      "ettel": 2941,
      "De": 2942,
      "Lưu": 2943,
      "Sang": 2944,
      "TP": 2945,
      "Tai": 2946,
      "Ví": 2947,
      "hí": 2948,
      "mốt": 2949,
      "nản": 2950,
      "nầy": 2951,
      "os": 2952,
      "ry": 2953,
      "sàn": 2954,
      "tc": 2955,
      "tôn": 2956,
      "võ": 2957,
      "váy": 2958,
      "wu": 2959,
      "xung": 2960,
      "Đc": 2961,
      "ầng": 2962,
      "ủy": 2963,
      "gio": 2964,
      "ina": 2965,
      "hon": 2966,
      "cũg": 2967,
      "tive": 2968,
      "Phúc": 2969,
      "het": 2970,
      "dbb": 2971,
      "Hoài": 2972,
      "Chip": 2973,
      "Ngoài": 2974,
      "Hàn": 2975,
      "Nay": 2976,
      "Tối": 2977,
      "US": 2978,
      "bá": 2979,
      "cùi": 2980,
      "dương": 2981,
      "gon": 2982,
      "hời": 2983,
      "hải": 2984,
      "jo": 2985,
      "kb": 2986,
      "lái": 2987,
      "lõi": 2988,
      "mượn": 2989,
      "nốt": 2990,
      "net": 2991,
      "vặt": 2992,
      "ÌNH": 2993,
      "Đề": 2994,
      "Đạt": 2995,
      "đàng": 2996,
      "đằng": 2997,
      "thô": 2998,
      "thượng": 2999,
      "thảm": 3000,
      "thối": 3001,
      "khốn": 3002,
      "khớp": 3003,
      "gioi": 3004,
      "phóng": 3005,
      "luon": 3006,
      "hha": 3007,
      "tiểu": 3008,
      "xuân": 3009,
      "dien": 3010,
      "back": 3011,
      "fifi": 3012,
      "sốc": 3013,
      "setting": 3014,
      "nhiêng": 3015,
      "fkfk": 3016,
      "And": 3017,
      "Shipper": 3018,
      "ssssssss": 3019,
      "Be": 3020,
      "Bà": 3021,
      "Bị": 3022,
      "Hiện": 3023,
      "Hiệp": 3024,
      "Le": 3025,
      "Má": 3026,
      "Rồi": 3027,
      "bờ": 3028,
      "bột": 3029,
      "bảng": 3030,
      "cột": 3031,
      "dẹp": 3032,
      "dâm": 3033,
      "gam": 3034,
      "lưỡng": 3035,
      "my": 3036,
      "mù": 3037,
      "nông": 3038,
      "rảnh": 3039,
      "say": 3040,
      "snn": 3041,
      "sếp": 3042,
      "xì": 3043,
      "xảy": 3044,
      "ÂN": 3045,
      "Ôi": 3046,
      "Đặng": 3047,
      "đai": 3048,
      "đầm": 3049,
      "ĩu": 3050,
      "nhò": 3051,
      "chs": 3052,
      "chiếu": 3053,
      "phận": 3054,
      "phối": 3055,
      "anan": 3056,
      "đón": 3057,
      "Nhờ": 3058,
      "tar": 3059,
      "hah": 3060,
      "ggg": 3061,
      "tgdđ": 3062,
      "eeeeeeeeeeeeeeee": 3063,
      "wwwwwwww": 3064,
      "Bùi": 3065,
      "Cầm": 3066,
      "Kho": 3067,
      "Lân": 3068,
      "Lâu": 3069,
      "Lương": 3070,
      "Lỗi": 3071,
      "OS": 3072,
      "TT": 3073,
      "bs": 3074,
      "bự": 3075,
      "cro": 3076,
      "cru": 3077,
      "dưng": 3078,
      "ek": 3079,
      "ol": 3080,
      "ot": 3081,
      "tật": 3082,
      "đú": 3083,
      "chợ": 3084,
      "trôi": 3085,
      "truyện": 3086,
      "lào": 3087,
      "rau": 3088,
      "lum": 3089,
      "chứa": 3090,
      "tik": 3091,
      "kkkkkk": 3092,
      "họp": 3093,
      "hihihihi": 3094,
      "xjxj": 3095,
      "tùm": 3096,
      "ajaj": 3097,
      "fake": 3098,
      "Nghĩ": 3099,
      "Cố": 3100,
      "Khoa": 3101,
      "Oki": 3102,
      "UY": 3103,
      "add": 3104,
      "by": 3105,
      "bó": 3106,
      "bận": 3107,
      "bốc": 3108,
      "ft": 3109,
      "gai": 3110,
      "hên": 3111,
      "hiền": 3112,
      "lão": 3113,
      "mực": 3114,
      "múa": 3115,
      "reno": 3116,
      "tắc": 3117,
      "vả": 3118,
      "Ốp": 3119,
      "ớn": 3120,
      "ngắt": 3121,
      "nhai": 3122,
      "uan": 3123,
      "Thực": 3124,
      "tag": 3125,
      "Phước": 3126,
      "Khăn": 3127,
      "bit": 3128,
      "oucher": 3129,
      "virus": 3130,
      "BG": 3131,
      "Bản": 3132,
      "Dịch": 3133,
      "Fi": 3134,
      "Iphone": 3135,
      "KM": 3136,
      "Xinh": 3137,
      "bã": 3138,
      "bề": 3139,
      "bôi": 3140,
      "bla": 3141,
      "den": 3142,
      "gương": 3143,
      "hs": 3144,
      "ja": 3145,
      "ji": 3146,
      "lôi": 3147,
      "mông": 3148,
      "môn": 3149,
      "xnn": 3150,
      "Đến": 3151,
      "ẾT": 3152,
      "khảo": 3153,
      "khuyết": 3154,
      "giang": 3155,
      "que": 3156,
      "quét": 3157,
      "hoại": 3158,
      "Thứ": 3159,
      "loài": 3160,
      "lock": 3161,
      "khiển": 3162,
      "Shopee": 3163,
      "snap": 3164,
      "dndndndn": 3165,
      "ptpppppppppppp": 3166,
      "crush": 3167,
      "Ly": 3168,
      "Mất": 3169,
      "SP": 3170,
      "Ta": 3171,
      "binh": 3172,
      "cty": 3173,
      "diệt": 3174,
      "gãy": 3175,
      "mẻ": 3176,
      "nk": 3177,
      "sm": 3178,
      "tk": 3179,
      "tàn": 3180,
      "đam": 3181,
      "đói": 3182,
      "ẫy": 3183,
      "ngầm": 3184,
      "chén": 3185,
      "Chả": 3186,
      "Pham": 3187,
      "Phát": 3188,
      "dbd": 3189,
      "Mixi": 3190,
      "KHÔNG": 3191,
      "Huỳnh": 3192,
      "Đoàn": 3193,
      "FB": 3194,
      "Hết": 3195,
      "Học": 3196,
      "Hằng": 3197,
      "Kệ": 3198,
      "Lin": 3199,
      "Lộc": 3200,
      "Mk": 3201,
      "Mẫu": 3202,
      "Số": 3203,
      "TV": 3204,
      "bth": 3205,
      "cơn": 3206,
      "doi": 3207,
      "kỉ": 3208,
      "lồng": 3209,
      "lòi": 3210,
      "mọc": 3211,
      "nở": 3212,
      "ninh": 3213,
      "rem": 3214,
      "sấy": 3215,
      "soi": 3216,
      "tú": 3217,
      "ván": 3218,
      "Âm": 3219,
      "ím": 3220,
      "Đầu": 3221,
      "ẠI": 3222,
      "ọp": 3223,
      "ởm": 3224,
      "chảnh": 3225,
      "trân": 3226,
      "cán": 3227,
      "Chí": 3228,
      "Chung": 3229,
      "ghế": 3230,
      "ksn": 3231,
      "thich": 3232,
      "hahaha": 3233,
      "Viet": 3234,
      "dtj": 3235,
      "laptop": 3236,
      "Android": 3237,
      "Cường": 3238,
      "Hiệu": 3239,
      "HCM": 3240,
      "In": 3241,
      "Kiều": 3242,
      "Me": 3243,
      "SA": 3244,
      "Tộc": 3245,
      "Tiệp": 3246,
      "Vào": 3247,
      "cày": 3248,
      "cấn": 3249,
      "gấu": 3250,
      "hóng": 3251,
      "hòa": 3252,
      "lò": 3253,
      "men": 3254,
      "mún": 3255,
      "mAh": 3256,
      "rừng": 3257,
      "sx": 3258,
      "shh": 3259,
      "sac": 3260,
      "zg": 3261,
      "Đăng": 3262,
      "Đảng": 3263,
      "đụng": 3264,
      "chớ": 3265,
      "chang": 3266,
      "trễ": 3267,
      "phán": 3268,
      "làn": 3269,
      "Thư": 3270,
      "Nhược": 3271,
      "kkkkk": 3272,
      "covid": 3273,
      "hãm": 3274,
      "iiiii": 3275,
      "sel": 3276,
      "chuyen": 3277,
      "Hoang": 3278,
      "okela": 3279,
      "zzz": 3280,
      "Quan": 3281,
      "dbdbdbdb": 3282,
      "Cười": 3283,
      "HI": 3284,
      "Jack": 3285,
      "MU": 3286,
      "Mẹ": 3287,
      "Vy": 3288,
      "Vinh": 3289,
      "banh": 3290,
      "bro": 3291,
      "bóp": 3292,
      "dì": 3293,
      "fla": 3294,
      "gồm": 3295,
      "hinh": 3296,
      "lác": 3297,
      "mỡ": 3298,
      "mướt": 3299,
      "rk": 3300,
      "vớ": 3301,
      "vuốt": 3302,
      "zm": 3303,
      "Đỗ": 3304,
      "đích": 3305,
      "nhện": 3306,
      "chép": 3307,
      "trì": 3308,
      "phiền": 3309,
      "Chủ": 3310,
      "Phần": 3311,
      "mah": 3312,
      "Quảng": 3313,
      "keke": 3314,
      "Loại": 3315,
      "nguyễn": 3316,
      "Bằng": 3317,
      "Hạnh": 3318,
      "LH": 3319,
      "Lâm": 3320,
      "Này": 3321,
      "Nước": 3322,
      "Tàu": 3323,
      "bít": 3324,
      "bluetooth": 3325,
      "ge": 3326,
      "hú": 3327,
      "kiếp": 3328,
      "lh": 3329,
      "lăn": 3330,
      "mời": 3331,
      "mõm": 3332,
      "off": 3333,
      "qa": 3334,
      "rn": 3335,
      "sen": 3336,
      "tồn": 3337,
      "um": 3338,
      "ùy": 3339,
      "Đinh": 3340,
      "đồn": 3341,
      "ẦN": 3342,
      "nhăn": 3343,
      "thai": 3344,
      "phan": 3345,
      "quỷ": 3346,
      "quái": 3347,
      "Chạy": 3348,
      "Chiến": 3349,
      "Thua": 3350,
      "loi": 3351,
      "siu": 3352,
      "viet": 3353,
      "eee": 3354,
      "đền": 3355,
      "fire": 3356,
      "not": 3357,
      "now": 3358,
      "cker": 3359,
      "nhiu": 3360,
      "đoán": 3361,
      "Viettel": 3362,
      "sjsjsjsj": 3363,
      "apple": 3364,
      "lalalala": 3365,
      "uuuuuuuuuuuuuuuu": 3366,
      "galaxy": 3367,
      "Siêu": 3368,
      "Luôn": 3369,
      "PUBG": 3370,
      "Hạt": 3371,
      "Hậu": 3372,
      "Idol": 3373,
      "MX": 3374,
      "Mượt": 3375,
      "Sam": 3376,
      "San": 3377,
      "Tư": 3378,
      "Tính": 3379,
      "Tiếc": 3380,
      "Vin": 3381,
      "bon": 3382,
      "bơm": 3383,
      "bắp": 3384,
      "cử": 3385,
      "cức": 3386,
      "dô": 3387,
      "fjj": 3388,
      "gõ": 3389,
      "han": 3390,
      "hiến": 3391,
      "huyền": 3392,
      "jdj": 3393,
      "jack": 3394,
      "ld": 3395,
      "lùi": 3396,
      "mác": 3397,
      "mặn": 3398,
      "nâu": 3399,
      "núi": 3400,
      "oh": 3401,
      "pr": 3402,
      "py": 3403,
      "sv": 3404,
      "sỉ": 3405,
      "tông": 3406,
      "tầng": 3407,
      "usb": 3408,
      "vá": 3409,
      "xĩu": 3410,
      "Đó": 3411,
      "Đổi": 3412,
      "đắng": 3413,
      "ựt": 3414,
      "ngữ": 3415,
      "nhin": 3416,
      "nhược": 3417,
      "kksks": 3418,
      "log": 3419,
      "Ngân": 3420,
      "Trân": 3421,
      "Phú": 3422,
      "with": 3423,
      "load": 3424,
      "ruồi": 3425,
      "CHO": 3426,
      "Tube": 3427,
      "gjgj": 3428,
      "Covid": 3429,
      "Phong": 3430,
      "kokokokokok": 3431,
      "YouTube": 3432,
      "Kiểu": 3433,
      "share": 3434,
      "nhòe": 3435,
      "ANH": 3436,
      "Bluetooth": 3437,
      "Hùng": 3438,
      "Năm": 3439,
      "ONG": 3440,
      "Ri": 3441,
      "SHO": 3442,
      "Tây": 3443,
      "UI": 3444,
      "bầu": 3445,
      "cv": 3446,
      "dz": 3447,
      "dể": 3448,
      "duyệt": 3449,
      "gd": 3450,
      "gui": 3451,
      "gạch": 3452,
      "ham": 3453,
      "lg": 3454,
      "lửa": 3455,
      "lưỡi": 3456,
      "nà": 3457,
      "riết": 3458,
      "rụng": 3459,
      "tổn": 3460,
      "vội": 3461,
      "ủi": 3462,
      "chặn": 3463,
      "chiếm": 3464,
      "thở": 3465,
      "thớt": 3466,
      "khâu": 3467,
      "trưng": 3468,
      "phường": 3469,
      "phấn": 3470,
      "hot": 3471,
      "đãi": 3472,
      "xui": 3473,
      "buộc": 3474,
      "cafe": 3475,
      "mobile": 3476,
      "cjcj": 3477,
      "cmnr": 3478,
      "TIKI": 3479,
      "khach": 3480,
      "Apple": 3481,
      "Bán": 3482,
      "CÁ": 3483,
      "Cà": 3484,
      "Dm": 3485,
      "Hữu": 3486,
      "LE": 3487,
      "Sợ": 3488,
      "Son": 3489,
      "Sữa": 3490,
      "Sóng": 3491,
      "Tình": 3492,
      "Tiện": 3493,
      "Vui": 3494,
      "bk": 3495,
      "bọt": 3496,
      "fd": 3497,
      "gạt": 3498,
      "it": 3499,
      "jd": 3500,
      "lật": 3501,
      "mò": 3502,
      "nap": 3503,
      "play": 3504,
      "rm": 3505,
      "râu": 3506,
      "ròi": 3507,
      "tấc": 3508,
      "xách": 3509,
      "đấm": 3510,
      "đệm": 3511,
      "ƯỢ": 3512,
      "ẵng": 3513,
      "ễu": 3514,
      "nhở": 3515,
      "khít": 3516,
      "khiếp": 3517,
      "trao": 3518,
      "tràn": 3519,
      "inch": 3520,
      "auto": 3521,
      "Thắng": 3522,
      "Nhớ": 3523,
      "Phu": 3524,
      "Quý": 3525,
      "led": 3526,
      "thik": 3527,
      "tuyển": 3528,
      "fhfh": 3529,
      "vkl": 3530,
      "nnnnnnnnnnnnnnnnnnnnnnnnnnnnnnnn": 3531,
      "cccccccc": 3532,
      "đĩa": 3533,
      "selfi": 3534,
      "AI": 3535,
      "Bỏ": 3536,
      "He": 3537,
      "NV": 3538,
      "Tài": 3539,
      "Vãi": 3540,
      "Yên": 3541,
      "bai": 3542,
      "cau": 3543,
      "dth": 3544,
      "fai": 3545,
      "gớm": 3546,
      "hâ": 3547,
      "hước": 3548,
      "hầu": 3549,
      "ic": 3550,
      "lận": 3551,
      "mút": 3552,
      "sổ": 3553,
      "sắt": 3554,
      "tần": 3555,
      "vắt": 3556,
      "vứt": 3557,
      "wf": 3558,
      "ùn": 3559,
      "Đông": 3560,
      "đâm": 3561,
      "ngừ": 3562,
      "ngột": 3563,
      "ngỗng": 3564,
      "nhịn": 3565,
      "chém": 3566,
      "thù": 3567,
      "thưởng": 3568,
      "trinh": 3569,
      "troi": 3570,
      "phiếu": 3571,
      "hic": 3572,
      "loc": 3573,
      "Giấy": 3574,
      "Nhu": 3575,
      "Trúc": 3576,
      "djdn": 3577,
      "coy": 3578,
      "sjs": 3579,
      "sbs": 3580,
      "nhuộm": 3581,
      "wed": 3582,
      "nuoc": 3583,
      "muôn": 3584,
      "đuôi": 3585,
      "ejej": 3586,
      "gggggggggggggggg": 3587,
      "rrrrrrrr": 3588,
      "Google": 3589,
      "ATM": 3590,
      "comment": 3591,
      "SHOP": 3592,
      "Cầu": 3593,
      "Cát": 3594,
      "Cách": 3595,
      "Duyên": 3596,
      "HÀ": 3597,
      "Lý": 3598,
      "Lướt": 3599,
      "Mang": 3600,
      "Mèo": 3601,
      "Ninh": 3602,
      "Sách": 3603,
      "Tốc": 3604,
      "Xịn": 3605,
      "ble": 3606,
      "dè": 3607,
      "gỡ": 3608,
      "hz": 3609,
      "há": 3610,
      "hùng": 3611,
      "huawei": 3612,
      "joy": 3613,
      "liệt": 3614,
      "nồng": 3615,
      "nokia": 3616,
      "okoko": 3617,
      "rời": 3618,
      "tp": 3619,
      "tồi": 3620,
      "tok": 3621,
      "úy": 3622,
      "đươ": 3623,
      "Ưu": 3624,
      "ằn": 3625,
      "ngứa": 3626,
      "nhóm": 3627,
      "chổ": 3628,
      "chở": 3629,
      "chch": 3630,
      "chan": 3631,
      "phỏng": 3632,
      "hoà": 3633,
      "amam": 3634,
      "khánh": 3635,
      "Thiên": 3636,
      "Trên": 3637,
      "bac": 3638,
      "sjj": 3639,
      "mmm": 3640,
      "miêu": 3641,
      "yyy": 3642,
      "thủy": 3643,
      "nghiêng": 3644,
      "ello": 3645,
      "flash": 3646,
      "CC": 3647,
      "Cơ": 3648,
      "Cùng": 3649,
      "Dũng": 3650,
      "Hóng": 3651,
      "Lắp": 3652,
      "No": 3653,
      "Pu": 3654,
      "QC": 3655,
      "RA": 3656,
      "SD": 3657,
      "ab": 3658,
      "căn": 3659,
      "dại": 3660,
      "dập": 3661,
      "dối": 3662,
      "hốt": 3663,
      "ios": 3664,
      "kn": 3665,
      "mối": 3666,
      "non": 3667,
      "sc": 3668,
      "sấp": 3669,
      "sợi": 3670,
      "Ánh": 3671,
      "Đủ": 3672,
      "đb": 3673,
      "đà": 3674,
      "đẩy": 3675,
      "ều": 3676,
      "nhể": 3677,
      "nhái": 3678,
      "chet": 3679,
      "thg": 3680,
      "thải": 3681,
      "giám": 3682,
      "Trend": 3683,
      "vien": 3684,
      "soạn": 3685,
      "make": 3686,
      "balo": 3687,
      "bass": 3688,
      "Quạt": 3689,
      "lite": 3690,
      "reset": 3691,
      "mic": 3692,
      "bbb": 3693,
      "vote": 3694,
      "Hihi": 3695,
      "Xuất": 3696,
      "mini": 3697,
      "Like": 3698,
      "show": 3699,
      "BI": 3700,
      "CT": 3701,
      "Cây": 3702,
      "EN": 3703,
      "Huawei": 3704,
      "Kính": 3705,
      "La": 3706,
      "Nokia": 3707,
      "UNG": 3708,
      "VÀ": 3709,
      "Vô": 3710,
      "bú": 3711,
      "dầy": 3712,
      "dãn": 3713,
      "fm": 3714,
      "gan": 3715,
      "gánh": 3716,
      "hâm": 3717,
      "kd": 3718,
      "lạy": 3719,
      "lặng": 3720,
      "lẻo": 3721,
      "rong": 3722,
      "rít": 3723,
      "sôi": 3724,
      "sụt": 3725,
      "tào": 3726,
      "tởm": 3727,
      "vong": 3728,
      "xương": 3729,
      "xăng": 3730,
      "ym": 3731,
      "ía": 3732,
      "Đơn": 3733,
      "Động": 3734,
      "đung": 3735,
      "ặm": 3736,
      "ỆT": 3737,
      "ngũ": 3738,
      "ngân": 3739,
      "nguyện": 3740,
      "chàng": 3741,
      "chời": 3742,
      "chùi": 3743,
      "thảo": 3744,
      "giặc": 3745,
      "trữ": 3746,
      "ơiii": 3747,
      "ragon": 3748,
      "đinh": 3749,
      "nghiện": 3750,
      "Nhỏ": 3751,
      "Nhất": 3752,
      "tuong": 3753,
      "ườn": 3754,
      "Trải": 3755,
      "Trịnh": 3756,
      "ngoan": 3757,
      "best": 3758,
      "Loan": 3759,
      "niêm": 3760,
      "dmx": 3761,
      "Thank": 3762,
      "zzzzzzzz": 3763,
      "combo": 3764,
      "bbbbbbbb": 3765,
      "dddddddddddddddd": 3766,
      "selfie": 3767,
      "Bây": 3768,
      "Balo": 3769,
      "Câu": 3770,
      "Hong": 3771,
      "Hello": 3772,
      "Miếng": 3773,
      "Tức": 3774,
      "Vl": 3775,
      "Vn": 3776,
      "Vu": 3777,
      "Vote": 3778,
      "bỉ": 3779,
      "bại": 3780,
      "bênh": 3781,
      "cản": 3782,
      "came": 3783,
      "cành": 3784,
      "dốt": 3785,
      "fg": 3786,
      "hc": 3787,
      "hn": 3788,
      "hụt": 3789,
      "id": 3790,
      "kj": 3791,
      "lư": 3792,
      "lang": 3793,
      "mập": 3794,
      "oto": 3795,
      "ser": 3796,
      "sịn": 3797,
      "tj": 3798,
      "tít": 3799,
      "tks": 3800,
      "tạp": 3801,
      "tĩnh": 3802,
      "us": 3803,
      "voucher": 3804,
      "xốp": 3805,
      "yo": 3806,
      "đành": 3807,
      "ngành": 3808,
      "ngạt": 3809,
      "nhen": 3810,
      "chọc": 3811,
      "them": 3812,
      "khe": 3813,
      "gigi": 3814,
      "phức": 3815,
      "què": 3816,
      "quăng": 3817,
      "ơiiii": 3818,
      "Thử": 3819,
      "Thông": 3820,
      "tuc": 3821,
      "Trừ": 3822,
      "nhét": 3823,
      "chug": 3824,
      "ali": 3825,
      "fix": 3826,
      "dndj": 3827,
      "active": 3828,
      "kak": 3829,
      "chúa": 3830,
      "Vivo": 3831,
      "snsnsn": 3832,
      "eiei": 3833,
      "kokokokokokokoko": 3834,
      "Size": 3835,
      "mmmmmmmmmmmmmmmm": 3836,
      "CO": 3837,
      "Dạo": 3838,
      "Fu": 3839,
      "Gọi": 3840,
      "LV": 3841,
      "Lam": 3842,
      "Min": 3843,
      "TC": 3844,
      "Tổ": 3845,
      "Tks": 3846,
      "câm": 3847,
      "cnc": 3848,
      "dăm": 3849,
      "dragon": 3850,
      "fl": 3851,
      "gắt": 3852,
      "hèn": 3853,
      "kép": 3854,
      "lw": 3855,
      "lì": 3856,
      "ló": 3857,
      "lân": 3858,
      "lổi": 3859,
      "mến": 3860,
      "móng": 3861,
      "oan": 3862,
      "rẽ": 3863,
      "ráng": 3864,
      "tn": 3865,
      "uổng": 3866,
      "xai": 3867,
      "za": 3868,
      "zai": 3869,
      "ìa": 3870,
      "ín": 3871,
      "ĐI": 3872,
      "đg": 3873,
      "đè": 3874,
      "điệu": 3875,
      "nhãn": 3876,
      "chj": 3877,
      "chảo": 3878,
      "chưởng": 3879,
      "thờ": 3880,
      "khắp": 3881,
      "giong": 3882,
      "tróc": 3883,
      "phú": 3884,
      "quận": 3885,
      "Chờ": 3886,
      "Chân": 3887,
      "ana": 3888,
      "tiep": 3889,
      "Phục": 3890,
      "cug": 3891,
      "cuoi": 3892,
      "oom": 3893,
      "ccc": 3894,
      "mot": 3895,
      "trog": 3896,
      "Bánh": 3897,
      "DA": 3898,
      "Gửi": 3899,
      "Hồi": 3900,
      "Moi": 3901,
      "NN": 3902,
      "Nv": 3903,
      "Sale": 3904,
      "Tập": 3905,
      "Tội": 3906,
      "av": 3907,
      "bí": 3908,
      "bang": 3909,
      "bồn": 3910,
      "bạo": 3911,
      "cỏ": 3912,
      "dâu": 3913,
      "ec": 3914,
      "ex": 3915,
      "hằng": 3916,
      "hứa": 3917,
      "hổng": 3918,
      "ik": 3919,
      "lục": 3920,
      "nb": 3921,
      "nạ": 3922,
      "nai": 3923,
      "rát": 3924,
      "rât": 3925,
      "vua": 3926,
      "vững": 3927,
      "xám": 3928,
      "ziên": 3929,
      "Đại": 3930,
      "Điều": 3931,
      "ưởi": 3932,
      "ẫm": 3933,
      "ỐC": 3934,
      "ngực": 3935,
      "thỏ": 3936,
      "khựng": 3937,
      "giường": 3938,
      "phốt": 3939,
      "mài": 3940,
      "home": 3941,
      "Chú": 3942,
      "The": 3943,
      "Thay": 3944,
      "Thêm": 3945,
      "đểu": 3946,
      "tuỳ": 3947,
      "nhaaaaa": 3948,
      "Trương": 3949,
      "lal": 3950,
      "mac": 3951,
      "didi": 3952,
      "dell": 3953,
      "sub": 3954,
      "djdjdj": 3955,
      "fund": 3956,
      "trading": 3957,
      "muon": 3958,
      "Chuột": 3959,
      "tttttttttttttttttttttttt": 3960,
      "enger": 3961,
      "huynh": 3962,
      "Haha": 3963,
      "Cuộc": 3964,
      "Test": 3965,
      "dlv": 3966,
      "sticker": 3967,
      "MUA": 3968,
      "okokoko": 3969,
      "Bữa": 3970,
      "Cá": 3971,
      "Gòn": 3972,
      "Lấy": 3973,
      "Mạng": 3974,
      "PT": 3975,
      "RE": 3976,
      "Tin": 3977,
      "Tóc": 3978,
      "Tổng": 3979,
      "Uyên": 3980,
      "ara": 3981,
      "ahihi": 3982,
      "bô": 3983,
      "cmm": 3984,
      "cạo": 3985,
      "dem": 3986,
      "fo": 3987,
      "from": 3988,
      "hb": 3989,
      "je": 3990,
      "ku": 3991,
      "mạch": 3992,
      "nụ": 3993,
      "nàng": 3994,
      "sạt": 3995,
      "star": 3996,
      "tuyên": 3997,
      "vé": 3998,
      "vin": 3999,
      "vlog": 4000,
      "xí": 4001,
      "yi": 4002,
      "yt": 4003,
      "zui": 4004,
      "úm": 4005,
      "Đà": 4006,
      "Đem": 4007,
      "Đôi": 4008,
      "Địt": 4009,
      "đj": 4010,
      "đục": 4011,
      "đắn": 4012,
      "ƯỚ": 4013,
      "ƯỜI": 4014,
      "chát": 4015,
      "thợ": 4016,
      "thăm": 4017,
      "khéo": 4018,
      "khối": 4019,
      "trầm": 4020,
      "quài": 4021,
      "quấn": 4022,
      "Chó": 4023,
      "khám": 4024,
      "kháng": 4025,
      "Thắm": 4026,
      "Thùy": 4027,
      "Giảm": 4028,
      "Nhạc": 4029,
      "đcm": 4030,
      "Nga": 4031,
      "nhah": 4032,
      "nhaaa": 4033,
      "Khẩu": 4034,
      "khoa": 4035,
      "sốt": 4036,
      "dat": 4037,
      "iiiiii": 4038,
      "chuyến": 4039,
      "tuyến": 4040,
      "xog": 4041,
      "đag": 4042,
      "ffff": 4043,
      "thank": 4044,
      "zjzj": 4045,
      "truoc": 4046,
      "very": 4047,
      "Good": 4048,
      "LÀM": 4049,
      "USB": 4050,
      "AD": 4051,
      "From": 4052,
      "Gối": 4053,
      "Kem": 4054,
      "PIN": 4055,
      "SG": 4056,
      "Sáng": 4057,
      "Tấn": 4058,
      "Vị": 4059,
      "bạ": 4060,
      "bào": 4061,
      "cf": 4062,
      "cừ": 4063,
      "dinh": 4064,
      "dắt": 4065,
      "gf": 4066,
      "gê": 4067,
      "gra": 4068,
      "háng": 4069,
      "lờ": 4070,
      "lãi": 4071,
      "lĩnh": 4072,
      "mĩ": 4073,
      "mây": 4074,
      "mảnh": 4075,
      "nết": 4076,
      "pk": 4077,
      "rb": 4078,
      "rui": 4079,
      "túc": 4080,
      "vã": 4081,
      "vòi": 4082,
      "vâng": 4083,
      "zô": 4084,
      "ăc": 4085,
      "Đợt": 4086,
      "đắc": 4087,
      "nhẽ": 4088,
      "nháy": 4089,
      "nhậy": 4090,
      "nhậu": 4091,
      "khinh": 4092,
      "trống": 4093,
      "quất": 4094,
      "logo": 4095,
      "quai": 4096,
      "chup": 4097,
      "tel": 4098,
      "bat": 4099,
      "tựa": 4100,
      "sốp": 4101,
      "buồi": 4102,
      "tttttt": 4103,
      "sns": 4104,
      "NGƯỜI": 4105,
      "jjj": 4106,
      "lear": 4107,
      "deal": 4108,
      "boss": 4109,
      "nilon": 4110,
      "androi": 4111,
      "Thịnh": 4112,
      "post": 4113,
      "Ngoại": 4114,
      "iiiiiiiiiiiiiiiiiiiiiiiiiiiiiiii": 4115,
      "gaming": 4116,
      "Cẩm": 4117,
      "EO": 4118,
      "ER": 4119,
      "Hạ": 4120,
      "IP": 4121,
      "Kinh": 4122,
      "LO": 4123,
      "LQ": 4124,
      "MP": 4125,
      "MÌNH": 4126,
      "SS": 4127,
      "Sa": 4128,
      "Táo": 4129,
      "cất": 4130,
      "ffi": 4131,
      "gòn": 4132,
      "hg": 4133,
      "hít": 4134,
      "hạng": 4135,
      "jej": 4136,
      "kin": 4137,
      "lồ": 4138,
      "nỗ": 4139,
      "nan": 4140,
      "sto": 4141,
      "sót": 4142,
      "tứ": 4143,
      "tân": 4144,
      "tái": 4145,
      "vinh": 4146,
      "xv": 4147,
      "ĐT": 4148,
      "Đậu": 4149,
      "Định": 4150,
      "đe": 4151,
      "ũa": 4152,
      "ẻm": 4153,
      "ỚI": 4154,
      "ờng": 4155,
      "ngâm": 4156,
      "nhảm": 4157,
      "chối": 4158,
      "chùa": 4159,
      "thúc": 4160,
      "thậm": 4161,
      "khỉ": 4162,
      "khử": 4163,
      "khac": 4164,
      "khựa": 4165,
      "giùm": 4166,
      "phun": 4167,
      "quỳ": 4168,
      "onl": 4169,
      "Chiều": 4170,
      "bịt": 4171,
      "Thúy": 4172,
      "Ngồi": 4173,
      "tuý": 4174,
      "nhaa": 4175,
      "Tru": 4176,
      "Trà": 4177,
      "thoai": 4178,
      "eed": 4179,
      "Khổ": 4180,
      "sjsks": 4181,
      "thuỷ": 4182,
      "mieng": 4183,
      "key": 4184,
      "susan": 4185,
      "xjg": 4186,
      "cjc": 4187,
      "Tuân": 4188,
      "kakakaka": 4189,
      "hehehehe": 4190,
      "xxxx": 4191,
      "qqqq": 4192,
      "Date": 4193,
      "messenger": 4194,
      "hahaa": 4195,
      "remote": 4196,
      "Pubg": 4197,
      "Bo": 4198,
      "Bát": 4199,
      "Bút": 4200,
      "Cập": 4201,
      "CON": 4202,
      "Dòng": 4203,
      "DLV": 4204,
      "Hơn": 4205,
      "MC": 4206,
      "Se": 4207,
      "Sen": 4208,
      "Tên": 4209,
      "Tụi": 4210,
      "Uống": 4211,
      "Vận": 4212,
      "bồ": 4213,
      "bãi": 4214,
      "cang": 4215,
      "cống": 4216,
      "cút": 4217,
      "cặn": 4218,
      "dkk": 4219,
      "hò": 4220,
      "huyện": 4221,
      "hàm": 4222,
      "kiều": 4223,
      "lz": 4224,
      "lòn": 4225,
      "lối": 4226,
      "lãng": 4227,
      "mùng": 4228,
      "nj": 4229,
      "né": 4230,
      "niệm": 4231,
      "ndn": 4232,
      "op": 4233,
      "pq": 4234,
      "rủ": 4235,
      "rệt": 4236,
      "té": 4237,
      "vây": 4238,
      "vốn": 4239,
      "win": 4240,
      "wor": 4241,
      "yến": 4242,
      "zin": 4243,
      "zậy": 4244,
      "Đợi": 4245,
      "đáy": 4246,
      "đùng": 4247,
      "nhg": 4248,
      "thưa": 4249,
      "phầm": 4250,
      "nón": 4251,
      "Chat": 4252,
      "nghiệt": 4253,
      "loan": 4254,
      "Giàu": 4255,
      "king": 4256,
      "đột": 4257,
      "ppy": 4258,
      "tuộc": 4259,
      "las": 4260,
      "tat": 4261,
      "doy": 4262,
      "ngoái": 4263,
      "dis": 4264,
      "didong": 4265,
      "file": 4266,
      "ime": 4267,
      "acc": 4268,
      "ooo": 4269,
      "bom": 4270,
      "nhờn": 4271,
      "dhdhdh": 4272,
      "jjjjjjjj": 4273,
      "GIÁ": 4274,
      "vyvy": 4275,
      "gioididong": 4276,
      "Link": 4277,
      "dtjdtj": 4278,
      "ƯỢC": 4279,
      "đươc": 4280,
      "AK": 4281,
      "Băng": 4282,
      "CẢ": 4283,
      "Cai": 4284,
      "Cuối": 4285,
      "Dt": 4286,
      "Danh": 4287,
      "For": 4288,
      "Họ": 4289,
      "Hòa": 4290,
      "IM": 4291,
      "Kiên": 4292,
      "Lời": 4293,
      "Lãnh": 4294,
      "MV": 4295,
      "PP": 4296,
      "Pro": 4297,
      "ST": 4298,
      "Xanh": 4299,
      "as": 4300,
      "bd": 4301,
      "bạch": 4302,
      "bún": 4303,
      "cắp": 4304,
      "cẩu": 4305,
      "edit": 4306,
      "gk": 4307,
      "gội": 4308,
      "gởi": 4309,
      "hủy": 4310,
      "kiềm": 4311,
      "lẩu": 4312,
      "nộp": 4313,
      "pre": 4314,
      "rượ": 4315,
      "rôi": 4316,
      "rãi": 4317,
      "sừng": 4318,
      "tl": 4319,
      "tê": 4320,
      "tau": 4321,
      "tgian": 4322,
      "vở": 4323,
      "vất": 4324,
      "vác": 4325,
      "xích": 4326,
      "yeu": 4327,
      "Đụ": 4328,
      "ĐMX": 4329,
      "ƠN": 4330,
      "ưii": 4331,
      "ậc": 4332,
      "nhã": 4333,
      "chanh": 4334,
      "chăn": 4335,
      "thăng": 4336,
      "thấu": 4337,
      "khói": 4338,
      "giựt": 4339,
      "tran": 4340,
      "tren": 4341,
      "trọn": 4342,
      "phơi": 4343,
      "nhường": 4344,
      "hoc": 4345,
      "Chết": 4346,
      "Thơm": 4347,
      "Giới": 4348,
      "Giáo": 4349,
      "Ngoc": 4350,
      "tuân": 4351,
      "tiet": 4352,
      "come": 4353,
      "lien": 4354,
      "thun": 4355,
      "Tiểu": 4356,
      "card": 4357,
      "llll": 4358,
      "trieu": 4359,
      "order": 4360,
      "khuẩn": 4361,
      "Quay": 4362,
      "Thuận": 4363,
      "Com": 4364,
      "kemvũ": 4365,
      "aaaaaaaaaaaaaaaaaaaaaaaaaaaaaaaa": 4366,
      "gym": 4367,
      "Phim": 4368,
      "Riêng": 4369,
      "BA": 4370,
      "BF": 4371,
      "Bích": 4372,
      "Cm": 4373,
      "Cộng": 4374,
      "Dan": 4375,
      "ET": 4376,
      "Fb": 4377,
      "Gạo": 4378,
      "Hang": 4379,
      "Hiền": 4380,
      "Joy": 4381,
      "Lũ": 4382,
      "Lào": 4383,
      "MÀ": 4384,
      "Mãi": 4385,
      "OI": 4386,
      "Tô": 4387,
      "Tải": 4388,
      "Viên": 4389,
      "Vâng": 4390,
      "aba": 4391,
      "ass": 4392,
      "bl": 4393,
      "bơ": 4394,
      "bơi": 4395,
      "bùi": 4396,
      "búa": 4397,
      "cạn": 4398,
      "ds": 4399,
      "dê": 4400,
      "dẻ": 4401,
      "dam": 4402,
      "diên": 4403,
      "dỗi": 4404,
      "dnn": 4405,
      "dái": 4406,
      "fii": 4407,
      "hũ": 4408,
      "hân": 4409,
      "hêt": 4410,
      "jk": 4411,
      "ké": 4412,
      "lược": 4413,
      "lăng": 4414,
      "lát": 4415,
      "luyện": 4416,
      "ltra": 4417,
      "lọt": 4418,
      "liếm": 4419,
      "land": 4420,
      "mv": 4421,
      "mị": 4422,
      "mjh": 4423,
      "nứng": 4424,
      "ném": 4425,
      "pg": 4426,
      "rực": 4427,
      "sms": 4428,
      "tang": 4429,
      "tiệp": 4430,
      "vương": 4431,
      "xót": 4432,
      "đả": 4433,
      "đệ": 4434,
      "đùi": 4435,
      "ẢN": 4436,
      "ẬT": 4437,
      "ngửi": 4438,
      "ngắm": 4439,
      "nhuy": 4440,
      "nhẫn": 4441,
      "nhma": 4442,
      "nhám": 4443,
      "chuối": 4444,
      "chớp": 4445,
      "thụ": 4446,
      "khg": 4447,
      "khích": 4448,
      "giỏ": 4449,
      "giảng": 4450,
      "trại": 4451,
      "trào": 4452,
      "trục": 4453,
      "phật": 4454,
      "ine": 4455,
      "Chậm": 4456,
      "nghiên": 4457,
      "Nghi": 4458,
      "soát": 4459,
      "ngoai": 4460,
      "code": 4461,
      "ght": 4462,
      "miui": 4463,
      "heh": 4464,
      "Tien": 4465,
      "dbdj": 4466,
      "aaaaa": 4467,
      "shiper": 4468,
      "cat": 4469,
      "care": 4470,
      "tuyet": 4471,
      "cmcm": 4472,
      "xiu": 4473,
      "haizz": 4474,
      "THI": 4475,
      "sjsjsj": 4476,
      "hjhj": 4477,
      "tôt": 4478,
      "fjfjfjfj": 4479,
      "zkzk": 4480,
      "Okikokokokokok": 4481,
      "nhuyễn": 4482,
      "ANG": 4483,
      "Bê": 4484,
      "CN": 4485,
      "Cài": 4486,
      "DI": 4487,
      "DV": 4488,
      "Dầu": 4489,
      "Diệu": 4490,
      "Gần": 4491,
      "HA": 4492,
      "Hz": 4493,
      "Hệ": 4494,
      "Hối": 4495,
      "LU": 4496,
      "Lệ": 4497,
      "Mu": 4498,
      "Mùa": 4499,
      "RẤT": 4500,
      "TK": 4501,
      "Tạ": 4502,
      "Váy": 4503,
      "Xong": 4504,
      "bsb": 4505,
      "cọ": 4506,
      "cbi": 4507,
      "dỗ": 4508,
      "dua": 4509,
      "gay": 4510,
      "ger": 4511,
      "hỉu": 4512,
      "kp": 4513,
      "kiên": 4514,
      "kdk": 4515,
      "kẹt": 4516,
      "lê": 4517,
      "leo": 4518,
      "meo": 4519,
      "mền": 4520,
      "nô": 4521,
      "nuốt": 4522,
      "nứt": 4523,
      "og": 4524,
      "rốt": 4525,
      "sua": 4526,
      "tách": 4527,
      "vơi": 4528,
      "xs": 4529,
      "xao": 4530,
      "zip": 4531,
      "Úc": 4532,
      "àh": 4533,
      "ág": 4534,
      "Đu": 4535,
      "Đâu": 4536,
      "Đeo": 4537,
      "Đầy": 4538,
      "ƠI": 4539,
      "ngư": 4540,
      "ngán": 4541,
      "chao": 4542,
      "chói": 4543,
      "chừa": 4544,
      "châm": 4545,
      "chât": 4546,
      "thói": 4547,
      "thụt": 4548,
      "khay": 4549,
      "trêu": 4550,
      "trấn": 4551,
      "trãi": 4552,
      "trộn": 4553,
      "ind": 4554,
      "hoan": 4555,
      "uyến": 4556,
      "Chai": 4557,
      "Chuyên": 4558,
      "Chẳng": 4559,
      "nghịch": 4560,
      "ank": 4561,
      "Thần": 4562,
      "Thiếu": 4563,
      "Thủy": 4564,
      "hii": 4565,
      "toan": 4566,
      "tton": 4567,
      "thoa": 4568,
      "Phụ": 4569,
      "Khu": 4570,
      "Khách": 4571,
      "khoai": 4572,
      "beat": 4573,
      "cut": 4574,
      "dndb": 4575,
      "chóp": 4576,
      "NHƯ": 4577,
      "mãn": 4578,
      "vịt": 4579,
      "fbfb": 4580,
      "hỗn": 4581,
      "vvv": 4582,
      "sky": 4583,
      "chín": 4584,
      "thegioididong": 4585,
      "hhhhhhhhh": 4586,
      "xhxh": 4587,
      "đmx": 4588,
      "Toang": 4589,
      "Huynh": 4590,
      "livestream": 4591,
      "freeship": 4592,
      "tttttttttttttttttttttttttttttttt": 4593,
      "ƯỚC": 4594,
      "rượu": 4595,
      "OkikokokokokokOkikokokokokok": 4596,
      "Dat": 4597,
      "Kích": 4598,
      "Na": 4599,
      "Now": 4600,
      "Tay": 4601,
      "Tam": 4602,
      "Tăng": 4603,
      "Thoại": 4604,
      "Vòng": 4605,
      "XL": 4606,
      "bồi": 4607,
      "biện": 4608,
      "cạp": 4609,
      "dv": 4610,
      "dồi": 4611,
      "dừa": 4612,
      "dri": 4613,
      "es": 4614,
      "gv": 4615,
      "gdd": 4616,
      "hì": 4617,
      "hơ": 4618,
      "hiếp": 4619,
      "js": 4620,
      "lâm": 4621,
      "lốp": 4622,
      "mả": 4623,
      "mổ": 4624,
      "mớ": 4625,
      "mốc": 4626,
      "mắm": 4627,
      "mép": 4628,
      "mưu": 4629,
      "ndj": 4630,
      "ncl": 4631,
      "new": 4632,
      "rỗ": 4633,
      "ron": 4634,
      "rắn": 4635,
      "rối": 4636,
      "rạp": 4637,
      "sọc": 4638,
      "tua": 4639,
      "tát": 4640,
      "ur": 4641,
      "ut": 4642,
      "vĩ": 4643,
      "ven": 4644,
      "ws": 4645,
      "xâm": 4646,
      "zkk": 4647,
      "éc": 4648,
      "ĐƯỢC": 4649,
      "đút": 4650,
      "đét": 4651,
      "đốc": 4652,
      "ẾU": 4653,
      "ốm": 4654,
      "ụy": 4655,
      "ngập": 4656,
      "nhặt": 4657,
      "nhức": 4658,
      "chà": 4659,
      "chè": 4660,
      "chinh": 4661,
      "thê": 4662,
      "thí": 4663,
      "khổng": 4664,
      "giai": 4665,
      "giau": 4666,
      "giấc": 4667,
      "phổ": 4668,
      "quí": 4669,
      "rap": 4670,
      "rang": 4671,
      "okay": 4672,
      "Chế": 4673,
      "Chuyện": 4674,
      "luu": 4675,
      "Thủ": 4676,
      "Thuy": 4677,
      "Thiện": 4678,
      "Trc": 4679,
      "ting": 4680,
      "soft": 4681,
      "Khắc": 4682,
      "made": 4683,
      "ghiền": 4684,
      "yêuc": 4685,
      "vsvs": 4686,
      "mih": 4687,
      "nnnnn": 4688,
      "nnnnnn": 4689,
      "sela": 4690,
      "tuyết": 4691,
      "nhug": 4692,
      "Lock": 4693,
      "Trading": 4694,
      "Hieu": 4695,
      "Tuổi": 4696,
      "cụm": 4697,
      "đuoc": 4698,
      "bùn": 4699,
      "yyyyyyyy": 4700,
      "rjrj": 4701,
      "Refund": 4702,
      "MIUI": 4703,
      "zhzh": 4704,
      "msmsmsms": 4705,
      "ssssssssssssssss": 4706,
      "tiktok": 4707,
      "ngừoi": 4708,
      "HÀNG": 4709,
      "Full": 4710,
      "Bóng": 4711,
      "Cứng": 4712,
      "Cor": 4713,
      "Dán": 4714,
      "NÀ": 4715,
      "Nút": 4716,
      "PS": 4717,
      "RO": 4718,
      "Ru": 4719,
      "Sự": 4720,
      "Sinh": 4721,
      "Tường": 4722,
      "Tuan": 4723,
      "Vương": 4724,
      "Xã": 4725,
      "bẻ": 4726,
      "blu": 4727,
      "bội": 4728,
      "cẩm": 4729,
      "dĩ": 4730,
      "fs": 4731,
      "gậy": 4732,
      "hqua": 4733,
      "hắn": 4734,
      "họng": 4735,
      "hét": 4736,
      "huyết": 4737,
      "kịch": 4738,
      "lít": 4739,
      "mg": 4740,
      "muối": 4741,
      "nể": 4742,
      "nang": 4743,
      "qj": 4744,
      "qúa": 4745,
      "ranh": 4746,
      "sấu": 4747,
      "sặc": 4748,
      "vỉa": 4749,
      "xô": 4750,
      "xkg": 4751,
      "xgj": 4752,
      "xẻo": 4753,
      "yd": 4754,
      "zo": 4755,
      "zing": 4756,
      "zoom": 4757,
      "êi": 4758,
      "đn": 4759,
      "đờ": 4760,
      "đuối": 4761,
      "ẠN": 4762,
      "ẬN": 4763,
      "ẹc": 4764,
      "ỀN": 4765,
      "ỆN": 4766,
      "ỤNG": 4767,
      "ỨC": 4768,
      "ngài": 4769,
      "ngôi": 4770,
      "ngưỡng": 4771,
      "chac": 4772,
      "thây": 4773,
      "thắm": 4774,
      "thiệp": 4775,
      "khứ": 4776,
      "khét": 4777,
      "giầy": 4778,
      "phat": 4779,
      "đẹpHàng": 4780,
      "điển": 4781,
      "luc": 4782,
      "nghen": 4783,
      "anti": 4784,
      "Tham": 4785,
      "Thuốc": 4786,
      "low": 4787,
      "Giải": 4788,
      "Nha": 4789,
      "games": 4790,
      "ppp": 4791,
      "nhaaaa": 4792,
      "Trông": 4793,
      "thoii": 4794,
      "hat": 4795,
      "Pháp": 4796,
      "tech": 4797,
      "mall": 4798,
      "dich": 4799,
      "khoái": 4800,
      "sjdj": 4801,
      "ghe": 4802,
      "data": 4803,
      "rea": 4804,
      "típ": 4805,
      "roup": 4806,
      "hhhhh": 4807,
      "Hoàn": 4808,
      "quyển": 4809,
      "ort": 4810,
      "xoy": 4811,
      "nick": 4812,
      "nghiep": 4813,
      "bìa": 4814,
      "khuya": 4815,
      "fnfn": 4816,
      "smartphone": 4817,
      "đếm": 4818,
      "mlem": 4819,
      "zbzb": 4820,
      "xnxnxnxn": 4821,
      "phut": 4822,
      "Nghĩa": 4823,
      "lưới": 4824,
      "BH": 4825,
      "Bột": 4826,
      "Bệnh": 4827,
      "CỦ": 4828,
      "Càng": 4829,
      "Cay": 4830,
      "Cân": 4831,
      "Cặp": 4832,
      "Dang": 4833,
      "Fa": 4834,
      "Gặp": 4835,
      "Hanh": 4836,
      "Hút": 4837,
      "INH": 4838,
      "Kiệt": 4839,
      "Keo": 4840,
      "MH": 4841,
      "Mời": 4842,
      "Noi": 4843,
      "Nẵng": 4844,
      "Snap": 4845,
      "SẢN": 4846,
      "TO": 4847,
      "Ui": 4848,
      "Vĩnh": 4849,
      "XH": 4850,
      "Xứng": 4851,
      "aka": 4852,
      "bùng": 4853,
      "blue": 4854,
      "cã": 4855,
      "cậy": 4856,
      "dọc": 4857,
      "dựa": 4858,
      "eh": 4859,
      "fpu": 4860,
      "gặm": 4861,
      "hỏ": 4862,
      "hủ": 4863,
      "hen": 4864,
      "hdh": 4865,
      "hiếm": 4866,
      "jsjsj": 4867,
      "kề": 4868,
      "lj": 4869,
      "ln": 4870,
      "lăm": 4871,
      "lộc": 4872,
      "lone": 4873,
      "mí": 4874,
      "mười": 4875,
      "mòn": 4876,
      "nch": 4877,
      "nêu": 4878,
      "nchung": 4879,
      "nệm": 4880,
      "rì": 4881,
      "rỡ": 4882,
      "rao": 4883,
      "rước": 4884,
      "tanh": 4885,
      "tấn": 4886,
      "vb": 4887,
      "vờ": 4888,
      "vch": 4889,
      "vón": 4890,
      "wat": 4891,
      "wow": 4892,
      "xr": 4893,
      "xạ": 4894,
      "xôi": 4895,
      "xiên": 4896,
      "xac": 4897,
      "xbb": 4898,
      "ÀN": 4899,
      "Âu": 4900,
      "ÔN": 4901,
      "ÙNG": 4902,
      "Đa": 4903,
      "đù": 4904,
      "đỉ": 4905,
      "đanh": 4906,
      "đòn": 4907,
      "ẨM": 4908,
      "ằg": 4909,
      "ẸP": 4910,
      "ngửa": 4911,
      "nhồi": 4912,
      "nhợt": 4913,
      "thọ": 4914,
      "thúi": 4915,
      "thách": 4916,
      "trúc": 4917,
      "trùm": 4918,
      "phái": 4919,
      "phẳng": 4920,
      "inter": 4921,
      "gián": 4922,
      "Chống": 4923,
      "Chọn": 4924,
      "Chiếc": 4925,
      "anda": 4926,
      "Thân": 4927,
      "Thảm": 4928,
      "hiu": 4929,
      "kieu": 4930,
      "tutu": 4931,
      "tis": 4932,
      "soan": 4933,
      "hack": 4934,
      "Khó": 4935,
      "diêng": 4936,
      "bar": 4937,
      "sjsn": 4938,
      "liêm": 4939,
      "cuc": 4940,
      "cuoc": 4941,
      "bia": 4942,
      "iiiiiii": 4943,
      "dbdh": 4944,
      "ckck": 4945,
      "delay": 4946,
      "sus": 4947,
      "bốn": 4948,
      "ttttttttt": 4949,
      "Micro": 4950,
      "dhdhdhh": 4951,
      "Huhu": 4952,
      "dndnn": 4953,
      "Real": 4954,
      "Redmi": 4955,
      "xgk": 4956,
      "oooooooo": 4957,
      "CAO": 4958,
      "pppppppppppppppppppppppppppppppp": 4959,
      "pass": 4960,
      "Khoảng": 4961,
      "bỉm": 4962,
      "Cmt": 4963,
      "Corona": 4964,
      "CỦA": 4965,
      "BL": 4966,
      "Bin": 4967,
      "Bắn": 4968,
      "Bếp": 4969,
      "BẠN": 4970,
      "Cơm": 4971,
      "Cắm": 4972,
      "Dành": 4973,
      "DỤNG": 4974,
      "EL": 4975,
      "EM": 4976,
      "Free": 4977,
      "Ga": 4978,
      "Gam": 4979,
      "HK": 4980,
      "Hướng": 4981,
      "KO": 4982,
      "Kỳ": 4983,
      "MO": 4984,
      "Mã": 4985,
      "Mì": 4986,
      "Miền": 4987,
      "NO": 4988,
      "Ncl": 4989,
      "NAM": 4990,
      "NÊN": 4991,
      "Po": 4992,
      "Rong": 4993,
      "Sh": 4994,
      "Sắp": 4995,
      "Sếp": 4996,
      "TA": 4997,
      "Tiếng": 4998,
      "are": 4999,
      "bc": 5000,
      "băn": 5001,
      "bèo": 5002,
      "bão": 5003,
      "cương": 5004,
      "cọc": 5005,
      "dks": 5006,
      "ed": 5007,
      "eii": 5008,
      "gt": 5009,
      "hùm": 5010,
      "jcj": 5011,
      "kẻo": 5012,
      "lk": 5013,
      "mè": 5014,
      "mon": 5015,
      "miết": 5016,
      "nta": 5017,
      "núp": 5018,
      "nịnh": 5019,
      "ox": 5020,
      "pw": 5021,
      "pải": 5022,
      "sf": 5023,
      "sanh": 5024,
      "skk": 5025,
      "sạn": 5026,
      "sml": 5027,
      "tã": 5028,
      "tch": 5029,
      "tẹo": 5030,
      "vcc": 5031,
      "xà": 5032,
      "yu": 5033,
      "yen": 5034,
      "yle": 5035,
      "zu": 5036,
      "ÀI": 5037,
      "ÂY": 5038,
      "ÔI": 5039,
      "ýt": 5040,
      "ĂNG": 5041,
      "ăt": 5042,
      "ĐÃ": 5043,
      "ĐỘ": 5044,
      "ĐẸP": 5045,
      "đạn": 5046,
      "đính": 5047,
      "ẢI": 5048,
      "ẤY": 5049,
      "ẦU": 5050,
      "ngẫu": 5051,
      "ngựa": 5052,
      "nhịp": 5053,
      "chủng": 5054,
      "thò": 5055,
      "giời": 5056,
      "giam": 5057,
      "trồng": 5058,
      "phà": 5059,
      "phước": 5060,
      "phét": 5061,
      "inbox": 5062,
      "hoạch": 5063,
      "ơii": 5064,
      "ama": 5065,
      "Thẻ": 5066,
      "Thề": 5067,
      "hix": 5068,
      "loai": 5069,
      "Giọng": 5070,
      "Nhin": 5071,
      "nhat": 5072,
      "Trả": 5073,
      "doc": 5074,
      "Khanh": 5075,
      "chuc": 5076,
      "macro": 5077,
      "dig": 5078,
      "copy": 5079,
      "film": 5080,
      "Quà": 5081,
      "thuần": 5082,
      "dudu": 5083,
      "nos": 5084,
      "dkdn": 5085,
      "Hoan": 5086,
      "car": 5087,
      "cacao": 5088,
      "del": 5089,
      "thiểu": 5090,
      "xit": 5091,
      "haiz": 5092,
      "atm": 5093,
      "tttttttttttttt": 5094,
      "bank": 5095,
      "Love": 5096,
      "THU": 5097,
      "ntnt": 5098,
      "type": 5099,
      "đun": 5100,
      "ipad": 5101,
      "nguyen": 5102,
      "znzn": 5103,
      "tỏa": 5104,
      "zbz": 5105,
      "Case": 5106,
      "Túm": 5107,
      "MINH": 5108,
      "Max": 5109,
      "phuc": 5110,
      "Ghê": 5111,
      "kksksksks": 5112,
      "Phuong": 5113,
      "avt": 5114,
      "press": 5115,
      "Bá": 5116,
      "Bui": 5117,
      "Bảng": 5118,
      "Cưng": 5119,
      "Của": 5120,
      "Dạ": 5121,
      "Dự": 5122,
      "Dao": 5123,
      "DÂN": 5124,
      "Gb": 5125,
      "Go": 5126,
      "Kẹp": 5127,
      "MB": 5128,
      "Mau": 5129,
      "ND": 5130,
      "Nu": 5131,
      "NÓ": 5132,
      "Nấu": 5133,
      "Page": 5134,
      "Tắt": 5135,
      "Tìm": 5136,
      "Tuyết": 5137,
      "Tấc": 5138,
      "Vo": 5139,
      "VỀ": 5140,
      "Vài": 5141,
      "VỚI": 5142,
      "bv": 5143,
      "bợ": 5144,
      "bậc": 5145,
      "cò": 5146,
      "cđ": 5147,
      "cối": 5148,
      "cuốc": 5149,
      "dò": 5150,
      "dời": 5151,
      "don": 5152,
      "ey": 5153,
      "ejj": 5154,
      "fri": 5155,
      "gđ": 5156,
      "gục": 5157,
      "hùa": 5158,
      "jb": 5159,
      "kq": 5160,
      "kiệt": 5161,
      "lính": 5162,
      "lách": 5163,
      "mạ": 5164,
      "mỳ": 5165,
      "mem": 5166,
      "mịa": 5167,
      "nôn": 5168,
      "nít": 5169,
      "rl": 5170,
      "rv": 5171,
      "rỏ": 5172,
      "rượt": 5173,
      "rành": 5174,
      "sàng": 5175,
      "sta": 5176,
      "tá": 5177,
      "tè": 5178,
      "tơi": 5179,
      "uh": 5180,
      "vđ": 5181,
      "vĩnh": 5182,
      "wy": 5183,
      "woo": 5184,
      "xé": 5185,
      "xỉ": 5186,
      "xăm": 5187,
      "zay": 5188,
      "ÍNH": 5189,
      "ĐH": 5190,
      "Đất": 5191,
      "đậy": 5192,
      "ƯA": 5193,
      "ƯỜ": 5194,
      "ưiii": 5195,
      "ỄN": 5196,
      "ỘI": 5197,
      "ỤC": 5198,
      "ựu": 5199,
      "nhỡ": 5200,
      "nhôm": 5201,
      "chớt": 5202,
      "chèn": 5203,
      "chốn": 5204,
      "china": 5205,
      "thổi": 5206,
      "trật": 5207,
      "pho": 5208,
      "phò": 5209,
      "phế": 5210,
      "phồng": 5211,
      "hoho": 5212,
      "hoac": 5213,
      "okk": 5214,
      "Chuy": 5215,
      "Thuyết": 5216,
      "hhaa": 5217,
      "Tri": 5218,
      "Trâm": 5219,
      "Trưởng": 5220,
      "tia": 5221,
      "tivi": 5222,
      "viêm": 5223,
      "djt": 5224,
      "Phòng": 5225,
      "chuoi": 5226,
      "chiêu": 5227,
      "ngoc": 5228,
      "khoang": 5229,
      "khoăn": 5230,
      "reen": 5231,
      "reac": 5232,
      "mix": 5233,
      "cuồng": 5234,
      "cuộn": 5235,
      "dhdj": 5236,
      "cach": 5237,
      "suc": 5238,
      "fjf": 5239,
      "NHA": 5240,
      "NHẬN": 5241,
      "hihihi": 5242,
      "fup": 5243,
      "mosa": 5244,
      "dựt": 5245,
      "Chia": 5246,
      "mail": 5247,
      "nilong": 5248,
      "dbdbb": 5249,
      "xynos": 5250,
      "ark": 5251,
      "PHẨM": 5252,
      "vkvk": 5253,
      "nhoè": 5254,
      "Live": 5255,
      "QUÁ": 5256,
      "Luật": 5257,
      "Cafe": 5258,
      "virut": 5259,
      "Dell": 5260,
      "blabla": 5261,
      "LED": 5262,
      "laska": 5263,
      "Realme": 5264,
      "Bất": 5265,
      "Bông": 5266,
      "Bớt": 5267,
      "Bởi": 5268,
      "Cục": 5269,
      "Clip": 5270,
      "CÔNG": 5271,
      "DD": 5272,
      "DM": 5273,
      "Hãng": 5274,
      "Ip": 5275,
      "Lỡ": 5276,
      "Mng": 5277,
      "Miệng": 5278,
      "Nào": 5279,
      "Nóng": 5280,
      "SE": 5281,
      "Sing": 5282,
      "SCA": 5283,
      "Tp": 5284,
      "Tệ": 5285,
      "Tinh": 5286,
      "Tiếp": 5287,
      "Vs": 5288,
      "Voucher": 5289,
      "bọ": 5290,
      "bết": 5291,
      "biên": 5292,
      "bưng": 5293,
      "bỏng": 5294,
      "bảy": 5295,
      "cr": 5296,
      "ckh": 5297,
      "cào": 5298,
      "cúng": 5299,
      "df": 5300,
      "dx": 5301,
      "fv": 5302,
      "fal": 5303,
      "gn": 5304,
      "gr": 5305,
      "gs": 5306,
      "gem": 5307,
      "gắm": 5308,
      "hp": 5309,
      "hố": 5310,
      "hán": 5311,
      "hnay": 5312,
      "hjj": 5313,
      "hệt": 5314,
      "ia": 5315,
      "kèo": 5316,
      "ls": 5317,
      "lụ": 5318,
      "lem": 5319,
      "liều": 5320,
      "lầu": 5321,
      "lìn": 5322,
      "lủng": 5323,
      "lệnh": 5324,
      "lúa": 5325,
      "liềm": 5326,
      "lùn": 5327,
      "mìn": 5328,
      "mui": 5329,
      "nưa": 5330,
      "rồng": 5331,
      "rjj": 5332,
      "rãnh": 5333,
      "sdt": 5334,
      "tỏi": 5335,
      "tậu": 5336,
      "vơ": 5337,
      "vênh": 5338,
      "xá": 5339,
      "xỏ": 5340,
      "zy": 5341,
      "ÚC": 5342,
      "âp": 5343,
      "ĐỔ": 5344,
      "Đỉnh": 5345,
      "Đèn": 5346,
      "đx": 5347,
      "đao": 5348,
      "đong": 5349,
      "ỌI": 5350,
      "ỏm": 5351,
      "ỐNG": 5352,
      "ợm": 5353,
      "ỰC": 5354,
      "ngơ": 5355,
      "ngỡ": 5356,
      "nhánh": 5357,
      "chì": 5358,
      "chợt": 5359,
      "thong": 5360,
      "thính": 5361,
      "thủng": 5362,
      "ther": 5363,
      "thép": 5364,
      "thuyền": 5365,
      "khiếu": 5366,
      "giơ": 5367,
      "giành": 5368,
      "giấu": 5369,
      "gitech": 5370,
      "girl": 5371,
      "trá": 5372,
      "trặc": 5373,
      "trym": 5374,
      "pháo": 5375,
      "phẫu": 5376,
      "quãng": 5377,
      "cáu": 5378,
      "inow": 5379,
      "iềng": 5380,
      "giáp": 5381,
      "rand": 5382,
      "air": 5383,
      "okee": 5384,
      "Chui": 5385,
      "luông": 5386,
      "ướm": 5387,
      "shopp": 5388,
      "Nhẹ": 5389,
      "Nhựa": 5390,
      "kiu": 5391,
      "kiem": 5392,
      "Ngủ": 5393,
      "Ngay": 5394,
      "hhe": 5395,
      "hhah": 5396,
      "Trâu": 5397,
      "Triệu": 5398,
      "nhàm": 5399,
      "sic": 5400,
      "tiêm": 5401,
      "tieng": 5402,
      "viu": 5403,
      "kkkkkkk": 5404,
      "dou": 5405,
      "down": 5406,
      "Phân": 5407,
      "Khang": 5408,
      "Khác": 5409,
      "tes": 5410,
      "mag": 5411,
      "dia": 5412,
      "diem": 5413,
      "baba": 5414,
      "dcm": 5415,
      "sjb": 5416,
      "sjsk": 5417,
      "aaaaaa": 5418,
      "snsb": 5419,
      "NGH": 5420,
      "mera": 5421,
      "nova": 5422,
      "dhdhh": 5423,
      "this": 5424,
      "thiet": 5425,
      "style": 5426,
      "eueu": 5427,
      "run": 5428,
      "fun": 5429,
      "band": 5430,
      "THÌ": 5431,
      "clh": 5432,
      "ncnc": 5433,
      "pupg": 5434,
      "Thuỷ": 5435,
      "snsns": 5436,
      "Miễn": 5437,
      "sksn": 5438,
      "sonic": 5439,
      "Top": 5440,
      "ciy": 5441,
      "cici": 5442,
      "xxx": 5443,
      "fast": 5444,
      "offi": 5445,
      "yyyyttttttttt": 5446,
      "QUỐC": 5447,
      "sgsg": 5448,
      "onate": 5449,
      "GIA": 5450,
      "cbcb": 5451,
      "Quynh": 5452,
      "VIỆT": 5453,
      "hhhhhhhhhhhhhhhhhhhhhhhhhhhhhhhh": 5454,
      "vvvvvvvv": 5455,
      "wwwwwwwwwwwwwwww": 5456,
      "tikinow": 5457,
      "snapdragon": 5458,
      "sena": 5459,
      "CÁC": 5460,
      "rrrrrrrrrrrrrrrr": 5461,
      "RAB": 5462,
      "thỏa": 5463,
      "grab": 5464,
      "tuýp": 5465,
      "pqpq": 5466,
      "watch": 5467,
      "Microsoft": 5468,
      "ttttttttttttttyyyyttttttttt": 5469,
      "SCARAB": 5470,
      "Bả": 5471,
      "Bước": 5472,
      "Bọc": 5473,
      "Báo": 5474,
      "DK": 5475,
      "Diện": 5476,
      "Diệp": 5477,
      "EU": 5478,
      "GD": 5479,
      "Gà": 5480,
      "Gọn": 5481,
      "Hhhhhhhhhh": 5482,
      "JBL": 5483,
      "Ka": 5484,
      "Kể": 5485,
      "Kkk": 5486,
      "LA": 5487,
      "Lai": 5488,
      "Lòng": 5489,
      "MM": 5490,
      "Ms": 5491,
      "Mô": 5492,
      "Mac": 5493,
      "Nản": 5494,
      "NAY": 5495,
      "Ong": 5496,
      "Offi": 5497,
      "OPP": 5498,
      "PC": 5499,
      "Pi": 5500,
      "Plus": 5501,
      "Quyền": 5502,
      "Rem": 5503,
      "SI": 5504,
      "Tới": 5505,
      "Tiết": 5506,
      "Tgdd": 5507,
      "Vợ": 5508,
      "Vàng": 5509,
      "Van": 5510,
      "Viết": 5511,
      "ajj": 5512,
      "art": 5513,
      "ben": 5514,
      "ber": 5515,
      "bee": 5516,
      "bdj": 5517,
      "bưu": 5518,
      "côn": 5519,
      "cạch": 5520,
      "dội": 5521,
      "donate": 5522,
      "ebe": 5523,
      "fc": 5524,
      "fkk": 5525,
      "fhh": 5526,
      "feed": 5527,
      "gập": 5528,
      "gót": 5529,
      "hm": 5530,
      "ht": 5531,
      "hem": 5532,
      "hung": 5533,
      "hcm": 5534,
      "ju": 5535,
      "jdjdj": 5536,
      "jaj": 5537,
      "kv": 5538,
      "lố": 5539,
      "lanh": 5540,
      "lứa": 5541,
      "lún": 5542,
      "lều": 5543,
      "mé": 5544,
      "mó": 5545,
      "mầm": 5546,
      "múi": 5547,
      "mộc": 5548,
      "mắng": 5549,
      "mệnh": 5550,
      "nong": 5551,
      "nách": 5552,
      "neu": 5553,
      "nấc": 5554,
      "od": 5555,
      "pc": 5556,
      "pac": 5557,
      "ple": 5558,
      "qc": 5559,
      "rỉ": 5560,
      "rổ": 5561,
      "rắc": 5562,
      "ren": 5563,
      "sỹ": 5564,
      "stt": 5565,
      "tf": 5566,
      "ton": 5567,
      "tản": 5568,
      "tiệt": 5569,
      "tăn": 5570,
      "tiệc": 5571,
      "tone": 5572,
      "tẹt": 5573,
      "use": 5574,
      "ultra": 5575,
      "vm": 5576,
      "xau": 5577,
      "ÀNH": 5578,
      "ÂU": 5579,
      "ÒNG": 5580,
      "ĂN": 5581,
      "ĐM": 5582,
      "Đời": 5583,
      "Đài": 5584,
      "Đau": 5585,
      "Đưa": 5586,
      "Đập": 5587,
      "Đựng": 5588,
      "đua": 5589,
      "điệp": 5590,
      "đắp": 5591,
      "ẢO": 5592,
      "Ấn": 5593,
      "ỐT": 5594,
      "ỒI": 5595,
      "ớc": 5596,
      "ngó": 5597,
      "ngô": 5598,
      "nhì": 5599,
      "nhị": 5600,
      "nhấp": 5601,
      "chk": 5602,
      "chư": 5603,
      "chìa": 5604,
      "chưởi": 5605,
      "thág": 5606,
      "triều": 5607,
      "trăng": 5608,
      "trội": 5609,
      "phe": 5610,
      "cóc": 5611,
      "amo": 5612,
      "okeeee": 5613,
      "okkkkkkkkkkkkkkkkk": 5614,
      "okkkkkkk": 5615,
      "điêu": 5616,
      "Che": 5617,
      "Già": 5618,
      "Giặt": 5619,
      "Giúp": 5620,
      "toả": 5621,
      "tobe": 5622,
      "hột": 5623,
      "Tranh": 5624,
      "Troi": 5625,
      "thoả": 5626,
      "dji": 5627,
      "coh": 5628,
      "cover": 5629,
      "sjf": 5630,
      "sjsb": 5631,
      "tựNội": 5632,
      "bej": 5633,
      "licon": 5634,
      "mie": 5635,
      "TiKi": 5636,
      "bén": 5637,
      "aaaaaaa": 5638,
      "duty": 5639,
      "rome": 5640,
      "ood": 5641,
      "dkm": 5642,
      "chênh": 5643,
      "Hot": 5644,
      "let": 5645,
      "nhiễu": 5646,
      "vei": 5647,
      "shs": 5648,
      "ris": 5649,
      "NHÀ": 5650,
      "xiy": 5651,
      "wep": 5652,
      "CHI": 5653,
      "CHỈ": 5654,
      "CHỊ": 5655,
      "THÔNG": 5656,
      "nter": 5657,
      "Hic": 5658,
      "snsnsnsn": 5659,
      "TRI": 5660,
      "TRUNG": 5661,
      "KHI": 5662,
      "Diễm": 5663,
      "pop": 5664,
      "Soạn": 5665,
      "vía": 5666,
      "QUY": 5667,
      "Nghỉ": 5668,
      "xlh": 5669,
      "vhvh": 5670,
      "Mobi": 5671,
      "Mobile": 5672,
      "kkkkkkkkkkkkkkkkkkkkkkkkkkkkkkkkkkkkkkkkkkkkkkkkkkkkkkkkkkkkkkkk": 5673,
      "đúg": 5674,
      "prime": 5675,
      "nnnnnnnnnnnnnnnnnnnnnnnnnnnnnnnnnnnnnnnnnnnnnnnnnnnnnnnnnnnnnnnn": 5676,
      "screen": 5677,
      "seri": 5678,
      "Minn": 5679,
      "dislike": 5680,
      "Form": 5681,
      "driver": 5682,
      "Galaxy": 5683,
      "ƯỜNG": 5684,
      "Chuyển": 5685,
      "Remote": 5686,
      "AC": 5687,
      "AR": 5688,
      "Add": 5689,
      "BO": 5690,
      "Bật": 5691,
      "Bấm": 5692,
      "Củ": 5693,
      "Cung": 5694,
      "Cương": 5695,
      "DN": 5696,
      "Eo": 5697,
      "FC": 5698,
      "Gu": 5699,
      "Ghi": 5700,
      "HP": 5701,
      "Hành": 5702,
      "Hỏi": 5703,
      "Hội": 5704,
      "HSD": 5705,
      "II": 5706,
      "It": 5707,
      "ICM": 5708,
      "Khoá": 5709,
      "Khong": 5710,
      "Lau": 5711,
      "Lượng": 5712,
      "LGB": 5713,
      "LÊN": 5714,
      "LẠI": 5715,
      "MẠ": 5716,
      "Nc": 5717,
      "Nạp": 5718,
      "Ro": 5719,
      "Rõ": 5720,
      "SB": 5721,
      "SX": 5722,
      "Sờ": 5723,
      "Ty": 5724,
      "Tho": 5725,
      "Tác": 5726,
      "Tuyền": 5727,
      "TẠI": 5728,
      "Tín": 5729,
      "Uy": 5730,
      "VOS": 5731,
      "Xàm": 5732,
      "bần": 5733,
      "cớ": 5734,
      "cúc": 5735,
      "cốt": 5736,
      "dỡ": 5737,
      "dược": 5738,
      "dàn": 5739,
      "exynos": 5740,
      "fbb": 5741,
      "foy": 5742,
      "fpt": 5743,
      "gờ": 5744,
      "gài": 5745,
      "gầy": 5746,
      "ghh": 5747,
      "gác": 5748,
      "gjj": 5749,
      "gap": 5750,
      "hê": 5751,
      "hau": 5752,
      "hây": 5753,
      "hưng": 5754,
      "hơm": 5755,
      "iOS": 5756,
      "kl": 5757,
      "kt": 5758,
      "ken": 5759,
      "lv": 5760,
      "lơ": 5761,
      "lủ": 5762,
      "lạm": 5763,
      "lấp": 5764,
      "lém": 5765,
      "mỉ": 5766,
      "mói": 5767,
      "miến": 5768,
      "msn": 5769,
      "mộng": 5770,
      "nỡ": 5771,
      "nsn": 5772,
      "pj": 5773,
      "pew": 5774,
      "rs": 5775,
      "rò": 5776,
      "rô": 5777,
      "rần": 5778,
      "rủa": 5779,
      "sì": 5780,
      "sọ": 5781,
      "sét": 5782,
      "súp": 5783,
      "sàm": 5784,
      "td": 5785,
      "tx": 5786,
      "tz": 5787,
      "tạ": 5788,
      "tám": 5789,
      "tép": 5790,
      "tòa": 5791,
      "vê": 5792,
      "vấp": 5793,
      "vắng": 5794,
      "vjj": 5795,
      "vườn": 5796,
      "wv": 5797,
      "wá": 5798,
      "wkk": 5799,
      "xù": 5800,
      "xua": 5801,
      "xông": 5802,
      "zị": 5803,
      "znn": 5804,
      "Ít": 5805,
      "Đấy": 5806,
      "Đêm": 5807,
      "Đối": 5808,
      "đỗi": 5809,
      "đực": 5810,
      "đớp": 5811,
      "đũa": 5812,
      "ưiiii": 5813,
      "ẤP": 5814,
      "ẶNG": 5815,
      "ọe": 5816,
      "ỮA": 5817,
      "nga": 5818,
      "ngõ": 5819,
      "ngây": 5820,
      "ngạc": 5821,
      "ngậm": 5822,
      "nhốt": 5823,
      "nhắm": 5824,
      "chau": 5825,
      "chước": 5826,
      "cháo": 5827,
      "chìm": 5828,
      "thầm": 5829,
      "thầu": 5830,
      "ging": 5831,
      "phanh": 5832,
      "qui": 5833,
      "quật": 5834,
      "quoc": 5835,
      "hoy": 5836,
      "ont": 5837,
      "tống": 5838,
      "Chốt": 5839,
      "Cháu": 5840,
      "Thà": 5841,
      "Thơ": 5842,
      "Thao": 5843,
      "shoppe": 5844,
      "high": 5845,
      "toc": 5846,
      "toẹt": 5847,
      "enen": 5848,
      "Trí": 5849,
      "Trẻ": 5850,
      "Truyện": 5851,
      "sis": 5852,
      "site": 5853,
      "ers": 5854,
      "tiger": 5855,
      "tal": 5856,
      "Phản": 5857,
      "Phật": 5858,
      "Khai": 5859,
      "mal": 5860,
      "diy": 5861,
      "khoảnh": 5862,
      "ghen": 5863,
      "Quoc": 5864,
      "vsh": 5865,
      "but": 5866,
      "red": 5867,
      "recomm": 5868,
      "hei": 5869,
      "dùg": 5870,
      "snsj": 5871,
      "NGAY": 5872,
      "NGUY": 5873,
      "kek": 5874,
      "duong": 5875,
      "mes": 5876,
      "room": 5877,
      "shion": 5878,
      "dkg": 5879,
      "dky": 5880,
      "dhd": 5881,
      "case": 5882,
      "bot": 5883,
      "quyên": 5884,
      "shsb": 5885,
      "ria": 5886,
      "karao": 5887,
      "NHẤT": 5888,
      "đoan": 5889,
      "xnx": 5890,
      "xnxm": 5891,
      "ful": 5892,
      "mobi": 5893,
      "uuuuu": 5894,
      "THP": 5895,
      "xoh": 5896,
      "youtobe": 5897,
      "mmmmm": 5898,
      "Hiểu": 5899,
      "ghim": 5900,
      "dndndn": 5901,
      "okila": 5902,
      "Thuỳ": 5903,
      "nek": 5904,
      "Mik": 5905,
      "zjg": 5906,
      "cial": 5907,
      "fnfj": 5908,
      "đkm": 5909,
      "Soan": 5910,
      "Nghèo": 5911,
      "CSVN": 5912,
      "CSKH": 5913,
      "vailon": 5914,
      "yeah": 5915,
      "xbxbxbxb": 5916,
      "dkdkk": 5917,
      "eeeeeeeeeeeeeeeeeeeeeeeeeeeeeeee": 5918,
      "InDo": 5919,
      "gjgjgjgj": 5920,
      "CÁI": 5921,
      "cccccccccccccccc": 5922,
      "amamamam": 5923,
      "dddddddddddddddddddddddddddddddd": 5924,
      "tttttttttttttttttttttttttt": 5925,
      "ytb": 5926,
      "cừi": 5927,
      "nhẽo": 5928,
      "store": 5929,
      "Trump": 5930,
      "word": 5931,
      "fiififi": 5932,
      "hỏa": 5933,
      "internet": 5934,
      "Gaming": 5935,
      "reaction": 5936,
      "OPPO": 5937,
      "LGBT": 5938,
      "AE": 5939,
      "BÁ": 5940,
      "BỊ": 5941,
      "Binh": 5942,
      "Bảnh": 5943,
      "CD": 5944,
      "Clear": 5945,
      "CEO": 5946,
      "DO": 5947,
      "Dc": 5948,
      "Dong": 5949,
      "FM": 5950,
      "Gì": 5951,
      "Han": 5952,
      "Hóa": 5953,
      "HÌNH": 5954,
      "Kb": 5955,
      "Kg": 5956,
      "Kong": 5957,
      "LS": 5958,
      "Lon": 5959,
      "Lực": 5960,
      "Lag": 5961,
      "Lớp": 5962,
      "Mắt": 5963,
      "Mỏng": 5964,
      "Ni": 5965,
      "Ny": 5966,
      "Nệm": 5967,
      "On": 5968,
      "Okkkkkkkkkkkkkkkk": 5969,
      "OLED": 5970,
      "PA": 5971,
      "Pay": 5972,
      "Pau": 5973,
      "Reno": 5974,
      "SM": 5975,
      "Sư": 5976,
      "Sim": 5977,
      "TF": 5978,
      "TS": 5979,
      "TỪ": 5980,
      "Tấm": 5981,
      "Thoi": 5982,
      "TUY": 5983,
      "TẶNG": 5984,
      "Vỏ": 5985,
      "Vụ": 5986,
      "Xo": 5987,
      "Xạo": 5988,
      "bf": 5989,
      "bế": 5990,
      "bới": 5991,
      "bam": 5992,
      "bái": 5993,
      "bựa": 5994,
      "bệt": 5995,
      "bón": 5996,
      "bướm": 5997,
      "cưa": 5998,
      "cuu": 5999,
      "cồng": 6000,
      "cjj": 6001,
      "cúp": 6002,
      "dạn": 6003,
      "dui": 6004,
      "diệu": 6005,
      "ddj": 6006,
      "dhe": 6007,
      "dỏm": 6008,
      "fnn": 6009,
      "ffj": 6010,
      "gkg": 6011,
      "gram": 6012,
      "gel": 6013,
      "hq": 6014,
      "hù": 6015,
      "hắc": 6016,
      "hiệp": 6017,
      "jsi": 6018,
      "kao": 6019,
      "kong": 6020,
      "ksao": 6021,
      "lè": 6022,
      "lổ": 6023,
      "lượ": 6024,
      "lùng": 6025,
      "láng": 6026,
      "lôn": 6027,
      "lột": 6028,
      "lường": 6029,
      "lầy": 6030,
      "lấm": 6031,
      "lốc": 6032,
      "lsa": 6033,
      "luyến": 6034,
      "mw": 6035,
      "mạc": 6036,
      "mầu": 6037,
      "nề": 6038,
      "nộ": 6039,
      "nôi": 6040,
      "nãy": 6041,
      "pay": 6042,
      "qo": 6043,
      "rùa": 6044,
      "sin": 6045,
      "sục": 6046,
      "sụp": 6047,
      "sứt": 6048,
      "tà": 6049,
      "tém": 6050,
      "táp": 6051,
      "tịt": 6052,
      "ud": 6053,
      "vf": 6054,
      "vg": 6055,
      "vèo": 6056,
      "xế": 6057,
      "zv": 6058,
      "zjj": 6059,
      "ÁY": 6060,
      "ÁNG": 6061,
      "Óc": 6062,
      "ÓNG": 6063,
      "ÚNG": 6064,
      "ãm": 6065,
      "ôg": 6066,
      "Đế": 6067,
      "Đố": 6068,
      "ĐỒ": 6069,
      "Đứng": 6070,
      "Địa": 6071,
      "đh": 6072,
      "đọ": 6073,
      "đên": 6074,
      "đớn": 6075,
      "ỀU": 6076,
      "ỌN": 6077,
      "ửng": 6078,
      "ngất": 6079,
      "ngào": 6080,
      "ngưng": 6081,
      "nhó": 6082,
      "nhổ": 6083,
      "nham": 6084,
      "nhây": 6085,
      "nhích": 6086,
      "chừ": 6087,
      "chéo": 6088,
      "chửa": 6089,
      "chùm": 6090,
      "thj": 6091,
      "thắt": 6092,
      "thập": 6093,
      "thím": 6094,
      "trẩu": 6095,
      "phâm": 6096,
      "phảm": 6097,
      "quạo": 6098,
      "quẩy": 6099,
      "chong": 6100,
      "kout": 6101,
      "ran": 6102,
      "ail": 6103,
      "tốtChất": 6104,
      "Chua": 6105,
      "Chau": 6106,
      "Chương": 6107,
      "lui": 6108,
      "kka": 6109,
      "auth": 6110,
      "Thùng": 6111,
      "Thai": 6112,
      "Thường": 6113,
      "Thánh": 6114,
      "gìn": 6115,
      "luônn": 6116,
      "luônnn": 6117,
      "kiêng": 6118,
      "Ngta": 6119,
      "Nguyệt": 6120,
      "tor": 6121,
      "tus": 6122,
      "tuệ": 6123,
      "ttt": 6124,
      "sit": 6125,
      "sing": 6126,
      "silicon": 6127,
      "ere": 6128,
      "viettel": 6129,
      "dom": 6130,
      "djfj": 6131,
      "hag": 6132,
      "Phẩm": 6133,
      "Khung": 6134,
      "Khởi": 6135,
      "chuỗi": 6136,
      "mak": 6137,
      "mar": 6138,
      "main": 6139,
      "dio": 6140,
      "coa": 6141,
      "cotton": 6142,
      "sjg": 6143,
      "vụn": 6144,
      "dag": 6145,
      "dap": 6146,
      "lia": 6147,
      "thuc": 6148,
      "thuoc": 6149,
      "head": 6150,
      "spen": 6151,
      "duc": 6152,
      "rou": 6153,
      "lagen": 6154,
      "hhhhhhh": 6155,
      "Hoà": 6156,
      "boy": 6157,
      "body": 6158,
      "cci": 6159,
      "suýt": 6160,
      "camara": 6161,
      "rieng": 6162,
      "ster": 6163,
      "NHÉ": 6164,
      "mãnh": 6165,
      "haizzz": 6166,
      "ggggggg": 6167,
      "fuo": 6168,
      "uuuuuu": 6169,
      "cjfj": 6170,
      "clg": 6171,
      "clm": 6172,
      "vos": 6173,
      "msk": 6174,
      "muot": 6175,
      "rry": 6176,
      "khôg": 6177,
      "TRONG": 6178,
      "sksk": 6179,
      "dhdhdhdh": 6180,
      "xkx": 6181,
      "wjw": 6182,
      "wjwj": 6183,
      "hàg": 6184,
      "PHÍ": 6185,
      "PHẢI": 6186,
      "duyen": 6187,
      "cece": 6188,
      "vuông": 6189,
      "pod": 6190,
      "TIỀN": 6191,
      "mìh": 6192,
      "bjo": 6193,
      "Luận": 6194,
      "Nghiệp": 6195,
      "nyc": 6196,
      "HOT": 6197,
      "shshsh": 6198,
      "pas": 6199,
      "cúm": 6200,
      "USD": 6201,
      "job": 6202,
      "hhahaha": 6203,
      "Fire": 6204,
      "dndndndndndndndn": 6205,
      "Linda": 6206,
      "túm": 6207,
      "SAO": 6208,
      "zmzm": 6209,
      "lalalalalalalala": 6210,
      "coycoy": 6211,
      "bbbbbbbbbbbbbbbb": 6212,
      "zada": 6213,
      "express": 6214,
      "qqqqqqqq": 6215,
      "hòm": 6216,
      "NÀO": 6217,
      "Snapdragon": 6218,
      "Shin": 6219,
      "NÓI": 6220,
      "ĐỔI": 6221,
      "karaoke": 6222,
      "Paula": 6223,
      "AL": 6224,
      "Ac": 6225,
      "Ar": 6226,
      "Alo": 6227,
      "Adm": 6228,
      "BB": 6229,
      "Bh": 6230,
      "Bù": 6231,
      "Bắp": 6232,
      "Bún": 6233,
      "CK": 6234,
      "Ci": 6235,
      "CÒ": 6236,
      "Cụ": 6237,
      "Cấp": 6238,
      "DMX": 6239,
      "FF": 6240,
      "Fone": 6241,
      "FPT": 6242,
      "GA": 6243,
      "GH": 6244,
      "GAM": 6245,
      "Hư": 6246,
      "Hạn": 6247,
      "Inter": 6248,
      "Kì": 6249,
      "Kiếm": 6250,
      "Lười": 6251,
      "Lạc": 6252,
      "Lừa": 6253,
      "Mao": 6254,
      "Mệt": 6255,
      "NT": 6256,
      "Okkkkkkkkkkkkkkkkkkkkkkkkkkkkkkkk": 6257,
      "Quyết": 6258,
      "SH": 6259,
      "SHI": 6260,
      "TD": 6261,
      "TỰ": 6262,
      "Tạo": 6263,
      "Tỉnh": 6264,
      "Tẩy": 6265,
      "VE": 6266,
      "VÌ": 6267,
      "Vệ": 6268,
      "Việc": 6269,
      "aha": 6270,
      "bệ": 6271,
      "beo": 6272,
      "bến": 6273,
      "bừa": 6274,
      "bui": 6275,
      "bét": 6276,
      "bsj": 6277,
      "cồn": 6278,
      "cal": 6279,
      "cởi": 6280,
      "clear": 6281,
      "dưa": 6282,
      "dmm": 6283,
      "dfb": 6284,
      "dũng": 6285,
      "dgj": 6286,
      "dặm": 6287,
      "eat": 6288,
      "gò": 6289,
      "gào": 6290,
      "gar": 6291,
      "group": 6292,
      "hr": 6293,
      "hv": 6294,
      "hé": 6295,
      "hó": 6296,
      "hường": 6297,
      "hóc": 6298,
      "húp": 6299,
      "jw": 6300,
      "kén": 6301,
      "lú": 6302,
      "lêu": 6303,
      "ler": 6304,
      "lấn": 6305,
      "lội": 6306,
      "mc": 6307,
      "mj": 6308,
      "mảng": 6309,
      "mẩu": 6310,
      "mọt": 6311,
      "nến": 6312,
      "nảy": 6313,
      "pm": 6314,
      "pv": 6315,
      "pad": 6316,
      "rầu": 6317,
      "rỗi": 6318,
      "sữ": 6319,
      "see": 6320,
      "sạo": 6321,
      "she": 6322,
      "sad": 6323,
      "sbb": 6324,
      "sưu": 6325,
      "sat": 6326,
      "srm": 6327,
      "tàng": 6328,
      "tày": 6329,
      "ten": 6330,
      "tuan": 6331,
      "usd": 6332,
      "vx": 6333,
      "vại": 6334,
      "vần": 6335,
      "vắc": 6336,
      "vtv": 6337,
      "vina": 6338,
      "wc": 6339,
      "wksn": 6340,
      "xẻ": 6341,
      "xam": 6342,
      "xẹp": 6343,
      "xưởng": 6344,
      "yết": 6345,
      "zời": 6346,
      "zon": 6347,
      "ÊM": 6348,
      "ÊU": 6349,
      "âc": 6350,
      "êp": 6351,
      "Đù": 6352,
      "Đai": 6353,
      "Đen": 6354,
      "Đội": 6355,
      "ĐẦU": 6356,
      "đồi": 6357,
      "đmm": 6358,
      "Ơn": 6359,
      "ưới": 6360,
      "ẢM": 6361,
      "ẾN": 6362,
      "ếm": 6363,
      "ỌC": 6364,
      "ốg": 6365,
      "ửu": 6366,
      "ỮNG": 6367,
      "ngan": 6368,
      "ngục": 6369,
      "ngừng": 6370,
      "ngẫm": 6371,
      "nhay": 6372,
      "nhột": 6373,
      "nhằng": 6374,
      "nhằm": 6375,
      "chl": 6376,
      "chon": 6377,
      "chải": 6378,
      "chôn": 6379,
      "chưng": 6380,
      "chưi": 6381,
      "chăc": 6382,
      "thy": 6383,
      "thự": 6384,
      "thôn": 6385,
      "thốn": 6386,
      "trau": 6387,
      "trích": 6388,
      "trán": 6389,
      "trọc": 6390,
      "phao": 6391,
      "phẫn": 6392,
      "phộng": 6393,
      "phcm": 6394,
      "lày": 6395,
      "thìa": 6396,
      "qué": 6397,
      "hoả": 6398,
      "nóc": 6399,
      "nhanhhhh": 6400,
      "email": 6401,
      "quát": 6402,
      "okla": 6403,
      "Chỗ": 6404,
      "khát": 6405,
      "luộc": 6406,
      "antutu": 6407,
      "amer": 6408,
      "Thỉnh": 6409,
      "hit": 6410,
      "loạt": 6411,
      "Nhị": 6412,
      "Nhẫn": 6413,
      "kill": 6414,
      "Ngộ": 6415,
      "tottttttttttttttyyyyttttttttt": 6416,
      "độn": 6417,
      "nhaaaaaaaaa": 6418,
      "Truy": 6419,
      "Tránh": 6420,
      "Trắng": 6421,
      "late": 6422,
      "chịch": 6423,
      "vice": 6424,
      "tab": 6425,
      "tap": 6426,
      "djdi": 6427,
      "djsj": 6428,
      "djxj": 6429,
      "soo": 6430,
      "sop": 6431,
      "Phí": 6432,
      "Phượng": 6433,
      "Phía": 6434,
      "Khúc": 6435,
      "chuồng": 6436,
      "chiu": 6437,
      "ghj": 6438,
      "benh": 6439,
      "bede": 6440,
      "belike": 6441,
      "ksm": 6442,
      "kskk": 6443,
      "ling": 6444,
      "mien": 6445,
      "dnsn": 6446,
      "biêt": 6447,
      "dbn": 6448,
      "dbdn": 6449,
      "witch": 6450,
      "xel": 6451,
      "spam": 6452,
      "NGO": 6453,
      "NGON": 6454,
      "kkkkkkkkkk": 6455,
      "hhhhhh": 6456,
      "dkdjdj": 6457,
      "Hoặc": 6458,
      "bolsa": 6459,
      "thing": 6460,
      "thien": 6461,
      "vlon": 6462,
      "nhỉnh": 6463,
      "super": 6464,
      "lly": 6465,
      "kaging": 6466,
      "nhuận": 6467,
      "NHỮNG": 6468,
      "huh": 6469,
      "huống": 6470,
      "gggggg": 6471,
      "oce": 6472,
      "ruru": 6473,
      "CHƯA": 6474,
      "Logitech": 6475,
      "THPT": 6476,
      "THẤY": 6477,
      "Trai": 6478,
      "iiiiiiiii": 6479,
      "linda": 6480,
      "dtk": 6481,
      "tym": 6482,
      "ning": 6483,
      "website": 6484,
      "snsnsnsnsn": 6485,
      "TRỜI": 6486,
      "tream": 6487,
      "kakaka": 6488,
      "nsnn": 6489,
      "KHÁ": 6490,
      "fort": 6491,
      "csgt": 6492,
      "HDMI": 6493,
      "TIN": 6494,
      "WiFi": 6495,
      "AMOLED": 6496,
      "hahahahahahahaha": 6497,
      "Nguoi": 6498,
      "Team": 6499,
      "VID": 6500,
      "mẽo": 6501,
      "sting": 6502,
      "sbsbsb": 6503,
      "anananan": 6504,
      "hihihihihihihihi": 6505,
      "black": 6506,
      "SALE": 6507,
      "kekekeke": 6508,
      "offline": 6509,
      "hâhha": 6510,
      "zzzzzzzzzzzzzzzz": 6511,
      "comeback": 6512,
      "assmin": 6513,
      "LUÔN": 6514,
      "TKC": 6515,
      "meow": 6516,
      "zbzbb": 6517,
      "MobiFone": 6518,
      "router": 6519,
      "Admin": 6520,
      "Bon": 6521,
      "Biên": 6522,
      "Bla": 6523,
      "Bịch": 6524,
      "Bền": 6525,
      "Bol": 6526,
      "Cắt": 6527,
      "Cảnh": 6528,
      "Cửa": 6529,
      "Cậu": 6530,
      "DT": 6531,
      "Dì": 6532,
      "Dăm": 6533,
      "Dkm": 6534,
      "Eu": 6535,
      "Ex": 6536,
      "Gra": 6537,
      "Há": 6538,
      "Hổ": 6539,
      "Hít": 6540,
      "Inn": 6541,
      "JJ": 6542,
      "Ju": 6543,
      "Joh": 6544,
      "Kẻ": 6545,
      "Kha": 6546,
      "Kkkk": 6547,
      "LẮ": 6548,
      "Lớn": 6549,
      "Mb": 6550,
      "Mv": 6551,
      "Mê": 6552,
      "Mề": 6553,
      "Mắc": 6554,
      "OC": 6555,
      "OR": 6556,
      "Pe": 6557,
      "Panda": 6558,
      "Răng": 6559,
      "RAM": 6560,
      "Sn": 6561,
      "SẼ": 6562,
      "SỬ": 6563,
      "Sung": 6564,
      "Tấu": 6565,
      "Uầy": 6566,
      "VC": 6567,
      "Vớ": 6568,
      "Xl": 6569,
      "YO": 6570,
      "bở": 6571,
      "bầy": 6572,
      "bdk": 6573,
      "bổng": 6574,
      "bẩy": 6575,
      "càn": 6576,
      "cọng": 6577,
      "cbb": 6578,
      "cel": 6579,
      "cún": 6580,
      "cọp": 6581,
      "dr": 6582,
      "dú": 6583,
      "dgi": 6584,
      "dksk": 6585,
      "ez": 6586,
      "fz": 6587,
      "fli": 6588,
      "gỉ": 6589,
      "gật": 6590,
      "gầm": 6591,
      "gen": 6592,
      "gồng": 6593,
      "hỉ": 6594,
      "hỡ": 6595,
      "hanh": 6596,
      "hàu": 6597,
      "icon": 6598,
      "icm": 6599,
      "jg": 6600,
      "jt": 6601,
      "jxj": 6602,
      "kô": 6603,
      "kdj": 6604,
      "ktra": 6605,
      "kfk": 6606,
      "lề": 6607,
      "lua": 6608,
      "lặp": 6609,
      "lượn": 6610,
      "lsl": 6611,
      "llagen": 6612,
      "mư": 6613,
      "mợ": 6614,
      "mơi": 6615,
      "mần": 6616,
      "mạn": 6617,
      "miệt": 6618,
      "nỉ": 6619,
      "năn": 6620,
      "nạt": 6621,
      "nặn": 6622,
      "okokokokokok": 6623,
      "rf": 6624,
      "rả": 6625,
      "rợ": 6626,
      "rọi": 6627,
      "ráo": 6628,
      "rạch": 6629,
      "rứa": 6630,
      "sr": 6631,
      "sứ": 6632,
      "sầu": 6633,
      "sút": 6634,
      "sảy": 6635,
      "tq": 6636,
      "tong": 6637,
      "teo": 6638,
      "tưng": 6639,
      "tánh": 6640,
      "tsu": 6641,
      "uf": 6642,
      "vp": 6643,
      "vù": 6644,
      "vat": 6645,
      "vẩy": 6646,
      "vẫy": 6647,
      "wg": 6648,
      "way": 6649,
      "xắc": 6650,
      "xào": 6651,
      "xưng": 6652,
      "xảo": 6653,
      "xmm": 6654,
      "xjj": 6655,
      "ya": 6656,
      "zer": 6657,
      "ÉO": 6658,
      "àk": 6659,
      "ôk": 6660,
      "õng": 6661,
      "ĂM": 6662,
      "ĐỂ": 6663,
      "Đan": 6664,
      "Đàn": 6665,
      "Đạo": 6666,
      "Đệm": 6667,
      "đay": 6668,
      "đan": 6669,
      "điếc": 6670,
      "ẠP": 6671,
      "ỂM": 6672,
      "ỆU": 6673,
      "ọa": 6674,
      "Ổng": 6675,
      "ngt": 6676,
      "ngốc": 6677,
      "nguyền": 6678,
      "ngợm": 6679,
      "nhóc": 6680,
      "chọi": 6681,
      "chen": 6682,
      "chánh": 6683,
      "chổi": 6684,
      "chplay": 6685,
      "thạch": 6686,
      "tháp": 6687,
      "thât": 6688,
      "khau": 6689,
      "khẳng": 6690,
      "giông": 6691,
      "giãy": 6692,
      "trg": 6693,
      "try": 6694,
      "trọ": 6695,
      "trương": 6696,
      "phin": 6697,
      "phẩn": 6698,
      "photo": 6699,
      "ini": 6700,
      "hom": 6701,
      "hoạn": 6702,
      "homie": 6703,
      "ơiiiii": 6704,
      "ami": 6705,
      "Chánh": 6706,
      "Chấp": 6707,
      "bịa": 6708,
      "lub": 6709,
      "luân": 6710,
      "đóm": 6711,
      "Thang": 6712,
      "Thượng": 6713,
      "Thiệt": 6714,
      "Thức": 6715,
      "Thăng": 6716,
      "quad": 6717,
      "Gil": 6718,
      "Giật": 6719,
      "Nhan": 6720,
      "Nhiệt": 6721,
      "Nhục": 6722,
      "kid": 6723,
      "kiep": 6724,
      "tom": 6725,
      "totttttttttttttttttttttttttt": 6726,
      "Tre": 6727,
      "sisj": 6728,
      "lass": 6729,
      "ery": 6730,
      "tic": 6731,
      "tieu": 6732,
      "xur": 6733,
      "xuong": 6734,
      "ving": 6735,
      "djk": 6736,
      "djs": 6737,
      "some": 6738,
      "has": 6739,
      "Phường": 6740,
      "Khả": 6741,
      "Khóc": 6742,
      "chun": 6743,
      "chien": 6744,
      "ted": 6745,
      "did": 6746,
      "die": 6747,
      "ggd": 6748,
      "bab": 6749,
      "fim": 6750,
      "Quản": 6751,
      "Quật": 6752,
      "burn": 6753,
      "micro": 6754,
      "cuo": 6755,
      "dnj": 6756,
      "hel": 6757,
      "heu": 6758,
      "Tikin": 6759,
      "dbsj": 6760,
      "ppppp": 6761,
      "spi": 6762,
      "nnnnnnn": 6763,
      "duo": 6764,
      "duoi": 6765,
      "sear": 6766,
      "dkdj": 6767,
      "kìm": 6768,
      "leg": 6769,
      "mềnh": 6770,
      "vll": 6771,
      "shdh": 6772,
      "sbsj": 6773,
      "okey": 6774,
      "NHI": 6775,
      "NHANH": 6776,
      "sales": 6777,
      "huấn": 6778,
      "xig": 6779,
      "tttttttttttt": 6780,
      "rus": 6781,
      "mom": 6782,
      "mode": 6783,
      "CHU": 6784,
      "CHẤT": 6785,
      "Loạn": 6786,
      "THẺ": 6787,
      "THỨ": 6788,
      "THAY": 6789,
      "xoa": 6790,
      "xoài": 6791,
      "xoắn": 6792,
      "your": 6793,
      "skin": 6794,
      "Tuần": 6795,
      "fkf": 6796,
      "đuỹ": 6797,
      "xhcn": 6798,
      "Thịt": 6799,
      "fhj": 6800,
      "xyo": 6801,
      "Nhưg": 6802,
      "Tom": 6803,
      "wjfj": 6804,
      "Huong": 6805,
      "vjvj": 6806,
      "dyl": 6807,
      "znzb": 6808,
      "vuvu": 6809,
      "ksksksks": 6810,
      "ofou": 6811,
      "TINH": 6812,
      "hdsd": 6813,
      "fjfjfj": 6814,
      "Lisa": 6815,
      "khía": 6816,
      "fect": 6817,
      "Hahaha": 6818,
      "Cuong": 6819,
      "Cute": 6820,
      "MIỄN": 6821,
      "pig": 6822,
      "lens": 6823,
      "ollow": 6824,
      "vietnam": 6825,
      "ƯỢNG": 6826,
      "Hehe": 6827,
      "kokokokokokokokokokokokokokokoko": 6828,
      "COVID": 6829,
      "NNNN": 6830,
      "xxxxxxxx": 6831,
      "smsm": 6832,
      "OkikokokokokokOkikokokokokokOkikokokokokokOkikokokokokok": 6833,
      "Rubik": 6834,
      "feedback": 6835,
      "amoled": 6836,
      "recommend": 6837,
      "SMS": 6838,
      "CÒN": 6839,
      "Internet": 6840,
      "Mềm": 6841,
      "Tikinow": 6842,
      "Au": 6843,
      "Ahihi": 6844,
      "BT": 6845,
      "Bò": 6846,
      "BỘ": 6847,
      "Bến": 6848,
      "Bạch": 6849,
      "Canh": 6850,
      "Cáp": 6851,
      "Call": 6852,
      "CAM": 6853,
      "CPU": 6854,
      "DE": 6855,
      "DS": 6856,
      "Dn": 6857,
      "Dơ": 6858,
      "DỊ": 6859,
      "Dày": 6860,
      "Dưỡng": 6861,
      "DAT": 6862,
      "EI": 6863,
      "FI": 6864,
      "HÔ": 6865,
      "Hí": 6866,
      "Hỗ": 6867,
      "HỘ": 6868,
      "Hên": 6869,
      "Hao": 6870,
      "Hân": 6871,
      "Hung": 6872,
      "HAY": 6873,
      "HƠN": 6874,
      "Ib": 6875,
      "Iu": 6876,
      "KY": 6877,
      "Kí": 6878,
      "Kéo": 6879,
      "LI": 6880,
      "Lí": 6881,
      "Làng": 6882,
      "Lục": 6883,
      "Lạy": 6884,
      "Lịch": 6885,
      "Luu": 6886,
      "Lều": 6887,
      "MN": 6888,
      "Mát": 6889,
      "Mộc": 6890,
      "Mãnh": 6891,
      "NQ": 6892,
      "Nổ": 6893,
      "Nữ": 6894,
      "Nho": 6895,
      "Nchung": 6896,
      "New": 6897,
      "Nón": 6898,
      "NƯỚC": 6899,
      "NẠP": 6900,
      "QR": 6901,
      "Quyên": 6902,
      "RF": 6903,
      "RỒI": 6904,
      "SU": 6905,
      "Sd": 6906,
      "Sông": 6907,
      "Suy": 6908,
      "Súng": 6909,
      "Ser": 6910,
      "Set": 6911,
      "Sty": 6912,
      "Tày": 6913,
      "Tang": 6914,
      "Tôn": 6915,
      "Toi": 6916,
      "TPH": 6917,
      "Tụt": 6918,
      "Ultra": 6919,
      "Vượng": 6920,
      "Viền": 6921,
      "Vấn": 6922,
      "Win": 6923,
      "Web": 6924,
      "XO": 6925,
      "XU": 6926,
      "Xao": 6927,
      "Xưa": 6928,
      "Xạc": 6929,
      "Yen": 6930,
      "akk": 6931,
      "aks": 6932,
      "alaska": 6933,
      "bổn": 6934,
      "bầm": 6935,
      "bục": 6936,
      "bạt": 6937,
      "bển": 6938,
      "bim": 6939,
      "brand": 6940,
      "cạ": 6941,
      "cở": 6942,
      "cgi": 6943,
      "cra": 6944,
      "cúi": 6945,
      "cpu": 6946,
      "dứa": 6947,
      "dram": 6948,
      "era": 6949,
      "eye": 6950,
      "fgh": 6951,
      "fly": 6952,
      "fom": 6953,
      "font": 6954,
      "gm": 6955,
      "gạ": 6956,
      "gợi": 6957,
      "gẫy": 6958,
      "hẫ": 6959,
      "hất": 6960,
      "hói": 6961,
      "hắt": 6962,
      "hsau": 6963,
      "hổi": 6964,
      "hee": 6965,
      "hửi": 6966,
      "hịn": 6967,
      "hsd": 6968,
      "hrm": 6969,
      "jai": 6970,
      "jdn": 6971,
      "jdh": 6972,
      "kc": 6973,
      "ker": 6974,
      "kcn": 6975,
      "klq": 6976,
      "lói": 6977,
      "lặt": 6978,
      "lậy": 6979,
      "lạng": 6980,
      "lèo": 6981,
      "lứt": 6982,
      "lùm": 6983,
      "lởm": 6984,
      "mừ": 6985,
      "mải": 6986,
      "mạt": 6987,
      "mõi": 6988,
      "nf": 6989,
      "nài": 6990,
      "nấm": 6991,
      "nếp": 6992,
      "nãn": 6993,
      "nín": 6994,
      "núm": 6995,
      "oanh": 6996,
      "oon": 6997,
      "ore": 6998,
      "oder": 6999,
      "pet": 7000,
      "rồ": 7001,
      "rải": 7002,
      "rinh": 7003,
      "rỗng": 7004,
      "sước": 7005,
      "sưng": 7006,
      "suu": 7007,
      "sđt": 7008,
      "sọt": 7009,
      "sườn": 7010,
      "tw": 7011,
      "tò": 7012,
      "tét": 7013,
      "tàm": 7014,
      "tggd": 7015,
      "vỗ": 7016,
      "vung": 7017,
      "vọc": 7018,
      "vướng": 7019,
      "vali": 7020,
      "wr": 7021,
      "xơ": 7022,
      "xéo": 7023,
      "xóc": 7024,
      "zl": 7025,
      "zs": 7026,
      "zgj": 7027,
      "ztk": 7028,
      "ÁI": 7029,
      "ÂM": 7030,
      "Ân": 7031,
      "ÍCH": 7032,
      "ÓC": 7033,
      "ák": 7034,
      "ôt": 7035,
      "Đĩ": 7036,
      "Đỡ": 7037,
      "Đứa": 7038,
      "Đùa": 7039,
      "đẽ": 7040,
      "đọng": 7041,
      "đhs": 7042,
      "đéc": 7043,
      "ƯNG": 7044,
      "ươn": 7045,
      "ưiiiii": 7046,
      "ẠO": 7047,
      "ạh": 7048,
      "ẢNH": 7049,
      "ẤU": 7050,
      "ẦY": 7051,
      "ẮC": 7052,
      "ỂN": 7053,
      "ễng": 7054,
      "ịu": 7055,
      "ỎI": 7056,
      "ỐI": 7057,
      "ỗn": 7058,
      "ỡn": 7059,
      "ỪNG": 7060,
      "ỬI": 7061,
      "ngả": 7062,
      "ngóng": 7063,
      "ngòi": 7064,
      "nhè": 7065,
      "nhí": 7066,
      "nhọn": 7067,
      "nhím": 7068,
      "cham": 7069,
      "chiết": 7070,
      "chắt": 7071,
      "chác": 7072,
      "chấn": 7073,
      "chụy": 7074,
      "thk": 7075,
      "thổ": 7076,
      "thặc": 7077,
      "thít": 7078,
      "thằg": 7079,
      "khè": 7080,
      "khống": 7081,
      "khoi": 7082,
      "giu": 7083,
      "giup": 7084,
      "giun": 7085,
      "trẽ": 7086,
      "trồ": 7087,
      "triệt": 7088,
      "phì": 7089,
      "phó": 7090,
      "phèo": 7091,
      "quơ": 7092,
      "vành": 7093,
      "ins": 7094,
      "inox": 7095,
      "hoay": 7096,
      "nhanhhhhhhhhh": 7097,
      "koo": 7098,
      "đẹpKhăn": 7099,
      "okkk": 7100,
      "Chj": 7101,
      "Chang": 7102,
      "Chinh": 7103,
      "bịnh": 7104,
      "khán": 7105,
      "củi": 7106,
      "ans": 7107,
      "ant": 7108,
      "any": 7109,
      "amen": 7110,
      "Tháng": 7111,
      "lắmm": 7112,
      "hien": 7113,
      "lozz": 7114,
      "Giả": 7115,
      "Nhiên": 7116,
      "Nhập": 7117,
      "Nhat": 7118,
      "Nhím": 7119,
      "đãng": 7120,
      "ene": 7121,
      "tup": 7122,
      "tuii": 7123,
      "tuấn": 7124,
      "nhac": 7125,
      "hhee": 7126,
      "nhàu": 7127,
      "thoy": 7128,
      "xuxu": 7129,
      "viễn": 7130,
      "doh": 7131,
      "doạ": 7132,
      "uiTốt": 7133,
      "dje": 7134,
      "soso": 7135,
      "sorry": 7136,
      "have": 7137,
      "hard": 7138,
      "Khô": 7139,
      "Khải": 7140,
      "Khỏi": 7141,
      "chuỵ": 7142,
      "khoác": 7143,
      "bag": 7144,
      "cod": 7145,
      "cou": 7146,
      "covi": 7147,
      "cool": 7148,
      "sjjsj": 7149,
      "ghẻ": 7150,
      "Quỹ": 7151,
      "Quận": 7152,
      "beb": 7153,
      "ddr": 7154,
      "ddy": 7155,
      "vsb": 7156,
      "bum": 7157,
      "buông": 7158,
      "ksg": 7159,
      "refund": 7160,
      "ssa": 7161,
      "tệp": 7162,
      "dbx": 7163,
      "spa": 7164,
      "NGU": 7165,
      "ket": 7166,
      "duct": 7167,
      "setup": 7168,
      "chuyền": 7169,
      "kkkkkkkkkkkk": 7170,
      "cky": 7171,
      "cart": 7172,
      "ccj": 7173,
      "tuyêt": 7174,
      "sum": 7175,
      "shsj": 7176,
      "cammera": 7177,
      "thịnh": 7178,
      "riêu": 7179,
      "huỷ": 7180,
      "eeeee": 7181,
      "eeeeee": 7182,
      "djdjd": 7183,
      "djdjdn": 7184,
      "ggggg": 7185,
      "xndn": 7186,
      "xnxj": 7187,
      "moẹ": 7188,
      "more": 7189,
      "modem": 7190,
      "CHÓ": 7191,
      "CHÍNH": 7192,
      "Air": 7193,
      "khum": 7194,
      "Chịu": 7195,
      "THẾ": 7196,
      "youtu": 7197,
      "mmmmmm": 7198,
      "iiiiiiiiiiiiii": 7199,
      "ncnn": 7200,
      "Virus": 7201,
      "Tuyển": 7202,
      "xbn": 7203,
      "chữi": 7204,
      "aga": 7205,
      "skn": 7206,
      "sksj": 7207,
      "Thuong": 7208,
      "dbdbdb": 7209,
      "vas": 7210,
      "fhf": 7211,
      "apa": 7212,
      "TRỊ": 7213,
      "TRẦN": 7214,
      "sax": 7215,
      "sach": 7216,
      "zjf": 7217,
      "Camara": 7218,
      "KHO": 7219,
      "huhuhu": 7220,
      "fnf": 7221,
      "chuan": 7222,
      "hangg": 7223,
      "freefire": 7224,
      "gold": 7225,
      "znz": 7226,
      "cnxn": 7227,
      "ksksk": 7228,
      "ksksks": 7229,
      "cmnl": 7230,
      "combank": 7231,
      "CMND": 7232,
      "lqmb": 7233,
      "wkw": 7234,
      "jjjjj": 7235,
      "KICM": 7236,
      "xmxn": 7237,
      "HOA": 7238,
      "yea": 7239,
      "year": 7240,
      "Mom": 7241,
      "Susan": 7242,
      "woao": 7243,
      "gygy": 7244,
      "đàoNgon": 7245,
      "Tefal": 7246,
      "djdjdjdjdjdjdjdj": 7247,
      "where": 7248,
      "dbbdbdb": 7249,
      "Khoe": 7250,
      "ajajajaj": 7251,
      "Chíp": 7252,
      "Vietnam": 7253,
      "SAU": 7254,
      "HIẾU": 7255,
      "rkrk": 7256,
      "zmz": 7257,
      "ViettelPay": 7258,
      "sbsbb": 7259,
      "Lazada": 7260,
      "mmmmmmmmmmmmmmmmmmmmmmmmmmmmmmmm": 7261,
      "anasonic": 7262,
      "Truong": 7263,
      "cjcjj": 7264,
      "Sena": 7265,
      "Senka": 7266,
      "doydoy": 7267,
      "jjjjjjjjjjjjjjjj": 7268,
      "CẢM": 7269,
      "Combo": 7270,
      "MÀU": 7271,
      "hehee": 7272,
      "ngươi": 7273,
      "blutooth": 7274,
      "Fake": 7275,
      "kềnh": 7276,
      "friend": 7277,
      "lụa": 7278,
      "office": 7279,
      "packaging": 7280,
      "TFT": 7281,
      "Active": 7282,
      "Black": 7283,
      "Bolsa": 7284,
      "hello": 7285,
      "search": 7286,
      "Style": 7287,
      "TPHCM": 7288,
      "hẫng": 7289,
      "ABe": 7290,
      "Alaska": 7291,
      "BE": 7292,
      "BU": 7293,
      "Bổ": 7294,
      "Bay": 7295,
      "Ben": 7296,
      "Béo": 7297,
      "Bơm": 7298,
      "Cờ": 7299,
      "Chàng": 7300,
      "Cang": 7301,
      "Cre": 7302,
      "Cty": 7303,
      "CTV": 7304,
      "CỰC": 7305,
      "Day": 7306,
      "Don": 7307,
      "Diên": 7308,
      "Diệt": 7309,
      "Dạng": 7310,
      "Dep": 7311,
      "FA": 7312,
      "FE": 7313,
      "GÌ": 7314,
      "Gái": 7315,
      "Góc": 7316,
      "GHz": 7317,
      "GỌI": 7318,
      "HH": 7319,
      "Hán": 7320,
      "Hèn": 7321,
      "HẾT": 7322,
      "ID": 7323,
      "IQ": 7324,
      "IOS": 7325,
      "JPH": 7326,
      "KT": 7327,
      "Kêu": 7328,
      "LÝ": 7329,
      "Lỗ": 7330,
      "Lao": 7331,
      "Lee": 7332,
      "Lắm": 7333,
      "Lót": 7334,
      "Lap": 7335,
      "LAN": 7336,
      "LIN": 7337,
      "LƯỢNG": 7338,
      "MÃ": 7339,
      "Mé": 7340,
      "Màng": 7341,
      "Mưa": 7342,
      "Mức": 7343,
      "Mốt": 7344,
      "Mat": 7345,
      "Mar": 7346,
      "Mồm": 7347,
      "MỌI": 7348,
      "MÁY": 7349,
      "Ns": 7350,
      "Nể": 7351,
      "Nai": 7352,
      "Nến": 7353,
      "Neu": 7354,
      "Nằm": 7355,
      "Oanh": 7356,
      "Ord": 7357,
      "PR": 7358,
      "Pha": 7359,
      "Play": 7360,
      "Park": 7361,
      "RI": 7362,
      "Rom": 7363,
      "Ss": 7364,
      "SƯ": 7365,
      "Sổ": 7366,
      "Sho": 7367,
      "Sức": 7368,
      "Sợi": 7369,
      "Sắm": 7370,
      "TE": 7371,
      "Tớ": 7372,
      "Tử": 7373,
      "Tương": 7374,
      "Tuyên": 7375,
      "Tịch": 7376,
      "Tim": 7377,
      "Tĩnh": 7378,
      "Tùy": 7379,
      "TỘI": 7380,
      "TỐT": 7381,
      "UV": 7382,
      "Va": 7383,
      "VÔ": 7384,
      "VỊ": 7385,
      "Vỹ": 7386,
      "Vcl": 7387,
      "Vina": 7388,
      "Wow": 7389,
      "Xa": 7390,
      "ach": 7391,
      "bx": 7392,
      "bõ": 7393,
      "bấy": 7394,
      "bal": 7395,
      "bồng": 7396,
      "boo": 7397,
      "bướng": 7398,
      "biếng": 7399,
      "bỗng": 7400,
      "bẫy": 7401,
      "boom": 7402,
      "bằg": 7403,
      "cp": 7404,
      "cta": 7405,
      "căm": 7406,
      "cli": 7407,
      "cre": 7408,
      "còi": 7409,
      "cựu": 7410,
      "dử": 7411,
      "dọng": 7412,
      "dồn": 7413,
      "dùi": 7414,
      "dbe": 7415,
      "dốc": 7416,
      "dke": 7417,
      "dứt": 7418,
      "fr": 7419,
      "flag": 7420,
      "fou": 7421,
      "follow": 7422,
      "gx": 7423,
      "gù": 7424,
      "goc": 7425,
      "gfy": 7426,
      "hf": 7427,
      "hl": 7428,
      "hx": 7429,
      "hờ": 7430,
      "hẹp": 7431,
      "hòn": 7432,
      "hiên": 7433,
      "hầm": 7434,
      "hầy": 7435,
      "hdj": 7436,
      "hsj": 7437,
      "hách": 7438,
      "hạch": 7439,
      "hớt": 7440,
      "hót": 7441,
      "hxh": 7442,
      "hụi": 7443,
      "if": 7444,
      "ion": 7445,
      "iem": 7446,
      "itel": 7447,
      "jf": 7448,
      "jv": 7449,
      "jsn": 7450,
      "jsh": 7451,
      "jfj": 7452,
      "jns": 7453,
      "kẽ": 7454,
      "kll": 7455,
      "lf": 7456,
      "lé": 7457,
      "lừ": 7458,
      "lơi": 7459,
      "láy": 7460,
      "lla": 7461,
      "léo": 7462,
      "lquan": 7463,
      "lám": 7464,
      "lộng": 7465,
      "lặn": 7466,
      "lén": 7467,
      "mă": 7468,
      "mên": 7469,
      "mam": 7470,
      "mược": 7471,
      "mâu": 7472,
      "mầy": 7473,
      "mét": 7474,
      "nm": 7475,
      "nin": 7476,
      "nực": 7477,
      "nka": 7478,
      "nẵng": 7479,
      "oa": 7480,
      "ob": 7481,
      "pà": 7482,
      "pua": 7483,
      "pri": 7484,
      "panda": 7485,
      "qn": 7486,
      "rp": 7487,
      "rờ": 7488,
      "rật": 7489,
      "rán": 7490,
      "rơm": 7491,
      "rèn": 7492,
      "rủi": 7493,
      "rìa": 7494,
      "sả": 7495,
      "stu": 7496,
      "sảo": 7497,
      "sui": 7498,
      "sấm": 7499,
      "ska": 7500,
      "sáu": 7501,
      "swoao": 7502,
      "táng": 7503,
      "tạc": 7504,
      "tành": 7505,
      "tảng": 7506,
      "tèo": 7507,
      "tâng": 7508,
      "tnao": 7509,
      "tĩu": 7510,
      "tdjt": 7511,
      "tphcm": 7512,
      "uch": 7513,
      "uiii": 7514,
      "vó": 7515,
      "vạ": 7516,
      "vọ": 7517,
      "vạn": 7518,
      "vạy": 7519,
      "vét": 7520,
      "vãn": 7521,
      "wp": 7522,
      "won": 7523,
      "wai": 7524,
      "wjj": 7525,
      "what": 7526,
      "xkh": 7527,
      "xhh": 7528,
      "ybe": 7529,
      "zt": 7530,
      "ÀY": 7531,
      "ÁT": 7532,
      "Ái": 7533,
      "Áp": 7534,
      "ÈO": 7535,
      "ÚT": 7536,
      "âý": 7537,
      "ăg": 7538,
      "ĐN": 7539,
      "Đô": 7540,
      "Đú": 7541,
      "Đần": 7542,
      "Điệp": 7543,
      "Đcm": 7544,
      "Đkm": 7545,
      "ĐỨC": 7546,
      "ĐĂNG": 7547,
      "ĐỪNG": 7548,
      "đư": 7549,
      "đố": 7550,
      "đở": 7551,
      "đơi": 7552,
      "đúc": 7553,
      "đách": 7554,
      "đjj": 7555,
      "ẠC": 7556,
      "ẠM": 7557,
      "ẬP": 7558,
      "ẮT": 7559,
      "ẶT": 7560,
      "ếch": 7561,
      "ểng": 7562,
      "Ốc": 7563,
      "ỒN": 7564,
      "ợc": 7565,
      "Ứng": 7566,
      "ứg": 7567,
      "ỵt": 7568,
      "ngớ": 7569,
      "ngơi": 7570,
      "ngoi": 7571,
      "ngợi": 7572,
      "ngốn": 7573,
      "nhô": 7574,
      "nhũ": 7575,
      "nhơ": 7576,
      "nhọ": 7577,
      "nhữ": 7578,
      "nhem": 7579,
      "nhang": 7580,
      "nhào": 7581,
      "nhát": 7582,
      "nhou": 7583,
      "chx": 7584,
      "chử": 7585,
      "chùng": 7586,
      "chạp": 7587,
      "chym": 7588,
      "thw": 7589,
      "thét": 7590,
      "thiệc": 7591,
      "khà": 7592,
      "khanh": 7593,
      "khôi": 7594,
      "khâm": 7595,
      "khập": 7596,
      "gil": 7597,
      "giã": 7598,
      "giề": 7599,
      "gion": 7600,
      "gióng": 7601,
      "trơ": 7602,
      "triết": 7603,
      "trắc": 7604,
      "trừng": 7605,
      "trèo": 7606,
      "phô": 7607,
      "phả": 7608,
      "phệ": 7609,
      "inb": 7610,
      "hoành": 7611,
      "house": 7612,
      "nhanhh": 7613,
      "giáng": 7614,
      "rank": 7615,
      "quánh": 7616,
      "đii": 7617,
      "Cha": 7618,
      "Chao": 7619,
      "Chan": 7620,
      "Chăm": 7621,
      "Chấm": 7622,
      "Chim": 7623,
      "Chỉnh": 7624,
      "China": 7625,
      "Chrome": 7626,
      "bịp": 7627,
      "lunnn": 7628,
      "luot": 7629,
      "ướn": 7630,
      "ann": 7631,
      "ansn": 7632,
      "Thy": 7633,
      "Thọ": 7634,
      "hiii": 7635,
      "loay": 7636,
      "loang": 7637,
      "saoooo": 7638,
      "Giữ": 7639,
      "Giận": 7640,
      "Gian": 7641,
      "Nhựt": 7642,
      "chỉn": 7643,
      "kien": 7644,
      "kicm": 7645,
      "nhậndkd": 7646,
      "Nge": 7647,
      "Ngũ": 7648,
      "toà": 7649,
      "toét": 7650,
      "tore": 7651,
      "ena": 7652,
      "tum": 7653,
      "tur": 7654,
      "tut": 7655,
      "oiswoao": 7656,
      "tte": 7657,
      "tter": 7658,
      "Trư": 7659,
      "Treo": 7660,
      "Trái": 7661,
      "Trăm": 7662,
      "Trãi": 7663,
      "sil": 7664,
      "sisi": 7665,
      "sign": 7666,
      "đâuu": 7667,
      "lat": 7668,
      "tiu": 7669,
      "tify": 7670,
      "xuôi": 7671,
      "viê": 7672,
      "tain": 7673,
      "taxi": 7674,
      "table": 7675,
      "dows": 7676,
      "djdnd": 7677,
      "sow": 7678,
      "happy": 7679,
      "Phê": 7680,
      "Phím": 7681,
      "chuộng": 7682,
      "chill": 7683,
      "mast": 7684,
      "dida": 7685,
      "album": 7686,
      "cov": 7687,
      "coco": 7688,
      "collagen": 7689,
      "sjdn": 7690,
      "ghet": 7691,
      "Quét": 7692,
      "ddd": 7693,
      "vsf": 7694,
      "liu": 7695,
      "life": 7696,
      "liễu": 7697,
      "thue": 7698,
      "miss": 7699,
      "cup": 7700,
      "custo": 7701,
      "nghĩnh": 7702,
      "bibi": 7703,
      "heal": 7704,
      "xinhh": 7705,
      "sss": 7706,
      "dbfb": 7707,
      "pppppp": 7708,
      "wiffi": 7709,
      "splay": 7710,
      "NGHI": 7711,
      "dut": 7712,
      "roài": 7713,
      "rofi": 7714,
      "ooc": 7715,
      "kkkkkkkkkkkkk": 7716,
      "chêt": 7717,
      "levi": 7718,
      "thiêu": 7719,
      "ccjcj": 7720,
      "hahah": 7721,
      "sur": 7722,
      "supp": 7723,
      "shsi": 7724,
      "shbag": 7725,
      "ric": 7726,
      "rist": 7727,
      "hum": 7728,
      "xixi": 7729,
      "VNA": 7730,
      "djdjdkdk": 7731,
      "haizzzz": 7732,
      "đoá": 7733,
      "đoạt": 7734,
      "rut": 7735,
      "fufu": 7736,
      "moá": 7737,
      "Lol": 7738,
      "khuân": 7739,
      "THEO": 7740,
      "THÀNH": 7741,
      "xoáy": 7742,
      "clone": 7743,
      "nuôn": 7744,
      "promax": 7745,
      "product": 7746,
      "vnch": 7747,
      "xbx": 7748,
      "High": 7749,
      "nis": 7750,
      "đuợc": 7751,
      "dbdbd": 7752,
      "dmd": 7753,
      "xhk": 7754,
      "xhxj": 7755,
      "apore": 7756,
      "Mic": 7757,
      "sksoiswoao": 7758,
      "xyi": 7759,
      "Chuc": 7760,
      "zjsj": 7761,
      "ard": 7762,
      "cit": 7763,
      "Doanh": 7764,
      "eeeeeeeee": 7765,
      "fnfb": 7766,
      "stress": 7767,
      "streamer": 7768,
      "cskh": 7769,
      "gato": 7770,
      "Dit": 7771,
      "đếch": 7772,
      "unbox": 7773,
      "QUAN": 7774,
      "Luc": 7775,
      "tủi": 7776,
      "wkwi": 7777,
      "Ngoan": 7778,
      "djdks": 7779,
      "Duong": 7780,
      "troll": 7781,
      "phiêu": 7782,
      "Moon": 7783,
      "shshshsh": 7784,
      "tamin": 7785,
      "wbw": 7786,
      "message": 7787,
      "Haizzz": 7788,
      "hhhhhhhhhhhhhhhhhhhhhhhh": 7789,
      "Đoạn": 7790,
      "isfree": 7791,
      "Ghét": 7792,
      "Ghép": 7793,
      "shock": 7794,
      "Bitis": 7795,
      "võng": 7796,
      "wuwu": 7797,
      "dbbxb": 7798,
      "dbbdbdbdbdb": 7799,
      "fififi": 7800,
      "fkfkfkfk": 7801,
      "Best": 7802,
      "Levi": 7803,
      "xjxjxj": 7804,
      "bthg": 7805,
      "zgzg": 7806,
      "uuuuuuuuuuuuuuuuuuuuuuuu": 7807,
      "Sony": 7808,
      "Phuc": 7809,
      "Head": 7810,
      "fail": 7811,
      "hâhh": 7812,
      "ngừi": 7813,
      "Nhuệ": 7814,
      "knxnxm": 7815,
      "gigigigi": 7816,
      "ndnsn": 7817,
      "dtjdtjdtjdtj": 7818,
      "Comfort": 7819,
      "anker": 7820,
      "dĩa": 7821,
      "TOÀN": 7822,
      "XHCN": 7823,
      "THUỐC": 7824,
      "fupfup": 7825,
      "dbdbbdbdbdbdb": 7826,
      "double": 7827,
      "Official": 7828,
      "Check": 7829,
      "xiyxiy": 7830,
      "MẠNG": 7831,
      "SBTC": 7832,
      "Okkkkkkkkkkkkkkkkkkkkkk": 7833,
      "pastel": 7834,
      "Grab": 7835,
      "Innisfree": 7836,
      "LẮM": 7837,
      "Mbps": 7838,
      "flix": 7839,
      "hỡi": 7840,
      "DATA": 7841,
      "HÔM": 7842,
      "NQJPH": 7843,
      "carton": 7844,
      "nhouse": 7845,
      "nhậndkdsksoiswoao": 7846,
      "custom": 7847,
      "nhậndkdsksoiswoaoknxnxm": 7848,
      "AA": 7849,
      "Ak": 7850,
      "Ao": 7851,
      "Ann": 7852,
      "Ama": 7853,
      "BN": 7854,
      "Bã": 7855,
      "Bó": 7856,
      "Bai": 7857,
      "Bạc": 7858,
      "Bạt": 7859,
      "Brand": 7860,
      "CB": 7861,
      "Cc": 7862,
      "Ck": 7863,
      "Cs": 7864,
      "CŨ": 7865,
      "Cừ": 7866,
      "Cua": 7867,
      "Cày": 7868,
      "Can": 7869,
      "Căn": 7870,
      "Cẩn": 7871,
      "Cánh": 7872,
      "Cáo": 7873,
      "Cali": 7874,
      "CÙNG": 7875,
      "CỤC": 7876,
      "Cửu": 7877,
      "Club": 7878,
      "Dinh": 7879,
      "Dcm": 7880,
      "DẦN": 7881,
      "Dlv": 7882,
      "Eng": 7883,
      "ETT": 7884,
      "FRE": 7885,
      "FPS": 7886,
      "GO": 7887,
      "GT": 7888,
      "Giết": 7889,
      "Goi": 7890,
      "Gắn": 7891,
      "GPS": 7892,
      "HL": 7893,
      "Hk": 7894,
      "HÃ": 7895,
      "Hâ": 7896,
      "HỢ": 7897,
      "Hào": 7898,
      "Hoi": 7899,
      "Hường": 7900,
      "Hát": 7901,
      "Hứa": 7902,
      "Hẹn": 7903,
      "Hah": 7904,
      "HỌC": 7905,
      "Im": 7906,
      "Jzj": 7907,
      "Ku": 7908,
      "Kỷ": 7909,
      "Ken": 7910,
      "Kênh": 7911,
      "KẾT": 7912,
      "LL": 7913,
      "Lò": 7914,
      "Lữ": 7915,
      "Lầy": 7916,
      "Lồn": 7917,
      "Liệu": 7918,
      "Lạnh": 7919,
      "LINH": 7920,
      "MG": 7921,
      "Mr": 7922,
      "Mĩ": 7923,
      "MẸ": 7924,
      "MỸ": 7925,
      "Man": 7926,
      "Mượn": 7927,
      "MTP": 7928,
      "Mum": 7929,
      "Nk": 7930,
      "Nn": 7931,
      "Nỗ": 7932,
      "Non": 7933,
      "NỮA": 7934,
      "NĂM": 7935,
      "Oi": 7936,
      "OTP": 7937,
      "Pr": 7938,
      "Per": 7939,
      "Pad": 7940,
      "Pass": 7941,
      "Rửa": 7942,
      "Rèm": 7943,
      "RON": 7944,
      "Sy": 7945,
      "Sĩ": 7946,
      "Sỉ": 7947,
      "Song": 7948,
      "Sâm": 7949,
      "Sảm": 7950,
      "Sướng": 7951,
      "Sủa": 7952,
      "Smart": 7953,
      "Sẵn": 7954,
      "Store": 7955,
      "TU": 7956,
      "Tx": 7957,
      "Tứ": 7958,
      "Tung": 7959,
      "Tào": 7960,
      "Tôm": 7961,
      "Tằm": 7962,
      "TẤT": 7963,
      "TÀI": 7964,
      "TĂNG": 7965,
      "TÍNH": 7966,
      "Uh": 7967,
      "Up": 7968,
      "Vd": 7969,
      "Vay": 7970,
      "Voi": 7971,
      "WD": 7972,
      "Xs": 7973,
      "XÁ": 7974,
      "XIN": 7975,
      "YT": 7976,
      "af": 7977,
      "ava": 7978,
      "bời": 7979,
      "bói": 7980,
      "boi": 7981,
      "băm": 7982,
      "bửa": 7983,
      "bgio": 7984,
      "bưởi": 7985,
      "cw": 7986,
      "cù": 7987,
      "cch": 7988,
      "cui": 7989,
      "cằm": 7990,
      "cdm": 7991,
      "cưỡng": 7992,
      "câp": 7993,
      "dũ": 7994,
      "dộ": 7995,
      "dho": 7996,
      "diều": 7997,
      "dti": 7998,
      "dòi": 7999,
      "dìm": 8000,
      "dvd": 8001,
      "dpy": 8002,
      "eg": 8003,
      "fải": 8004,
      "fgj": 8005,
      "find": 8006,
      "fhei": 8007,
      "gí": 8008,
      "ganh": 8009,
      "gân": 8010,
      "găng": 8011,
      "gút": 8012,
      "gãi": 8013,
      "gòi": 8014,
      "gía": 8015,
      "hw": 8016,
      "hụ": 8017,
      "háo": 8018,
      "hãi": 8019,
      "hưu": 8020,
      "hmu": 8021,
      "iq": 8022,
      "kw": 8023,
      "kon": 8024,
      "ksj": 8025,
      "kdn": 8026,
      "kbiet": 8027,
      "know": 8028,
      "lt": 8029,
      "lđ": 8030,
      "lả": 8031,
      "lở": 8032,
      "lợ": 8033,
      "lết": 8034,
      "lánh": 8035,
      "lạt": 8036,
      "lạp": 8037,
      "lẹo": 8038,
      "lõm": 8039,
      "lằn": 8040,
      "md": 8041,
      "mx": 8042,
      "miên": 8043,
      "múc": 8044,
      "mso": 8045,
      "mít": 8046,
      "mách": 8047,
      "mât": 8048,
      "ment": 8049,
      "măt": 8050,
      "mọe": 8051,
      "nê": 8052,
      "nì": 8053,
      "nử": 8054,
      "nng": 8055,
      "neo": 8056,
      "nạo": 8057,
      "nứa": 8058,
      "nzn": 8059,
      "nén": 8060,
      "nếm": 8061,
      "oai": 8062,
      "opp": 8063,
      "oánh": 8064,
      "pai": 8065,
      "ping": 8066,
      "ql": 8067,
      "qt": 8068,
      "qtv": 8069,
      "rg": 8070,
      "rã": 8071,
      "rộ": 8072,
      "rua": 8073,
      "rin": 8074,
      "rận": 8075,
      "rầm": 8076,
      "rét": 8077,
      "rim": 8078,
      "sí": 8079,
      "slo": 8080,
      "sco": 8081,
      "sáp": 8082,
      "sdung": 8083,
      "spham": 8084,
      "tb": 8085,
      "tị": 8086,
      "tẩm": 8087,
      "túng": 8088,
      "tươ": 8089,
      "tsj": 8090,
      "tiềm": 8091,
      "uk": 8092,
      "uki": 8093,
      "vt": 8094,
      "vè": 8095,
      "vbi": 8096,
      "vac": 8097,
      "vớt": 8098,
      "wks": 8099,
      "wtf": 8100,
      "xd": 8101,
      "xê": 8102,
      "xgi": 8103,
      "xen": 8104,
      "xxn": 8105,
      "xxj": 8106,
      "xộn": 8107,
      "yf": 8108,
      "ydi": 8109,
      "yoy": 8110,
      "ycy": 8111,
      "zũ": 8112,
      "zfj": 8113,
      "ÁO": 8114,
      "Ây": 8115,
      "Êm": 8116,
      "ÓA": 8117,
      "ÓM": 8118,
      "Úi": 8119,
      "êy": 8120,
      "ăjns": 8121,
      "ĐÓ": 8122,
      "Đá": 8123,
      "ĐỊ": 8124,
      "Đam": 8125,
      "Đảm": 8126,
      "Đáp": 8127,
      "ĐƠN": 8128,
      "ĐÉO": 8129,
      "đv": 8130,
      "đũ": 8131,
      "đự": 8132,
      "đth": 8133,
      "đần": 8134,
      "đoi": 8135,
      "đơm": 8136,
      "ĩa": 8137,
      "ƠM": 8138,
      "ƠNG": 8139,
      "ƯU": 8140,
      "ƯƠNG": 8141,
      "ấng": 8142,
      "ẮNG": 8143,
      "ẶC": 8144,
      "ẽo": 8145,
      "ỘT": 8146,
      "ụa": 8147,
      "ỨT": 8148,
      "ỨNG": 8149,
      "ừg": 8150,
      "ỰA": 8151,
      "ngai": 8152,
      "ngọn": 8153,
      "ngóc": 8154,
      "nhâ": 8155,
      "nhủ": 8156,
      "nhăng": 8157,
      "nhấc": 8158,
      "chy": 8159,
      "chần": 8160,
      "chạnh": 8161,
      "chướng": 8162,
      "chìu": 8163,
      "chrome": 8164,
      "thẩn": 8165,
      "thỏi": 8166,
      "thốt": 8167,
      "thag": 8168,
      "khan": 8169,
      "khấu": 8170,
      "khép": 8171,
      "gin": 8172,
      "giay": 8173,
      "trú": 8174,
      "trĩ": 8175,
      "trỏ": 8176,
      "trơi": 8177,
      "tram": 8178,
      "phon": 8179,
      "phang": 8180,
      "phen": 8181,
      "phác": 8182,
      "phọt": 8183,
      "phèn": 8184,
      "phẫm": 8185,
      "aoksn": 8186,
      "quạ": 8187,
      "quỹ": 8188,
      "quậy": 8189,
      "innis": 8190,
      "hoảng": 8191,
      "onscreen": 8192,
      "nhanhhh": 8193,
      "aiz": 8194,
      "aiwoo": 8195,
      "emon": 8196,
      "okeeeeeeeeeeeeeeee": 8197,
      "đit": 8198,
      "đien": 8199,
      "điểu": 8200,
      "Chúa": 8201,
      "Chụt": 8202,
      "khái": 8203,
      "ngheo": 8204,
      "nghênh": 8205,
      "hiêu": 8206,
      "saooooo": 8207,
      "Giám": 8208,
      "Nhã": 8209,
      "Nhàn": 8210,
      "Nhắn": 8211,
      "khiễng": 8212,
      "kiêm": 8213,
      "Ngừ": 8214,
      "Ngắn": 8215,
      "Ngứa": 8216,
      "Nghệ": 8217,
      "touch": 8218,
      "ươu": 8219,
      "ence": 8220,
      "ture": 8221,
      "eoeo": 8222,
      "ườm": 8223,
      "Trò": 8224,
      "Trùng": 8225,
      "Tròn": 8226,
      "Trứng": 8227,
      "six": 8228,
      "lak": 8229,
      "lar": 8230,
      "tich": 8231,
      "tiêng": 8232,
      "lòngggggggg": 8233,
      "vivi": 8234,
      "viêt": 8235,
      "viec": 8236,
      "doan": 8237,
      "uiwksn": 8238,
      "eep": 8239,
      "djh": 8240,
      "djsk": 8241,
      "djtj": 8242,
      "Phố": 8243,
      "Phụng": 8244,
      "Phạt": 8245,
      "Khùng": 8246,
      "Khựa": 8247,
      "Khóa": 8248,
      "chuong": 8249,
      "chuồn": 8250,
      "tet": 8251,
      "teen": 8252,
      "tele": 8253,
      "text": 8254,
      "mask": 8255,
      "dian": 8256,
      "khoanh": 8257,
      "basic": 8258,
      "coppy": 8259,
      "sjdb": 8260,
      "sjaj": 8261,
      "fit": 8262,
      "ghz": 8263,
      "Quê": 8264,
      "bus": 8265,
      "bubg": 8266,
      "lio": 8267,
      "lieu": 8268,
      "ming": 8269,
      "bien": 8270,
      "Tiger": 8271,
      "dbf": 8272,
      "dbh": 8273,
      "dbrh": 8274,
      "will": 8275,
      "sndn": 8276,
      "snsk": 8277,
      "AnhQuân": 8278,
      "dum": 8279,
      "media": 8280,
      "sell": 8281,
      "rodfb": 8282,
      "ool": 8283,
      "kkkkkkkkk": 8284,
      "nor": 8285,
      "dkxk": 8286,
      "our": 8287,
      "ckg": 8288,
      "Hoá": 8289,
      "Hoạt": 8290,
      "dhdjdjdjdj": 8291,
      "caro": 8292,
      "cave": 8293,
      "ded": 8294,
      "dei": 8295,
      "des": 8296,
      "deli": 8297,
      "nhiet": 8298,
      "boác": 8299,
      "vest": 8300,
      "quyen": 8301,
      "thieu": 8302,
      "vlin": 8303,
      "vlll": 8304,
      "sup": 8305,
      "shshh": 8306,
      "stk": 8307,
      "stand": 8308,
      "kgk": 8309,
      "NHÂN": 8310,
      "NHÓM": 8311,
      "hue": 8312,
      "Choi": 8313,
      "VNCH": 8314,
      "djdjj": 8315,
      "djdjdjj": 8316,
      "djdjcjcjj": 8317,
      "trailer": 8318,
      "hihii": 8319,
      "fbf": 8320,
      "ruh": 8321,
      "ruko": 8322,
      "ruộng": 8323,
      "fuck": 8324,
      "model": 8325,
      "CHỐNG": 8326,
      "CHỬI": 8327,
      "khuất": 8328,
      "khuông": 8329,
      "cjck": 8330,
      "THÚ": 8331,
      "THAN": 8332,
      "THÊM": 8333,
      "clj": 8334,
      "chúg": 8335,
      "aloana": 8336,
      "roibeo": 8337,
      "nnnnnnnnn": 8338,
      "nnnnnnnnnnnnn": 8339,
      "put": 8340,
      "puchia": 8341,
      "Viêt": 8342,
      "nude": 8343,
      "Tuyến": 8344,
      "xbj": 8345,
      "xbdb": 8346,
      "xbxj": 8347,
      "lũi": 8348,
      "skdk": 8349,
      "Hien": 8350,
      "niu": 8351,
      "cụt": 8352,
      "Anker": 8353,
      "Thun": 8354,
      "andy": 8355,
      "dmdm": 8356,
      "akaa": 8357,
      "snsnsnn": 8358,
      "TRẺ": 8359,
      "TRÊN": 8360,
      "TRƯỚC": 8361,
      "sksks": 8362,
      "dhdhd": 8363,
      "zjzn": 8364,
      "sony": 8365,
      "xkdjdjcjcjj": 8366,
      "fnfk": 8367,
      "Shiper": 8368,
      "formosa": 8369,
      "PHÒNG": 8370,
      "PHẠM": 8371,
      "gom": 8372,
      "Huế": 8373,
      "Huệ": 8374,
      "ggggggggg": 8375,
      "gggggggggg": 8376,
      "dyo": 8377,
      "was": 8378,
      "wwwwww": 8379,
      "kím": 8380,
      "Dior": 8381,
      "HDR": 8382,
      "fashion": 8383,
      "TIẾ": 8384,
      "comp": 8385,
      "combat": 8386,
      "fjfjf": 8387,
      "Lite": 8388,
      "With": 8389,
      "zbzhzh": 8390,
      "trump": 8391,
      "QUA": 8392,
      "QUAY": 8393,
      "Luân": 8394,
      "Buổi": 8395,
      "Cacao": 8396,
      "Kiểm": 8397,
      "Review": 8398,
      "CSGT": 8399,
      "Sửu": 8400,
      "Cuoc": 8401,
      "Data": 8402,
      "dởm": 8403,
      "xmxm": 8404,
      "dkdkdkk": 8405,
      "Duc": 8406,
      "Maruko": 8407,
      "Super": 8408,
      "wosnsns": 8409,
      "pit": 8410,
      "VIETT": 8411,
      "Philip": 8412,
      "para": 8413,
      "cgk": 8414,
      "Okela": 8415,
      "sbsbsbb": 8416,
      "whwh": 8417,
      "mber": 8418,
      "Rambo": 8419,
      "Tủnn": 8420,
      "jojo": 8421,
      "kbc": 8422,
      "hahaaa": 8423,
      "Okiiiiiiiiiiiiiii": 8424,
      "MixiGaming": 8425,
      "remi": 8426,
      "dìa": 8427,
      "senal": 8428,
      "sjsjsjsjsjsjsjsj": 8429,
      "uuuuuuuuuuuuuuuuuuuuuuuuuuuuuuuu": 8430,
      "cửu": 8431,
      "fjjf": 8432,
      "fjjfj": 8433,
      "dzị": 8434,
      "ejejej": 8435,
      "gggggggggggggggggggggggggggggggg": 8436,
      "chchchch": 8437,
      "Noble": 8438,
      "makeup": 8439,
      "BIET": 8440,
      "CTKM": 8441,
      "HongKong": 8442,
      "lươn": 8443,
      "service": 8444,
      "dndjffj": 8445,
      "eieiei": 8446,
      "cncn": 8447,
      "cncncnc": 8448,
      "lwlw": 8449,
      "ĐIỆN": 8450,
      "DAC": 8451,
      "nail": 8452,
      "macbook": 8453,
      "kute": 8454,
      "iiiiiiiiiiiiiiiiiiiiiiiiiiiiiiiiiiiiiiiiiiiiiiiiiiiiiiiiiiiiiiii": 8455,
      "IPS": 8456,
      "LOVE": 8457,
      "tứk": 8458,
      "vyvyvyvy": 8459,
      "Formosa": 8460,
      "IMEI": 8461,
      "nhãm": 8462,
      "blbl": 8463,
      "lands": 8464,
      "Khuôn": 8465,
      "hơp": 8466,
      "ssssssssssssssssssssssssssssssss": 8467,
      "NÀY": 8468,
      "ROM": 8469,
      "fpufpu": 8470,
      "xbbxbxbxbxb": 8471,
      "digree": 8472,
      "ntntntnt": 8473,
      "xỉn": 8474,
      "blablablabla": 8475,
      "hhahs": 8476,
      "download": 8477,
      "hmr": 8478,
      "toner": 8479,
      "ACE": 8480,
      "gjjgjgjgjgj": 8481,
      "NGUYÊN": 8482,
      "fnfjd": 8483,
      "jsiaiwoo": 8484,
      "SHIP": 8485,
      "KHÁCH": 8486,
      "Euro": 8487,
      "Háhhahs": 8488,
      "John": 8489,
      "Pedigree": 8490,
      "legend": 8491,
      "drama": 8492,
      "jaiaoksn": 8493,
      "trẽn": 8494,
      "nhanhhhhhhhhhhhh": 8495,
      "zmzxkdjdjcjcjj": 8496,
      "ninja": 8497,
      "ccjcjcu": 8498,
      "support": 8499,
      "wkwijsiaiwoo": 8500,
      "nhậndkdsksoiswoaoknxnxmzmzxkdjdjcjcjj": 8501,
      "HỢP": 8502,
      "fheidbrh": 8503,
      "innisfree": 8504,
      "uiwksnjaiaoksn": 8505,
      "rodfbdndjffj": 8506,
      "standee": 8507,
      "wosnsnsuiwksnjaiaoksn": 8508,
      "VIETTEL": 8509,
      "wkwijsiaiwoowosnsnsuiwksnjaiaoksn": 8510,
      "nhậndkdsksoiswoaoknxnxmzmzxkdjdjcjcjjccjcjcu": 8511,
      "fheidbrhrodfbdndjffj": 8512,
      "fheidbrhrodfbdndjffjdhdjdjdjdj": 8513,
      "AP": 8514,
      "AU": 8515,
      "Amo": 8516,
      "BS": 8517,
      "Bn": 8518,
      "Bô": 8519,
      "Bể": 8520,
      "Bỉ": 8521,
      "Bong": 8522,
      "Biệt": 8523,
      "Bực": 8524,
      "Bóp": 8525,
      "BAY": 8526,
      "BẢO": 8527,
      "CU": 8528,
      "Ce": 8529,
      "CÀ": 8530,
      "Cò": 8531,
      "Cú": 8532,
      "Cổ": 8533,
      "CỘ": 8534,
      "Cong": 8535,
      "Cận": 8536,
      "Cải": 8537,
      "Căng": 8538,
      "Câm": 8539,
      "Cút": 8540,
      "Cấm": 8541,
      "CAn": 8542,
      "Cap": 8543,
      "CÂN": 8544,
      "CẤP": 8545,
      "DU": 8546,
      "Dg": 8547,
      "Dk": 8548,
      "Dư": 8549,
      "Dị": 8550,
      "Dai": 8551,
      "Dấu": 8552,
      "Dám": 8553,
      "Dẻo": 8554,
      "DAN": 8555,
      "DUY": 8556,
      "DÀNH": 8557,
      "EE": 8558,
      "Fun": 8559,
      "GÓ": 8560,
      "Gỗ": 8561,
      "Gờ": 8562,
      "Góp": 8563,
      "Gel": 8564,
      "GAT": 8565,
      "GẦY": 8566,
      "HG": 8567,
      "HQ": 8568,
      "HT": 8569,
      "Hê": 8570,
      "Hì": 8571,
      "Hộ": 8572,
      "Hon": 8573,
      "Hau": 8574,
      "Hen": 8575,
      "Hảo": 8576,
      "Hdj": 8577,
      "Hnay": 8578,
      "ING": 8579,
      "Ji": 8580,
      "Jap": 8581,
      "KS": 8582,
      "KÊ": 8583,
      "KÝ": 8584,
      "Kê": 8585,
      "Kind": 8586,
      "Krist": 8587,
      "LK": 8588,
      "LỆ": 8589,
      "Lọ": 8590,
      "Lợi": 8591,
      "Lựa": 8592,
      "Loc": 8593,
      "Lão": 8594,
      "LTE": 8595,
      "ME": 8596,
      "Mị": 8597,
      "Mộ": 8598,
      "Mon": 8599,
      "Môn": 8600,
      "Meo": 8601,
      "Mực": 8602,
      "Mừng": 8603,
      "Muối": 8604,
      "Món": 8605,
      "Mark": 8606,
      "MẶT": 8607,
      "MỘT": 8608,
      "NI": 8609,
      "Ne": 8610,
      "Nơi": 8611,
      "Nặng": 8612,
      "Net": 8613,
      "Nắp": 8614,
      "NON": 8615,
      "Nsjsks": 8616,
      "NỘI": 8617,
      "NKY": 8618,
      "OD": 8619,
      "Oh": 8620,
      "Pa": 8621,
      "Ps": 8622,
      "Panasonic": 8623,
      "QT": 8624,
      "Qúy": 8625,
      "RẺ": 8626,
      "Rừng": 8627,
      "Rộng": 8628,
      "Rat": 8629,
      "Rớt": 8630,
      "Rùa": 8631,
      "SO": 8632,
      "Sr": 8633,
      "Sz": 8634,
      "SỈ": 8635,
      "SỐ": 8636,
      "Say": 8637,
      "Sin": 8638,
      "Sân": 8639,
      "Sương": 8640,
      "Sti": 8641,
      "Sha": 8642,
      "Sửa": 8643,
      "Siu": 8644,
      "Star": 8645,
      "Skin": 8646,
      "SIM": 8647,
      "SET": 8648,
      "SOI": 8649,
      "Switch": 8650,
      "Snsnn": 8651,
      "TN": 8652,
      "Tt": 8653,
      "TÌ": 8654,
      "TƯ": 8655,
      "Ton": 8656,
      "Tích": 8657,
      "Từng": 8658,
      "Tám": 8659,
      "TÔI": 8660,
      "TÂM": 8661,
      "Uu": 8662,
      "VO": 8663,
      "VT": 8664,
      "Vịt": 8665,
      "Vẹo": 8666,
      "VCS": 8667,
      "VFF": 8668,
      "Very": 8669,
      "Vooc": 8670,
      "Xay": 8671,
      "Xây": 8672,
      "Xấu": 8673,
      "Xuyên": 8674,
      "Xịt": 8675,
      "Yo": 8676,
      "Yeu": 8677,
      "YẾU": 8678,
      "ZO": 8679,
      "asus": 8680,
      "br": 8681,
      "bđ": 8682,
      "bớ": 8683,
      "bnh": 8684,
      "buy": 8685,
      "bưa": 8686,
      "bích": 8687,
      "bii": 8688,
      "bảnh": 8689,
      "biếu": 8690,
      "bdb": 8691,
      "bách": 8692,
      "bcs": 8693,
      "bthuong": 8694,
      "block": 8695,
      "bdndj": 8696,
      "cự": 8697,
      "ckk": 8698,
      "cước": 8699,
      "cầy": 8700,
      "cụp": 8701,
      "cks": 8702,
      "cno": 8703,
      "cksk": 8704,
      "cùn": 8705,
      "dó": 8706,
      "dề": 8707,
      "dợ": 8708,
      "din": 8709,
      "dải": 8710,
      "dòn": 8711,
      "dật": 8712,
      "dực": 8713,
      "dạt": 8714,
      "dme": 8715,
      "dro": 8716,
      "dẫu": 8717,
      "dly": 8718,
      "dlike": 8719,
      "ev": 8720,
      "ela": 8721,
      "eke": 8722,
      "eve": 8723,
      "ear": 8724,
      "every": 8725,
      "even": 8726,
      "fee": 8727,
      "fini": 8728,
      "gz": 8729,
      "gông": 8730,
      "gượng": 8731,
      "gọng": 8732,
      "gre": 8733,
      "gsh": 8734,
      "gắp": 8735,
      "gat": 8736,
      "gớt": 8737,
      "gff": 8738,
      "gộp": 8739,
      "hua": 8740,
      "hức": 8741,
      "haa": 8742,
      "hfi": 8743,
      "hsn": 8744,
      "hòi": 8745,
      "hsb": 8746,
      "hxj": 8747,
      "hẵn": 8748,
      "hén": 8749,
      "hẵng": 8750,
      "hằn": 8751,
      "ig": 8752,
      "ij": 8753,
      "ir": 8754,
      "iw": 8755,
      "iêu": 8756,
      "iuuuu": 8757,
      "iphon": 8758,
      "jan": 8759,
      "jgg": 8760,
      "jwj": 8761,
      "kr": 8762,
      "kz": 8763,
      "kè": 8764,
      "kung": 8765,
      "kbt": 8766,
      "kzk": 8767,
      "kjh": 8768,
      "lã": 8769,
      "lỳ": 8770,
      "lảnh": 8771,
      "lsau": 8772,
      "lức": 8773,
      "lỏi": 8774,
      "lee": 8775,
      "laaaa": 8776,
      "lóp": 8777,
      "lùa": 8778,
      "lóa": 8779,
      "lốn": 8780,
      "lụt": 8781,
      "mA": 8782,
      "mú": 8783,
      "mệ": 8784,
      "mao": 8785,
      "mồi": 8786,
      "mâm": 8787,
      "moc": 8788,
      "muống": 8789,
      "mxh": 8790,
      "mỉa": 8791,
      "mood": 8792,
      "mướn": 8793,
      "ní": 8794,
      "nới": 8795,
      "nại": 8796,
      "nau": 8797,
      "nêm": 8798,
      "nọc": 8799,
      "nsj": 8800,
      "nbbb": 8801,
      "niềng": 8802,
      "ncov": 8803,
      "oii": 8804,
      "oiiii": 8805,
      "oiii": 8806,
      "okok": 8807,
      "oiiiii": 8808,
      "px": 8809,
      "pan": 8810,
      "pen": 8811,
      "qr": 8812,
      "rà": 8813,
      "rê": 8814,
      "rù": 8815,
      "rũ": 8816,
      "rể": 8817,
      "rụ": 8818,
      "ray": 8819,
      "rùng": 8820,
      "rào": 8821,
      "răn": 8822,
      "rêu": 8823,
      "ròng": 8824,
      "rưng": 8825,
      "rst": 8826,
      "rốn": 8827,
      "só": 8828,
      "sô": 8829,
      "sần": 8830,
      "sán": 8831,
      "sứng": 8832,
      "sành": 8833,
      "stay": 8834,
      "sla": 8835,
      "sal": 8836,
      "sgh": 8837,
      "skg": 8838,
      "sgj": 8839,
      "sfh": 8840,
      "sap": 8841,
      "sịp": 8842,
      "sịt": 8843,
      "ság": 8844,
      "slow": 8845,
      "tụng": 8846,
      "tắn": 8847,
      "tăm": 8848,
      "tạt": 8849,
      "tạch": 8850,
      "tòi": 8851,
      "ul": 8852,
      "uầy": 8853,
      "vr": 8854,
      "vú": 8855,
      "vát": 8856,
      "vđề": 8857,
      "val": 8858,
      "vdk": 8859,
      "víu": 8860,
      "vựng": 8861,
      "vẹo": 8862,
      "vbj": 8863,
      "vmast": 8864,
      "wua": 8865,
      "who": 8866,
      "wee": 8867,
      "wet": 8868,
      "wns": 8869,
      "why": 8870,
      "want": 8871,
      "xp": 8872,
      "xó": 8873,
      "xị": 8874,
      "xát": 8875,
      "xém": 8876,
      "xướt": 8877,
      "xll": 8878,
      "xẩy": 8879,
      "yc": 8880,
      "yw": 8881,
      "yz": 8882,
      "zr": 8883,
      "zề": 8884,
      "zks": 8885,
      "êii": 8886,
      "êiii": 8887,
      "ăk": 8888,
      "ĐÀ": 8889,
      "Đơ": 8890,
      "Đỏ": 8891,
      "Điên": 8892,
      "Đốc": 8893,
      "Đẳng": 8894,
      "Đéc": 8895,
      "ĐÂY": 8896,
      "ĐƯỜNG": 8897,
      "ĐÁNG": 8898,
      "đr": 8899,
      "đới": 8900,
      "đui": 8901,
      "đặng": 8902,
      "đặn": 8903,
      "đíu": 8904,
      "đàm": 8905,
      "đốn": 8906,
      "ũi": 8907,
      "Ơi": 8908,
      "Ước": 8909,
      "ưn": 8910,
      "ươi": 8911,
      "̆̈": 8912,
      "ẨN": 8913,
      "ẩng": 8914,
      "ẮN": 8915,
      "ỂU": 8916,
      "ởn": 8917,
      "Ức": 8918,
      "ỳe": 8919,
      "ngông": 8920,
      "ngam": 8921,
      "ngáy": 8922,
      "ngặt": 8923,
      "ngừa": 8924,
      "nger": 8925,
      "ngọng": 8926,
      "ngưu": 8927,
      "nhf": 8928,
      "nhả": 8929,
      "nhề": 8930,
      "nhứ": 8931,
      "nhông": 8932,
      "nhiện": 8933,
      "nhúng": 8934,
      "nhắt": 8935,
      "nhèo": 8936,
      "nhẩy": 8937,
      "chụ": 8938,
      "chông": 8939,
      "chem": 8940,
      "chực": 8941,
      "chầy": 8942,
      "chững": 8943,
      "chét": 8944,
      "chuốt": 8945,
      "thé": 8946,
      "thă": 8947,
      "thơi": 8948,
      "tháy": 8949,
      "thuy": 8950,
      "thon": 8951,
      "thản": 8952,
      "thêu": 8953,
      "thục": 8954,
      "thác": 8955,
      "thèn": 8956,
      "thap": 8957,
      "khf": 8958,
      "khj": 8959,
      "khẩn": 8960,
      "khắm": 8961,
      "gic": 8962,
      "giế": 8963,
      "gieo": 8964,
      "giực": 8965,
      "giac": 8966,
      "giốg": 8967,
      "giỡn": 8968,
      "tron": 8969,
      "trăn": 8970,
      "tree": 8971,
      "phũ": 8972,
      "phùng": 8973,
      "phượt": 8974,
      "lài": 8975,
      "nhưnh": 8976,
      "quỵ": 8977,
      "quẹt": 8978,
      "muaa": 8979,
      "vàn": 8980,
      "int": 8981,
      "info": 8982,
      "hoạc": 8983,
      "hoat": 8984,
      "only": 8985,
      "choco": 8986,
      "rai": 8987,
      "rata": 8988,
      "oka": 8989,
      "okOk": 8990,
      "okkkk": 8991,
      "okkkkkkkkkkkkkkkkkkkkkkkkkkkkkkkkk": 8992,
      "okkkkkk": 8993,
      "okeeeeeeeee": 8994,
      "Chức": 8995,
      "Char": 8996,
      "củg": 8997,
      "luồn": 8998,
      "rồii": 8999,
      "kki": 9000,
      "kks": 9001,
      "auti": 9002,
      "lắt": 9003,
      "đóa": 9004,
      "Thú": 9005,
      "Thả": 9006,
      "Thể": 9007,
      "Thinh": 9008,
      "Thống": 9009,
      "Thạnh": 9010,
      "Thậm": 9011,
      "shoppp": 9012,
      "shoppppppppppppppppp": 9013,
      "hiem": 9014,
      "hiccc": 9015,
      "lom": 9016,
      "lop": 9017,
      "lor": 9018,
      "loá": 9019,
      "loud": 9020,
      "quali": 9021,
      "Nhai": 9022,
      "Nhảm": 9023,
      "Nhóm": 9024,
      "kit": 9025,
      "Ngữ": 9026,
      "Ngài": 9027,
      "Ngạn": 9028,
      "Ngầu": 9029,
      "nữaa": 9030,
      "nhap": 9031,
      "nhaSản": 9032,
      "nhaaaaaaaaaaaaaaaaa": 9033,
      "oid": 9034,
      "tiếg": 9035,
      "thôii": 9036,
      "hhd": 9037,
      "hhj": 9038,
      "nnsnsnsnsnsn": 9039,
      "Trình": 9040,
      "Tram": 9041,
      "Triều": 9042,
      "Trấn": 9043,
      "aalal": 9044,
      "sion": 9045,
      "sida": 9046,
      "siêng": 9047,
      "lac": 9048,
      "lash": 9049,
      "erry": 9050,
      "tip": 9051,
      "titi": 9052,
      "thom": 9053,
      "xuông": 9054,
      "tưới": 9055,
      "tac": 9056,
      "take": 9057,
      "dow": 9058,
      "uis": 9059,
      "ees": 9060,
      "djn": 9061,
      "djdk": 9062,
      "djcj": 9063,
      "djej": 9064,
      "hahhaa": 9065,
      "Phiên": 9066,
      "Phấn": 9067,
      "Khau": 9068,
      "Khuyết": 9069,
      "chiec": 9070,
      "tek": 9071,
      "tefal": 9072,
      "map": 9073,
      "makk": 9074,
      "mark": 9075,
      "ngoa": 9076,
      "ngoằng": 9077,
      "diêm": 9078,
      "didj": 9079,
      "diss": 9080,
      "display": 9081,
      "khoc": 9082,
      "ggf": 9083,
      "baby": 9084,
      "cop": 9085,
      "cohc": 9086,
      "sji": 9087,
      "sjzbzbb": 9088,
      "firm": 9089,
      "vụt": 9090,
      "yêuu": 9091,
      "Quen": 9092,
      "mmer": 9093,
      "bel": 9094,
      "bean": 9095,
      "bell": 9096,
      "nguội": 9097,
      "ddkdk": 9098,
      "vsu": 9099,
      "buon": 9100,
      "ttttt": 9101,
      "ksb": 9102,
      "read": 9103,
      "thuơ": 9104,
      "thuở": 9105,
      "thuẫn": 9106,
      "thuiii": 9107,
      "mil": 9108,
      "dndk": 9109,
      "dnxj": 9110,
      "big": 9111,
      "bis": 9112,
      "bica": 9113,
      "bitis": 9114,
      "hey": 9115,
      "heart": 9116,
      "ssh": 9117,
      "nhẹn": 9118,
      "act": 9119,
      "dbdg": 9120,
      "spe": 9121,
      "snsjj": 9122,
      "NGÀY": 9123,
      "mnsm": 9124,
      "duma": 9125,
      "medi": 9126,
      "perfect": 9127,
      "sexy": 9128,
      "roro": 9129,
      "shiba": 9130,
      "jjh": 9131,
      "chót": 9132,
      "dkt": 9133,
      "dkfj": 9134,
      "ckt": 9135,
      "ckx": 9136,
      "dhdb": 9137,
      "cak": 9138,
      "deu": 9139,
      "nhiê": 9140,
      "nhism": 9141,
      "giat": 9142,
      "quyến": 9143,
      "nhớt": 9144,
      "vler": 9145,
      "vlvl": 9146,
      "hahahha": 9147,
      "quảChúc": 9148,
      "bbsb": 9149,
      "sun": 9150,
      "shd": 9151,
      "shu": 9152,
      "shsu": 9153,
      "riel": 9154,
      "karofi": 9155,
      "bốp": 9156,
      "sbd": 9157,
      "sbj": 9158,
      "sbtc": 9159,
      "trợn": 9160,
      "nhue": 9161,
      "fjn": 9162,
      "hun": 9163,
      "xix": 9164,
      "xiao": 9165,
      "hair": 9166,
      "ats": 9167,
      "rubik": 9168,
      "xnz": 9169,
      "mog": 9170,
      "most": 9171,
      "thuan": 9172,
      "triêu": 9173,
      "CHỦ": 9174,
      "CHUY": 9175,
      "CHẾT": 9176,
      "CHIM": 9177,
      "CHỌN": 9178,
      "xjxk": 9179,
      "trag": 9180,
      "THẬT": 9181,
      "THÍCH": 9182,
      "pppppppppp": 9183,
      "volum": 9184,
      "fanpage": 9185,
      "fff": 9186,
      "nnnnnnnnnn": 9187,
      "Vid": 9188,
      "Vitamin": 9189,
      "sjsjsn": 9190,
      "sjsjsjj": 9191,
      "dtdjtj": 9192,
      "nuột": 9193,
      "Tuyet": 9194,
      "aaaaaaaaaa": 9195,
      "ThanhHuy": 9196,
      "mum": 9197,
      "nich": 9198,
      "dndndnn": 9199,
      "fkvk": 9200,
      "Thuê": 9201,
      "Thuý": 9202,
      "Thuần": 9203,
      "never": 9204,
      "next": 9205,
      "nghiem": 9206,
      "xhl": 9207,
      "fhk": 9208,
      "TRAN": 9209,
      "TRÙNG": 9210,
      "aja": 9211,
      "dhdhdj": 9212,
      "dhdhdhdhdh": 9213,
      "xyk": 9214,
      "appa": 9215,
      "apply": 9216,
      "Cotton": 9217,
      "kakak": 9218,
      "Tot": 9219,
      "Cammera": 9220,
      "KHỎI": 9221,
      "cid": 9222,
      "ciu": 9223,
      "Doan": 9224,
      "xkxk": 9225,
      "hehehe": 9226,
      "fullbox": 9227,
      "fndj": 9228,
      "xxnn": 9229,
      "eid": 9230,
      "vcd": 9231,
      "PHAN": 9232,
      "Huân": 9233,
      "Huấn": 9234,
      "vjsjzbzbb": 9235,
      "sample": 9236,
      "znb": 9237,
      "znzj": 9238,
      "cnb": 9239,
      "ksksmsk": 9240,
      "nhoa": 9241,
      "poppy": 9242,
      "HDSD": 9243,
      "sưởi": 9244,
      "gud": 9245,
      "Life": 9246,
      "unlike": 9247,
      "truong": 9248,
      "Quỳnhh": 9249,
      "QUẢ": 9250,
      "QUẦN": 9251,
      "sgs": 9252,
      "toilet": 9253,
      "wkwk": 9254,
      "xnxnxn": 9255,
      "Cashbag": 9256,
      "Kia": 9257,
      "Kien": 9258,
      "iiiiiiiiiiiiiiiiiiiiiiii": 9259,
      "GIẢM": 9260,
      "zkzkk": 9261,
      "KIỂM": 9262,
      "xgxg": 9263,
      "xmg": 9264,
      "djdnn": 9265,
      "dkdkdk": 9266,
      "ooooo": 9267,
      "Duke": 9268,
      "HOÀN": 9269,
      "xlxl": 9270,
      "days": 9271,
      "fyk": 9272,
      "msmsnnsnsnsnsnsn": 9273,
      "canvas": 9274,
      "enovo": 9275,
      "wnw": 9276,
      "wbsb": 9277,
      "Quyen": 9278,
      "Haizz": 9279,
      "pixel": 9280,
      "djdjdjdjdjdj": 9281,
      "jsjddj": 9282,
      "Mũi": 9283,
      "xtj": 9284,
      "Ghé": 9285,
      "Saigon": 9286,
      "ziêng": 9287,
      "mixigaming": 9288,
      "Biểu": 9289,
      "report": 9290,
      "dbbdb": 9291,
      "Đều": 9292,
      "bờm": 9293,
      "bsvsb": 9294,
      "PhướcĐường": 9295,
      "bitz": 9296,
      "Fit": 9297,
      "File": 9298,
      "bềnh": 9299,
      "xnnxnxnxnxn": 9300,
      "túy": 9301,
      "Median": 9302,
      "zgk": 9303,
      "Vinsmart": 9304,
      "cjcjcjcj": 9305,
      "dthw": 9306,
      "hâhhah": 9307,
      "sbsbbb": 9308,
      "flashsale": 9309,
      "CCC": 9310,
      "VÀO": 9311,
      "Hongkong": 9312,
      "camere": 9313,
      "serum": 9314,
      "snsnsnksksmsk": 9315,
      "COD": 9316,
      "COCC": 9317,
      "cncnc": 9318,
      "excel": 9319,
      "nhaaaaaaa": 9320,
      "hbbi": 9321,
      "snsmsmsnnsnsnsnsnsn": 9322,
      "LOẠI": 9323,
      "sjsksn": 9324,
      "kakakakakakakaka": 9325,
      "hehehehehehe": 9326,
      "Box": 9327,
      "Sela": 9328,
      "work": 9329,
      "world": 9330,
      "dhdhdhdhh": 9331,
      "trending": 9332,
      "cmcmcmcm": 9333,
      "sjsjsjsbsbbb": 9334,
      "fjfjfjfjfjfjfjfj": 9335,
      "tttttttttttttttttttttttttttttttttttttttttttttttttttttttttttttttt": 9336,
      "drive": 9337,
      "zkkks": 9338,
      "đờn": 9339,
      "mlemmlem": 9340,
      "xbbxbxb": 9341,
      "dndnnđm": 9342,
      "pwpw": 9343,
      "kksksksksksks": 9344,
      "DDR": 9345,
      "Singapore": 9346,
      "airpod": 9347,
      "NGHE": 9348,
      "NGHỆ": 9349,
      "ciyciy": 9350,
      "vvvvvvvvvvvv": 9351,
      "rrrrrrrrrrrrrrrrrrrrrrrrrrrrrrrr": 9352,
      "Office": 9353,
      "TRIỆU": 9354,
      "QUYẾT": 9355,
      "BOX": 9356,
      "Type": 9357,
      "TUYỆT": 9358,
      "Xoay": 9359,
      "cececece": 9360,
      "qqqqqqqqqqqqqqqq": 9361,
      "Arsenal": 9362,
      "build": 9363,
      "garena": 9364,
      "mjnh": 9365,
      "xẻng": 9366,
      "dkdjdjddkdk": 9367,
      "Express": 9368,
      "Snwkwijsiaiwoowosnsnsuiwksnjaiaoksn": 9369,
      "YOU": 9370,
      "photoshop": 9371,
      "heuruh": 9372,
      "xyoxoy": 9373,
      "Dnee": 9374,
      "DỊCH": 9375,
      "petland": 9376,
      "MÃI": 9377,
      "click": 9378,
      "flagship": 9379,
      "vọg": 9380,
      "nhữg": 9381,
      "turbo": 9382,
      "sowheuruh": 9383,
      "healthy": 9384,
      "NGHIỆ": 9385,
      "zjsjzjzn": 9386,
      "dbbxbzjsjzjzn": 9387,
      "Amazon": 9388,
      "FREE": 9389,
      "Jzjdkdjdjddkdk": 9390,
      "cwup": 9391,
      "slot": 9392,
      "fheidbrhrodfbdndjffjdhdjdjdjdjfnfjd": 9393,
      "Amoled": 9394,
      "CỘNG": 9395,
      "Japan": 9396,
      "Kindle": 9397,
      "Kristen": 9398,
      "Netflix": 9399,
      "Nsjsksbsvsb": 9400,
      "NKYN": 9401,
      "Sticker": 9402,
      "Snsnnsnsnsnksksmsk": 9403,
      "TÌM": 9404,
      "drop": 9405,
      "nbbbvjsjzbzbb": 9406,
      "snsjjnbbbvjsjzbzbb": 9407,
      "mnsmsnsmsmsnnsnsnsnsnsn": 9408,
      "jsjddjghh": 9409,
      "sjsjsjsbsbbbsnsjjnbbbvjsjzbzbb": 9410,
      "sowheuruhdjdks": 9411,
      "dbbxbzjsjzjznbs": 9412,
      "Jzjdkdjdjddkdksowheuruhdjdks": 9413,
      "Nsjsksbsvsbsjsjsjsbsbbbsnsjjnbbbvjsjzbzbb": 9414,
      "Snsnnsnsnsnksksmskmnsmsnsmsmsnnsnsnsnsnsn": 9415,
      "Nsjsksbsvsbsjsjsjsbsbbbsnsjjnbbbvjsjzbzbbdbbxbzjsjzjznbs": 9416,
      "Snsnnsnsnsnksksmskmnsmsnsmsmsnnsnsnsnsnsndndnnđm": 9417,
      "AO": 9418,
      "AS": 9419,
      "AV": 9420,
      "As": 9421,
      "Aba": 9422,
      "Asus": 9423,
      "Adida": 9424,
      "Bb": 9425,
      "BÉ": 9426,
      "BÍ": 9427,
      "Bề": 9428,
      "Bồ": 9429,
      "Bờ": 9430,
      "Bam": 9431,
      "Bra": 9432,
      "Bôi": 9433,
      "Bầu": 9434,
      "Bồn": 9435,
      "Bãi": 9436,
      "BÂY": 9437,
      "CR": 9438,
      "Cn": 9439,
      "CÔ": 9440,
      "Cau": 9441,
      "Cước": 9442,
      "Cạn": 9443,
      "Cán": 9444,
      "Cốc": 9445,
      "Cuốc": 9446,
      "Car": 9447,
      "Cún": 9448,
      "Clm": 9449,
      "Cướp": 9450,
      "CAN": 9451,
      "Cọp": 9452,
      "CẦN": 9453,
      "Dj": 9454,
      "Dy": 9455,
      "Dã": 9456,
      "Dẹp": 9457,
      "Dâu": 9458,
      "Dính": 9459,
      "Dỗi": 9460,
      "Dừa": 9461,
      "Dạy": 9462,
      "Duyệt": 9463,
      "Dịp": 9464,
      "Dầng": 9465,
      "Fo": 9466,
      "Finh": 9467,
      "Fri": 9468,
      "Fps": 9469,
      "Find": 9470,
      "FACE": 9471,
      "Gò": 9472,
      "Gõ": 9473,
      "Gai": 9474,
      "Gương": 9475,
      "Gol": 9476,
      "Group": 9477,
      "HC": 9478,
      "HE": 9479,
      "HS": 9480,
      "HU": 9481,
      "Hd": 9482,
      "Hè": 9483,
      "HỒ": 9484,
      "Hông": 9485,
      "Hinh": 9486,
      "Hôn": 9487,
      "Hầu": 9488,
      "Hỏng": 9489,
      "Het": 9490,
      "Hàm": 9491,
      "Happ": 9492,
      "Har": 9493,
      "Họp": 9494,
      "HLV": 9495,
      "IS": 9496,
      "Ita": 9497,
      "Itel": 9498,
      "Ja": 9499,
      "Jo": 9500,
      "Jdj": 9501,
      "KP": 9502,
      "Ke": 9503,
      "Ks": 9504,
      "Kông": 9505,
      "Kon": 9506,
      "Kèm": 9507,
      "King": 9508,
      "Kẹo": 9509,
      "LY": 9510,
      "Lg": 9511,
      "LỖ": 9512,
      "Lộ": 9513,
      "Lủ": 9514,
      "Lông": 9515,
      "Len": 9516,
      "Loi": 9517,
      "Lọc": 9518,
      "Lóc": 9519,
      "Leng": 9520,
      "Lãng": 9521,
      "LÚC": 9522,
      "LÒNG": 9523,
      "LCD": 9524,
      "Lenovo": 9525,
      "Mc": 9526,
      "Mh": 9527,
      "Mù": 9528,
      "Mỏ": 9529,
      "Mỡ": 9530,
      "Manh": 9531,
      "Mục": 9532,
      "Mái": 9533,
      "Mút": 9534,
      "Móc": 9535,
      "Mún": 9536,
      "Mall": 9537,
      "Mina": 9538,
      "MONG": 9539,
      "MAI": 9540,
      "MỚI": 9541,
      "Moka": 9542,
      "NS": 9543,
      "Nd": 9544,
      "Nt": 9545,
      "Nè": 9546,
      "Nông": 9547,
      "Nan": 9548,
      "Nhình": 9549,
      "Năng": 9550,
      "Nền": 9551,
      "Nắng": 9552,
      "Nướng": 9553,
      "Nou": 9554,
      "Não": 9555,
      "Nãn": 9556,
      "Nhok": 9557,
      "NOI": 9558,
      "NINH": 9559,
      "Ney": 9560,
      "Oc": 9561,
      "Omo": 9562,
      "One": 9563,
      "ODA": 9564,
      "Okokokokokokokokokokokokokokokoko": 9565,
      "Pé": 9566,
      "PAY": 9567,
      "PRO": 9568,
      "QH": 9569,
      "QK": 9570,
      "Qá": 9571,
      "Qúa": 9572,
      "Rung": 9573,
      "Ráng": 9574,
      "Roi": 9575,
      "Rảnh": 9576,
      "Rút": 9577,
      "REN": 9578,
      "Sở": 9579,
      "SỰ": 9580,
      "Sắc": 9581,
      "Sạch": 9582,
      "Sor": 9583,
      "Sàm": 9584,
      "Sdt": 9585,
      "Suốt": 9586,
      "SAM": 9587,
      "SON": 9588,
      "Sườn": 9589,
      "SINH": 9590,
      "SÚC": 9591,
      "Sapa": 9592,
      "Tý": 9593,
      "Tỉ": 9594,
      "Tố": 9595,
      "TỔ": 9596,
      "Tờ": 9597,
      "Tông": 9598,
      "Tận": 9599,
      "Tem": 9600,
      "Tục": 9601,
      "Tăm": 9602,
      "Tướng": 9603,
      "Tèo": 9604,
      "Tạp": 9605,
      "TAM": 9606,
      "TAY": 9607,
      "TTB": 9608,
      "TÌNH": 9609,
      "UU": 9610,
      "Ung": 9611,
      "Usb": 9612,
      "Uni": 9613,
      "VL": 9614,
      "Ve": 9615,
      "Vua": 9616,
      "Vời": 9617,
      "Vung": 9618,
      "Vũng": 9619,
      "VAY": 9620,
      "VỜI": 9621,
      "Vlog": 9622,
      "VUI": 9623,
      "Wf": 9624,
      "WPA": 9625,
      "XA": 9626,
      "XS": 9627,
      "Xù": 9628,
      "Xị": 9629,
      "Xử": 9630,
      "Xóa": 9631,
      "XẤU": 9632,
      "Yếu": 9633,
      "YÊU": 9634,
      "ase": 9635,
      "aro": 9636,
      "bw": 9637,
      "bỡ": 9638,
      "bủ": 9639,
      "bkk": 9640,
      "blo": 9641,
      "bhh": 9642,
      "bso": 9643,
      "bối": 9644,
      "bre": 9645,
      "bdn": 9646,
      "bme": 9647,
      "bve": 9648,
      "bsh": 9649,
      "bfj": 9650,
      "bcj": 9651,
      "bvy": 9652,
      "brb": 9653,
      "băc": 9654,
      "cd": 9655,
      "cz": 9656,
      "câ": 9657,
      "cộ": 9658,
      "cấy": 9659,
      "cko": 9660,
      "côi": 9661,
      "cật": 9662,
      "ctay": 9663,
      "cer": 9664,
      "cợt": 9665,
      "cõi": 9666,
      "cưỡi": 9667,
      "cali": 9668,
      "crea": 9669,
      "cõng": 9670,
      "dp": 9671,
      "dẽ": 9672,
      "dứ": 9673,
      "dông": 9674,
      "dào": 9675,
      "dii": 9676,
      "dường": 9677,
      "dóng": 9678,
      "ddo": 9679,
      "dãi": 9680,
      "dóc": 9681,
      "dúi": 9682,
      "dộng": 9683,
      "dhhhh": 9684,
      "dle": 9685,
      "dão": 9686,
      "dvj": 9687,
      "dằn": 9688,
      "dũa": 9689,
      "dọa": 9690,
      "ea": 9691,
      "een": 9692,
      "euu": 9693,
      "eyi": 9694,
      "essa": 9695,
      "fkg": 9696,
      "fine": 9697,
      "gc": 9698,
      "gồ": 9699,
      "gao": 9700,
      "gkk": 9701,
      "gau": 9702,
      "gvi": 9703,
      "gáo": 9704,
      "gôm": 9705,
      "gét": 9706,
      "gdh": 9707,
      "gpu": 9708,
      "gps": 9709,
      "gsg": 9710,
      "gợn": 9711,
      "gmg": 9712,
      "gmail": 9713,
      "glass": 9714,
      "hị": 9715,
      "húc": 9716,
      "hăng": 9717,
      "hấu": 9718,
      "her": 9719,
      "hdo": 9720,
      "hăm": 9721,
      "hmm": 9722,
      "hạo": 9723,
      "hạp": 9724,
      "htrc": 9725,
      "hgj": 9726,
      "hfh": 9727,
      "hẻo": 9728,
      "hrn": 9729,
      "hẻm": 9730,
      "hươu": 9731,
      "ie": 9732,
      "iso": 9733,
      "idi": 9734,
      "iep": 9735,
      "ice": 9736,
      "its": 9737,
      "iPad": 9738,
      "jao": 9739,
      "jin": 9740,
      "jnn": 9741,
      "joo": 9742,
      "jxb": 9743,
      "jfh": 9744,
      "jhd": 9745,
      "jdjj": 9746,
      "jajaj": 9747,
      "kam": 9748,
      "kno": 9749,
      "kbh": 9750,
      "kphai": 9751,
      "kêt": 9752,
      "lước": 9753,
      "lsao": 9754,
      "lứng": 9755,
      "láp": 9756,
      "lép": 9757,
      "lẳng": 9758,
      "lằm": 9759,
      "lựu": 9760,
      "lãm": 9761,
      "lửng": 9762,
      "mự": 9763,
      "mỷ": 9764,
      "mơn": 9765,
      "mung": 9766,
      "máng": 9767,
      "mươ": 9768,
      "mêm": 9769,
      "mha": 9770,
      "mồng": 9771,
      "mót": 9772,
      "mẩy": 9773,
      "mứt": 9774,
      "mjk": 9775,
      "mamamamam": 9776,
      "nl": 9777,
      "nư": 9778,
      "nớ": 9779,
      "nờ": 9780,
      "nần": 9781,
      "ner": 9782,
      "nùi": 9783,
      "nám": 9784,
      "ncc": 9785,
      "nẻo": 9786,
      "oj": 9787,
      "oho": 9788,
      "oko": 9789,
      "oải": 9790,
      "ooi": 9791,
      "oso": 9792,
      "ose": 9793,
      "okokokoko": 9794,
      "other": 9795,
      "otify": 9796,
      "pl": 9797,
      "pn": 9798,
      "pé": 9799,
      "pạn": 9800,
      "peo": 9801,
      "pác": 9802,
      "pim": 9803,
      "qb": 9804,
      "qk": 9805,
      "qđ": 9806,
      "qtrong": 9807,
      "qow": 9808,
      "rx": 9809,
      "rú": 9810,
      "rơ": 9811,
      "rấ": 9812,
      "rễ": 9813,
      "rọ": 9814,
      "rình": 9815,
      "râm": 9816,
      "rôm": 9817,
      "rập": 9818,
      "rót": 9819,
      "rqq": 9820,
      "rợn": 9821,
      "rge": 9822,
      "rưởi": 9823,
      "sw": 9824,
      "sà": 9825,
      "sỏ": 9826,
      "sưa": 9827,
      "sụng": 9828,
      "sác": 9829,
      "sbe": 9830,
      "sám": 9831,
      "sóp": 9832,
      "suối": 9833,
      "sag": 9834,
      "sỉu": 9835,
      "smsmsmsms": 9836,
      "switch": 9837,
      "tì": 9838,
      "tĩ": 9839,
      "tơ": 9840,
      "tầu": 9841,
      "tút": 9842,
      "tạng": 9843,
      "tjj": 9844,
      "túp": 9845,
      "tẩu": 9846,
      "tằm": 9847,
      "tbt": 9848,
      "tênh": 9849,
      "tml": 9850,
      "tât": 9851,
      "tct": 9852,
      "tfd": 9853,
      "tđn": 9854,
      "tâc": 9855,
      "uế": 9856,
      "uii": 9857,
      "uoc": 9858,
      "uni": 9859,
      "vz": 9860,
      "vâ": 9861,
      "vò": 9862,
      "vỉ": 9863,
      "von": 9864,
      "vưa": 9865,
      "vượng": 9866,
      "vụng": 9867,
      "vái": 9868,
      "vsj": 9869,
      "voc": 9870,
      "vệt": 9871,
      "vũng": 9872,
      "vxk": 9873,
      "vacc": 9874,
      "wl": 9875,
      "wm": 9876,
      "whi": 9877,
      "whh": 9878,
      "wer": 9879,
      "war": 9880,
      "xz": 9881,
      "xng": 9882,
      "xời": 9883,
      "xơi": 9884,
      "xược": 9885,
      "xải": 9886,
      "xan": 9887,
      "xiền": 9888,
      "xồn": 9889,
      "xít": 9890,
      "xúi": 9891,
      "xắm": 9892,
      "xìu": 9893,
      "xễu": 9894,
      "yk": 9895,
      "yr": 9896,
      "yx": 9897,
      "yê": 9898,
      "ysx": 9899,
      "zạ": 9900,
      "zồi": 9901,
      "zoi": 9902,
      "zạy": 9903,
      "zve": 9904,
      "zbb": 9905,
      "zlz": 9906,
      "ÁM": 9907,
      "ÁP": 9908,
      "ÁNH": 9909,
      "ÉP": 9910,
      "Ép": 9911,
      "Út": 9912,
      "êê": 9913,
      "ìì": 9914,
      "ôc": 9915,
      "üa": 9916,
      "ĐU": 9917,
      "ĐẢ": 9918,
      "Đả": 9919,
      "Đệ": 9920,
      "Đỉ": 9921,
      "ĐỦ": 9922,
      "Đống": 9923,
      "Độc": 9924,
      "Đệt": 9925,
      "Đón": 9926,
      "Đcs": 9927,
      "ĐCS": 9928,
      "Đhs": 9929,
      "ĐANG": 9930,
      "ĐÂU": 9931,
      "ĐỀU": 9932,
      "ĐẠO": 9933,
      "ĐẶC": 9934,
      "đy": 9935,
      "đì": 9936,
      "đ̂": 9937,
      "đễ": 9938,
      "đợ": 9939,
      "đản": 9940,
      "đkk": 9941,
      "đôn": 9942,
      "đếu": 9943,
      "đạm": 9944,
      "điếu": 9945,
      "đúp": 9946,
      "đũng": 9947,
      "đẹo": 9948,
      "đùm": 9949,
      "đùn": 9950,
      "đốm": 9951,
      "đừg": 9952,
      "̂̀": 9953,
      "̂́": 9954,
      "ẠY": 9955,
      "ạEm": 9956,
      "ẤN": 9957,
      "Ấu": 9958,
      "ẨU": 9959,
      "ẪN": 9960,
      "ẰM": 9961,
      "ẳm": 9962,
      "ểnh": 9963,
      "ỆC": 9964,
      "ệch": 9965,
      "ỈNH": 9966,
      "ỉn": 9967,
      "ỐN": 9968,
      "ỘC": 9969,
      "ỨA": 9970,
      "ngj": 9971,
      "ngà": 9972,
      "ngấy": 9973,
      "ngần": 9974,
      "ngươ": 9975,
      "ngấm": 9976,
      "ngiu": 9977,
      "ngiep": 9978,
      "nhj": 9979,
      "nhĩ": 9980,
      "nhố": 9981,
      "nhơn": 9982,
      "nhạn": 9983,
      "nhàn": 9984,
      "nheo": 9985,
      "nhâm": 9986,
      "nhặng": 9987,
      "nhât": 9988,
      "nheee": 9989,
      "nhúm": 9990,
      "chc": 9991,
      "chn": 9992,
      "chề": 9993,
      "chày": 9994,
      "chẹp": 9995,
      "chích": 9996,
      "chấu": 9997,
      "chít": 9998,
      "chòi": 9999,
      "chậu": 10000,
      "tht": 10001,
      "thè": 10002,
      "thin": 10003,
      "then": 10004,
      "thgian": 10005,
      "thót": 10006,
      "thpt": 10007,
      "thằn": 10008,
      "khc": 10009,
      "khẽ": 10010,
      "khế": 10011,
      "khênh": 10012,
      "khấc": 10013,
      "khều": 10014,
      "giò": 10015,
      "giẻ": 10016,
      "giở": 10017,
      "giãm": 10018,
      "trê": 10019,
      "trù": 10020,
      "trề": 10021,
      "trất": 10022,
      "tràng": 10023,
      "trồi": 10024,
      "trầu": 10025,
      "trâm": 10026,
      "trạm": 10027,
      "trim": 10028,
      "tràm": 10029,
      "trót": 10030,
      "phỉ": 10031,
      "phất": 10032,
      "phãi": 10033,
      "phách": 10034,
      "phom": 10035,
      "uaua": 10036,
      "cóng": 10037,
      "anhhhh": 10038,
      "quâ": 10039,
      "quế": 10040,
      "quàng": 10041,
      "quắc": 10042,
      "quăn": 10043,
      "quây": 10044,
      "quầy": 10045,
      "quỳnh": 10046,
      "quẹo": 10047,
      "hoai": 10048,
      "hoãn": 10049,
      "ơiiiiiiiiiiiiiiiii": 10050,
      "ơiiiiii": 10051,
      "ơiiiiiii": 10052,
      "uyen": 10053,
      "nhanhChất": 10054,
      "nhanhhhhh": 10055,
      "nhanhhhhhh": 10056,
      "tốp": 10057,
      "choc": 10058,
      "choá": 10059,
      "choảnh": 10060,
      "kodd": 10061,
      "korea": 10062,
      "đẹppppppppppppppppp": 10063,
      "đẹpppp": 10064,
      "radio": 10065,
      "cũn": 10066,
      "ema": 10067,
      "emm": 10068,
      "quách": 10069,
      "okkkkk": 10070,
      "okvc": 10071,
      "Chs": 10072,
      "Chữ": 10073,
      "Chọc": 10074,
      "Chảo": 10075,
      "Chát": 10076,
      "Chạm": 10077,
      "Chiếu": 10078,
      "Chồng": 10079,
      "Chet": 10080,
      "Chuối": 10081,
      "Chât": 10082,
      "nghẻ": 10083,
      "nghiền": 10084,
      "ansb": 10085,
      "ance": 10086,
      "anime": 10087,
      "kksj": 10088,
      "kkvkvk": 10089,
      "Tha": 10090,
      "Thắc": 10091,
      "Thấm": 10092,
      "Thạch": 10093,
      "lắmmm": 10094,
      "hif": 10095,
      "hih": 10096,
      "his": 10097,
      "hiKhăn": 10098,
      "luônnnnn": 10099,
      "luônnnn": 10100,
      "look": 10101,
      "loáng": 10102,
      "logic": 10103,
      "úck": 10104,
      "saoo": 10105,
      "saooo": 10106,
      "Gio": 10107,
      "Giầy": 10108,
      "Giỏi": 10109,
      "Gift": 10110,
      "Nhg": 10111,
      "Nhịn": 10112,
      "kich": 10113,
      "kick": 10114,
      "Ngà": 10115,
      "Ngực": 10116,
      "Ngụy": 10117,
      "toa": 10118,
      "toz": 10119,
      "toanh": 10120,
      "hộc": 10121,
      "endj": 10122,
      "ppi": 10123,
[...]
