{
  "version": "1.0",
  "truncation": null,
  "padding": null,
  "added_tokens": [
    {
      "id": 0,
      "content": "<pad>",
      "single_word": false,
      "lstrip": false,
      "rstrip": false,
      "normalized": false,
      "special": true
    },
    {
      "id": 1,
      "content": "<s>",
      "single_word": false,
      "lstrip": false,
      "rstrip": false,
      "normalized": false,
      "special": true
    },
    {
      "id": 2,
      "content": "</s>",
      "single_word": false,
      "lstrip": false,
      "rstrip": false,
      "normalized": false,
      "special": true
    },
    {
      "id": 3,
      "content": "<unk>",
      "single_word": false,
      "lstrip": false,
      "rstrip": false,
      "normalized": false,
      "special": true
    }
  ],
  "normalizer": {
    "type": "NFC"
  },
  "pre_tokenizer": {
    "type": "Whitespace"
  },
  "post_processor": {
    "type": "TemplateProcessing",
    "single": [
      {
        "SpecialToken": {
          "id": "<s>",
          "type_id": 0
        }
      },
      {
        "Sequence": {
          "id": "A",
          "type_id": 0
        }
      },
      {
        "SpecialToken": {
          "id": "</s>",
          "type_id": 0
        }
      }
    ],
    "pair": [
      {
        "SpecialToken": {
          "id": "<s>",
          "type_id": 0
        }
      },
      {
        "Sequence": {
          "id": "A",
          "type_id": 0
        }
      },
      {
        "SpecialToken": {
          "id": "</s>",
          "type_id": 0
        }
      },
      {
        "SpecialToken": {
          "id": "</s>",
          "type_id": 0
        }
      },
      {
        "Sequence": {
          "id": "B",
          "type_id": 0
        }
      },
      {
        "SpecialToken": {
          "id": "</s>",
          "type_id": 0
        }
      }
    ],
    "special_tokens": {
      "</s>": {
        "id": "</s>",
        "ids": [
          2
        ],
        "tokens": [
          "</s>"
        ]
      },
      "<s>": {
        "id": "<s>",
        "ids": [
          1
        ],
        "tokens": [
          "<s>"
        ]
      }
    }
  },
  "decoder": {
    "type": "BPEDecoder",
    "suffix": "</w>"
  },
  "model": {
    "type": "BPE",
    "dropout": null,
    "unk_token": "<unk>",
    "continuing_subword_prefix": null,
    "end_of_word_suffix": "</w>",
    "fuse_unk": false,
    "byte_fallback": false,
    "ignore_merges": false,
    "vocab": {
      "<pad>": 0,
      "<s>": 1,
      "</s>": 2,
      "<unk>": 3,
      "A": 4,
      "B": 5,
      "C": 6,
      "D": 7,
      "E": 8,
      "F": 9,
      "G": 10,
      "H": 11,
      "I": 12,
      "J": 13,
      "K": 14,
      "L": 15,
      "M": 16,
      "N": 17,
      "O": 18,
      "P": 19,
      "Q": 20,
      "R": 21,
      "S": 22,
      "T": 23,
      "U": 24,
      "V": 25,
      "W": 26,
      "X": 27,
      "Y": 28,
      "Z": 29,
      "a": 30,
      "b": 31,
      "c": 32,
      "d": 33,
      "e": 34,
      "f": 35,
      "g": 36,
      "h": 37,
      "i": 38,
      "j": 39,
      "k": 40,
      "l": 41,
      "m": 42,
      "n": 43,
      "o": 44,
      "p": 45,
      "q": 46,
      "r": 47,
      "s": 48,
      "t": 49,
      "u": 50,
      "v": 51,
      "w": 52,
      "x": 53,
      "y": 54,
      "z": 55,
      "À": 56,
      "Á": 57,
      "Â": 58,
      "Ã": 59,
      "Ç": 60,
      "È": 61,
      "É": 62,
      "Ê": 63,
      "Ì": 64,
      "Í": 65,
      "Ï": 66,
      "Ò": 67,
      "Ó": 68,
      "Ô": 69,
      "Õ": 70,
      "Ö": 71,
      "×": 72,
      "Ù": 73,
      "Ú": 74,
      "Ý": 75,
      "ß": 76,
      "à": 77,
      "á": 78,
      "â": 79,
      "ã": 80,
      "ä": 81,
      "å": 82,
      "è": 83,
      "é": 84,
      "ê": 85,
      "ì": 86,
      "í": 87,
      "ï": 88,
      "ò": 89,
      "ó": 90,
      "ô": 91,
      "õ": 92,
      "ö": 93,
      "÷": 94,
      "ø": 95,
      "ù": 96,
      "ú": 97,
      "ü": 98,
      "ý": 99,
      "ÿ": 100,
      "ā": 101,
      "Ă": 102,
      "ă": 103,
      "Ą": 104,
      "ą": 105,
      "Č": 106,
      "Đ": 107,
      "đ": 108,
      "ē": 109,
      "Ę": 110,
      "ě": 111,
      "Ģ": 112,
      "Ĩ": 113,
      "ĩ": 114,
      "ī": 115,
      "Į": 116,
      "į": 117,
      "ń": 118,
      "Ő": 119,
      "ő": 120,
      "Ũ": 121,
      "ũ": 122,
      "ū": 123,
      "ů": 124,
      "Ų": 125,
      "ƈ": 126,
      "Ơ": 127,
      "ơ": 128,
      "Ư": 129,
      "ư": 130,
      "ǹ": 131,
      "̀": 132,
      "́": 133,
      "̂": 134,
      "̃": 135,
      "̆": 136,
      "̈": 137,
      "̉": 138,
      "̛": 139,
      "̣": 140,
      "̷": 141,
      "̿": 142,
      "͟": 143,
      "Ạ": 144,
      "ạ": 145,
      "Ả": 146,
      "ả": 147,
      "Ấ": 148,
      "ấ": 149,
      "Ầ": 150,
      "ầ": 151,
      "Ẩ": 152,
      "ẩ": 153,
      "Ẫ": 154,
      "ẫ": 155,
      "Ậ": 156,
      "ậ": 157,
      "Ắ": 158,
      "ắ": 159,
      "Ằ": 160,
      "ằ": 161,
      "Ẳ": 162,
      "ẳ": 163,
      "Ẵ": 164,
      "ẵ": 165,
      "Ặ": 166,
      "ặ": 167,
      "Ẹ": 168,
      "ẹ": 169,
      "Ẻ": 170,
      "ẻ": 171,
      "Ẽ": 172,
      "ẽ": 173,
      "Ế": 174,
      "ế": 175,
      "Ề": 176,
      "ề": 177,
      "Ể": 178,
      "ể": 179,
      "Ễ": 180,
      "ễ": 181,
      "Ệ": 182,
      "ệ": 183,
      "Ỉ": 184,
      "ỉ": 185,
      "Ị": 186,
      "ị": 187,
      "Ọ": 188,
      "ọ": 189,
      "Ỏ": 190,
      "ỏ": 191,
      "Ố": 192,
      "ố": 193,
      "Ồ": 194,
      "ồ": 195,
      "Ổ": 196,
      "ổ": 197,
      "Ỗ": 198,
      "ỗ": 199,
      "Ộ": 200,
      "ộ": 201,
      "Ớ": 202,
      "ớ": 203,
      "Ờ": 204,
      "ờ": 205,
      "Ở": 206,
      "ở": 207,
      "Ỡ": 208,
      "ỡ": 209,
      "Ợ": 210,
      "ợ": 211,
      "Ụ": 212,
      "ụ": 213,
      "Ủ": 214,
      "ủ": 215,
      "Ứ": 216,
      "ứ": 217,
      "Ừ": 218,
      "ừ": 219,
      "Ử": 220,
      "ử": 221,
      "Ữ": 222,
      "ữ": 223,
      "Ự": 224,
      "ự": 225,
      "Ỳ": 226,
      "ỳ": 227,
      "Ỵ": 228,
      "ỵ": 229,
      "Ỷ": 230,
      "ỷ": 231,
      "Ỹ": 232,
      "ỹ": 233,
      "g</w>": 234,
      "n</w>": 235,
      "c</w>": 236,
      "d</w>": 237,
      "r</w>": 238,
      "t</w>": 239,
      "m</w>": 240,
      "a</w>": 241,
      "h</w>": 242,
      "o</w>": 243,
      "E</w>": 244,
      "s</w>": 245,
      "l</w>": 246,
      "ẻ</w>": 247,
      "y</w>": 248,
      "X</w>": 249,
      "j</w>": 250,
      "i</w>": 251,
      "f</w>": 252,
      "Ổ</w>": 253,
      "u</w>": 254,
      "p</w>": 255,
      "Ệ</w>": 256,
      "ù</w>": 257,
      "e</w>": 258,
      "I</w>": 259,
      "v</w>": 260,
      "T</w>": 261,
      "M</w>": 262,
      "Ì</w>": 263,
      "w</w>": 264,
      "k</w>": 265,
      "ì</w>": 266,
      "G</w>": 267,
      "b</w>": 268,
      "J</w>": 269,
      "Ạ</w>": 270,
      "ị</w>": 271,
      "ờ</w>": 272,
      "è</w>": 273,
      "O</w>": 274,
      "ệ</w>": 275,
      "ủ</w>": 276,
      "ọ</w>": 277,
      "ũ</w>": 278,
      "D</w>": 279,
      "L</w>": 280,
      "H</w>": 281,
      "ồ</w>": 282,
      "N</w>": 283,
      "ạ</w>": 284,
      "ừ</w>": 285,
      "A</w>": 286,
      "ư</w>": 287,
      "z</w>": 288,
      "á</w>": 289,
      "ò</w>": 290,
      "P</w>": 291,
      "ý</w>": 292,
      "x</w>": 293,
      "ê</w>": 294,
      "ỏ</w>": 295,
      "C</w>": 296,
      "ô</w>": 297,
      "ổ</w>": 298,
      "ể</w>": 299,
      "ỉ</w>": 300,
      "ã</w>": 301,
      "U</w>": 302,
      "Í</w>": 303,
      "ả</w>": 304,
      "W</w>": 305,
      "é</w>": 306,
      "ế</w>": 307,
      "ú</w>": 308,
      "S</w>": 309,
      "ề</w>": 310,
      "ử</w>": 311,
      "̂</w>": 312,
      "ụ</w>": 313,
      "Ụ</w>": 314,
      "Y</w>": 315,
      "ó</w>": 316,
      "ữ</w>": 317,
      "V</w>": 318,
      "ẽ</w>": 319,
      "Ỳ</w>": 320,
      "ở</w>": 321,
      "B</w>": 322,
      "ứ</w>": 323,
      "Ở</w>": 324,
      "đ</w>": 325,
      "ỷ</w>": 326,
      "ă</w>": 327,
      "â</w>": 328,
      "Ữ</w>": 329,
      "Ê</w>": 330,
      "í</w>": 331,
      "ơ</w>": 332,
      "q</w>": 333,
      "Ề</w>": 334,
      "Ũ</w>": 335,
      "K</w>": 336,
      "ỡ</w>": 337,
      "Ị</w>": 338,
      "à</w>": 339,
      "ẹ</w>": 340,
      "Ò</w>": 341,
      "ớ</w>": 342,
      "Ố</w>": 343,
      "ố</w>": 344,
      "Q</w>": 345,
      "Ỗ</w>": 346,
      "ộ</w>": 347,
      "ỳ</w>": 348,
      "Ẻ</w>": 349,
      "ễ</w>": 350,
      "Ờ</w>": 351,
      "ē</w>": 352,
      "̉</w>": 353,
      "̣</w>": 354,
      "ặ</w>": 355,
      "R</w>": 356,
      "ĩ</w>": 357,
      "Ó</w>": 358,
      "ỗ</w>": 359,
      "Ế</w>": 360,
      "́</w>": 361,
      "Á</w>": 362,
      "Õ</w>": 363,
      "Ơ</w>": 364,
      "ỹ</w>": 365,
      "Đ</w>": 366,
      "À</w>": 367,
      "ợ</w>": 368,
      "F</w>": 369,
      "÷</w>": 370,
      "Ư</w>": 371,
      "̈</w>": 372,
      "Ừ</w>": 373,
      "Ù</w>": 374,
      "õ</w>": 375,
      "ỵ</w>": 376,
      "ự</w>": 377,
      "Ả</w>": 378,
      "Ồ</w>": 379,
      "Ẽ</w>": 380,
      "ấ</w>": 381,
      "Ủ</w>": 382,
      "Ô</w>": 383,
      "Z</w>": 384,
      "Ộ</w>": 385,
      "į</w>": 386,
      "Ã</w>": 387,
      "ậ</w>": 388,
      "ā</w>": 389,
      "å</w>": 390,
      "Ú</w>": 391,
      "̃</w>": 392,
      "ö</w>": 393,
      "Ợ</w>": 394,
      "ƈ</w>": 395,
      "Ý</w>": 396,
      "Ỏ</w>": 397,
      "Ỡ</w>": 398,
      "Â</w>": 399,
      "Ự</w>": 400,
      "ǹ</w>": 401,
      "ẩ</w>": 402,
      "Ĩ</w>": 403,
      "Ọ</w>": 404,
      "Ể</w>": 405,
      "É</w>": 406,
      "̆</w>": 407,
      "ầ</w>": 408,
      "ÿ</w>": 409,
      "ī</w>": 410,
      "Ứ</w>": 411,
      "Ỉ</w>": 412,
      "ằ</w>": 413,
      "È</w>": 414,
      "Ỷ</w>": 415,
      "Ö</w>": 416,
      "Ỵ</w>": 417,
      "Ẹ</w>": 418,
      "×</w>": 419,
      "ø</w>": 420,
      "̀</w>": 421,
      "Ę</w>": 422,
      "Ớ</w>": 423,
      "Ễ</w>": 424,
      "Ỹ</w>": 425,
      "Į</w>": 426,
      "Ử</w>": 427,
      "͟</w>": 428,
      "ẫ</w>": 429,
      "ä</w>": 430,
      "ẵ</w>": 431,
      "ě</w>": 432,
      "ng</w>": 433,
      "th": 434,
      "ch": 435,
      "nh": 436,
      "nh</w>": 437,
      "kh": 438,
      "ng": 439,
      "gi": 440,
      "ất</w>": 441,
      "tr": 442,
      "ình</w>": 443,
      "ph": 444,
      "ên</w>": 445,
      "ao</w>": 446,
      "ông</w>": 447,
      "ượ": 448,
      "qu": 449,
      "àng</w>": 450,
      "ày</w>": 451,
      "có</w>": 452,
      "ới</w>": 453,
      "là</w>": 454,
      "anh</w>": 455,
      "ua</w>": 456,
      "iệ": 457,
      "thì</w>": 458,
      "ay</w>": 459,
      "iế": 460,
      "ấy</w>": 461,
      "ời</w>": 462,
      "hàng</w>": 463,
      "mua</w>": 464,
      "rất</w>": 465,
      "ài</w>": 466,
      "ại</w>": 467,
      "không</w>": 468,
      "cá": 469,
      "ơi</w>": 470,
      "áy</w>": 471,
      "ho": 472,
      "mà</w>": 473,
      "in</w>": 474,
      "ần</w>": 475,
      "iề": 476,
      "ưng</w>": 477,
      "ói</w>": 478,
      "ch</w>": 479,
      "mình</w>": 480,
      "on</w>": 481,
      "ược</w>": 482,
      "nhanh</w>": 483,
      "này</w>": 484,
      "ản</w>": 485,
      "ân</w>": 486,
      "tố": 487,
      "được</w>": 488,
      "uy": 489,
      "ẹp</w>": 490,
      "ùng</w>": 491,
      "âu</w>": 492,
      "và</w>": 493,
      "ong</w>": 494,
      "cho</w>": 495,
      "ận</w>": 496,
      "đẹp</w>": 497,
      "ồi</w>": 498,
      "ũng</w>": 499,
      "ào</w>": 500,
      "tốt</w>": 501,
      "ải</w>": 502,
      "ko</w>": 503,
      "máy</w>": 504,
      "cũng</w>": 505,
      "ơn</w>": 506,
      "giá</w>": 507,
      "ai</w>": 508,
      "ẩm</w>": 509,
      "Ch": 510,
      "nhưng</w>": 511,
      "em</w>": 512,
      "như</w>": 513,
      "nên</w>": 514,
      "am": 515,
      "quá</w>": 516,
      "ra</w>": 517,
      "phẩm</w>": 518,
      "ười</w>": 519,
      "óng</w>": 520,
      "ang</w>": 521,
      "ôi</w>": 522,
      "hop</w>": 523,
      "ung</w>": 524,
      "lại</w>": 525,
      "òn</w>": 526,
      "ngh": 527,
      "ướ": 528,
      "ủa</w>": 529,
      "ết</w>": 530,
      "lu": 531,
      "an</w>": 532,
      "bị</w>": 533,
      "iên</w>": 534,
      "hình</w>": 535,
      "của</w>": 536,
      "rồi</w>": 537,
      "iều</w>": 538,
      "dùng</w>": 539,
      "áng</w>": 540,
      "ok</w>": 541,
      "thấy</w>": 542,
      "cái</w>": 543,
      "giao</w>": 544,
      "pin</w>": 545,
      "với</w>": 546,
      "iết</w>": 547,
      "àn</w>": 548,
      "inh</w>": 549,
      "người</w>": 550,
      "đi</w>": 551,
      "mới</w>": 552,
      "lắ": 553,
      "ôn</w>": 554,
      "au</w>": 555,
      "ật</w>": 556,
      "Th": 557,
      "còn</w>": 558,
      "ác</w>": 559,
      "kk": 560,
      "ắc</w>": 561,
      "ảm</w>": 562,
      "con</w>": 563,
      "ưa</w>": 564,
      "shop</w>": 565,
      "iện</w>": 566,
      "ượng</w>": 567,
      "nó</w>": 568,
      "gì</w>": 569,
      "để</w>": 570,
      "hơn</w>": 571,
      "àm</w>": 572,
      "lắm</w>": 573,
      "chất</w>": 574,
      "ước</w>": 575,
      "ạn</w>": 576,
      "luôn</w>": 577,
      "úc</w>": 578,
      "sản</w>": 579,
      "iệt</w>": 580,
      "ữa</w>": 581,
      "lượng</w>": 582,
      "ăn</w>": 583,
      "Nh": 584,
      "nói</w>": 585,
      "sao</w>": 586,
      "ây</w>": 587,
      "Gi": 588,
      "phải</w>": 589,
      "iền</w>": 590,
      "ặt</w>": 591,
      "ống</w>": 592,
      "làm</w>": 593,
      "iể": 594,
      "về</w>": 595,
      "am</w>": 596,
      "hơi</w>": 597,
      "úng</w>": 598,
      "nhiều</w>": 599,
      "ổn</w>": 600,
      "khi</w>": 601,
      "ngày</w>": 602,
      "ọi</w>": 603,
      "êu</w>": 604,
      "ầm</w>": 605,
      "đã</w>": 606,
      "nào</w>": 607,
      "gói</w>": 608,
      "ạc</w>": 609,
      "ụng</w>": 610,
      "hay</w>": 611,
      "trong</w>": 612,
      "nhận</w>": 613,
      "ầu</w>": 614,
      "chơi</w>": 615,
      "biết</w>": 616,
      "đc</w>": 617,
      "chỉ</w>": 618,
      "ẫn</w>": 619,
      "ích</w>": 620,
      "tu": 621,
      "Ng": 622,
      "ame</w>": 623,
      "chưa</w>": 624,
      "ươ": 625,
      "lo": 626,
      "ính</w>": 627,
      "ậy</w>": 628,
      "khá</w>": 629,
      "án</w>": 630,
      "sẽ</w>": 631,
      "ương</w>": 632,
      "òng</w>": 633,
      "ắt</w>": 634,
      "game</w>": 635,
      "dụng</w>": 636,
      "nữa</w>": 637,
      "cả</w>": 638,
      "ỗi</w>": 639,
      "ột</w>": 640,
      "bạn</w>": 641,
      "tiền</w>": 642,
      "êm</w>": 643,
      "ẩn</w>": 644,
      "ực</w>": 645,
      "ảnh</w>": 646,
      "các</w>": 647,
      "cảm</w>": 648,
      "pp": 649,
      "Tr": 650,
      "ục</w>": 651,
      "eo</w>": 652,
      "ượt</w>": 653,
      "ứng</w>": 654,
      "thế</w>": 655,
      "Máy</w>": 656,
      "ii": 657,
      "ườ": 658,
      "oi</w>": 659,
      "lần</w>": 660,
      "nha</w>": 661,
      "ắn</w>": 662,
      "ường</w>": 663,
      "ành</w>": 664,
      "vậy</w>": 665,
      "sau</w>": 666,
      "hết</w>": 667,
      "vẫn</w>": 668,
      "ằng</w>": 669,
      "ọc</w>": 670,
      "lên</w>": 671,
      "ầy</w>": 672,
      "uố": 673,
      "tiế": 674,
      "chắc</w>": 675,
      "uyệ": 676,
      "tt": 677,
      "tình</w>": 678,
      "ức</w>": 679,
      "ến</w>": 680,
      "ánh</w>": 681,
      "àu</w>": 682,
      "đóng</w>": 683,
      "mượt</w>": 684,
      "vào</w>": 685,
      "thôi</w>": 686,
      "mấy</w>": 687,
      "ăng</w>": 688,
      "ừa</w>": 689,
      "nn": 690,
      "Sản</w>": 691,
      "lâu</w>": 692,
      "tay</w>": 693,
      "ảo</w>": 694,
      "thích</w>": 695,
      "đúng</w>": 696,
      "đó</w>": 697,
      "nhà</w>": 698,
      "en</w>": 699,
      "ụp</w>": 700,
      "ổi</w>": 701,
      "ái</w>": 702,
      "nghe</w>": 703,
      "Mình</w>": 704,
      "hh": 705,
      "át</w>": 706,
      "xài</w>": 707,
      "nhé</w>": 708,
      "ạy</w>": 709,
      "aa": 710,
      "sử</w>": 711,
      "Giao</w>": 712,
      "lúc</w>": 713,
      "ìn</w>": 714,
      "sạc</w>": 715,
      "tầm</w>": 716,
      "áo</w>": 717,
      "ủng</w>": 718,
      "si": 719,
      "âm</w>": 720,
      "đầu</w>": 721,
      "chung</w>": 722,
      "đâu</w>": 723,
      "ngon</w>": 724,
      "xem</w>": 725,
      "ấu</w>": 726,
      "chụp</w>": 727,
      "ame": 728,
      "mọi</w>": 729,
      "ik": 730,
      "qua</w>": 731,
      "chứ</w>": 732,
      "ặc</w>": 733,
      "hộ</w>": 734,
      "ọng</w>": 735,
      "đến</w>": 736,
      "vì</w>": 737,
      "khác</w>": 738,
      "tho": 739,
      "lòng</w>": 740,
      "tao</w>": 741,
      "amera</w>": 742,
      "ếu</w>": 743,
      "ộng</w>": 744,
      "một</w>": 745,
      "viên</w>": 746,
      "ợp</w>": 747,
      "dễ</w>": 748,
      "từ</w>": 749,
      "nhiệt</w>": 750,
      "ọn</w>": 751,
      "út</w>": 752,
      "hi": 753,
      "iểu</w>": 754,
      "ỏi</w>": 755,
      "ồn</w>": 756,
      "iệu</w>": 757,
      "to": 758,
      "vừa</w>": 759,
      "ấn</w>": 760,
      "trâu</w>": 761,
      "hợp</w>": 762,
      "Kh": 763,
      "giờ</w>": 764,
      "thật</w>": 765,
      "ồng</w>": 766,
      "kkkk": 767,
      "hài</w>": 768,
      "lỗi</w>": 769,
      "ui</w>": 770,
      "thận</w>": 771,
      "vi": 772,
      "cẩn</w>": 773,
      "al": 774,
      "ôm</w>": 775,
      "rẻ</w>": 776,
      "màu</w>": 777,
      "Ph": 778,
      "nước</w>": 779,
      "màn</w>": 780,
      "ặng</w>": 781,
      "dj": 782,
      "Hàng</w>": 783,
      "ập</w>": 784,
      "ok": 785,
      "ăm</w>": 786,
      "tháng</w>": 787,
      "er</w>": 788,
      "uyệt</w>": 789,
      "éo</w>": 790,
      "nhìn</w>": 791,
      "độ</w>": 792,
      "ững</w>": 793,
      "ừng</w>": 794,
      "nhân</w>": 795,
      "ội</w>": 796,
      "thứ</w>": 797,
      "ta</w>": 798,
      "thể</w>": 799,
      "trước</w>": 800,
      "uyên</w>": 801,
      "đặt</w>": 802,
      "ối</w>": 803,
      "mặt</w>": 804,
      "ngo": 805,
      "đủ</w>": 806,
      "tôi</w>": 807,
      "ạnh</w>": 808,
      "Qu": 809,
      "đây</w>": 810,
      "iki</w>": 811,
      "gh": 812,
      "bảo</w>": 813,
      "ãi</w>": 814,
      "ịch</w>": 815,
      "uốn</w>": 816,
      "ễn</w>": 817,
      "những</w>": 818,
      "iến</w>": 819,
      "thêm</w>": 820,
      "camera</w>": 821,
      "nhất</w>": 822,
      "đáng</w>": 823,
      "ạt</w>": 824,
      "chắn</w>": 825,
      "ảng</w>": 826,
      "ạm</w>": 827,
      "tuyệt</w>": 828,
      "uy</w>": 829,
      "ấp</w>": 830,
      "ửi</w>": 831,
      "nhỏ</w>": 832,
      "nay</w>": 833,
      "ền</w>": 834,
      "óc</w>": 835,
      "sự</w>": 836,
      "ét</w>": 837,
      "to</w>": 838,
      "ách</w>": 839,
      "đang</w>": 840,
      "cao</w>": 841,
      "mẹ</w>": 842,
      "Shop</w>": 843,
      "trên</w>": 844,
      "so</w>": 845,
      "ưở": 846,
      "iểm</w>": 847,
      "im</w>": 848,
      "muốn</w>": 849,
      "tính</w>": 850,
      "cực</w>": 851,
      "ee": 852,
      "chị</w>": 853,
      "kho": 854,
      "mang</w>": 855,
      "hôm</w>": 856,
      "do</w>": 857,
      "bao</w>": 858,
      "ưởng</w>": 859,
      "Nguy": 860,
      "ều</w>": 861,
      "thời</w>": 862,
      "xu": 863,
      "đị": 864,
      "ùi</w>": 865,
      "dc</w>": 866,
      "đánh</w>": 867,
      "la": 868,
      "sj": 869,
      "mày</w>": 870,
      "vụ</w>": 871,
      "nóng</w>": 872,
      "sáng</w>": 873,
      "đều</w>": 874,
      "gg": 875,
      "điện</w>": 876,
      "ha": 877,
      "chạy</w>": 878,
      "ơm</w>": 879,
      "mất</w>": 880,
      "chu": 881,
      "yêu</w>": 882,
      "vọng</w>": 883,
      "vời</w>": 884,
      "bên</w>": 885,
      "Mua</w>": 886,
      "ít</w>": 887,
      "tự</w>": 888,
      "thương</w>": 889,
      "cứ</w>": 890,
      "ộc</w>": 891,
      "vấn</w>": 892,
      "ạo</w>": 893,
      "ngoài</w>": 894,
      "phục</w>": 895,
      "cần</w>": 896,
      "động</w>": 897,
      "an": 898,
      "năm</w>": 899,
      "tiếp</w>": 900,
      "Pin</w>": 901,
      "công</w>": 902,
      "gian</w>": 903,
      "sài</w>": 904,
      "liên</w>": 905,
      "đổi</w>": 906,
      "ạng</w>": 907,
      "ấm</w>": 908,
      "hã": 909,
      "thằng</w>": 910,
      "thoại</w>": 911,
      "bu": 912,
      "tin</w>": 913,
      "Mới</w>": 914,
      "chính</w>": 915,
      "uu": 916,
      "úi</w>": 917,
      "Chất</w>": 918,
      "gọi</w>": 919,
      "xong</w>": 920,
      "Nguyễn</w>": 921,
      "siêu</w>": 922,
      "re": 923,
      "iệm</w>": 924,
      "bán</w>": 925,
      "dân</w>": 926,
      "học</w>": 927,
      "te</w>": 928,
      "ửa</w>": 929,
      "tư</w>": 930,
      "tới</w>": 931,
      "tttt": 932,
      "số</w>": 933,
      "Có</w>": 934,
      "bằng</w>": 935,
      "ti": 936,
      "cô</w>": 937,
      "tiếng</w>": 938,
      "định</w>": 939,
      "bình</w>": 940,
      "cách</w>": 941,
      "vô</w>": 942,
      "ợi</w>": 943,
      "di": 944,
      "ma": 945,
      "Nói</w>": 946,
      "iếu</w>": 947,
      "bắt</w>": 948,
      "ậm</w>": 949,
      "lớ": 950,
      "tặng</w>": 951,
      "giống</w>": 952,
      "li": 953,
      "tâm</w>": 954,
      "dn": 955,
      "mm": 956,
      "thử</w>": 957,
      "thường</w>": 958,
      "đấy</w>": 959,
      "ộp</w>": 960,
      "loại</w>": 961,
      "if": 962,
      "điều</w>": 963,
      "ia</w>": 964,
      "sk": 965,
      "ốc</w>": 966,
      "on": 967,
      "đồng</w>": 968,
      "nếu</w>": 969,
      "tụ": 970,
      "cu": 971,
      "thầy</w>": 972,
      "cùng</w>": 973,
      "xinh</w>": 974,
      "đầy</w>": 975,
      "vân</w>": 976,
      "sn": 977,
      "hành</w>": 978,
      "db": 979,
      "tại</w>": 980,
      "theo</w>": 981,
      "ịn</w>": 982,
      "uyện</w>": 983,
      "mặc</w>": 984,
      "quan</w>": 985,
      "tệ</w>": 986,
      "ba</w>": 987,
      "iiii": 988,
      "chi</w>": 989,
      "lấy</w>": 990,
      "nhẹ</w>": 991,
      "bé</w>": 992,
      "ắng</w>": 993,
      "thành</w>": 994,
      "ém</w>": 995,
      "vui</w>": 996,
      "năng</w>": 997,
      "Nhưng</w>": 998,
      "ịu</w>": 999,
      "hỏi</w>": 1000,
      "vs</w>": 1001,
      "nhiên</w>": 1002,
      "ám</w>": 1003,
      "be</w>": 1004,
      "lý</w>": 1005,
      "dù</w>": 1006,
      "tuần</w>": 1007,
      "xe</w>": 1008,
      "đéo</w>": 1009,
      "dài</w>": 1010,
      "deo</w>": 1011,
      "aaaa": 1012,
      "tr</w>": 1013,
      "đồ</w>": 1014,
      "pppp": 1015,
      "nnnn": 1016,
      "bản</w>": 1017,
      "Anh</w>": 1018,
      "ốt</w>": 1019,
      "chết</w>": 1020,
      "nghĩ</w>": 1021,
      "toàn</w>": 1022,
      "Tiki</w>": 1023,
      "ỏng</w>": 1024,
      "phần</w>": 1025,
      "xin</w>": 1026,
      "gần</w>": 1027,
      "tạm</w>": 1028,
      "da</w>": 1029,
      "Đóng</w>": 1030,
      "oo": 1031,
      "mở</w>": 1032,
      "mong</w>": 1033,
      "Rất</w>": 1034,
      "sợ</w>": 1035,
      "per</w>": 1036,
      "hiện</w>": 1037,
      "mỗi</w>": 1038,
      "điểm</w>": 1039,
      "ỉnh</w>": 1040,
      "chửi</w>": 1041,
      "lag</w>": 1042,
      "ển</w>": 1043,
      "Cảm</w>": 1044,
      "mạnh</w>": 1045,
      "hộp</w>": 1046,
      "chậm</w>": 1047,
      "chịu</w>": 1048,
      "hãng</w>": 1049,
      "shi": 1050,
      "thu": 1051,
      "bỏ</w>": 1052,
      "hiểu</w>": 1053,
      "kém</w>": 1054,
      "sinh</w>": 1055,
      "dịch</w>": 1056,
      "kế</w>": 1057,
      "loa</w>": 1058,
      "chuy": 1059,
      "ướng</w>": 1060,
      "thơm</w>": 1061,
      "chúng</w>": 1062,
      "Đã</w>": 1063,
      "nhau</w>": 1064,
      "ie": 1065,
      "ạch</w>": 1066,
      "ifi</w>": 1067,
      "sp</w>": 1068,
      "áp</w>": 1069,
      "ngay</w>": 1070,
      "kiểu</w>": 1071,
      "thất</w>": 1072,
      "se": 1073,
      "cười</w>": 1074,
      "video</w>": 1075,
      "bộ</w>": 1076,
      "co": 1077,
      "iệc</w>": 1078,
      "chuẩn</w>": 1079,
      "hiệu</w>": 1080,
      "jj": 1081,
      "kkkkkkkk": 1082,
      "ắm</w>": 1083,
      "dk": 1084,
      "khó</w>": 1085,
      "ac": 1086,
      "mn</w>": 1087,
      "tưởng</w>": 1088,
      "Ho": 1089,
      "Việt</w>": 1090,
      "sắc</w>": 1091,
      "tục</w>": 1092,
      "chuyện</w>": 1093,
      "ou": 1094,
      "báo</w>": 1095,
      "vãi</w>": 1096,
      "sống</w>": 1097,
      "đường</w>": 1098,
      "at</w>": 1099,
      "dh": 1100,
      "rõ</w>": 1101,
      "ứa</w>": 1102,
      "nè</w>": 1103,
      "phim</w>": 1104,
      "may</w>": 1105,
      "thiết</w>": 1106,
      "kết</w>": 1107,
      "hhhh": 1108,
      "sang</w>": 1109,
      "ép</w>": 1110,
      "việc</w>": 1111,
      "chó</w>": 1112,
      "èm</w>": 1113,
      "nhạy</w>": 1114,
      "mùi</w>": 1115,
      "túi</w>": 1116,
      "chê</w>": 1117,
      "yếu</w>": 1118,
      "iệp</w>": 1119,
      "tiki</w>": 1120,
      "thân</w>": 1121,
      "bác</w>": 1122,
      "mi": 1123,
      "mắt</w>": 1124,
      "tối</w>": 1125,
      "thanh</w>": 1126,
      "giảm</w>": 1127,
      "Giá</w>": 1128,
      "nét</w>": 1129,
      "mạng</w>": 1130,
      "wifi</w>": 1131,
      "đơ</w>": 1132,
      "ềm</w>": 1133,
      "Không</w>": 1134,
      "xu</w>": 1135,
      "cấu</w>": 1136,
      "tiện</w>": 1137,
      "OK</w>": 1138,
      "giật</w>": 1139,
      "nhớ</w>": 1140,
      "gia</w>": 1141,
      "chuyển</w>": 1142,
      "NG</w>": 1143,
      "cơ</w>": 1144,
      "phát</w>": 1145,
      "me</w>": 1146,
      "ựa</w>": 1147,
      "quay</w>": 1148,
      "sung</w>": 1149,
      "mềm</w>": 1150,
      "đừng</w>": 1151,
      "dd": 1152,
      "ướt</w>": 1153,
      "tụt</w>": 1154,
      "nhật</w>": 1155,
      "phù</w>": 1156,
      "Trần</w>": 1157,
      "bà</w>": 1158,
      "lớn</w>": 1159,
      "Nam</w>": 1160,
      "la</w>": 1161,
      "quả</w>": 1162,
      "ẫu</w>": 1163,
      "nguyên</w>": 1164,
      "trả</w>": 1165,
      "chán</w>": 1166,
      "thông</w>": 1167,
      "ha</w>": 1168,
      "sb": 1169,
      "vẻ</w>": 1170,
      "èo</w>": 1171,
      "minh</w>": 1172,
      "vài</w>": 1173,
      "nghiệm</w>": 1174,
      "nhỉ</w>": 1175,
      "te": 1176,
      "Còn</w>": 1177,
      "bọn</w>": 1178,
      "lắp</w>": 1179,
      "giới</w>": 1180,
      "ad</w>": 1181,
      "en": 1182,
      "tai</w>": 1183,
      "cầu</w>": 1184,
      "cầm</w>": 1185,
      "trời</w>": 1186,
      "ẳng</w>": 1187,
      "buồn</w>": 1188,
      "bàn</w>": 1189,
      "coi</w>": 1190,
      "chút</w>": 1191,
      "ngu</w>": 1192,
      "úp</w>": 1193,
      "khỏi</w>": 1194,
      "trung</w>": 1195,
      "du": 1196,
      "chân</w>": 1197,
      "bài</w>": 1198,
      "kèm</w>": 1199,
      "thức</w>": 1200,
      "nhạc</w>": 1201,
      "in": 1202,
      "vải</w>": 1203,
      "Hình</w>": 1204,
      "hi</w>": 1205,
      "ặp</w>": 1206,
      "quy": 1207,
      "ghê</w>": 1208,
      "chế</w>": 1209,
      "he</w>": 1210,
      "quân</w>": 1211,
      "đt</w>": 1212,
      "ặn</w>": 1213,
      "nhi": 1214,
      "Nhân</w>": 1215,
      "cam</w>": 1216,
      "vl</w>": 1217,
      "ma</w>": 1218,
      "òi</w>": 1219,
      "ak": 1220,
      "bb": 1221,
      "óa</w>": 1222,
      "đọc</w>": 1223,
      "ngu": 1224,
      "sóng</w>": 1225,
      "co</w>": 1226,
      "iển</w>": 1227,
      "ale</w>": 1228,
      "bố</w>": 1229,
      "sai</w>": 1230,
      "thực</w>": 1231,
      "óp</w>": 1232,
      "chọn</w>": 1233,
      "do": 1234,
      "hồi</w>": 1235,
      "tiên</w>": 1236,
      "lo</w>": 1237,
      "trợ</w>": 1238,
      "thiện</w>": 1239,
      "xuống</w>": 1240,
      "kì</w>": 1241,
      "giải</w>": 1242,
      "kinh</w>": 1243,
      "ưu</w>": 1244,
      "chỗ</w>": 1245,
      "bo": 1246,
      "ắp</w>": 1247,
      "nam</w>": 1248,
      "tội</w>": 1249,
      "càng</w>": 1250,
      "mẫu</w>": 1251,
      "ri": 1252,
      "dung</w>": 1253,
      "nặng</w>": 1254,
      "đợi</w>": 1255,
      "ổng</w>": 1256,
      "dòng</w>": 1257,
      "bền</w>": 1258,
      "ve</w>": 1259,
      "kia</w>": 1260,
      "tắt</w>": 1261,
      "xuất</w>": 1262,
      "đề</w>": 1263,
      "kỹ</w>": 1264,
      "sale</w>": 1265,
      "chống</w>": 1266,
      "cáo</w>": 1267,
      "ss": 1268,
      "xa</w>": 1269,
      "ip</w>": 1270,
      "Minh</w>": 1271,
      "su": 1272,
      "khách</w>": 1273,
      "fj": 1274,
      "tí</w>": 1275,
      "Con</w>": 1276,
      "câu</w>": 1277,
      "đời</w>": 1278,
      "trọng</w>": 1279,
      "tác</w>": 1280,
      "amsung</w>": 1281,
      "Dùng</w>": 1282,
      "chủ</w>": 1283,
      "okok": 1284,
      "Camera</w>": 1285,
      "dư": 1286,
      "chả</w>": 1287,
      "ship</w>": 1288,
      "le</w>": 1289,
      "yên</w>": 1290,
      "gọn</w>": 1291,
      "mát</w>": 1292,
      "sh": 1293,
      "êng</w>": 1294,
      "oke</w>": 1295,
      "tả</w>": 1296,
      "trang</w>": 1297,
      "gd": 1298,
      "tất</w>": 1299,
      "djdj": 1300,
      "Sẽ</w>": 1301,
      "cứng</w>": 1302,
      "ro": 1303,
      "Cho</w>": 1304,
      "Em</w>": 1305,
      "dày</w>": 1306,
      "dây</w>": 1307,
      "ớt</w>": 1308,
      "trai</w>": 1309,
      "quần</w>": 1310,
      "lướt</w>": 1311,
      "đen</w>": 1312,
      "cấp</w>": 1313,
      "vàng</w>": 1314,
      "ệnh</w>": 1315,
      "gửi</w>": 1316,
      "áu</w>": 1317,
      "đêm</w>": 1318,
      "ca": 1319,
      "lời</w>": 1320,
      "mã</w>": 1321,
      "st</w>": 1322,
      "ze</w>": 1323,
      "đơn</w>": 1324,
      "ậu</w>": 1325,
      "tuy</w>": 1326,
      "tui</w>": 1327,
      "ote</w>": 1328,
      "đứa</w>": 1329,
      "giác</w>": 1330,
      "cm": 1331,
      "VN</w>": 1332,
      "kiến</w>": 1333,
      "vị</w>": 1334,
      "íu</w>": 1335,
      "thay</w>": 1336,
      "biến</w>": 1337,
      "họ</w>": 1338,
      "mi</w>": 1339,
      "mỏng</w>": 1340,
      "giúp</w>": 1341,
      "cập</w>": 1342,
      "we": 1343,
      "ịt</w>": 1344,
      "gái</w>": 1345,
      "mức</w>": 1346,
      "Quá</w>": 1347,
      "kg</w>": 1348,
      "kĩ</w>": 1349,
      "ru": 1350,
      "ùa</w>": 1351,
      "việt</w>": 1352,
      "ii</w>": 1353,
      "uyết</w>": 1354,
      "he": 1355,
      "uối</w>": 1356,
      "gggg": 1357,
      "ngủ</w>": 1358,
      "iếc</w>": 1359,
      "hoa</w>": 1360,
      "xịn</w>": 1361,
      "nghiệp</w>": 1362,
      "al</w>": 1363,
      "bây</w>": 1364,
      "de": 1365,
      "nổi</w>": 1366,
      "yy": 1367,
      "eeee": 1368,
      "di</w>": 1369,
      "thiếu</w>": 1370,
      "Chỉ</w>": 1371,
      "khoảng</w>": 1372,
      "dán</w>": 1373,
      "ìm</w>": 1374,
      "tttttttt": 1375,
      "ro</w>": 1376,
      "nhu</w>": 1377,
      "Mọi</w>": 1378,
      "chu</w>": 1379,
      "bất</w>": 1380,
      "cc": 1381,
      "gặp</w>": 1382,
      "quảng</w>": 1383,
      "size</w>": 1384,
      "xấu</w>": 1385,
      "thua</w>": 1386,
      "ảy</w>": 1387,
      "phân</w>": 1388,
      "ẩu</w>": 1389,
      "thi</w>": 1390,
      "bật</w>": 1391,
      "fu": 1392,
      "ne</w>": 1393,
      "oc</w>": 1394,
      "dẫn</w>": 1395,
      "xanh</w>": 1396,
      "ón</w>": 1397,
      "xn": 1398,
      "xíu</w>": 1399,
      "Nên</w>": 1400,
      "bệnh</w>": 1401,
      "ởi</w>": 1402,
      "trải</w>": 1403,
      "hoặc</w>": 1404,
      "Nghe</w>": 1405,
      "biệt</w>": 1406,
      "đối</w>": 1407,
      "tượng</w>": 1408,
      "hỗ</w>": 1409,
      "ím</w>": 1410,
      "ựng</w>": 1411,
      "uốc</w>": 1412,
      "Lo": 1413,
      "kỳ</w>": 1414,
      "hồ</w>": 1415,
      "liệu</w>": 1416,
      "ớm</w>": 1417,
      "hả</w>": 1418,
      "mô</w>": 1419,
      "mãi</w>": 1420,
      "Nhìn</w>": 1421,
      "Ai</w>": 1422,
      "đất</w>": 1423,
      "ck</w>": 1424,
      "mái</w>": 1425,
      "xi": 1426,
      "xj": 1427,
      "one</w>": 1428,
      "kêu</w>": 1429,
      "ll</w>": 1430,
      "thị</w>": 1431,
      "Tôi</w>": 1432,
      "tgd": 1433,
      "hai</w>": 1434,
      "lợi</w>": 1435,
      "uống</w>": 1436,
      "đôi</w>": 1437,
      "uuuu": 1438,
      "sạch</w>": 1439,
      "ọt</w>": 1440,
      "lun</w>": 1441,
      "tận</w>": 1442,
      "ốp</w>": 1443,
      "quốc</w>": 1444,
      "or": 1445,
      "cuộc</w>": 1446,
      "ss</w>": 1447,
      "alo</w>": 1448,
      "uyền</w>": 1449,
      "tiết</w>": 1450,
      "Chị</w>": 1451,
      "TH": 1452,
      "đau</w>": 1453,
      "triệu</w>": 1454,
      "tế</w>": 1455,
      "tên</w>": 1456,
      "zz": 1457,
      "Sau</w>": 1458,
      "bi": 1459,
      "ín</w>": 1460,
      "giấy</w>": 1461,
      "phụ</w>": 1462,
      "Chơi</w>": 1463,
      "lớp</w>": 1464,
      "th</w>": 1465,
      "lí</w>": 1466,
      "ban</w>": 1467,
      "trừ</w>": 1468,
      "đứng</w>": 1469,
      "nguồn</w>": 1470,
      "hu": 1471,
      "ww": 1472,
      "Cái</w>": 1473,
      "vận</w>": 1474,
      "ỏe</w>": 1475,
      "chờ</w>": 1476,
      "ngồi</w>": 1477,
      "Ko</w>": 1478,
      "tìm</w>": 1479,
      "xo": 1480,
      "khỏe</w>": 1481,
      "hoàn</w>": 1482,
      "ly</w>": 1483,
      "chức</w>": 1484,
      "ae</w>": 1485,
      "cố</w>": 1486,
      "cài</w>": 1487,
      "trường</w>": 1488,
      "phòng</w>": 1489,
      "ao": 1490,
      "phí</w>": 1491,
      "TG": 1492,
      "ai": 1493,
      "trắng</w>": 1494,
      "iếm</w>": 1495,
      "ppo</w>": 1496,
      "cj": 1497,
      "uôn</w>": 1498,
      "chóng</w>": 1499,
      "phone</w>": 1500,
      "lưng</w>": 1501,
      "Hoàng</w>": 1502,
      "CH": 1503,
      "đỡ</w>": 1504,
      "dưới</w>": 1505,
      "cá</w>": 1506,
      "lồn</w>": 1507,
      "nối</w>": 1508,
      "tuổi</w>": 1509,
      "Màn</w>": 1510,
      "so": 1511,
      "TGD": 1512,
      "hướng</w>": 1513,
      "đeo</w>": 1514,
      "rộng</w>": 1515,
      "đăng</w>": 1516,
      "trẻ</w>": 1517,
      "haha": 1518,
      "ike</w>": 1519,
      "tuột</w>": 1520,
      "tập</w>": 1521,
      "chấp</w>": 1522,
      "iếng</w>": 1523,
      "no</w>": 1524,
      "từng</w>": 1525,
      "vie": 1526,
      "diện</w>": 1527,
      "sớm</w>": 1528,
      "tinh</w>": 1529,
      "quà</w>": 1530,
      "Chưa</w>": 1531,
      "tra</w>": 1532,
      "ẳn</w>": 1533,
      "thu</w>": 1534,
      "mịn</w>": 1535,
      "nấu</w>": 1536,
      "chiếc</w>": 1537,
      "già</w>": 1538,
      "nnnnnnnn": 1539,
      "cửa</w>": 1540,
      "fi": 1541,
      "ếp</w>": 1542,
      "hoạt</w>": 1543,
      "thoải</w>": 1544,
      "tóc</w>": 1545,
      "văn</w>": 1546,
      "Sp</w>": 1547,
      "mmmm": 1548,
      "Lần</w>": 1549,
      "bay</w>": 1550,
      "da": 1551,
      "sức</w>": 1552,
      "fan</w>": 1553,
      "tgdd</w>": 1554,
      "dự</w>": 1555,
      "lực</w>": 1556,
      "ão</w>": 1557,
      "Sao</w>": 1558,
      "hẳn</w>": 1559,
      "má</w>": 1560,
      "samsung</w>": 1561,
      "đòi</w>": 1562,
      "ệt</w>": 1563,
      "iiiiiiii": 1564,
      "ca</w>": 1565,
      "chẳng</w>": 1566,
      "ag": 1567,
      "chú</w>": 1568,
      "tụi</w>": 1569,
      "tài</w>": 1570,
      "ứt</w>": 1571,
      "sjsj": 1572,
      "cũ</w>": 1573,
      "ks</w>": 1574,
      "pu": 1575,
      "đem</w>": 1576,
      "ợt</w>": 1577,
      "chiều</w>": 1578,
      "Lê</w>": 1579,
      "sữa</w>": 1580,
      "Trung</w>": 1581,
      "outu": 1582,
      "hội</w>": 1583,
      "nu": 1584,
      "aaaaaaaa": 1585,
      "Các</w>": 1586,
      "cộng</w>": 1587,
      "xb": 1588,
      "chỉnh</w>": 1589,
      "bấm</w>": 1590,
      "èn</w>": 1591,
      "đo": 1592,
      "đa</w>": 1593,
      "nhắn</w>": 1594,
      "bóng</w>": 1595,
      "sách</w>": 1596,
      "ịp</w>": 1597,
      "cuối</w>": 1598,
      "pppppppp": 1599,
      "cung</w>": 1600,
      "ằm</w>": 1601,
      "Nếu</w>": 1602,
      "cm</w>": 1603,
      "cơm</w>": 1604,
      "de</w>": 1605,
      "vv": 1606,
      "ĩa</w>": 1607,
      "kiểm</w>": 1608,
      "tương</w>": 1609,
      "ốn</w>": 1610,
      "giáo</w>": 1611,
      "tiếc</w>": 1612,
      "Lúc</w>": 1613,
      "mờ</w>": 1614,
      "óm</w>": 1615,
      "chữ</w>": 1616,
      "Cô</w>": 1617,
      "lịch</w>": 1618,
      "mo": 1619,
      "Chúc</w>": 1620,
      "outube</w>": 1621,
      "ck": 1622,
      "ee</w>": 1623,
      "phản</w>": 1624,
      "Thanh</w>": 1625,
      "Ok</w>": 1626,
      "Sài</w>": 1627,
      "fk": 1628,
      "Điện</w>": 1629,
      "Đúng</w>": 1630,
      "ẹn</w>": 1631,
      "nhựa</w>": 1632,
      "mắc</w>": 1633,
      "re</w>": 1634,
      "sm": 1635,
      "ùm</w>": 1636,
      "đại</w>": 1637,
      "ac</w>": 1638,
      "kk</w>": 1639,
      "chúc</w>": 1640,
      "lũ</w>": 1641,
      "mai</w>": 1642,
      "ạp</w>": 1643,
      "chai</w>": 1644,
      "trình</w>": 1645,
      "Tuy</w>": 1646,
      "et</w>": 1647,
      "Chi</w>": 1648,
      "kiện</w>": 1649,
      "lol</w>": 1650,
      "fb</w>": 1651,
      "hút</w>": 1652,
      "kích</w>": 1653,
      "like</w>": 1654,
      "pper</w>": 1655,
      "haha</w>": 1656,
      "kkkkkkkkkkkkkkkk": 1657,
      "NH</w>": 1658,
      "abe</w>": 1659,
      "bg</w>": 1660,
      "bò</w>": 1661,
      "ồm</w>": 1662,
      "thần</w>": 1663,
      "đặc</w>": 1664,
      "Xài</w>": 1665,
      "Xin</w>": 1666,
      "pp</w>": 1667,
      "kể</w>": 1668,
      "du</w>": 1669,
      "rr": 1670,
      "ãn</w>": 1671,
      "ót</w>": 1672,
      "Đẹp</w>": 1673,
      "chiến</w>": 1674,
      "Ngọc</w>": 1675,
      "quyền</w>": 1676,
      "Tu": 1677,
      "viết</w>": 1678,
      "đáo</w>": 1679,
      "tham</w>": 1680,
      "nơi</w>": 1681,
      "vợ</w>": 1682,
      "uốt</w>": 1683,
      "riêng</w>": 1684,
      "Linh</w>": 1685,
      "ej": 1686,
      "đạo</w>": 1687,
      "cây</w>": 1688,
      "cmt</w>": 1689,
      "noi</w>": 1690,
      "tăng</w>": 1691,
      "ưỡ": 1692,
      "thuyết</w>": 1693,
      "trí</w>": 1694,
      "dndn": 1695,
      "dám</w>": 1696,
      "ìa</w>": 1697,
      "ẩy</w>": 1698,
      "phím</w>": 1699,
      "ênh</w>": 1700,
      "mar": 1701,
      "Mong</w>": 1702,
      "pro</w>": 1703,
      "linh</w>": 1704,
      "me": 1705,
      "xử</w>": 1706,
      "Tốt</w>": 1707,
      "ff": 1708,
      "mau</w>": 1709,
      "thấp</w>": 1710,
      "cân</w>": 1711,
      "xác</w>": 1712,
      "cục</w>": 1713,
      "kính</w>": 1714,
      "miếng</w>": 1715,
      "tạo</w>": 1716,
      "Ông</w>": 1717,
      "dbdb": 1718,
      "dần</w>": 1719,
      "nội</w>": 1720,
      "giữ</w>": 1721,
      "Phạm</w>": 1722,
      "dính</w>": 1723,
      "đưa</w>": 1724,
      "cháu</w>": 1725,
      "hhhhhhhh": 1726,
      "mu": 1727,
      "mk</w>": 1728,
      "quen</w>": 1729,
      "dddd": 1730,
      "Túi</w>": 1731,
      "aj": 1732,
      "dặn</w>": 1733,
      "note</w>": 1734,
      "hãy</w>": 1735,
      "Màu</w>": 1736,
      "ộn</w>": 1737,
      "chip</w>": 1738,
      "view</w>": 1739,
      "dầu</w>": 1740,
      "đựng</w>": 1741,
      "trc</w>": 1742,
      "ghi</w>": 1743,
      "hệ</w>": 1744,
      "lạnh</w>": 1745,
      "mèo</w>": 1746,
      "vật</w>": 1747,
      "âng</w>": 1748,
      "Nhận</w>": 1749,
      "gj": 1750,
      "Mà</w>": 1751,
      "NH": 1752,
      "cl</w>": 1753,
      "ing</w>": 1754,
      "hihi</w>": 1755,
      "be": 1756,
      "cà</w>": 1757,
      "nằm</w>": 1758,
      "Độ</w>": 1759,
      "đình</w>": 1760,
      "phút</w>": 1761,
      "chia</w>": 1762,
      "tốc</w>": 1763,
      "Dần</w>": 1764,
      "Về</w>": 1765,
      "cắt</w>": 1766,
      "hao</w>": 1767,
      "lương</w>": 1768,
      "vo</w>": 1769,
      "khắc</w>": 1770,
      "nhiêu</w>": 1771,
      "ram</w>": 1772,
      "trị</w>": 1773,
      "trở</w>": 1774,
      "cổ</w>": 1775,
      "cụ</w>": 1776,
      "liền</w>": 1777,
      "vn</w>": 1778,
      "giả</w>": 1779,
      "test</w>": 1780,
      "web</w>": 1781,
      "aomi</w>": 1782,
      "mùa</w>": 1783,
      "nghỉ</w>": 1784,
      "snsn": 1785,
      "bánh</w>": 1786,
      "góp</w>": 1787,
      "Chụp</w>": 1788,
      "sd</w>": 1789,
      "tức</w>": 1790,
      "trông</w>": 1791,
      "quyết</w>": 1792,
      "Mỹ</w>": 1793,
      "nt": 1794,
      "tín</w>": 1795,
      "cha</w>": 1796,
      "TGDD</w>": 1797,
      "lam</w>": 1798,
      "nữ</w>": 1799,
      "smar": 1800,
      "khẩu</w>": 1801,
      "khuôn</w>": 1802,
      "Thấy</w>": 1803,
      "Hà</w>": 1804,
      "ah</w>": 1805,
      "ãnh</w>": 1806,
      "kkk</w>": 1807,
      "Hiếu</w>": 1808,
      "Với</w>": 1809,
      "bọc</w>": 1810,
      "fh": 1811,
      "oppo</w>": 1812,
      "ìu</w>": 1813,
      "đá</w>": 1814,
      "đàn</w>": 1815,
      "thiệt</w>": 1816,
      "khủng</w>": 1817,
      "luận</w>": 1818,
      "Văn</w>": 1819,
      "cc</w>": 1820,
      "iu</w>": 1821,
      "tử</w>": 1822,
      "vệ</w>": 1823,
      "xét</w>": 1824,
      "youtube</w>": 1825,
      "thẻ</w>": 1826,
      "Mấy</w>": 1827,
      "kh</w>": 1828,
      "sho": 1829,
      "xk": 1830,
      "nhập</w>": 1831,
      "giàu</w>": 1832,
      "tri</w>": 1833,
      "seal</w>": 1834,
      "hư</w>": 1835,
      "mng</w>": 1836,
      "vi</w>": 1837,
      "Vừa</w>": 1838,
      "bt</w>": 1839,
      "dm": 1840,
      "nồi</w>": 1841,
      "se</w>": 1842,
      "đỏ</w>": 1843,
      "thủ</w>": 1844,
      "end</w>": 1845,
      "kiếm</w>": 1846,
      "ta": 1847,
      "nhờ</w>": 1848,
      "book</w>": 1849,
      "dáng</w>": 1850,
      "le": 1851,
      "phê</w>": 1852,
      "uyến</w>": 1853,
      "max</w>": 1854,
      "TR": 1855,
      "ke": 1856,
      "mừng</w>": 1857,
      "the</w>": 1858,
      "khóa</w>": 1859,
      "giày</w>": 1860,
      "fac": 1861,
      "lỗ</w>": 1862,
      "đu": 1863,
      "khô</w>": 1864,
      "khổ</w>": 1865,
      "Thời</w>": 1866,
      "hạn</w>": 1867,
      "iphone</w>": 1868,
      "lưu</w>": 1869,
      "nc</w>": 1870,
      "xưa</w>": 1871,
      "ụi</w>": 1872,
      "ngờ</w>": 1873,
      "cua</w>": 1874,
      "não</w>": 1875,
      "xứng</w>": 1876,
      "ỉu</w>": 1877,
      "nhảy</w>": 1878,
      "sksk": 1879,
      "dhdh": 1880,
      "Sạc</w>": 1881,
      "danh</w>": 1882,
      "lai</w>": 1883,
      "mồm</w>": 1884,
      "ve": 1885,
      "nhiệm</w>": 1886,
      "giặt</w>": 1887,
      "bi</w>": 1888,
      "cn": 1889,
      "rửa</w>": 1890,
      "chuyên</w>": 1891,
      "iii</w>": 1892,
      "shipper</w>": 1893,
      "dt</w>": 1894,
      "ty</w>": 1895,
      "đắt</w>": 1896,
      "lus</w>": 1897,
      "cảnh</w>": 1898,
      "id</w>": 1899,
      "kéo</w>": 1900,
      "ẻo</w>": 1901,
      "nghĩa</w>": 1902,
      "Vì</w>": 1903,
      "mệt</w>": 1904,
      "úa</w>": 1905,
      "pubg</w>": 1906,
      "hạt</w>": 1907,
      "đợt</w>": 1908,
      "Nguyen</w>": 1909,
      "đổ</w>": 1910,
      "thái</w>": 1911,
      "thui</w>": 1912,
      "khúc</w>": 1913,
      "bắn</w>": 1914,
      "cắm</w>": 1915,
      "họ": 1916,
      "xh": 1917,
      "smart</w>": 1918,
      "gà</w>": 1919,
      "tết</w>": 1920,
      "zj": 1921,
      "zalo</w>": 1922,
      "nhìu</w>": 1923,
      "Bạn</w>": 1924,
      "cx</w>": 1925,
      "trưởng</w>": 1926,
      "hoá</w>": 1927,
      "Thầy</w>": 1928,
      "date</w>": 1929,
      "Ba</w>": 1930,
      "Hu": 1931,
      "ni": 1932,
      "săn</w>": 1933,
      "iệng</w>": 1934,
      "khoẻ</w>": 1935,
      "lip</w>": 1936,
      "Vân</w>": 1937,
      "ar": 1938,
      "củ</w>": 1939,
      "dành</w>": 1940,
      "lành</w>": 1941,
      "no": 1942,
      "va</w>": 1943,
      "khởi</w>": 1944,
      "ieu</w>": 1945,
      "lon</w>": 1946,
      "méo</w>": 1947,
      "roi</w>": 1948,
      "khuyên</w>": 1949,
      "tre": 1950,
      "lẽ</w>": 1951,
      "nút</w>": 1952,
      "Đây</w>": 1953,
      "thịt</w>": 1954,
      "ngoại</w>": 1955,
      "nửa</w>": 1956,
      "tải</w>": 1957,
      "Đáng</w>": 1958,
      "trạng</w>": 1959,
      "Trang</w>": 1960,
      "age</w>": 1961,
      "hu</w>": 1962,
      "môi</w>": 1963,
      "tộc</w>": 1964,
      "ngta</w>": 1965,
      "Thị</w>": 1966,
      "Khi</w>": 1967,
      "nuôi</w>": 1968,
      "Quốc</w>": 1969,
      "plus</w>": 1970,
      "chồng</w>": 1971,
      "aa</w>": 1972,
      "ebook</w>": 1973,
      "vỡ</w>": 1974,
      "yo": 1975,
      "ía</w>": 1976,
      "Phải</w>": 1977,
      "bữa</w>": 1978,
      "dạy</w>": 1979,
      "mê</w>": 1980,
      "Đang</w>": 1981,
      "Thế</w>": 1982,
      "sĩ</w>": 1983,
      "Được</w>": 1984,
      "thiên</w>": 1985,
      "Phương</w>": 1986,
      "Pho": 1987,
      "hưởng</w>": 1988,
      "kệ</w>": 1989,
      "lạ</w>": 1990,
      "móp</w>": 1991,
      "thi": 1992,
      "nhe</w>": 1993,
      "trần</w>": 1994,
      "anks</w>": 1995,
      "review</w>": 1996,
      "NG": 1997,
      "ba": 1998,
      "ỉa</w>": 1999,
      "ỳnh</w>": 2000,
      "Mỗi</w>": 2001,
      "Nó</w>": 2002,
      "Và</w>": 2003,
      "eu</w>": 2004,
      "lông</w>": 2005,
      "suy</w>": 2006,
      "sửa</w>": 2007,
      "đỉnh</w>": 2008,
      "nhắc</w>": 2009,
      "tiêu</w>": 2010,
      "Hay</w>": 2011,
      "fn": 2012,
      "hạnh</w>": 2013,
      "lựa</w>": 2014,
      "răng</w>": 2015,
      "khóc</w>": 2016,
      "phúc</w>": 2017,
      "To": 2018,
      "ak</w>": 2019,
      "bì</w>": 2020,
      "hại</w>": 2021,
      "hiếu</w>": 2022,
      "mỹ</w>": 2023,
      "miệng</w>": 2024,
      "rút</w>": 2025,
      "vay</w>": 2026,
      "nhung</w>": 2027,
      "quên</w>": 2028,
      "Chắc</w>": 2029,
      "sim</w>": 2030,
      "Mi": 2031,
      "ap</w>": 2032,
      "gạo</w>": 2033,
      "hóa</w>": 2034,
      "hẹn</w>": 2035,
      "Như</w>": 2036,
      "ack</w>": 2037,
      "Loa</w>": 2038,
      "kìa</w>": 2039,
      "món</w>": 2040,
      "Để</w>": 2041,
      "đập</w>": 2042,
      "che</w>": 2043,
      "dol</w>": 2044,
      "Cực</w>": 2045,
      "cai</w>": 2046,
      "nn</w>": 2047,
      "wj": 2048,
      "nhầm</w>": 2049,
      "tốn</w>": 2050,
      "Nhà</w>": 2051,
      "Người</w>": 2052,
      "Samsung</w>": 2053,
      "cưng</w>": 2054,
      "hỏng</w>": 2055,
      "ki": 2056,
      "õi</w>": 2057,
      "đm</w>": 2058,
      "ẵn</w>": 2059,
      "trái</w>": 2060,
      "Nhung</w>": 2061,
      "top</w>": 2062,
      "eeeeeeee": 2063,
      "ntn</w>": 2064,
      "Shi": 2065,
      "bụng</w>": 2066,
      "hận</w>": 2067,
      "lầm</w>": 2068,
      "xước</w>": 2069,
      "đèn</w>": 2070,
      "phá</w>": 2071,
      "Thật</w>": 2072,
      "Nhật</w>": 2073,
      "Khánh</w>": 2074,
      "goo": 2075,
      "máu</w>": 2076,
      "nắng</w>": 2077,
      "xỉu</w>": 2078,
      "đội</w>": 2079,
      "ịnh</w>": 2080,
      "nghệ</w>": 2081,
      "loạn</w>": 2082,
      "cải</w>": 2083,
      "góc</w>": 2084,
      "sh</w>": 2085,
      "độc</w>": 2086,
      "ễm</w>": 2087,
      "ngang</w>": 2088,
      "Chu": 2089,
      "nghèo</w>": 2090,
      "Quần</w>": 2091,
      "Làm</w>": 2092,
      "Vi": 2093,
      "kem</w>": 2094,
      "rùi</w>": 2095,
      "xã</w>": 2096,
      "phong</w>": 2097,
      "luật</w>": 2098,
      "full</w>": 2099,
      "gây</w>": 2100,
      "ãy</w>": 2101,
      "Đức</w>": 2102,
      "thiệu</w>": 2103,
      "khoá</w>": 2104,
      "iet</w>": 2105,
      "Bảo</w>": 2106,
      "dữ</w>": 2107,
      "stre": 2108,
      "wi": 2109,
      "nhá</w>": 2110,
      "phạt</w>": 2111,
      "vid</w>": 2112,
      "bổ</w>": 2113,
      "cạnh</w>": 2114,
      "hát</w>": 2115,
      "tu</w>": 2116,
      "ún</w>": 2117,
      "đông</w>": 2118,
      "ẹo</w>": 2119,
      "ụt</w>": 2120,
      "hoi</w>": 2121,
      "hoàng</w>": 2122,
      "Thiết</w>": 2123,
      "cute</w>": 2124,
      "Vũ</w>": 2125,
      "clip</w>": 2126,
      "sơ</w>": 2127,
      "suốt</w>": 2128,
      "tù</w>": 2129,
      "tem</w>": 2130,
      "vòng</w>": 2131,
      "xx": 2132,
      "ngọt</w>": 2133,
      "line</w>": 2134,
      "okokokok": 2135,
      "dàng</w>": 2136,
      "ho</w>": 2137,
      "nâng</w>": 2138,
      "son</w>": 2139,
      "sướng</w>": 2140,
      "huhu</w>": 2141,
      "Hải</w>": 2142,
      "bớt</w>": 2143,
      "gi</w>": 2144,
      "su</w>": 2145,
      "vk": 2146,
      "zn": 2147,
      "Ảnh</w>": 2148,
      "ịa</w>": 2149,
      "chua</w>": 2150,
      "giỏi</w>": 2151,
      "hoài</w>": 2152,
      "thoảng</w>": 2153,
      "PH": 2154,
      "hối</w>": 2155,
      "hiểm</w>": 2156,
      "wk": 2157,
      "íp</w>": 2158,
      "ngắn</w>": 2159,
      "iếp</w>": 2160,
      "iiii</w>": 2161,
      "Khá</w>": 2162,
      "Quang</w>": 2163,
      "Cam</w>": 2164,
      "dấu</w>": 2165,
      "fb": 2166,
      "tắm</w>": 2167,
      "đo</w>": 2168,
      "điên</w>": 2169,
      "trò</w>": 2170,
      "hihi": 2171,
      "Cũng</w>": 2172,
      "Tùng</w>": 2173,
      "bù</w>": 2174,
      "gk": 2175,
      "ps</w>": 2176,
      "rớt</w>": 2177,
      "sắp</w>": 2178,
      "thuốc</w>": 2179,
      "quê</w>": 2180,
      "Bình</w>": 2181,
      "Duy</w>": 2182,
      "Hài</w>": 2183,
      "bo</w>": 2184,
      "bụi</w>": 2185,
      "tàu</w>": 2186,
      "ươi</w>": 2187,
      "nhạt</w>": 2188,
      "Hộp</w>": 2189,
      "Yêu</w>": 2190,
      "ci": 2191,
      "hà</w>": 2192,
      "hang</w>": 2193,
      "long</w>": 2194,
      "mm</w>": 2195,
      "st": 2196,
      "tổ</w>": 2197,
      "all</w>": 2198,
      "diễn</w>": 2199,
      "KH": 2200,
      "au": 2201,
      "lao</w>": 2202,
      "lừa</w>": 2203,
      "vj": 2204,
      "chục</w>": 2205,
      "buổi</w>": 2206,
      "Công</w>": 2207,
      "ms</w>": 2208,
      "mưa</w>": 2209,
      "mỏi</w>": 2210,
      "po": 2211,
      "tích</w>": 2212,
      "viền</w>": 2213,
      "én</w>": 2214,
      "trend</w>": 2215,
      "thuật</w>": 2216,
      "nguoi</w>": 2217,
      "gggggggg": 2218,
      "An</w>": 2219,
      "Dễ</w>": 2220,
      "Hôm</w>": 2221,
      "bin</w>": 2222,
      "biển</w>": 2223,
      "duy</w>": 2224,
      "ll": 2225,
      "màng</w>": 2226,
      "sẵn</w>": 2227,
      "chí</w>": 2228,
      "chăm</w>": 2229,
      "wwww": 2230,
      "Một</w>": 2231,
      "dai</w>": 2232,
      "hiển</w>": 2233,
      "kịp</w>": 2234,
      "mo</w>": 2235,
      "sánh</w>": 2236,
      "Áo</w>": 2237,
      "Đặt</w>": 2238,
      "ĩnh</w>": 2239,
      "thao</w>": 2240,
      "khen</w>": 2241,
      "giản</w>": 2242,
      "trận</w>": 2243,
      "Thích</w>": 2244,
      "alal": 2245,
      "uuuuuuuu": 2246,
      "Do</w>": 2247,
      "Từ</w>": 2248,
      "Tất</w>": 2249,
      "Tuyệt</w>": 2250,
      "nv</w>": 2251,
      "rơi</w>": 2252,
      "vặn</w>": 2253,
      "khuyến</w>": 2254,
      "Xem</w>": 2255,
      "duyên</w>": 2256,
      "ep</w>": 2257,
      "hề</w>": 2258,
      "tung</w>": 2259,
      "uu</w>": 2260,
      "xò</w>": 2261,
      "cám</w>": 2262,
      "Thành</w>": 2263,
      "nhiễm</w>": 2264,
      "Ok": 2265,
      "bút</w>": 2266,
      "dị</w>": 2267,
      "dro": 2268,
      "page</w>": 2269,
      "ấc</w>": 2270,
      "ngăn</w>": 2271,
      "Trong</w>": 2272,
      "ưỡi</w>": 2273,
      "stream</w>": 2274,
      "Bộ</w>": 2275,
      "dơ</w>": 2276,
      "lãnh</w>": 2277,
      "miền</w>": 2278,
      "Đồng</w>": 2279,
      "toán</w>": 2280,
      "ghét</w>": 2281,
      "chuột</w>": 2282,
      "ree</w>": 2283,
      "ssss": 2284,
      "biểu</w>": 2285,
      "for": 2286,
      "hương</w>": 2287,
      "kênh</w>": 2288,
      "nk</w>": 2289,
      "rằng</w>": 2290,
      "sát</w>": 2291,
      "tấm</w>": 2292,
      "xi</w>": 2293,
      "xúc</w>": 2294,
      "Đánh</w>": 2295,
      "trầy</w>": 2296,
      "iềm</w>": 2297,
      "thoát</w>": 2298,
      "dưỡ": 2299,
      "họa</w>": 2300,
      "Huy</w>": 2301,
      "Xu": 2302,
      "bẩn</w>": 2303,
      "cu</w>": 2304,
      "gb</w>": 2305,
      "gắn</w>": 2306,
      "hôi</w>": 2307,
      "san</w>": 2308,
      "tổng</w>": 2309,
      "vũ</w>": 2310,
      "nghi": 2311,
      "Ngon</w>": 2312,
      "dưỡng</w>": 2313,
      "bông</w>": 2314,
      "bếp</w>": 2315,
      "ráp</w>": 2316,
      "sg": 2317,
      "sa</w>": 2318,
      "khăn</w>": 2319,
      "triển</w>": 2320,
      "Thảo</w>": 2321,
      "Thái</w>": 2322,
      "Co": 2323,
      "Huyền</w>": 2324,
      "Sống</w>": 2325,
      "TI": 2326,
      "ce</w>": 2327,
      "dạng</w>": 2328,
      "gối</w>": 2329,
      "rè</w>": 2330,
      "sam</w>": 2331,
      "tỷ</w>": 2332,
      "ộm</w>": 2333,
      "trách</w>": 2334,
      "pháp</w>": 2335,
      "hoạ</w>": 2336,
      "Thu</w>": 2337,
      "Phan</w>": 2338,
      "địa</w>": 2339,
      "Mai</w>": 2340,
      "app</w>": 2341,
      "cứ": 2342,
      "hạ</w>": 2343,
      "rat</w>": 2344,
      "voi</w>": 2345,
      "Ăn</w>": 2346,
      "thừa</w>": 2347,
      "ank</w>": 2348,
      "dume</w>": 2349,
      "dep</w>": 2350,
      "droid</w>": 2351,
      "Re": 2352,
      "bát</w>": 2353,
      "keo</w>": 2354,
      "lm</w>": 2355,
      "nắp</w>": 2356,
      "pee</w>": 2357,
      "sa": 2358,
      "đảng</w>": 2359,
      "ữu</w>": 2360,
      "thấm</w>": 2361,
      "khai</w>": 2362,
      "treo</w>": 2363,
      "quản</w>": 2364,
      "cánh</w>": 2365,
      "cứu</w>": 2366,
      "bực</w>": 2367,
      "dmi</w>": 2368,
      "hồng</w>": 2369,
      "lay</w>": 2370,
      "tôm</w>": 2371,
      "vẽ</w>": 2372,
      "ớp</w>": 2373,
      "thư</w>": 2374,
      "chăng</w>": 2375,
      "live</w>": 2376,
      "Bác</w>": 2377,
      "Hi</w>": 2378,
      "Long</w>": 2379,
      "dm</w>": 2380,
      "sâu</w>": 2381,
      "tt</w>": 2382,
      "tỉnh</w>": 2383,
      "chạm</w>": 2384,
      "trăm</w>": 2385,
      "fjfj": 2386,
      "dậy</w>": 2387,
      "gấp</w>": 2388,
      "iêu</w>": 2389,
      "nền</w>": 2390,
      "ràng</w>": 2391,
      "vcl</w>": 2392,
      "wa</w>": 2393,
      "ùy</w>": 2394,
      "thú</w>": 2395,
      "cáp</w>": 2396,
      "Giờ</w>": 2397,
      "too": 2398,
      "miễn</w>": 2399,
      "xiaomi</w>": 2400,
      "ký</w>": 2401,
      "man</w>": 2402,
      "sp": 2403,
      "xạo</w>": 2404,
      "Đồ</w>": 2405,
      "nhan</w>": 2406,
      "nguy</w>": 2407,
      "giữa</w>": 2408,
      "nghị</w>": 2409,
      "Thu": 2410,
      "Thằng</w>": 2411,
      "Hơi</w>": 2412,
      "anh": 2413,
      "el</w>": 2414,
      "idol</w>": 2415,
      "kiệm</w>": 2416,
      "moi</w>": 2417,
      "zb": 2418,
      "Đi</w>": 2419,
      "ướp</w>": 2420,
      "tttttttttttttttt": 2421,
      "Cao</w>": 2422,
      "GB</w>": 2423,
      "Lại</w>": 2424,
      "hy</w>": 2425,
      "nỗi</w>": 2426,
      "tẩy</w>": 2427,
      "tươi</w>": 2428,
      "up</w>": 2429,
      "zk": 2430,
      "đảm</w>": 2431,
      "ũi</w>": 2432,
      "ẹt</w>": 2433,
      "chữa</w>": 2434,
      "gió</w>": 2435,
      "Chán</w>": 2436,
      "vivo</w>": 2437,
      "akak": 2438,
      "Oppo</w>": 2439,
      "QU": 2440,
      "cs</w>": 2441,
      "gắng</w>": 2442,
      "hồn</w>": 2443,
      "lau</w>": 2444,
      "rung</w>": 2445,
      "sóc</w>": 2446,
      "vỏ</w>": 2447,
      "vạch</w>": 2448,
      "xuyên</w>": 2449,
      "Đt</w>": 2450,
      "tranh</w>": 2451,
      "trưa</w>": 2452,
      "truyền</w>": 2453,
      "pha</w>": 2454,
      "Vải</w>": 2455,
      "kim</w>": 2456,
      "lót</w>": 2457,
      "sủa</w>": 2458,
      "xả</w>": 2459,
      "ờn</w>": 2460,
      "Ủa</w>": 2461,
      "chứng</w>": 2462,
      "Tran</w>": 2463,
      "nnnnnnnnnnnnnnnn": 2464,
      "cb": 2465,
      "lá</w>": 2466,
      "lộ</w>": 2467,
      "đậm</w>": 2468,
      "nhu": 2469,
      "and</w>": 2470,
      "online</w>": 2471,
      "mmmmmmmm": 2472,
      "ưỡng</w>": 2473,
      "Bắt</w>": 2474,
      "béo</w>": 2475,
      "hậu</w>": 2476,
      "sư</w>": 2477,
      "wo": 2478,
      "thoi</w>": 2479,
      "chui</w>": 2480,
      "khoe</w>": 2481,
      "bbbb": 2482,
      "yyyy": 2483,
      "cỡ</w>": 2484,
      "cay</w>": 2485,
      "dép</w>": 2486,
      "rách</w>": 2487,
      "sv": 2488,
      "tỏ</w>": 2489,
      "òa</w>": 2490,
      "ưới</w>": 2491,
      "khong</w>": 2492,
      "phạm</w>": 2493,
      "phép</w>": 2494,
      "kkkk</w>": 2495,
      "Ngh": 2496,
      "love</w>": 2497,
      "Quỳnh</w>": 2498,
      "Phone</w>": 2499,
      "Cấu</w>": 2500,
      "Dân</w>": 2501,
      "Dương</w>": 2502,
      "Gói</w>": 2503,
      "Mặc</w>": 2504,
      "Xi": 2505,
      "cờ</w>": 2506,
      "dk</w>": 2507,
      "tj": 2508,
      "tim</w>": 2509,
      "xây</w>": 2510,
      "Đm</w>": 2511,
      "đáp</w>": 2512,
      "ụn</w>": 2513,
      "nhàng</w>": 2514,
      "tránh</w>": 2515,
      "Giang</w>": 2516,
      "dkdk": 2517,
      "đoạn</w>": 2518,
      "Cám</w>": 2519,
      "Tao</w>": 2520,
      "free</w>": 2521,
      "gle</w>": 2522,
      "mì</w>": 2523,
      "nọ</w>": 2524,
      "đảo</w>": 2525,
      "châu</w>": 2526,
      "zzzz": 2527,
      "Abe</w>": 2528,
      "Ha": 2529,
      "Hy</w>": 2530,
      "dy": 2531,
      "fo": 2532,
      "lan</w>": 2533,
      "nạn</w>": 2534,
      "rj": 2535,
      "ÔNG</w>": 2536,
      "đạt</w>": 2537,
      "che": 2538,
      "chương</w>": 2539,
      "khung</w>": 2540,
      "Thất</w>": 2541,
      "set</w>": 2542,
      "Bu": 2543,
      "Vẫn</w>": 2544,
      "căng</w>": 2545,
      "ne": 2546,
      "toi</w>": 2547,
      "ủy</w>": 2548,
      "tha</w>": 2549,
      "giết</w>": 2550,
      "giọng</w>": 2551,
      "phía</w>": 2552,
      "Thanks</w>": 2553,
      "Ngo": 2554,
      "duoc</w>": 2555,
      "tooth</w>": 2556,
      "Vậy</w>": 2557,
      "bạc</w>": 2558,
      "củng</w>": 2559,
      "mật</w>": 2560,
      "nát</w>": 2561,
      "tý</w>": 2562,
      "vc</w>": 2563,
      "thơ</w>": 2564,
      "thùng</w>": 2565,
      "thang</w>": 2566,
      "khả</w>": 2567,
      "Thôi</w>": 2568,
      "alme</w>": 2569,
      "tien</w>": 2570,
      "hehe": 2571,
      "cccc": 2572,
      "TGDĐ</w>": 2573,
      "face</w>": 2574,
      "An": 2575,
      "Bao</w>": 2576,
      "Nội</w>": 2577,
      "bởi</w>": 2578,
      "cong</w>": 2579,
      "dong</w>": 2580,
      "fps</w>": 2581,
      "hj": 2582,
      "iPhone</w>": 2583,
      "ns</w>": 2584,
      "xm": 2585,
      "ât</w>": 2586,
      "ợn</w>": 2587,
      "Thương</w>": 2588,
      "Nhiều</w>": 2589,
      "tiến</w>": 2590,
      "link</w>": 2591,
      "thuộc</w>": 2592,
      "xnxn": 2593,
      "smsm": 2594,
      "Hồ</w>": 2595,
      "Tiền</w>": 2596,
      "cướp</w>": 2597,
      "dư</w>": 2598,
      "dan</w>": 2599,
      "hào</w>": 2600,
      "lỡ</w>": 2601,
      "lạc</w>": 2602,
      "sẻ</w>": 2603,
      "vu": 2604,
      "thống</w>": 2605,
      "thắng</w>": 2606,
      "khí</w>": 2607,
      "ngại</w>": 2608,
      "phủ</w>": 2609,
      "lue": 2610,
      "aaa</w>": 2611,
      "iiiiiiiiiiiiiiii": 2612,
      "GI": 2613,
      "cậu</w>": 2614,
      "dã</w>": 2615,
      "lây</w>": 2616,
      "pe": 2617,
      "ví</w>": 2618,
      "xy": 2619,
      "chíp</w>": 2620,
      "giãn</w>": 2621,
      "khoản</w>": 2622,
      "jjjj": 2623,
      "dddddddd": 2624,
      "Hồng</w>": 2625,
      "May</w>": 2626,
      "Nồi</w>": 2627,
      "ap": 2628,
      "nao</w>": 2629,
      "niên</w>": 2630,
      "nướng</w>": 2631,
      "tây</w>": 2632,
      "thề</w>": 2633,
      "cháy</w>": 2634,
      "phết</w>": 2635,
      "hong</w>": 2636,
      "lắc</w>": 2637,
      "sbsb": 2638,
      "rrrr": 2639,
      "Xiaomi</w>": 2640,
      "bể</w>": 2641,
      "bịch</w>": 2642,
      "dịp</w>": 2643,
      "hở</w>": 2644,
      "hảo</w>": 2645,
      "nd</w>": 2646,
      "tủ</w>": 2647,
      "viện</w>": 2648,
      "redmi</w>": 2649,
      "mik</w>": 2650,
      "Sử</w>": 2651,
      "bóc</w>": 2652,
      "ib</w>": 2653,
      "lung</w>": 2654,
      "mũi</w>": 2655,
      "wb": 2656,
      "ye": 2657,
      "đk</w>": 2658,
      "ệch</w>": 2659,
      "Ủng</w>": 2660,
      "quy</w>": 2661,
      "Chào</w>": 2662,
      "aid</w>": 2663,
      "Chuẩn</w>": 2664,
      "AY</w>": 2665,
      "Hi": 2666,
      "ab": 2667,
      "ad": 2668,
      "dhh": 2669,
      "dùm</w>": 2670,
      "km</w>": 2671,
      "mại</w>": 2672,
      "đê</w>": 2673,
      "ngược</w>": 2674,
      "trơn</w>": 2675,
      "quý</w>": 2676,
      "Ad</w>": 2677,
      "Cứ</w>": 2678,
      "HO": 2679,
      "HD</w>": 2680,
      "Liên</w>": 2681,
      "goi</w>": 2682,
      "kẻ</w>": 2683,
      "mp</w>": 2684,
      "sờ</w>": 2685,
      "skk": 2686,
      "tờ</w>": 2687,
      "ãng</w>": 2688,
      "chừng</w>": 2689,
      "nhục</w>": 2690,
      "pple</w>": 2691,
      "ghép</w>": 2692,
      "aaaaaaaaaaaaaaaa": 2693,
      "facebook</w>": 2694,
      "luetooth</w>": 2695,
      "CM</w>": 2696,
      "Game</w>": 2697,
      "bn</w>": 2698,
      "bè</w>": 2699,
      "cường</w>": 2700,
      "cứt</w>": 2701,
      "nổ</w>": 2702,
      "tô</w>": 2703,
      "Đừng</w>": 2704,
      "ệm</w>": 2705,
      "địt</w>": 2706,
      "oooo": 2707,
      "ake</w>": 2708,
      "Bé</w>": 2709,
      "Là</w>": 2710,
      "Tại</w>": 2711,
      "cl": 2712,
      "dở</w>": 2713,
      "dạo</w>": 2714,
      "jo": 2715,
      "lỏng</w>": 2716,
      "vh": 2717,
      "xay</w>": 2718,
      "xóa</w>": 2719,
      "zh": 2720,
      "đế</w>": 2721,
      "đức</w>": 2722,
      "thước</w>": 2723,
      "thỉnh</w>": 2724,
      "khiến</w>": 2725,
      "Chứ</w>": 2726,
      "com": 2727,
      "Ship</w>": 2728,
      "AN</w>": 2729,
      "bh</w>": 2730,
      "dao</w>": 2731,
      "sân</w>": 2732,
      "táo</w>": 2733,
      "vùng</w>": 2734,
      "vượt</w>": 2735,
      "ưi</w>": 2736,
      "trà</w>": 2737,
      "quang</w>": 2738,
      "biet</w>": 2739,
      "go": 2740,
      "gu": 2741,
      "lq</w>": 2742,
      "mơ</w>": 2743,
      "ra": 2744,
      "said</w>": 2745,
      "ts</w>": 2746,
      "uc</w>": 2747,
      "vít</w>": 2748,
      "đỗ</w>": 2749,
      "than</w>": 2750,
      "khịa</w>": 2751,
      "trụ</w>": 2752,
      "quán</w>": 2753,
      "Giày</w>": 2754,
      "Tuấn</w>": 2755,
      "Bên</w>": 2756,
      "Fac": 2757,
      "He": 2758,
      "Võ</w>": 2759,
      "Vsmart</w>": 2760,
      "mụn</w>": 2761,
      "na</w>": 2762,
      "up": 2763,
      "vầy</w>": 2764,
      "yy</w>": 2765,
      "thẳng</w>": 2766,
      "kho</w>": 2767,
      "nge</w>": 2768,
      "phai</w>": 2769,
      "quanh</w>": 2770,
      "Chúng</w>": 2771,
      "djj": 2772,
      "thuế</w>": 2773,
      "Cu": 2774,
      "Dù</w>": 2775,
      "Goo": 2776,
      "Tui</w>": 2777,
      "Wifi</w>": 2778,
      "bám</w>": 2779,
      "hh</w>": 2780,
      "hôn</w>": 2781,
      "ie</w>": 2782,
      "nt</w>": 2783,
      "nua</w>": 2784,
      "súc</w>": 2785,
      "tuy": 2786,
      "xàm</w>": 2787,
      "zz</w>": 2788,
      "ÊN</w>": 2789,
      "Đình</w>": 2790,
      "đài</w>": 2791,
      "khùng</w>": 2792,
      "oki</w>": 2793,
      "hai": 2794,
      "ona</w>": 2795,
      "team</w>": 2796,
      "rom</w>": 2797,
      "form</w>": 2798,
      "Cần</w>": 2799,
      "Dung</w>": 2800,
      "Dây</w>": 2801,
      "Mo": 2802,
      "Mặt</w>": 2803,
      "Tú</w>": 2804,
      "băng</w>": 2805,
      "gáy</w>": 2806,
      "hk</w>": 2807,
      "hông</w>": 2808,
      "lập</w>": 2809,
      "mũ</w>": 2810,
      "êt</w>": 2811,
      "úm</w>": 2812,
      "nho</w>": 2813,
      "trốn</w>": 2814,
      "realme</w>": 2815,
      "ding</w>": 2816,
      "wei</w>": 2817,
      "Dép</w>": 2818,
      "Muốn</w>": 2819,
      "So</w>": 2820,
      "Săn</w>": 2821,
      "Yến</w>": 2822,
      "ag</w>": 2823,
      "dl": 2824,
      "dẻo</w>": 2825,
      "gg</w>": 2826,
      "li</w>": 2827,
      "lệch</w>": 2828,
      "ow</w>": 2829,
      "sl": 2830,
      "snn": 2831,
      "tịch</w>": 2832,
      "ym</w>": 2833,
      "chào</w>": 2834,
      "choi</w>": 2835,
      "pham</w>": 2836,
      "ượn</w>": 2837,
      "Trước</w>": 2838,
      "nnn</w>": 2839,
      "thoáng</w>": 2840,
      "Quả</w>": 2841,
      "Xuân</w>": 2842,
      "check</w>": 2843,
      "Facebook</w>": 2844,
      "Kim</w>": 2845,
      "TB</w>": 2846,
      "lóc</w>": 2847,
      "nợ</w>": 2848,
      "sói</w>": 2849,
      "xy</w>": 2850,
      "Đường</w>": 2851,
      "ưg</w>": 2852,
      "thánh</w>": 2853,
      "chấm</w>": 2854,
      "phố</w>": 2855,
      "Theo</w>": 2856,
      "mat</w>": 2857,
      "kkkkkkkkkkkkkkkkkkkkkkkkkkkkkkkk": 2858,
      "Tết</w>": 2859,
      "awei</w>": 2860,
      "bả</w>": 2861,
      "cắn</w>": 2862,
      "cấm</w>": 2863,
      "cặp</w>": 2864,
      "day</w>": 2865,
      "hàn</w>": 2866,
      "hữu</w>": 2867,
      "sb</w>": 2868,
      "xạc</w>": 2869,
      "đứt</w>": 2870,
      "thèm</w>": 2871,
      "chặt</w>": 2872,
      "ngã</w>": 2873,
      "ngôn</w>": 2874,
      "ngọc</w>": 2875,
      "phương</w>": 2876,
      "Gia</w>": 2877,
      "tot</w>": 2878,
      "viru": 2879,
      "okia</w>": 2880,
      "pppppppppppppppp": 2881,
      "Ca": 2882,
      "Mùi</w>": 2883,
      "Sơn</w>": 2884,
      "Tạm</w>": 2885,
      "canh</w>": 2886,
      "lọc</w>": 2887,
      "lộn</w>": 2888,
      "mồ</w>": 2889,
      "mắn</w>": 2890,
      "vẹn</w>": 2891,
      "thả</w>": 2892,
      "ngg</w>": 2893,
      "Chửi</w>": 2894,
      "Những</w>": 2895,
      "ala": 2896,
      "shsh": 2897,
      "xbxb": 2898,
      "dmin</w>": 2899,
      "Sói</w>": 2900,
      "Tiên</w>": 2901,
      "bắc</w>": 2902,
      "bước</w>": 2903,
      "dựng</w>": 2904,
      "gốc</w>": 2905,
      "hè</w>": 2906,
      "lười</w>": 2907,
      "ni</w>": 2908,
      "ry</w>": 2909,
      "vo": 2910,
      "vsmart</w>": 2911,
      "đít</w>": 2912,
      "ủi</w>": 2913,
      "tháo</w>": 2914,
      "chat</w>": 2915,
      "giòn</w>": 2916,
      "tru": 2917,
      "uyễn</w>": 2918,
      "xoá</w>": 2919,
      "Bắc</w>": 2920,
      "Fan</w>": 2921,
      "ON</w>": 2922,
      "Ti": 2923,
      "cũ": 2924,
      "cãi</w>": 2925,
      "dịu</w>": 2926,
      "fe</w>": 2927,
      "hd</w>": 2928,
      "of</w>": 2929,
      "qq": 2930,
      "vv</w>": 2931,
      "Điểm</w>": 2932,
      "đống</w>": 2933,
      "chim</w>": 2934,
      "khu": 2935,
      "khu</w>": 2936,
      "phông</w>": 2937,
      "luong</w>": 2938,
      "thuận</w>": 2939,
      "doanh</w>": 2940,
      "IỆ": 2941,
      "Li": 2942,
      "Lên</w>": 2943,
      "Tóm</w>": 2944,
      "cận</w>": 2945,
      "dục</w>": 2946,
      "dọn</w>": 2947,
      "dừng</w>": 2948,
      "lồi</w>": 2949,
      "ny</w>": 2950,
      "oo</w>": 2951,
      "van</w>": 2952,
      "đám</w>": 2953,
      "đẳng</w>": 2954,
      "chập</w>": 2955,
      "nhấn</w>": 2956,
      "nghề</w>": 2957,
      "oke": 2958,
      "buôn</w>": 2959,
      "hhhhhhhhhhhhhhhh": 2960,
      "good</w>": 2961,
      "Buồn</w>": 2962,
      "Coi</w>": 2963,
      "Kết</w>": 2964,
      "Te": 2965,
      "Tâm</w>": 2966,
      "dau</w>": 2967,
      "ff</w>": 2968,
      "go</w>": 2969,
      "gỗ</w>": 2970,
      "heo</w>": 2971,
      "nma</w>": 2972,
      "sở</w>": 2973,
      "song</w>": 2974,
      "tỉ</w>": 2975,
      "tan</w>": 2976,
      "tướng</w>": 2977,
      "tùy</w>": 2978,
      "vy": 2979,
      "xịt</w>": 2980,
      "đương</w>": 2981,
      "chốt</w>": 2982,
      "nhanh": 2983,
      "giận</w>": 2984,
      "Giống</w>": 2985,
      "pppp</w>": 2986,
      "Quân</w>": 2987,
      "ent</w>": 2988,
      "box</w>": 2989,
      "xoay</w>": 2990,
      "you</w>": 2991,
      "CH</w>": 2992,
      "dí</w>": 2993,
      "dõi</w>": 2994,
      "hô</w>": 2995,
      "io": 2996,
      "lợn</w>": 2997,
      "ml</w>": 2998,
      "nàn</w>": 2999,
      "rưỡi</w>": 3000,
      "sy": 3001,
      "tớ</w>": 3002,
      "tùng</w>": 3003,
      "tiệm</w>": 3004,
      "ùn</w>": 3005,
      "Đo": 3006,
      "đô</w>": 3007,
      "đấu</w>": 3008,
      "Ổn</w>": 3009,
      "chiên</w>": 3010,
      "chảy</w>": 3011,
      "ngáo</w>": 3012,
      "trực</w>": 3013,
      "trộm</w>": 3014,
      "uynh</w>": 3015,
      "nghi</w>": 3016,
      "Nhanh</w>": 3017,
      "aaaa</w>": 3018,
      "android</w>": 3019,
      "Toàn</w>": 3020,
      "Si": 3021,
      "as": 3022,
      "bj": 3023,
      "bê</w>": 3024,
      "bậy</w>": 3025,
      "cy": 3026,
      "kak": 3027,
      "manh</w>": 3028,
      "sông</w>": 3029,
      "tam</w>": 3030,
      "địch</w>": 3031,
      "đốt</w>": 3032,
      "ẤT</w>": 3033,
      "chay</w>": 3034,
      "phiên</w>": 3035,
      "cát</w>": 3036,
      "hoang</w>": 3037,
      "Ngày</w>": 3038,
      "thuong</w>": 3039,
      "cor": 3040,
      "suất</w>": 3041,
      "djdjdjdj": 3042,
      "Biết</w>": 3043,
      "MI": 3044,
      "Mn</w>": 3045,
      "Mày</w>": 3046,
      "Note</w>": 3047,
      "Tầm</w>": 3048,
      "Vie": 3049,
      "bày</w>": 3050,
      "bong</w>": 3051,
      "cặc</w>": 3052,
      "cốc</w>": 3053,
      "fy": 3054,
      "hứng</w>": 3055,
      "kỷ</w>": 3056,
      "lượt</w>": 3057,
      "móc</w>": 3058,
      "nắm</w>": 3059,
      "sti": 3060,
      "sắm</w>": 3061,
      "tường</w>": 3062,
      "văng</w>": 3063,
      "xứ</w>": 3064,
      "đái</w>": 3065,
      "đùa</w>": 3066,
      "ỗng</w>": 3067,
      "nhũng</w>": 3068,
      "ngàn</w>": 3069,
      "giọt</w>": 3070,
      "tròn</w>": 3071,
      "quạt</w>": 3072,
      "Châu</w>": 3073,
      "Khuyên</w>": 3074,
      "Phù</w>": 3075,
      "thuê</w>": 3076,
      "out</w>": 3077,
      "shopee</w>": 3078,
      "nghiêm</w>": 3079,
      "Bọn</w>": 3080,
      "Hương</w>": 3081,
      "Lan</w>": 3082,
      "My</w>": 3083,
      "Su": 3084,
      "ate</w>": 3085,
      "call</w>": 3086,
      "dạ</w>": 3087,
      "fr": 3088,
      "gx": 3089,
      "it</w>": 3090,
      "kín</w>": 3091,
      "kẹo</w>": 3092,
      "mộ</w>": 3093,
      "ty": 3094,
      "tán</w>": 3095,
      "wn": 3096,
      "Đặc</w>": 3097,
      "đẻ</w>": 3098,
      "đậu</w>": 3099,
      "thắc</w>": 3100,
      "nhieu</w>": 3101,
      "khôn</w>": 3102,
      "trứng</w>": 3103,
      "phàn</w>": 3104,
      "hok</w>": 3105,
      "Hoa</w>": 3106,
      "muộn</w>": 3107,
      "Bài</w>": 3108,
      "Gh": 3109,
      "Rẻ</w>": 3110,
      "cổng</w>": 3111,
      "cưới</w>": 3112,
      "dr": 3113,
      "ke</w>": 3114,
      "láo</w>": 3115,
      "nấy</w>": 3116,
      "qá</w>": 3117,
      "súng</w>": 3118,
      "ti</w>": 3119,
      "xắn</w>": 3120,
      "Đéo</w>": 3121,
      "đẹ": 3122,
      "đào</w>": 3123,
      "đạp</w>": 3124,
      "thà</w>": 3125,
      "thanks</w>": 3126,
      "chật</w>": 3127,
      "ngộ</w>": 3128,
      "phu": 3129,
      "Chính</w>": 3130,
      "nghìn</w>": 3131,
      "loz</w>": 3132,
      "Trinh</w>": 3133,
      "Trường</w>": 3134,
      "hieu</w>": 3135,
      "ruột</w>": 3136,
      "đoàn</w>": 3137,
      "CA": 3138,
      "Co</w>": 3139,
      "Cả</w>": 3140,
      "Hưng</w>": 3141,
      "Hợp</w>": 3142,
      "Sho": 3143,
      "Tự</w>": 3144,
      "Tân</w>": 3145,
      "Zalo</w>": 3146,
      "admin</w>": 3147,
      "cuốn</w>": 3148,
      "dang</w>": 3149,
      "huy</w>": 3150,
      "jsj": 3151,
      "làng</w>": 3152,
      "niềm</w>": 3153,
      "vai</w>": 3154,
      "vết</w>": 3155,
      "xếp</w>": 3156,
      "ỜI</w>": 3157,
      "thâm</w>": 3158,
      "that</w>": 3159,
      "nhưg</w>": 3160,
      "trúng</w>": 3161,
      "Thì</w>": 3162,
      "Trọng</w>": 3163,
      "hhh</w>": 3164,
      "comm": 3165,
      "google</w>": 3166,
      "Ae</w>": 3167,
      "Bàn</w>": 3168,
      "Mũ</w>": 3169,
      "Tặng</w>": 3170,
      "Youtube</w>": 3171,
      "ah": 3172,
      "ach</w>": 3173,
      "ading</w>": 3174,
      "bung</w>": 3175,
      "kê</w>": 3176,
      "kẹp</w>": 3177,
      "lẻ</w>": 3178,
      "lọ</w>": 3179,
      "lễ</w>": 3180,
      "lẫn</w>": 3181,
      "mục</w>": 3182,
      "rác</w>": 3183,
      "sương</w>": 3184,
      "sha": 3185,
      "tấu</w>": 3186,
      "tóm</w>": 3187,
      "vẩn</w>": 3188,
      "Đào</w>": 3189,
      "Ưng</w>": 3190,
      "ựt</w>": 3191,
      "thẩm</w>": 3192,
      "chờn</w>": 3193,
      "lắng</w>": 3194,
      "Ngô</w>": 3195,
      "Phùng</w>": 3196,
      "khoan</w>": 3197,
      "chuông</w>": 3198,
      "dnd</w>": 3199,
      "vvvv": 3200,
      "đuổi</w>": 3201,
      "Video</w>": 3202,
      "alaxy</w>": 3203,
      "HN</w>": 3204,
      "Mở</w>": 3205,
      "Tiến</w>": 3206,
      "Xe</w>": 3207,
      "bức</w>": 3208,
      "cmn</w>": 3209,
      "dnn": 3210,
      "ek": 3211,
      "hổ</w>": 3212,
      "is</w>": 3213,
      "idi": 3214,
      "sò</w>": 3215,
      "tím</w>": 3216,
      "vang</w>": 3217,
      "ver</w>": 3218,
      "Đọc</w>": 3219,
      "cho": 3220,
      "khui</w>": 3221,
      "ngón</w>": 3222,
      "giây</w>": 3223,
      "tráng</w>": 3224,
      "truy</w>": 3225,
      "toang</w>": 3226,
      "ghé</w>": 3227,
      "dbb": 3228,
      "iiiii</w>": 3229,
      "cap</w>": 3230,
      "cmn": 3231,
      "update</w>": 3232,
      "corona</w>": 3233,
      "AT": 3234,
      "Bố</w>": 3235,
      "Hãy</w>": 3236,
      "Mạnh</w>": 3237,
      "TQ</w>": 3238,
      "Tưởng</w>": 3239,
      "ar</w>": 3240,
      "can</w>": 3241,
      "eu": 3242,
      "gàng</w>": 3243,
      "hấp</w>": 3244,
      "lệ</w>": 3245,
      "lẹ</w>": 3246,
      "len</w>": 3247,
      "mh</w>": 3248,
      "nạp</w>": 3249,
      "rn": 3250,
      "sn</w>": 3251,
      "sập</w>": 3252,
      "tc</w>": 3253,
      "tố</w>": 3254,
      "vl": 3255,
      "vd</w>": 3256,
      "vực</w>": 3257,
      "xóm</w>": 3258,
      "õm</w>": 3259,
      "đep</w>": 3260,
      "ện</w>": 3261,
      "cher</w>": 3262,
      "ngầu</w>": 3263,
      "trùng</w>": 3264,
      "trượt</w>": 3265,
      "Nguyên</w>": 3266,
      "Trời</w>": 3267,
      "hehe</w>": 3268,
      "bik</w>": 3269,
      "bile</w>": 3270,
      "fkfk": 3271,
      "CÓ</w>": 3272,
      "Lưu</w>": 3273,
      "Qua</w>": 3274,
      "Sang</w>": 3275,
      "Tai</w>": 3276,
      "av": 3277,
      "eb": 3278,
      "mốt</w>": 3279,
      "nầy</w>": 3280,
      "og</w>": 3281,
      "sơn</w>": 3282,
      "sàn</w>": 3283,
      "tv</w>": 3284,
      "tôn</w>": 3285,
      "váy</w>": 3286,
      "xung</w>": 3287,
      "zm": 3288,
      "uyen</w>": 3289,
      "Chip</w>": 3290,
      "Nhi</w>": 3291,
      "okie</w>": 3292,
      "ajaj": 3293,
      "Ngoài</w>": 3294,
      "cũg</w>": 3295,
      "Ah</w>": 3296,
      "Hàn</w>": 3297,
      "Nay</w>": 3298,
      "Tối</w>": 3299,
      "cùi</w>": 3300,
      "dkk": 3301,
      "dương</w>": 3302,
      "hải</w>": 3303,
      "lô</w>": 3304,
      "lái</w>": 3305,
      "lõi</w>": 3306,
      "mẽ</w>": 3307,
      "mượn</w>": 3308,
      "nản</w>": 3309,
      "nốt</w>": 3310,
      "rh": 3311,
      "si</w>": 3312,
      "sốc</w>": 3313,
      "tiểu</w>": 3314,
      "vao</w>": 3315,
      "vặt</w>": 3316,
      "ÌNH</w>": 3317,
      "Đạt</w>": 3318,
      "đụ</w>": 3319,
      "đàng</w>": 3320,
      "đằng</w>": 3321,
      "ĩu</w>": 3322,
      "ầng</w>": 3323,
      "ởm</w>": 3324,
      "thảm</w>": 3325,
      "thượng</w>": 3326,
      "thối</w>": 3327,
      "khốn</w>": 3328,
      "khớp</w>": 3329,
      "phóng</w>": 3330,
      "Phúc</w>": 3331,
      "xuân</w>": 3332,
      "time</w>": 3333,
      "sett": 3334,
      "Hoài</w>": 3335,
      "nhiêng</w>": 3336,
      "hahahaha": 3337,
      "Shipper</w>": 3338,
      "Bị</w>": 3339,
      "Bà</w>": 3340,
      "Ban</w>": 3341,
      "Hiện</w>": 3342,
      "Hiệp</w>": 3343,
      "Má</w>": 3344,
      "Ra</w>": 3345,
      "Rồi</w>": 3346,
      "Sai</w>": 3347,
      "Ví</w>": 3348,
      "bột</w>": 3349,
      "bảng</w>": 3350,
      "cột</w>": 3351,
      "dẹp</w>": 3352,
      "dâm</w>": 3353,
      "der</w>": 3354,
      "er": 3355,
      "ga</w>": 3356,
      "hời</w>": 3357,
      "lưỡng</w>": 3358,
      "mỏ</w>": 3359,
      "nb": 3360,
      "nông</w>": 3361,
      "rảnh</w>": 3362,
      "sếp</w>": 3363,
      "xảy</w>": 3364,
      "Ôi</w>": 3365,
      "Đc</w>": 3366,
      "đai</w>": 3367,
      "đầm</w>": 3368,
      "đón</w>": 3369,
      "chiếu</w>": 3370,
      "phận</w>": 3371,
      "phối</w>": 3372,
      "luô": 3373,
      "tive</w>": 3374,
      "ifif": 3375,
      "het</w>": 3376,
      "tgdđ</w>": 3377,
      "ssssssss": 3378,
      "Bùi</w>": 3379,
      "CS</w>": 3380,
      "Cầm</w>": 3381,
      "Di": 3382,
      "Di</w>": 3383,
      "Lân</w>": 3384,
      "Lâu</w>": 3385,
      "Lương</w>": 3386,
      "Lỗi</w>": 3387,
      "bá</w>": 3388,
      "bự</w>": 3389,
      "cru": 3390,
      "fla": 3391,
      "fake</w>": 3392,
      "lh": 3393,
      "lào</w>": 3394,
      "nk": 3395,
      "nen</w>": 3396,
      "pi": 3397,
      "tật</w>": 3398,
      "tùm</w>": 3399,
      "xì</w>": 3400,
      "ÂN</w>": 3401,
      "Đặng</w>": 3402,
      "thô</w>": 3403,
      "chs</w>": 3404,
      "chợ</w>": 3405,
      "chứa</w>": 3406,
      "gio</w>": 3407,
      "truyện</w>": 3408,
      "phi</w>": 3409,
      "lum</w>": 3410,
      "họp</w>": 3411,
      "wwwwwwww": 3412,
      "add</w>": 3413,
      "Cố</w>": 3414,
      "Khoa</w>": 3415,
      "Ma": 3416,
      "Ram</w>": 3417,
      "UB": 3418,
      "bận</w>": 3419,
      "bốc</w>": 3420,
      "dưng</w>": 3421,
      "hên</w>": 3422,
      "hiền</w>": 3423,
      "kí</w>": 3424,
      "lão</w>": 3425,
      "mực</w>": 3426,
      "múa</w>": 3427,
      "oan</w>": 3428,
      "pt": 3429,
      "rd</w>": 3430,
      "rau</w>": 3431,
      "say</w>": 3432,
      "tắc</w>": 3433,
      "vc": 3434,
      "vả</w>": 3435,
      "wu": 3436,
      "Ốp</w>": 3437,
      "ớn</w>": 3438,
      "nhai</w>": 3439,
      "ngắt</w>": 3440,
      "trôi</w>": 3441,
      "Thi</w>": 3442,
      "Thực</w>": 3443,
      "Khăn</w>": 3444,
      "anan": 3445,
      "reno</w>": 3446,
      "oucher</w>": 3447,
      "mixi</w>": 3448,
      "pppppppppppp</w>": 3449,
      "eeeeeeeeeeeeeeee": 3450,
      "AM</w>": 3451,
      "Bản</w>": 3452,
      "Da</w>": 3453,
      "Dịch</w>": 3454,
      "Iphone</w>": 3455,
      "KI": 3456,
      "Lu": 3457,
      "TP</w>": 3458,
      "at": 3459,
      "bã</w>": 3460,
      "bó</w>": 3461,
      "bôi</w>": 3462,
      "gương</w>": 3463,
      "mù</w>": 3464,
      "mông</w>": 3465,
      "môn</w>": 3466,
      "pe</w>": 3467,
      "sz</w>": 3468,
      "shh": 3469,
      "wh": 3470,
      "xnn": 3471,
      "Đến</w>": 3472,
      "ẾT</w>": 3473,
      "ỏa</w>": 3474,
      "khảo</w>": 3475,
      "khiển</w>": 3476,
      "khuyết</w>": 3477,
      "giang</w>": 3478,
      "quét</w>": 3479,
      "hoại</w>": 3480,
      "Thứ</w>": 3481,
      "Nhờ</w>": 3482,
      "loài</w>": 3483,
      "Quy</w>": 3484,
      "tion</w>": 3485,
      "dien</w>": 3486,
      "virus</w>": 3487,
      "Shopee</w>": 3488,
      "setting</w>": 3489,
      "crush</w>": 3490,
      "ptpppppppppppp</w>": 3491,
      "Hai</w>": 3492,
      "KM</w>": 3493,
      "Mất</w>": 3494,
      "OS</w>": 3495,
      "US": 3496,
      "cty</w>": 3497,
      "dụ</w>": 3498,
      "diệt</w>": 3499,
      "gai</w>": 3500,
      "gãy</w>": 3501,
      "lôi</w>": 3502,
      "mẻ</w>": 3503,
      "my</w>": 3504,
      "ptop</w>": 3505,
      "tàn</w>": 3506,
      "Đề</w>": 3507,
      "đói</w>": 3508,
      "đam</w>": 3509,
      "ẫy</w>": 3510,
      "the": 3511,
      "chén</w>": 3512,
      "ngầm</w>": 3513,
      "hon</w>": 3514,
      "Chả</w>": 3515,
      "Pham</w>": 3516,
      "Phát</w>": 3517,
      "sel": 3518,
      "cac</w>": 3519,
      "Huỳnh</w>": 3520,
      "KHÔNG</w>": 3521,
      "Oke</w>": 3522,
      "Đoàn</w>": 3523,
      "FB</w>": 3524,
      "Hết</w>": 3525,
      "Học</w>": 3526,
      "Kệ</w>": 3527,
      "Lộc</w>": 3528,
      "Lin": 3529,
      "Mk</w>": 3530,
      "Mẫu</w>": 3531,
      "Số</w>": 3532,
      "binh</w>": 3533,
      "cn</w>": 3534,
      "ct</w>": 3535,
      "cơn</w>": 3536,
      "dg": 3537,
      "fi</w>": 3538,
      "gf": 3539,
      "hí</w>": 3540,
      "jdj": 3541,
      "lồng</w>": 3542,
      "lòi</w>": 3543,
      "mọc</w>": 3544,
      "nở</w>": 3545,
      "ninh</w>": 3546,
      "sấy</w>": 3547,
      "tk": 3548,
      "tik": 3549,
      "vn": 3550,
      "võ</w>": 3551,
      "ván</w>": 3552,
      "Âm</w>": 3553,
      "òe</w>": 3554,
      "úy</w>": 3555,
      "Đầu</w>": 3556,
      "ẠI</w>": 3557,
      "ọp</w>": 3558,
      "chi": 3559,
      "chảnh</w>": 3560,
      "cán</w>": 3561,
      "luon</w>": 3562,
      "Ngu</w>": 3563,
      "ghế</w>": 3564,
      "laptop</w>": 3565,
      "oom</w>": 3566,
      "xjxj": 3567,
      "tar</w>": 3568,
      "Android</w>": 3569,
      "Cường</w>": 3570,
      "Hằng</w>": 3571,
      "Hiệu</w>": 3572,
      "HCM</w>": 3573,
      "In": 3574,
      "Kho": 3575,
      "TV</w>": 3576,
      "Tộc</w>": 3577,
      "Tiệp</w>": 3578,
      "Vào</w>": 3579,
      "You": 3580,
      "bờ</w>": 3581,
      "cày</w>": 3582,
      "cấn</w>": 3583,
      "den</w>": 3584,
      "dtj": 3585,
      "gấu</w>": 3586,
      "hóng</w>": 3587,
      "hòa</w>": 3588,
      "kỉ</w>": 3589,
      "mún</w>": 3590,
      "mAh</w>": 3591,
      "ot</w>": 3592,
      "rừng</w>": 3593,
      "soi</w>": 3594,
      "Đăng</w>": 3595,
      "Đảng</w>": 3596,
      "đụng</w>": 3597,
      "nho": 3598,
      "trễ</w>": 3599,
      "trân</w>": 3600,
      "phán</w>": 3601,
      "Chung</w>": 3602,
      "aming</w>": 3603,
      "Thư</w>": 3604,
      "Nhược</w>": 3605,
      "ttel</w>": 3606,
      "Quan</w>": 3607,
      "hãm</w>": 3608,
      "rep</w>": 3609,
      "tttttt": 3610,
      "dndj": 3611,
      "mmm</w>": 3612,
      "chuyen</w>": 3613,
      "covid</w>": 3614,
      "dndndndn": 3615,
      "thich</w>": 3616,
      "okela</w>": 3617,
      "Cười</w>": 3618,
      "Jack</w>": 3619,
      "Kiều</w>": 3620,
      "SA": 3621,
      "Vinh</w>": 3622,
      "banh</w>": 3623,
      "bóp</w>": 3624,
      "dn</w>": 3625,
      "edi": 3626,
      "gồm</w>": 3627,
      "làn</w>": 3628,
      "lác</w>": 3629,
      "mụ</w>": 3630,
      "men</w>": 3631,
      "mướt</w>": 3632,
      "mote</w>": 3633,
      "na": 3634,
      "sse": 3635,
      "sac</w>": 3636,
      "vuốt</w>": 3637,
      "zi": 3638,
      "Đỗ</w>": 3639,
      "đích</w>": 3640,
      "chớ</w>": 3641,
      "chép</w>": 3642,
      "nhện</w>": 3643,
      "nguyễn</w>": 3644,
      "trì</w>": 3645,
      "phiền</w>": 3646,
      "que</w>": 3647,
      "Chủ</w>": 3648,
      "him</w>": 3649,
      "Phần</w>": 3650,
      "Quảng</w>": 3651,
      "mah</w>": 3652,
      "aaaaa</w>": 3653,
      "Loại</w>": 3654,
      "zzz</w>": 3655,
      "dbdbdbdb": 3656,
      "tag</w>": 3657,
      "Bằng</w>": 3658,
      "Du": 3659,
      "Hạnh</w>": 3660,
      "KI</w>": 3661,
      "LH</w>": 3662,
      "Luôn</w>": 3663,
      "Này</w>": 3664,
      "Nước</w>": 3665,
      "PUB": 3666,
      "Siêu</w>": 3667,
      "Ta</w>": 3668,
      "Tủ</w>": 3669,
      "Tàu</w>": 3670,
      "UY": 3671,
      "VI": 3672,
      "Vy</w>": 3673,
      "Xu</w>": 3674,
      "apple</w>": 3675,
      "bít</w>": 3676,
      "bluetooth</w>": 3677,
      "cú</w>": 3678,
      "dv": 3679,
      "doi</w>": 3680,
      "galaxy</w>": 3681,
      "hinh</w>": 3682,
      "kiếp</w>": 3683,
      "lăn</w>": 3684,
      "llo</w>": 3685,
      "mj": 3686,
      "mỡ</w>": 3687,
      "mời</w>": 3688,
      "mõm</w>": 3689,
      "tg</w>": 3690,
      "tồn</w>": 3691,
      "vớ</w>": 3692,
      "đồn</w>": 3693,
      "đền</w>": 3694,
      "ẦN</w>": 3695,
      "thg</w>": 3696,
      "thai</w>": 3697,
      "nhăn</w>": 3698,
      "quỷ</w>": 3699,
      "quái</w>": 3700,
      "Chiến</w>": 3701,
      "Thua</w>": 3702,
      "lock</w>": 3703,
      "Phước</w>": 3704,
      "eeee</w>": 3705,
      "iep</w>": 3706,
      "fire</w>": 3707,
      "sjsjsjsj": 3708,
      "đoán</w>": 3709,
      "CS": 3710,
      "Hạt</w>": 3711,
      "Idol</w>": 3712,
      "Kiểu</w>": 3713,
      "Lâm</w>": 3714,
      "Mẹ</w>": 3715,
      "Mượt</w>": 3716,
      "Tiếc</w>": 3717,
      "Xinh</w>": 3718,
      "bề</w>": 3719,
      "bơm</w>": 3720,
      "bắp</w>": 3721,
      "ce": 3722,
      "cức</w>": 3723,
      "fa": 3724,
      "gõ</w>": 3725,
      "hiến</w>": 3726,
      "huyền</w>": 3727,
      "il</w>": 3728,
      "jh": 3729,
      "jack</w>": 3730,
      "ki</w>": 3731,
      "lùi</w>": 3732,
      "mác</w>": 3733,
      "mặn</w>": 3734,
      "nâu</w>": 3735,
      "núi</w>": 3736,
      "oy</w>": 3737,
      "sk</w>": 3738,
      "tông</w>": 3739,
      "tầng</w>": 3740,
      "vu</w>": 3741,
      "xĩu</w>": 3742,
      "Đinh</w>": 3743,
      "Đổi</w>": 3744,
      "đắng</w>": 3745,
      "nhin</w>": 3746,
      "nhược</w>": 3747,
      "nhòe</w>": 3748,
      "ngữ</w>": 3749,
      "phan</w>": 3750,
      "Chạy</w>": 3751,
      "load</w>": 3752,
      "Trân</w>": 3753,
      "Phú</w>": 3754,
      "and": 3755,
      "uuu</w>": 3756,
      "Hoang</w>": 3757,
      "nhiu</w>": 3758,
      "ruồi</w>": 3759,
      "bit</w>": 3760,
      "Tube</w>": 3761,
      "ejej": 3762,
      "gjgj": 3763,
      "Phong</w>": 3764,
      "with</w>": 3765,
      "alalalal": 3766,
      "uuuuuuuuuuuuuuuu": 3767,
      "Covid</w>": 3768,
      "share</w>": 3769,
      "YouTube</w>": 3770,
      "PUBG</w>": 3771,
      "Apple</w>": 3772,
      "Bluetooth</w>": 3773,
      "Hậu</w>": 3774,
      "IN</w>": 3775,
      "LÀ</w>": 3776,
      "MU": 3777,
      "Năm</w>": 3778,
      "SP</w>": 3779,
      "SHO": 3780,
      "Tây</w>": 3781,
      "Tính</w>": 3782,
      "bầu</w>": 3783,
      "con": 3784,
      "dô</w>": 3785,
      "dể</w>": 3786,
      "duyệt</w>": 3787,
      "gy": 3788,
      "gạch</w>": 3789,
      "hú</w>": 3790,
      "ky</w>": 3791,
      "lò</w>": 3792,
      "lửa</w>": 3793,
      "lưỡi</w>": 3794,
      "nx</w>": 3795,
      "qa</w>": 3796,
      "riết</w>": 3797,
      "rụng</w>": 3798,
      "sỉ</w>": 3799,
      "tổn</w>": 3800,
      "un": 3801,
      "vá</w>": 3802,
      "vội</w>": 3803,
      "ôt</w>": 3804,
      "Đó</w>": 3805,
      "đãi</w>": 3806,
      "thở</w>": 3807,
      "thớt</w>": 3808,
      "chặn</w>": 3809,
      "chiếm</w>": 3810,
      "khâu</w>": 3811,
      "khach</w>": 3812,
      "trưng</w>": 3813,
      "phường</w>": 3814,
      "phấn</w>": 3815,
      "siu</w>": 3816,
      "buộc</w>": 3817,
      "ieng</w>": 3818,
      "cafe</w>": 3819,
      "cjcj": 3820,
      "CHO</w>": 3821,
      "mobile</w>": 3822,
      "now</w>": 3823,
      "cmnr</w>": 3824,
      "ANH</w>": 3825,
      "Bán</w>": 3826,
      "Cà</w>": 3827,
      "Hùng</w>": 3828,
      "Ly</w>": 3829,
      "ONG</w>": 3830,
      "Sợ</w>": 3831,
      "Sóng</w>": 3832,
      "Sữa</w>": 3833,
      "Tình</w>": 3834,
      "Tiện</w>": 3835,
      "bro</w>": 3836,
      "bọt</w>": 3837,
      "dz": 3838,
      "fjj": 3839,
      "gui</w>": 3840,
      "gạt</w>": 3841,
      "hâ": 3842,
      "is": 3843,
      "lật</w>": 3844,
      "play</w>": 3845,
      "râu</w>": 3846,
      "tấc</w>": 3847,
      "usb</w>": 3848,
      "xl</w>": 3849,
      "xui</w>": 3850,
      "đấm</w>": 3851,
      "đĩa</w>": 3852,
      "đệm</w>": 3853,
      "ƯỢ": 3854,
      "ẵng</w>": 3855,
      "ễu</w>": 3856,
      "chang</w>": 3857,
      "khít</w>": 3858,
      "khiếp</w>": 3859,
      "nger</w>": 3860,
      "trao</w>": 3861,
      "tràn</w>": 3862,
      "Nhớ</w>": 3863,
      "Ngân</w>": 3864,
      "kkkkk</w>": 3865,
      "Quý</w>": 3866,
      "ưởi</w>": 3867,
      "eee</w>": 3868,
      "sjj": 3869,
      "inch</w>": 3870,
      "hahaha</w>": 3871,
      "cker</w>": 3872,
      "fhfh": 3873,
      "led</w>": 3874,
      "not</w>": 3875,
      "thik</w>": 3876,
      "hihihihi": 3877,
      "auto</w>": 3878,
      "TIKI</w>": 3879,
      "nnnnnnnnnnnnnnnnnnnnnnnnnnnnnnnn": 3880,
      "tuyển</w>": 3881,
      "kaka</w>": 3882,
      "free": 3883,
      "Bỏ</w>": 3884,
      "Hữu</w>": 3885,
      "MX</w>": 3886,
      "NV</w>": 3887,
      "Sn": 3888,
      "Tài</w>": 3889,
      "UI</w>": 3890,
      "Vãi</w>": 3891,
      "Yên</w>": 3892,
      "cam": 3893,
      "eo": 3894,
      "gớm</w>": 3895,
      "hước</w>": 3896,
      "hầu</w>": 3897,
      "lận</w>": 3898,
      "mút</w>": 3899,
      "muôn</w>": 3900,
      "nà</w>": 3901,
      "pro": 3902,
      "ròi</w>": 3903,
      "sổ</w>": 3904,
      "sắt</w>": 3905,
      "tần</w>": 3906,
      "vắt</w>": 3907,
      "vứt</w>": 3908,
      "xách</w>": 3909,
      "zg": 3910,
      "Đông</w>": 3911,
      "đĩ</w>": 3912,
      "đâm</w>": 3913,
      "thù</w>": 3914,
      "thưởng</w>": 3915,
      "chém</w>": 3916,
      "nhịn</w>": 3917,
      "ngột</w>": 3918,
      "ngỗng</w>": 3919,
      "trinh</w>": 3920,
      "troi</w>": 3921,
      "phiếu</w>": 3922,
      "hot</w>": 3923,
      "amam": 3924,
      "Giấy</w>": 3925,
      "loi</w>": 3926,
      "Trúc</w>": 3927,
      "hha": 3928,
      "live": 3929,
      "wed</w>": 3930,
      "nuoc</w>": 3931,
      "đuôi</w>": 3932,
      "okokokokok": 3933,
      "vkl</w>": 3934,
      "gggggggggggggggg": 3935,
      "nhuộm</w>": 3936,
      "rrrrrrrr": 3937,
      "comment</w>": 3938,
      "ATM</w>": 3939,
      "Cầu</w>": 3940,
      "Cát</w>": 3941,
      "Cách</w>": 3942,
      "Dm</w>": 3943,
      "Du</w>": 3944,
      "Duyên</w>": 3945,
      "Lý</w>": 3946,
      "Lướt</w>": 3947,
      "Mang</w>": 3948,
      "Mèo</w>": 3949,
      "Ninh</w>": 3950,
      "Sam</w>": 3951,
      "Sách</w>": 3952,
      "Tư</w>": 3953,
      "Tốc</w>": 3954,
      "Vui</w>": 3955,
      "Xịn</w>": 3956,
      "cj</w>": 3957,
      "dì</w>": 3958,
      "dè</w>": 3959,
      "ei": 3960,
      "gỡ</w>": 3961,
      "hùng</w>": 3962,
      "han</w>": 3963,
      "liệt</w>": 3964,
      "mò</w>": 3965,
      "nồng</w>": 3966,
      "nokia</w>": 3967,
      "rời</w>": 3968,
      "tồi</w>": 3969,
      "ter</w>": 3970,
      "wl": 3971,
      "wf</w>": 3972,
      "đu</w>": 3973,
      "ằn</w>": 3974,
      "thủy</w>": 3975,
      "chổ</w>": 3976,
      "chở</w>": 3977,
      "chch": 3978,
      "nhở</w>": 3979,
      "nhóm</w>": 3980,
      "khánh</w>": 3981,
      "ngứa</w>": 3982,
      "phỏng</w>": 3983,
      "hoà</w>": 3984,
      "Chí</w>": 3985,
      "Thiên</w>": 3986,
      "Thắng</w>": 3987,
      "Trên</w>": 3988,
      "hic</w>": 3989,
      "uuuu</w>": 3990,
      "miêu</w>": 3991,
      "huawei</w>": 3992,
      "fie</w>": 3993,
      "cncn": 3994,
      "okokokokokokokok": 3995,
      "nghiêng</w>": 3996,
      "Google</w>": 3997,
      "Cơ</w>": 3998,
      "Cùng</w>": 3999,
      "Dũng</w>": 4000,
      "Hóng</w>": 4001,
      "Lắp</w>": 4002,
      "Like</w>": 4003,
      "Pu": 4004,
      "QC</w>": 4005,
      "Ri": 4006,
      "bh": 4007,
      "bai</w>": 4008,
      "balo</w>": 4009,
      "bth</w>": 4010,
      "bac</w>": 4011,
      "dập</w>": 4012,
      "dối</w>": 4013,
      "gu</w>": 4014,
      "há</w>": 4015,
      "hốt</w>": 4016,
      "lu</w>": 4017,
      "mối</w>": 4018,
      "om</w>": 4019,
      "sấp</w>": 4020,
      "sợi</w>": 4021,
      "tok</w>": 4022,
      "vote</w>": 4023,
      "Ánh</w>": 4024,
      "Đủ</w>": 4025,
      "đẩy</w>": 4026,
      "Ưu</w>": 4027,
      "ẽo</w>": 4028,
      "thải</w>": 4029,
      "nhh</w>": 4030,
      "nhái</w>": 4031,
      "giám</w>": 4032,
      "log</w>": 4033,
      "Trend</w>": 4034,
      "vien</w>": 4035,
      "Quạt</w>": 4036,
      "sjsk": 4037,
      "reset</w>": 4038,
      "lite</w>": 4039,
      "yyy</w>": 4040,
      "soạn</w>": 4041,
      "bass</w>": 4042,
      "Xuất</w>": 4043,
      "cccccccc": 4044,
      "joy</w>": 4045,
      "ios</w>": 4046,
      "Cây</w>": 4047,
      "Kính</w>": 4048,
      "Le</w>": 4049,
      "Min": 4050,
      "Nokia</w>": 4051,
      "TT": 4052,
      "UNG</w>": 4053,
      "Vô</w>": 4054,
      "bú</w>": 4055,
      "bon</w>": 4056,
      "back</w>": 4057,
      "cư</w>": 4058,
      "cử</w>": 4059,
      "căn</w>": 4060,
      "dj</w>": 4061,
      "dại</w>": 4062,
      "dầy</w>": 4063,
      "dãn</w>": 4064,
      "fl": 4065,
      "ffi": 4066,
      "gánh</w>": 4067,
      "hz</w>": 4068,
      "hâm</w>": 4069,
      "ic</w>": 4070,
      "lặng</w>": 4071,
      "lẻo</w>": 4072,
      "rít</w>": 4073,
      "sôi</w>": 4074,
      "sụt</w>": 4075,
      "tào</w>": 4076,
      "tởm</w>": 4077,
      "va": 4078,
      "vong</w>": 4079,
      "xg": 4080,
      "xương</w>": 4081,
      "xăng</w>": 4082,
      "Đơn</w>": 4083,
      "Động</w>": 4084,
      "đú</w>": 4085,
      "đà</w>": 4086,
      "đinh</w>": 4087,
      "ơiii</w>": 4088,
      "ơiiii</w>": 4089,
      "ặm</w>": 4090,
      "ếm</w>": 4091,
      "ỗn</w>": 4092,
      "thảo</w>": 4093,
      "chàng</w>": 4094,
      "chùi</w>": 4095,
      "nhể</w>": 4096,
      "ngân</w>": 4097,
      "nguyện</w>": 4098,
      "giặc</w>": 4099,
      "trữ</w>": 4100,
      "Chu</w>": 4101,
      "nghiện</w>": 4102,
      "Thank</w>": 4103,
      "Nhỏ</w>": 4104,
      "Nhất</w>": 4105,
      "tuong</w>": 4106,
      "Trải</w>": 4107,
      "Trịnh</w>": 4108,
      "ườn</w>": 4109,
      "djdk": 4110,
      "ngoan</w>": 4111,
      "mini</w>": 4112,
      "Loan</w>": 4113,
      "agon</w>": 4114,
      "best</w>": 4115,
      "dmx</w>": 4116,
      "keke": 4117,
      "Huawei</w>": 4118,
      "niêm</w>": 4119,
      "combo</w>": 4120,
      "selfie</w>": 4121,
      "Bây</w>": 4122,
      "Balo</w>": 4123,
      "CÁ": 4124,
      "CA</w>": 4125,
      "Câu</w>": 4126,
      "Miếng</w>": 4127,
      "SD</w>": 4128,
      "San</w>": 4129,
      "Tức</w>": 4130,
      "Vin": 4131,
      "bu</w>": 4132,
      "bại</w>": 4133,
      "blu": 4134,
      "bênh</w>": 4135,
      "cản</w>": 4136,
      "cành</w>": 4137,
      "dd</w>": 4138,
      "dốt</w>": 4139,
      "es</w>": 4140,
      "hụt</w>": 4141,
      "ld</w>": 4142,
      "lang</w>": 4143,
      "lạy</w>": 4144,
      "mập</w>": 4145,
      "oko</w>": 4146,
      "pt</w>": 4147,
      "rb": 4148,
      "rong</w>": 4149,
      "rou": 4150,
      "sịn</w>": 4151,
      "tít</w>": 4152,
      "tạp</w>": 4153,
      "tĩnh</w>": 4154,
      "voucher</w>": 4155,
      "xv": 4156,
      "xốp</w>": 4157,
      "để": 4158,
      "đươ": 4159,
      "đành</w>": 4160,
      "ụm</w>": 4161,
      "chọc</w>": 4162,
      "chúa</w>": 4163,
      "nhi</w>": 4164,
      "nhét</w>": 4165,
      "ngũ</w>": 4166,
      "ngành</w>": 4167,
      "ngạt</w>": 4168,
      "gigi": 4169,
      "tru</w>": 4170,
      "phức</w>": 4171,
      "quăng</w>": 4172,
      "Thử</w>": 4173,
      "Trừ</w>": 4174,
      "chug</w>": 4175,
      "ieie": 4176,
      "coy": 4177,
      "active</w>": 4178,
      "mic</w>": 4179,
      "fix</w>": 4180,
      "mmmmmmmmmmmmmmmm": 4181,
      "zzzzzzzz": 4182,
      "dddddddddddddddd": 4183,
      "Hello</w>": 4184,
      "Size</w>": 4185,
      "AI</w>": 4186,
      "Dạo</w>": 4187,
      "Fu": 4188,
      "Gọi</w>": 4189,
      "HD": 4190,
      "HÀ": 4191,
      "Tổ</w>": 4192,
      "Vi</w>": 4193,
      "Vote</w>": 4194,
      "akk": 4195,
      "bla": 4196,
      "cg": 4197,
      "cau</w>": 4198,
      "ds</w>": 4199,
      "dăm</w>": 4200,
      "ft</w>": 4201,
      "gắt</w>": 4202,
      "hs</w>": 4203,
      "ham</w>": 4204,
      "hèn</w>": 4205,
      "kj": 4206,
      "kép</w>": 4207,
      "lổi</w>": 4208,
      "móng</w>": 4209,
      "mến</w>": 4210,
      "non</w>": 4211,
      "rẽ</w>": 4212,
      "ráng</w>": 4213,
      "tks</w>": 4214,
      "uổng</w>": 4215,
      "zai</w>": 4216,
      "ôg</w>": 4217,
      "đung</w>": 4218,
      "điệu</w>": 4219,
      "thờ</w>": 4220,
      "chời</w>": 4221,
      "chan</w>": 4222,
      "chảo</w>": 4223,
      "chưởng</w>": 4224,
      "chet</w>": 4225,
      "nhãn</w>": 4226,
      "khe</w>": 4227,
      "khắp</w>": 4228,
      "giong</w>": 4229,
      "tróc</w>": 4230,
      "trog</w>": 4231,
      "phú</w>": 4232,
      "què</w>": 4233,
      "Chờ</w>": 4234,
      "Chân</w>": 4235,
      "Thông</w>": 4236,
      "lone</w>": 4237,
      "Phục</w>": 4238,
      "djd</w>": 4239,
      "djdn": 4240,
      "real</w>": 4241,
      "tiep</w>": 4242,
      "bbb": 4243,
      "mot</w>": 4244,
      "snsnsn": 4245,
      "Mixi</w>": 4246,
      "Vivo</w>": 4247,
      "bbbbbbbb": 4248,
      "Hihi</w>": 4249,
      "Viettel</w>": 4250,
      "dragon</w>": 4251,
      "đẹp": 4252,
      "SHOP</w>": 4253,
      "Bánh</w>": 4254,
      "CO": 4255,
      "Ca</w>": 4256,
      "De": 4257,
      "Gửi</w>": 4258,
      "Hồi</w>": 4259,
      "LÀ": 4260,
      "LV</w>": 4261,
      "Lam</w>": 4262,
      "Moi</w>": 4263,
      "Tập</w>": 4264,
      "Tội</w>": 4265,
      "Tks</w>": 4266,
      "Vn</w>": 4267,
      "Vu</w>": 4268,
      "bang</w>": 4269,
      "bồn</w>": 4270,
      "bạo</w>": 4271,
      "ble</w>": 4272,
      "cỏ</w>": 4273,
      "câm</w>": 4274,
      "dâu</w>": 4275,
      "hà": 4276,
      "hằng</w>": 4277,
      "hứa</w>": 4278,
      "hổng</w>": 4279,
      "huynh</w>": 4280,
      "lì</w>": 4281,
      "lân</w>": 4282,
      "lục</w>": 4283,
      "mb</w>": 4284,
      "mài</w>": 4285,
      "rát</w>": 4286,
      "tn</w>": 4287,
      "vững</w>": 4288,
      "xai</w>": 4289,
      "xám</w>": 4290,
      "yê": 4291,
      "ziên</w>": 4292,
      "Đại</w>": 4293,
      "Điều</w>": 4294,
      "ẫm</w>": 4295,
      "ềnh</w>": 4296,
      "ỐC</w>": 4297,
      "nhen</w>": 4298,
      "khựng</w>": 4299,
      "ngừ": 4300,
      "ngực</w>": 4301,
      "giường</w>": 4302,
      "trading</w>": 4303,
      "phốt</w>": 4304,
      "quận</w>": 4305,
      "Chú</w>": 4306,
      "Thay</w>": 4307,
      "Thêm</w>": 4308,
      "tuc</w>": 4309,
      "tuỳ</w>": 4310,
      "ppy</w>": 4311,
      "Tru": 4312,
      "Trương</w>": 4313,
      "hhh": 4314,
      "kkkkkk</w>": 4315,
      "Phi</w>": 4316,
      "sksn": 4317,
      "cuoi</w>": 4318,
      "okokoko</w>": 4319,
      "dell</w>": 4320,
      "fund</w>": 4321,
      "muon</w>": 4322,
      "Chuột</w>": 4323,
      "Cuộc</w>": 4324,
      "dlv</w>": 4325,
      "Test</w>": 4326,
      "flash</w>": 4327,
      "ssenger</w>": 4328,
      "MUA</w>": 4329,
      "đểu</w>": 4330,
      "Bữa</w>": 4331,
      "Cá</w>": 4332,
      "EN</w>": 4333,
      "Gòn</w>": 4334,
      "HI": 4335,
      "Lấy</w>": 4336,
      "Mạng</w>": 4337,
      "Ng</w>": 4338,
      "Nv</w>": 4339,
      "Son</w>": 4340,
      "TC</w>": 4341,
      "Tóc</w>": 4342,
      "Tổng</w>": 4343,
      "Vl</w>": 4344,
      "bk": 4345,
      "bí</w>": 4346,
      "cạo</w>": 4347,
      "dat</w>": 4348,
      "ex": 4349,
      "eng</w>": 4350,
      "from</w>": 4351,
      "ik</w>": 4352,
      "ka</w>": 4353,
      "mx</w>": 4354,
      "mạch</w>": 4355,
      "nụ</w>": 4356,
      "nàng</w>": 4357,
      "pad</w>": 4358,
      "rk": 4359,
      "ri</w>": 4360,
      "sc": 4361,
      "sto": 4362,
      "sạt</w>": 4363,
      "sốt</w>": 4364,
      "tp</w>": 4365,
      "tuyên</w>": 4366,
      "tuyến</w>": 4367,
      "vé</w>": 4368,
      "zui</w>": 4369,
      "Đà</w>": 4370,
      "Đem</w>": 4371,
      "Đôi</w>": 4372,
      "Địt</w>": 4373,
      "đj": 4374,
      "đè</w>": 4375,
      "đục</w>": 4376,
      "đắn</w>": 4377,
      "đcm</w>": 4378,
      "đag</w>": 4379,
      "ƯỚ": 4380,
      "ƯỜI</w>": 4381,
      "thợ</w>": 4382,
      "thăm</w>": 4383,
      "thank</w>": 4384,
      "chát</w>": 4385,
      "kháng</w>": 4386,
      "khéo</w>": 4387,
      "khối</w>": 4388,
      "khám</w>": 4389,
      "trầm</w>": 4390,
      "quài</w>": 4391,
      "quấn</w>": 4392,
      "Chó</w>": 4393,
      "Thắm</w>": 4394,
      "Thùy</w>": 4395,
      "Nhạc</w>": 4396,
      "Giảm</w>": 4397,
      "Nga</w>": 4398,
      "loc</w>": 4399,
      "nnnn</w>": 4400,
      "Khẩu</w>": 4401,
      "khoa</w>": 4402,
      "mac": 4403,
      "snap</w>": 4404,
      "chuyến</w>": 4405,
      "com</w>": 4406,
      "mess</w>": 4407,
      "key</w>": 4408,
      "zjzj": 4409,
      "Nghĩ</w>": 4410,
      "Haha</w>": 4411,
      "Good</w>": 4412,
      "truoc</w>": 4413,
      "sticker</w>": 4414,
      "USB</w>": 4415,
      "LÀM</w>": 4416,
      "Be</w>": 4417,
      "Fi": 4418,
      "From</w>": 4419,
      "Gối</w>": 4420,
      "Kem</w>": 4421,
      "Mi</w>": 4422,
      "Sáng</w>": 4423,
      "Sale</w>": 4424,
      "Tin</w>": 4425,
      "Tấn</w>": 4426,
      "Uyên</w>": 4427,
      "Viet</w>": 4428,
      "bạ</w>": 4429,
      "bô</w>": 4430,
      "bào</w>": 4431,
      "dắt</w>": 4432,
      "el": 4433,
      "fm": 4434,
      "ge": 4435,
      "gaming</w>": 4436,
      "háng</w>": 4437,
      "ien</w>": 4438,
      "ji</w>": 4439,
      "ko": 4440,
      "kb</w>": 4441,
      "ló</w>": 4442,
      "lãi</w>": 4443,
      "lĩnh</w>": 4444,
      "mảnh</w>": 4445,
      "nạ</w>": 4446,
      "off</w>": 4447,
      "pa": 4448,
      "sx</w>": 4449,
      "sốp</w>": 4450,
      "túc</w>": 4451,
      "tựa</w>": 4452,
      "um</w>": 4453,
      "vòi</w>": 4454,
      "vlog</w>": 4455,
      "zô</w>": 4456,
      "ág</w>": 4457,
      "òm</w>": 4458,
      "Đợt</w>": 4459,
      "đắc</w>": 4460,
      "ũa</w>": 4461,
      "ẻm</w>": 4462,
      "ửu</w>": 4463,
      "nháy</w>": 4464,
      "nhậy</w>": 4465,
      "nhậu</w>": 4466,
      "nhah</w>": 4467,
      "nhaaa</w>": 4468,
      "khinh</w>": 4469,
      "gio": 4470,
      "trống</w>": 4471,
      "quất</w>": 4472,
      "quai</w>": 4473,
      "logo</w>": 4474,
      "lap</w>": 4475,
      "buồi</w>": 4476,
      "mail</w>": 4477,
      "iiiiiii</w>": 4478,
      "jjj": 4479,
      "tern": 4480,
      "boss</w>": 4481,
      "djdjdj": 4482,
      "deal</w>": 4483,
      "show</w>": 4484,
      "nilon</w>": 4485,
      "NGƯỜI</w>": 4486,
      "Ngoại</w>": 4487,
      "apdragon</w>": 4488,
      "androi</w>": 4489,
      "Bo": 4490,
      "Cẩm</w>": 4491,
      "Date</w>": 4492,
      "EO</w>": 4493,
      "KH</w>": 4494,
      "MÌNH</w>": 4495,
      "PT</w>": 4496,
      "PIN</w>": 4497,
      "SS</w>": 4498,
      "Táo</w>": 4499,
      "VN": 4500,
      "Vị</w>": 4501,
      "ara</w>": 4502,
      "by": 4503,
      "bat</w>": 4504,
      "bsb": 4505,
      "bịt</w>": 4506,
      "ct": 4507,
      "cất</w>": 4508,
      "dt": 4509,
      "dinh</w>": 4510,
      "dth</w>": 4511,
      "fg": 4512,
      "gê</w>": 4513,
      "gòn</w>": 4514,
      "gan</w>": 4515,
      "hít</w>": 4516,
      "hạng</w>": 4517,
      "ksk": 4518,
      "lờ</w>": 4519,
      "mu</w>": 4520,
      "mĩ</w>": 4521,
      "mây</w>": 4522,
      "mieng</w>": 4523,
      "nỗ</w>": 4524,
      "nết</w>": 4525,
      "ndn": 4526,
      "net</w>": 4527,
      "or</w>": 4528,
      "oto</w>": 4529,
      "ph</w>": 4530,
      "pk</w>": 4531,
      "pre": 4532,
      "rm</w>": 4533,
      "rât</w>": 4534,
      "sót</w>": 4535,
      "tân</w>": 4536,
      "tái</w>": 4537,
      "vua</w>": 4538,
      "vinh</w>": 4539,
      "vâng</w>": 4540,
      "wor": 4541,
      "xí</w>": 4542,
      "ăc</w>": 4543,
      "ĐT</w>": 4544,
      "Đậu</w>": 4545,
      "ỉm</w>": 4546,
      "them</w>": 4547,
      "thúc</w>": 4548,
      "thậm</w>": 4549,
      "chối</w>": 4550,
      "chùa</w>": 4551,
      "nhảm</w>": 4552,
      "nhaa</w>": 4553,
      "khỉ</w>": 4554,
      "khựa</w>": 4555,
      "khac</w>": 4556,
      "ngâm</w>": 4557,
      "giùm</w>": 4558,
      "tro</w>": 4559,
      "quỳ</w>": 4560,
      "uyển</w>": 4561,
      "Chiều</w>": 4562,
      "Thịnh</w>": 4563,
      "Thúy</w>": 4564,
      "Ngồi</w>": 4565,
      "Trà</w>": 4566,
      "Khổ</w>": 4567,
      "chup</w>": 4568,
      "remote</w>": 4569,
      "onl</w>": 4570,
      "thuỷ</w>": 4571,
      "tel</w>": 4572,
      "susan</w>": 4573,
      "Tuân</w>": 4574,
      "messenger</w>": 4575,
      "ffff": 4576,
      "dhdhdh": 4577,
      "zkzk": 4578,
      "iiiiiiiiiiiiiiiiiiiiiiiiiiiiiiii": 4579,
      "phun</w>": 4580,
      "Pubg</w>": 4581,
      "Bát</w>": 4582,
      "Bút</w>": 4583,
      "Cập</w>": 4584,
      "CON</w>": 4585,
      "Dòng</w>": 4586,
      "DLV</w>": 4587,
      "Hạ</w>": 4588,
      "Hơn</w>": 4589,
      "Kinh</w>": 4590,
      "MP</w>": 4591,
      "NN": 4592,
      "Se": 4593,
      "SG</w>": 4594,
      "Tụi</w>": 4595,
      "Uống</w>": 4596,
      "Vận</w>": 4597,
      "bb</w>": 4598,
      "bồ</w>": 4599,
      "bãi</w>": 4600,
      "cống</w>": 4601,
      "cặn</w>": 4602,
      "db</w>": 4603,
      "eh": 4604,
      "hàm</w>": 4605,
      "huyện</w>": 4606,
      "kiều</w>": 4607,
      "lg</w>": 4608,
      "lem</w>": 4609,
      "lối</w>": 4610,
      "lãng</w>": 4611,
      "mùng</w>": 4612,
      "né</w>": 4613,
      "niệm</w>": 4614,
      "nón</w>": 4615,
      "rệt</w>": 4616,
      "sf": 4617,
      "tx": 4618,
      "tk</w>": 4619,
      "té</w>": 4620,
      "tú</w>": 4621,
      "vốn</w>": 4622,
      "wi</w>": 4623,
      "xh</w>": 4624,
      "yi": 4625,
      "yến</w>": 4626,
      "zậy</w>": 4627,
      "Đợi</w>": 4628,
      "Định</w>": 4629,
      "đg</w>": 4630,
      "đáy</w>": 4631,
      "đột</w>": 4632,
      "ỚI</w>": 4633,
      "thưa</w>": 4634,
      "nhờn</w>": 4635,
      "khử</w>": 4636,
      "gioi</w>": 4637,
      "phầm</w>": 4638,
      "home</w>": 4639,
      "Chat</w>": 4640,
      "nghiệt</w>": 4641,
      "Giàu</w>": 4642,
      "tuộc</w>": 4643,
      "loan</w>": 4644,
      "kkkkkkk</w>": 4645,
      "Phu": 4646,
      "ngoái</w>": 4647,
      "ggg</w>": 4648,
      "cug</w>": 4649,
      "dbd</w>": 4650,
      "inow</w>": 4651,
      "bom</w>": 4652,
      "sub</w>": 4653,
      "xog</w>": 4654,
      "viet</w>": 4655,
      "file</w>": 4656,
      "sksksk": 4657,
      "Okik": 4658,
      "hehehehe": 4659,
      "qqqq": 4660,
      "ididong</w>": 4661,
      "Link</w>": 4662,
      "dtjdtj": 4663,
      "ƯỢC</w>": 4664,
      "đươc</w>": 4665,
      "gioididong</w>": 4666,
      "AM": 4667,
      "ANG</w>": 4668,
      "Băng</w>": 4669,
      "CT</w>": 4670,
      "Cuối</w>": 4671,
      "Dt</w>": 4672,
      "For": 4673,
      "Hòa</w>": 4674,
      "Kiên</w>": 4675,
      "Lời</w>": 4676,
      "Lãnh</w>": 4677,
      "Ma</w>": 4678,
      "PS</w>": 4679,
      "Phim</w>": 4680,
      "SI": 4681,
      "So": 4682,
      "Tên</w>": 4683,
      "Tiểu</w>": 4684,
      "Xanh</w>": 4685,
      "ahihi</w>": 4686,
      "bs</w>": 4687,
      "bạch</w>": 4688,
      "bún</w>": 4689,
      "cút</w>": 4690,
      "cắp</w>": 4691,
      "cẩu</w>": 4692,
      "ds": 4693,
      "fai</w>": 4694,
      "gội</w>": 4695,
      "gởi</w>": 4696,
      "gym</w>": 4697,
      "hj</w>": 4698,
      "hủy</w>": 4699,
      "kiềm</w>": 4700,
      "lòn</w>": 4701,
      "lẩu</w>": 4702,
      "mvũ</w>": 4703,
      "nộp</w>": 4704,
      "pq": 4705,
      "pri": 4706,
      "rủ</w>": 4707,
      "rượ": 4708,
      "rôi</w>": 4709,
      "rãi</w>": 4710,
      "rap</w>": 4711,
      "sừng</w>": 4712,
      "star</w>": 4713,
      "tau</w>": 4714,
      "tgian</w>": 4715,
      "tphone</w>": 4716,
      "us</w>": 4717,
      "vở</w>": 4718,
      "vất</w>": 4719,
      "vác</w>": 4720,
      "vai": 4721,
      "xl": 4722,
      "xích</w>": 4723,
      "you": 4724,
      "zin</w>": 4725,
      "ĐMX</w>": 4726,
      "đâ": 4727,
      "đùng</w>": 4728,
      "ƠN</w>": 4729,
      "ưii</w>": 4730,
      "ậc</w>": 4731,
      "thăng</w>": 4732,
      "thấu</w>": 4733,
      "chanh</w>": 4734,
      "chăn</w>": 4735,
      "nhg</w>": 4736,
      "nhường</w>": 4737,
      "khói</w>": 4738,
      "giựt</w>": 4739,
      "trọn</w>": 4740,
      "trieu</w>": 4741,
      "phu</w>": 4742,
      "phơi</w>": 4743,
      "hoc</w>": 4744,
      "Chết</w>": 4745,
      "The</w>": 4746,
      "Thơm</w>": 4747,
      "Nhu": 4748,
      "Giới</w>": 4749,
      "Giáo</w>": 4750,
      "tuân</w>": 4751,
      "Ngoc</w>": 4752,
      "ames</w>": 4753,
      "Quay</w>": 4754,
      "lan": 4755,
      "tiet</w>": 4756,
      "make</w>": 4757,
      "lien</w>": 4758,
      "dndk": 4759,
      "thun</w>": 4760,
      "ina</w>": 4761,
      "order</w>": 4762,
      "kemvũ</w>": 4763,
      "post</w>": 4764,
      "Thuận</w>": 4765,
      "jjjjjjjj": 4766,
      "aaaaaaaaaaaaaaaaaaaaaaaaaaaaaaaa": 4767,
      "khuẩn</w>": 4768,
      "IỆT</w>": 4769,
      "vyvy": 4770,
      "edit</w>": 4771,
      "Riêng</w>": 4772,
      "AD</w>": 4773,
      "BI": 4774,
      "Bi": 4775,
      "BF</w>": 4776,
      "Cộng</w>": 4777,
      "Danh</w>": 4778,
      "Fb</w>": 4779,
      "Gạo</w>": 4780,
      "Joy</w>": 4781,
      "LU": 4782,
      "Lũ</w>": 4783,
      "Lào</w>": 4784,
      "Mãi</w>": 4785,
      "No": 4786,
      "Ru": 4787,
      "Tu</w>": 4788,
      "Tải</w>": 4789,
      "VÀ</w>": 4790,
      "Viên</w>": 4791,
      "Vâng</w>": 4792,
      "Wi": 4793,
      "ay": 4794,
      "bơi</w>": 4795,
      "bùi</w>": 4796,
      "búa</w>": 4797,
      "cv": 4798,
      "ckh": 4799,
      "cang</w>": 4800,
      "cạn</w>": 4801,
      "cjj": 4802,
      "dẻ</w>": 4803,
      "dem</w>": 4804,
      "diên</w>": 4805,
      "dam</w>": 4806,
      "dỗi</w>": 4807,
      "dái</w>": 4808,
      "dri": 4809,
      "ga": 4810,
      "hd": 4811,
      "hũ</w>": 4812,
      "ka": 4813,
      "ké</w>": 4814,
      "lược</w>": 4815,
      "lăng</w>": 4816,
      "lát</w>": 4817,
      "luyện</w>": 4818,
      "lọt</w>": 4819,
      "liếm</w>": 4820,
      "nứng</w>": 4821,
      "ném</w>": 4822,
      "py</w>": 4823,
      "rực</w>": 4824,
      "tê</w>": 4825,
      "tang</w>": 4826,
      "tat</w>": 4827,
      "tiệp</w>": 4828,
      "vt": 4829,
      "vây</w>": 4830,
      "vương</w>": 4831,
      "xót</w>": 4832,
      "zu": 4833,
      "àh</w>": 4834,
      "ãm</w>": 4835,
      "úg</w>": 4836,
      "đb</w>": 4837,
      "đùi</w>": 4838,
      "ẢN</w>": 4839,
      "ẬT</w>": 4840,
      "ụy</w>": 4841,
      "thụ</w>": 4842,
      "chuối</w>": 4843,
      "chớp</w>": 4844,
      "nhẫn</w>": 4845,
      "nhám</w>": 4846,
      "nhma</w>": 4847,
      "nhuyễn</w>": 4848,
      "khích</w>": 4849,
      "ngửi</w>": 4850,
      "ngắm</w>": 4851,
      "giỏ</w>": 4852,
      "trại</w>": 4853,
      "trào</w>": 4854,
      "trục</w>": 4855,
      "phật</w>": 4856,
      "Chậm</w>": 4857,
      "nghiên</w>": 4858,
      "ppp</w>": 4859,
      "hhhh</w>": 4860,
      "thoai</w>": 4861,
      "ngoai</w>": 4862,
      "didi": 4863,
      "dbdj": 4864,
      "shiper</w>": 4865,
      "miui</w>": 4866,
      "doy": 4867,
      "card</w>": 4868,
      "cmm</w>": 4869,
      "soát</w>": 4870,
      "lear</w>": 4871,
      "NGH": 4872,
      "tttttttttttttttttttttttttttttttt": 4873,
      "for</w>": 4874,
      "GIÁ</w>": 4875,
      "tuyet</w>": 4876,
      "haizz</w>": 4877,
      "mjh</w>": 4878,
      "okokokokokOkik": 4879,
      "ternet</w>": 4880,
      "Be": 4881,
      "BT</w>": 4882,
      "Bích</w>": 4883,
      "Cài</w>": 4884,
      "Cam": 4885,
      "Cor": 4886,
      "Do": 4887,
      "De</w>": 4888,
      "Dan</w>": 4889,
      "Dầu</w>": 4890,
      "Diệu</w>": 4891,
      "ER</w>": 4892,
      "Gần</w>": 4893,
      "Hiền</w>": 4894,
      "Hối</w>": 4895,
      "Huynh</w>": 4896,
      "LI": 4897,
      "Le": 4898,
      "Lệ</w>": 4899,
      "Mùa</w>": 4900,
      "Ro": 4901,
      "RẤT</w>": 4902,
      "Tik": 4903,
      "Váy</w>": 4904,
      "Xong</w>": 4905,
      "bk</w>": 4906,
      "bơ</w>": 4907,
      "cg</w>": 4908,
      "cy</w>": 4909,
      "cọ</w>": 4910,
      "cro": 4911,
      "cbi</w>": 4912,
      "dỗ</w>": 4913,
      "em": 4914,
      "gh</w>": 4915,
      "gay</w>": 4916,
      "hn</w>": 4917,
      "hân</w>": 4918,
      "hỉu</w>": 4919,
      "hỗn</w>": 4920,
      "jsjsj": 4921,
      "kiên</w>": 4922,
      "kẹt</w>": 4923,
      "lê</w>": 4924,
      "leo</w>": 4925,
      "mền</w>": 4926,
      "mãn</w>": 4927,
      "nj": 4928,
      "nô</w>": 4929,
      "nứt</w>": 4930,
      "nuốt</w>": 4931,
      "rồ": 4932,
      "rn</w>": 4933,
      "rs</w>": 4934,
      "rui</w>": 4935,
      "rốt</w>": 4936,
      "sj</w>": 4937,
      "tách</w>": 4938,
      "tôt</w>": 4939,
      "vịt</w>": 4940,
      "wp": 4941,
      "yt": 4942,
      "yeu</w>": 4943,
      "zip</w>": 4944,
      "ÀO</w>": 4945,
      "Úc</w>": 4946,
      "ìh</w>": 4947,
      "Đụ</w>": 4948,
      "Đâu</w>": 4949,
      "Đầy</w>": 4950,
      "đe": 4951,
      "đả</w>": 4952,
      "đmx</w>": 4953,
      "ƠI</w>": 4954,
      "ẹc</w>": 4955,
      "thụt</w>": 4956,
      "chừa</w>": 4957,
      "châm</w>": 4958,
      "chóp</w>": 4959,
      "chín</w>": 4960,
      "khg</w>": 4961,
      "kha</w>": 4962,
      "khay</w>": 4963,
      "ngán</w>": 4964,
      "giảng</w>": 4965,
      "trêu</w>": 4966,
      "trấn</w>": 4967,
      "trãi</w>": 4968,
      "trộn</w>": 4969,
      "hoan</w>": 4970,
      "Chai</w>": 4971,
      "Chuyên</w>": 4972,
      "Chẳng</w>": 4973,
      "nghịch</w>": 4974,
      "Thần</w>": 4975,
      "Thiếu</w>": 4976,
      "Thủy</w>": 4977,
      "low</w>": 4978,
      "tton</w>": 4979,
      "thoa</w>": 4980,
      "toan</w>": 4981,
      "Khách</w>": 4982,
      "Phụ</w>": 4983,
      "khoai</w>": 4984,
      "sjsn": 4985,
      "ggg": 4986,
      "onic</w>": 4987,
      "dbdh": 4988,
      "iiiiii</w>": 4989,
      "code</w>": 4990,
      "car": 4991,
      "cmcm": 4992,
      "xjg": 4993,
      "beat</w>": 4994,
      "xxxx": 4995,
      "fjfjfjfj": 4996,
      "Tien</w>": 4997,
      "thegioididong</w>": 4998,
      "tttttttt</w>": 4999,
      "hâhh": 5000,
      "freeship</w>": 5001,
      "livestream</w>": 5002,
      "ƯỚC</w>": 5003,
      "rượu</w>": 5004,
      "okokokokokOkikokokokokokOkik": 5005,
      "AK</w>": 5006,
      "Bê</w>": 5007,
      "Cm": 5008,
      "Dat</w>": 5009,
      "Hệ</w>": 5010,
      "Họ</w>": 5011,
      "Hz</w>": 5012,
      "Hieu</w>": 5013,
      "Kích</w>": 5014,
      "LE": 5015,
      "LO": 5016,
      "LQ</w>": 5017,
      "Me": 5018,
      "MC</w>": 5019,
      "MV</w>": 5020,
      "Ne": 5021,
      "RO": 5022,
      "Sa</w>": 5023,
      "TO": 5024,
      "Tạ</w>": 5025,
      "Tam</w>": 5026,
      "Tăng</w>": 5027,
      "Thoại</w>": 5028,
      "Vòng</w>": 5029,
      "XL</w>": 5030,
      "ang": 5031,
      "ajj": 5032,
      "are</w>": 5033,
      "bồi</w>": 5034,
      "biện</w>": 5035,
      "bùn</w>": 5036,
      "cr": 5037,
      "cf</w>": 5038,
      "cv</w>": 5039,
      "came</w>": 5040,
      "cạp</w>": 5041,
      "cụm</w>": 5042,
      "dừa</w>": 5043,
      "fj</w>": 5044,
      "fee": 5045,
      "fin": 5046,
      "gen</w>": 5047,
      "ger</w>": 5048,
      "hiếp</w>": 5049,
      "hêt</w>": 5050,
      "je": 5051,
      "ku": 5052,
      "kdk": 5053,
      "lâm</w>": 5054,
      "lốp</w>": 5055,
      "ltra</w>": 5056,
      "mả</w>": 5057,
      "mớ</w>": 5058,
      "mốc</w>": 5059,
      "mắm</w>": 5060,
      "mép</w>": 5061,
      "mưu</w>": 5062,
      "ndj": 5063,
      "oi": 5064,
      "qj": 5065,
      "qo": 5066,
      "rỗ</w>": 5067,
      "rang</w>": 5068,
      "rắn</w>": 5069,
      "rối</w>": 5070,
      "rạp</w>": 5071,
      "sl</w>": 5072,
      "sv</w>": 5073,
      "sọc</w>": 5074,
      "tl</w>": 5075,
      "tát</w>": 5076,
      "tuyết</w>": 5077,
      "xn</w>": 5078,
      "xâm</w>": 5079,
      "xbb": 5080,
      "zkk": 5081,
      "éc</w>": 5082,
      "ýt</w>": 5083,
      "Đeo</w>": 5084,
      "ĐƯỢC</w>": 5085,
      "đút</w>": 5086,
      "đét</w>": 5087,
      "đốc</w>": 5088,
      "ẾU</w>": 5089,
      "ỉn</w>": 5090,
      "ốm</w>": 5091,
      "thói</w>": 5092,
      "chè</w>": 5093,
      "chà</w>": 5094,
      "chói</w>": 5095,
      "nhặt</w>": 5096,
      "nhức</w>": 5097,
      "khổng</w>": 5098,
      "nga</w>": 5099,
      "ngập</w>": 5100,
      "giai</w>": 5101,
      "giau</w>": 5102,
      "giấc</w>": 5103,
      "phổ</w>": 5104,
      "quí</w>": 5105,
      "uya</w>": 5106,
      "Chế</w>": 5107,
      "Chuyện</w>": 5108,
      "nghiep</w>": 5109,
      "Thủ</w>": 5110,
      "Thiện</w>": 5111,
      "Ngu": 5112,
      "Trc</w>": 5113,
      "Trading</w>": 5114,
      "Khắc</w>": 5115,
      "oki": 5116,
      "ght</w>": 5117,
      "hah": 5118,
      "ank": 5119,
      "ting</w>": 5120,
      "mac</w>": 5121,
      "sela</w>": 5122,
      "ace</w>": 5123,
      "shsb": 5124,
      "care</w>": 5125,
      "fuo": 5126,
      "xiu</w>": 5127,
      "ort</w>": 5128,
      "Tuổi</w>": 5129,
      "hhhhhhhhh</w>": 5130,
      "xhxh": 5131,
      "ara": 5132,
      "art</w>": 5133,
      "Com": 5134,
      "Refund</w>": 5135,
      "zbzb": 5136,
      "akakakak": 5137,
      "nhug</w>": 5138,
      "new</w>": 5139,
      "zhzh": 5140,
      "rab</w>": 5141,
      "MIUI</w>": 5142,
      "tiktok</w>": 5143,
      "HÀNG</w>": 5144,
      "yêuc</w>": 5145,
      "ngừoi</w>": 5146,
      "Bóng</w>": 5147,
      "Cứng</w>": 5148,
      "Dán</w>": 5149,
      "ET</w>": 5150,
      "Hang</w>": 5151,
      "Hai": 5152,
      "Ki": 5153,
      "Nút</w>": 5154,
      "Now</w>": 5155,
      "OI</w>": 5156,
      "PP": 5157,
      "ST</w>": 5158,
      "Sự</w>": 5159,
      "Sinh</w>": 5160,
      "Sen": 5161,
      "Tay</w>": 5162,
      "Tường</w>": 5163,
      "Vương</w>": 5164,
      "Xã</w>": 5165,
      "az": 5166,
      "bẻ</w>": 5167,
      "bội</w>": 5168,
      "bìa</w>": 5169,
      "cẩm</w>": 5170,
      "df": 5171,
      "dê</w>": 5172,
      "don": 5173,
      "dgj": 5174,
      "ed</w>": 5175,
      "ei</w>": 5176,
      "fpu": 5177,
      "gd</w>": 5178,
      "gậy</w>": 5179,
      "hb": 5180,
      "hn": 5181,
      "hắn</w>": 5182,
      "hqua</w>": 5183,
      "họng</w>": 5184,
      "hét</w>": 5185,
      "huyết</w>": 5186,
      "ji": 5187,
      "jcj": 5188,
      "kịch</w>": 5189,
      "lồ</w>": 5190,
      "lít</w>": 5191,
      "lưới</w>": 5192,
      "mb": 5193,
      "mổ</w>": 5194,
      "muối</w>": 5195,
      "nể</w>": 5196,
      "nai</w>": 5197,
      "oh</w>": 5198,
      "qq</w>": 5199,
      "qúa</w>": 5200,
      "ranh</w>": 5201,
      "sg</w>": 5202,
      "sm</w>": 5203,
      "sấu</w>": 5204,
      "sặc</w>": 5205,
      "tf": 5206,
      "tứ</w>": 5207,
      "típ</w>": 5208,
      "ui": 5209,
      "vĩ</w>": 5210,
      "vơi</w>": 5211,
      "vỉa</w>": 5212,
      "ws</w>": 5213,
      "win</w>": 5214,
      "xt</w>": 5215,
      "xô</w>": 5216,
      "xẻo</w>": 5217,
      "zoom</w>": 5218,
      "ÀN</w>": 5219,
      "êi</w>": 5220,
      "Đu": 5221,
      "điển</w>": 5222,
      "đuối</w>": 5223,
      "đếm</w>": 5224,
      "ẠN</w>": 5225,
      "ẢM</w>": 5226,
      "ẬN</w>": 5227,
      "ỀN</w>": 5228,
      "ỤNG</w>": 5229,
      "ỨC</w>": 5230,
      "thây</w>": 5231,
      "thắm</w>": 5232,
      "thiệp</w>": 5233,
      "chj</w>": 5234,
      "nhaaaa</w>": 5235,
      "khứ</w>": 5236,
      "khét</w>": 5237,
      "khuya</w>": 5238,
      "ngài</w>": 5239,
      "ngưỡng</w>": 5240,
      "giầy</w>": 5241,
      "tro": 5242,
      "tran</w>": 5243,
      "phat</w>": 5244,
      "luc</w>": 5245,
      "luu</w>": 5246,
      "Tham</w>": 5247,
      "Thuốc</w>": 5248,
      "Nha</w>": 5249,
      "Giải</w>": 5250,
      "Nghi</w>": 5251,
      "Trông</w>": 5252,
      "thoii</w>": 5253,
      "Pháp</w>": 5254,
      "ghiền</w>": 5255,
      "khoái</w>": 5256,
      "dis": 5257,
      "dich</w>": 5258,
      "made</w>": 5259,
      "ska</w>": 5260,
      "nnnnn</w>": 5261,
      "nnnnnnn</w>": 5262,
      "ooo</w>": 5263,
      "oooo</w>": 5264,
      "coh": 5265,
      "acc</w>": 5266,
      "Hoàn</w>": 5267,
      "mih</w>": 5268,
      "mix</w>": 5269,
      "tech</w>": 5270,
      "quyển</w>": 5271,
      "ccc</w>": 5272,
      "Lock</w>": 5273,
      "ore</w>": 5274,
      "sjsjsj": 5275,
      "Tuan</w>": 5276,
      "smartphone</w>": 5277,
      "đuoc</w>": 5278,
      "nick</w>": 5279,
      "fnfn": 5280,
      "Toang</w>": 5281,
      "yyyyyyyy": 5282,
      "Nghĩa</w>": 5283,
      "dhhdhdh": 5284,
      "phut</w>": 5285,
      "ssssssssssssssss": 5286,
      "đẹpHàng</w>": 5287,
      "Bột</w>": 5288,
      "Bệnh</w>": 5289,
      "CC": 5290,
      "CM": 5291,
      "CỦ": 5292,
      "CN</w>": 5293,
      "Càng</w>": 5294,
      "Cân</w>": 5295,
      "Cặp</w>": 5296,
      "DV</w>": 5297,
      "Dang</w>": 5298,
      "Gặp</w>": 5299,
      "Ha</w>": 5300,
      "Hanh</w>": 5301,
      "Hong</w>": 5302,
      "Hút</w>": 5303,
      "MI</w>": 5304,
      "Mời</w>": 5305,
      "ND</w>": 5306,
      "Nẵng</w>": 5307,
      "Pan": 5308,
      "Pro</w>": 5309,
      "RA": 5310,
      "RE": 5311,
      "SẢN</w>": 5312,
      "TT</w>": 5313,
      "Tô</w>": 5314,
      "Vĩnh</w>": 5315,
      "Xứng</w>": 5316,
      "aba</w>": 5317,
      "bn": 5318,
      "bùng</w>": 5319,
      "bia</w>": 5320,
      "bốn</w>": 5321,
      "bỉm</w>": 5322,
      "cậy</w>": 5323,
      "dy</w>": 5324,
      "dọc</w>": 5325,
      "dựa</w>": 5326,
      "gặm</w>": 5327,
      "games</w>": 5328,
      "hủ</w>": 5329,
      "kieu</w>": 5330,
      "ly": 5331,
      "lăm</w>": 5332,
      "lộc</w>": 5333,
      "mười</w>": 5334,
      "mòn</w>": 5335,
      "mall</w>": 5336,
      "ny": 5337,
      "nêu</w>": 5338,
      "nchung</w>": 5339,
      "ncl</w>": 5340,
      "nệm</w>": 5341,
      "pg</w>": 5342,
      "qk": 5343,
      "rì</w>": 5344,
      "rước</w>": 5345,
      "sạn</w>": 5346,
      "tụ</w>": 5347,
      "tanh</w>": 5348,
      "tấn</w>": 5349,
      "vờ</w>": 5350,
      "vã</w>": 5351,
      "vón</w>": 5352,
      "wat": 5353,
      "xạ</w>": 5354,
      "xôi</w>": 5355,
      "xiên</w>": 5356,
      "xac</w>": 5357,
      "Âu</w>": 5358,
      "ÔN</w>": 5359,
      "ÙNG</w>": 5360,
      "ùg</w>": 5361,
      "Đa</w>": 5362,
      "đòn</w>": 5363,
      "ẢI</w>": 5364,
      "ẨM</w>": 5365,
      "ằg</w>": 5366,
      "ẸP</w>": 5367,
      "ếch</w>": 5368,
      "ỏm</w>": 5369,
      "ừi</w>": 5370,
      "thọ</w>": 5371,
      "thê</w>": 5372,
      "thách</w>": 5373,
      "thúi</w>": 5374,
      "chao</w>": 5375,
      "chinh</w>": 5376,
      "chac</w>": 5377,
      "nhồi</w>": 5378,
      "nhợt</w>": 5379,
      "ngôi</w>": 5380,
      "ngửa</w>": 5381,
      "gián</w>": 5382,
      "trúc</w>": 5383,
      "trùm</w>": 5384,
      "phái</w>": 5385,
      "phẳng</w>": 5386,
      "tốt": 5387,
      "Chống</w>": 5388,
      "Chọn</w>": 5389,
      "Chiếc</w>": 5390,
      "nghen</w>": 5391,
      "Thân</w>": 5392,
      "Thảm</w>": 5393,
      "Thuy</w>": 5394,
      "Khó</w>": 5395,
      "all": 5396,
      "ali</w>": 5397,
      "okay</w>": 5398,
      "ghe</w>": 5399,
      "hack</w>": 5400,
      "diêng</w>": 5401,
      "liêm</w>": 5402,
      "cuoc</w>": 5403,
      "dhdj": 5404,
      "delay</w>": 5405,
      "yyyy</w>": 5406,
      "xoy": 5407,
      "soan</w>": 5408,
      "hahaa</w>": 5409,
      "data</w>": 5410,
      "eje": 5411,
      "NHƯ</w>": 5412,
      "ver": 5413,
      "very</w>": 5414,
      "bar</w>": 5415,
      "Redmi</w>": 5416,
      "svsv": 5417,
      "rjrj": 5418,
      "xnxnxnxn": 5419,
      "smsmsmsm": 5420,
      "sbsbsb": 5421,
      "oooooooo": 5422,
      "pppppppppppppppppppppppppppppppp": 5423,
      "CAO</w>": 5424,
      "Khoảng</w>": 5425,
      "roup</w>": 5426,
      "Full</w>": 5427,
      "Cmt</w>": 5428,
      "CỦA</w>": 5429,
      "Bắn</w>": 5430,
      "Bếp</w>": 5431,
      "BẠN</w>": 5432,
      "Cai</w>": 5433,
      "Cơm</w>": 5434,
      "Cắm</w>": 5435,
      "Dành</w>": 5436,
      "DỤNG</w>": 5437,
      "EM</w>": 5438,
      "Hướng</w>": 5439,
      "Kỳ</w>": 5440,
      "Kiệt</w>": 5441,
      "Keo</w>": 5442,
      "Miền</w>": 5443,
      "Noi</w>": 5444,
      "Ncl</w>": 5445,
      "NÊN</w>": 5446,
      "Po": 5447,
      "Rong</w>": 5448,
      "Sắp</w>": 5449,
      "Sếp</w>": 5450,
      "Tiếng</w>": 5451,
      "Túm</w>": 5452,
      "as</w>": 5453,
      "aha": 5454,
      "bc": 5455,
      "bg": 5456,
      "by</w>": 5457,
      "băn</w>": 5458,
      "bèo</w>": 5459,
      "bão</w>": 5460,
      "cương</w>": 5461,
      "cọc</w>": 5462,
      "dg</w>": 5463,
      "dồi</w>": 5464,
      "ev": 5465,
      "fe": 5466,
      "fou": 5467,
      "gđ</w>": 5468,
      "gam</w>": 5469,
      "hiếm</w>": 5470,
      "hùm</w>": 5471,
      "ipad</w>": 5472,
      "kp</w>": 5473,
      "lz</w>": 5474,
      "mí</w>": 5475,
      "miết</w>": 5476,
      "nang</w>": 5477,
      "nta</w>": 5478,
      "núp</w>": 5479,
      "nap</w>": 5480,
      "nịnh</w>": 5481,
      "pa</w>": 5482,
      "pải</w>": 5483,
      "pan": 5484,
      "rỡ</w>": 5485,
      "tã</w>": 5486,
      "tua</w>": 5487,
      "tẹo</w>": 5488,
      "tỏa</w>": 5489,
      "vm": 5490,
      "vk</w>": 5491,
      "wn</w>": 5492,
      "wif": 5493,
      "whe": 5494,
      "xà</w>": 5495,
      "yd</w>": 5496,
      "yen</w>": 5497,
      "yle</w>": 5498,
      "ÀI</w>": 5499,
      "ÂY</w>": 5500,
      "ÔI</w>": 5501,
      "õng</w>": 5502,
      "ýp</w>": 5503,
      "ĂNG</w>": 5504,
      "ĐI</w>": 5505,
      "ĐẸP</w>": 5506,
      "đi": 5507,
      "đù</w>": 5508,
      "đạn</w>": 5509,
      "đính</w>": 5510,
      "ơii</w>": 5511,
      "ẤY</w>": 5512,
      "ẦU</w>": 5513,
      "ựu</w>": 5514,
      "thiểu</w>": 5515,
      "chủng</w>": 5516,
      "chât</w>": 5517,
      "nhã</w>": 5518,
      "nhat</w>": 5519,
      "nhịp</w>": 5520,
      "nhaaaaa</w>": 5521,
      "ngs</w>": 5522,
      "ngựa</w>": 5523,
      "ngẫu</w>": 5524,
      "giời</w>": 5525,
      "giam</w>": 5526,
      "tre</w>": 5527,
      "tren</w>": 5528,
      "trồng</w>": 5529,
      "phà</w>": 5530,
      "phước</w>": 5531,
      "phét</w>": 5532,
      "phuc</w>": 5533,
      "hoạch</w>": 5534,
      "Thẻ</w>": 5535,
      "kkk": 5536,
      "Nhin</w>": 5537,
      "Giọng</w>": 5538,
      "Trả</w>": 5539,
      "hih": 5540,
      "sjdj": 5541,
      "chuc</w>": 5542,
      "anti</w>": 5543,
      "dit</w>": 5544,
      "dndb": 5545,
      "snj": 5546,
      "snsb": 5547,
      "aaaaaaa</w>": 5548,
      "thuần</w>": 5549,
      "copy</w>": 5550,
      "Hoan</w>": 5551,
      "inbox</w>": 5552,
      "cacao</w>": 5553,
      "del</w>": 5554,
      "ttttttttt</w>": 5555,
      "tttttttttttttt": 5556,
      "uuuuu</w>": 5557,
      "ail</w>": 5558,
      "soft</w>": 5559,
      "ckck": 5560,
      "ntnt": 5561,
      "đun</w>": 5562,
      "Huhu</w>": 5563,
      "nos</w>": 5564,
      "Micro": 5565,
      "vkvk": 5566,
      "znzn": 5567,
      "fbfb": 5568,
      "hjhj</w>": 5569,
      "per": 5570,
      "Case</w>": 5571,
      "MINH</w>": 5572,
      "Ghê</w>": 5573,
      "avt</w>": 5574,
      "atm</w>": 5575,
      "macro</w>": 5576,
      "press</w>": 5577,
      "AR": 5578,
      "BL</w>": 5579,
      "Bá</w>": 5580,
      "Bui</w>": 5581,
      "Bảng</w>": 5582,
      "Cay</w>": 5583,
      "Cưng</w>": 5584,
      "Của</w>": 5585,
      "Dạ</w>": 5586,
      "DA</w>": 5587,
      "Dự</w>": 5588,
      "Dao</w>": 5589,
      "DÂN</w>": 5590,
      "Fi</w>": 5591,
      "Gb</w>": 5592,
      "In</w>": 5593,
      "Kẹp</w>": 5594,
      "Me</w>": 5595,
      "Mã</w>": 5596,
      "Mau</w>": 5597,
      "Nấu</w>": 5598,
      "NAM</w>": 5599,
      "Page</w>": 5600,
      "Tắt</w>": 5601,
      "Tuyết</w>": 5602,
      "Tìm</w>": 5603,
      "Tấc</w>": 5604,
      "Ui</w>": 5605,
      "VỀ</w>": 5606,
      "Vài</w>": 5607,
      "VỚI</w>": 5608,
      "bợ</w>": 5609,
      "bsi": 5610,
      "bank</w>": 5611,
      "bậc</w>": 5612,
      "cđ</w>": 5613,
      "cnn": 5614,
      "cối</w>": 5615,
      "cat</w>": 5616,
      "cuốc</w>": 5617,
      "dua</w>": 5618,
      "dời</w>": 5619,
      "dựt</w>": 5620,
      "fifif": 5621,
      "gz": 5622,
      "gon</w>": 5623,
      "gục</w>": 5624,
      "hì</w>": 5625,
      "hen</w>": 5626,
      "hùa</w>": 5627,
      "jd": 5628,
      "jf": 5629,
      "kiệt</w>": 5630,
      "kẻo</w>": 5631,
      "lq": 5632,
      "lính</w>": 5633,
      "lách</w>": 5634,
      "lsa</w>": 5635,
      "mh": 5636,
      "mè</w>": 5637,
      "mỳ</w>": 5638,
      "min</w>": 5639,
      "mịa</w>": 5640,
      "nx": 5641,
      "nà": 5642,
      "nữ": 5643,
      "nôn</w>": 5644,
      "nít</w>": 5645,
      "op</w>": 5646,
      "ox</w>": 5647,
      "rượt</w>": 5648,
      "rành</w>": 5649,
      "sàng</w>": 5650,
      "sanh</w>": 5651,
      "sua</w>": 5652,
      "sal": 5653,
      "td": 5654,
      "tá</w>": 5655,
      "tch</w>": 5656,
      "ton</w>": 5657,
      "tnam</w>": 5658,
      "uh</w>": 5659,
      "vx": 5660,
      "vĩnh</w>": 5661,
      "wm": 5662,
      "xx</w>": 5663,
      "xé</w>": 5664,
      "xao</w>": 5665,
      "xăm</w>": 5666,
      "yd": 5667,
      "yu": 5668,
      "zy": 5669,
      "ÍNH</w>": 5670,
      "ÓI</w>": 5671,
      "ăt</w>": 5672,
      "Đất</w>": 5673,
      "đệ</w>": 5674,
      "đỉ</w>": 5675,
      "đanh</w>": 5676,
      "đậy</w>": 5677,
      "ƯỜ": 5678,
      "ƯA</w>": 5679,
      "ưiii</w>": 5680,
      "ỄN</w>": 5681,
      "ỘI</w>": 5682,
      "ỤC</w>": 5683,
      "ửng</w>": 5684,
      "thò</w>": 5685,
      "thổi</w>": 5686,
      "chớt</w>": 5687,
      "chèn</w>": 5688,
      "chốn</w>": 5689,
      "chiêu</w>": 5690,
      "china</w>": 5691,
      "nha": 5692,
      "nhôm</w>": 5693,
      "khi": 5694,
      "nguyen</w>": 5695,
      "trật</w>": 5696,
      "phồng</w>": 5697,
      "hoho": 5698,
      "hoac</w>": 5699,
      "Chia</w>": 5700,
      "Thề</w>": 5701,
      "Thuyết</w>": 5702,
      "Nhu</w>": 5703,
      "tutu</w>": 5704,
      "loai</w>": 5705,
      "Trâm</w>": 5706,
      "Trưởng</w>": 5707,
      "hix</w>": 5708,
      "Khanh</w>": 5709,
      "viêm</w>": 5710,
      "Phòng</w>": 5711,
      "ngoc</w>": 5712,
      "Quà</w>": 5713,
      "khoang</w>": 5714,
      "khoăn</w>": 5715,
      "sjsb": 5716,
      "hat</w>": 5717,
      "chuoi</w>": 5718,
      "ana</w>": 5719,
      "reac": 5720,
      "tivi</w>": 5721,
      "lin": 5722,
      "dndnn": 5723,
      "ony</w>": 5724,
      "cuồng</w>": 5725,
      "cuộn</w>": 5726,
      "aaaaaaaa</w>": 5727,
      "hhhhh</w>": 5728,
      "gdd</w>": 5729,
      "cach</w>": 5730,
      "tttttttttt</w>": 5731,
      "fup": 5732,
      "Love</w>": 5733,
      "hahahaha</w>": 5734,
      "mosa</w>": 5735,
      "sml</w>": 5736,
      "mera</w>": 5737,
      "dbdbb": 5738,
      "NHẬN</w>": 5739,
      "shopp": 5740,
      "nilong</w>": 5741,
      "ark</w>": 5742,
      "PHẨM</w>": 5743,
      "sgsg": 5744,
      "Realme</w>": 5745,
      "xynos</w>": 5746,
      "virut</w>": 5747,
      "Cafe</w>": 5748,
      "IỆN</w>": 5749,
      "Max</w>": 5750,
      "Luật</w>": 5751,
      "nhoè</w>": 5752,
      "Dell</w>": 5753,
      "Phuong</w>": 5754,
      "LED</w>": 5755,
      "Bất</w>": 5756,
      "Bông</w>": 5757,
      "Bin</w>": 5758,
      "Bớt</w>": 5759,
      "Bởi</w>": 5760,
      "Cu</w>": 5761,
      "Cục</w>": 5762,
      "Clip</w>": 5763,
      "CÔNG</w>": 5764,
      "HK</w>": 5765,
      "Hãng</w>": 5766,
      "Ki</w>": 5767,
      "KO</w>": 5768,
      "Lỡ</w>": 5769,
      "MH</w>": 5770,
      "MB</w>": 5771,
      "Mng</w>": 5772,
      "Miệng</w>": 5773,
      "Nào</w>": 5774,
      "Nóng</w>": 5775,
      "SCA": 5776,
      "Tr</w>": 5777,
      "Tệ</w>": 5778,
      "Tinh</w>": 5779,
      "Tiếp</w>": 5780,
      "Vin</w>": 5781,
      "Voucher</w>": 5782,
      "VIỆT</w>": 5783,
      "Yo": 5784,
      "ann": 5785,
      "bl": 5786,
      "br": 5787,
      "bọ</w>": 5788,
      "bưng</w>": 5789,
      "bết</w>": 5790,
      "biên</w>": 5791,
      "bdj": 5792,
      "bỏng</w>": 5793,
      "bla</w>": 5794,
      "bảy</w>": 5795,
      "cp": 5796,
      "cào</w>": 5797,
      "cúng</w>": 5798,
      "can": 5799,
      "dou": 5800,
      "dcm</w>": 5801,
      "ghh": 5802,
      "gắm</w>": 5803,
      "grab</w>": 5804,
      "hố</w>": 5805,
      "hán</w>": 5806,
      "hnay</w>": 5807,
      "hdh": 5808,
      "hệt</w>": 5809,
      "il": 5810,
      "kèo</w>": 5811,
      "kakak": 5812,
      "ln</w>": 5813,
      "lượ": 5814,
      "liều</w>": 5815,
      "lầu</w>": 5816,
      "lìn</w>": 5817,
      "lủng</w>": 5818,
      "lla": 5819,
      "lệnh</w>": 5820,
      "lúa</w>": 5821,
      "liềm</w>": 5822,
      "lùn</w>": 5823,
      "mv</w>": 5824,
      "mị</w>": 5825,
      "mon</w>": 5826,
      "nch</w>": 5827,
      "offi": 5828,
      "okkkkkkk</w>": 5829,
      "pac": 5830,
      "ru</w>": 5831,
      "rỏ</w>": 5832,
      "rồng</w>": 5833,
      "rãnh</w>": 5834,
      "sam": 5835,
      "sdt</w>": 5836,
      "tb": 5837,
      "td</w>": 5838,
      "tè</w>": 5839,
      "tơi</w>": 5840,
      "tỏi</w>": 5841,
      "tậu</w>": 5842,
      "un</w>": 5843,
      "use</w>": 5844,
      "vđ</w>": 5845,
      "vênh</w>": 5846,
      "xá</w>": 5847,
      "xỏ</w>": 5848,
      "xlh": 5849,
      "zo": 5850,
      "za</w>": 5851,
      "zay</w>": 5852,
      "zbb": 5853,
      "zing</w>": 5854,
      "ÀNH</w>": 5855,
      "ĐH</w>": 5856,
      "ĐÃ</w>": 5857,
      "Đỉnh</w>": 5858,
      "Đèn</w>": 5859,
      "đx</w>": 5860,
      "ươn</w>": 5861,
      "ệp</w>": 5862,
      "ỌI</w>": 5863,
      "ỐNG</w>": 5864,
      "ỔI</w>": 5865,
      "ợm</w>": 5866,
      "ỰC</w>": 5867,
      "thí": 5868,
      "thô": 5869,
      "thong</w>": 5870,
      "thính</w>": 5871,
      "thủng</w>": 5872,
      "thép</w>": 5873,
      "thuyền</w>": 5874,
      "thiet</w>": 5875,
      "thỏa</w>": 5876,
      "chk": 5877,
      "chợt</w>": 5878,
      "nhỡ</w>": 5879,
      "nhàm</w>": 5880,
      "nhánh</w>": 5881,
      "khiếu</w>": 5882,
      "ngơ</w>": 5883,
      "ngỡ</w>": 5884,
      "gir": 5885,
      "giành</w>": 5886,
      "giấu</w>": 5887,
      "giáp</w>": 5888,
      "gitech</w>": 5889,
      "trá</w>": 5890,
      "trặc</w>": 5891,
      "trym</w>": 5892,
      "phò</w>": 5893,
      "pháo</w>": 5894,
      "phẫu</w>": 5895,
      "quãng</w>": 5896,
      "cáu</w>": 5897,
      "hoy</w>": 5898,
      "iềng</w>": 5899,
      "Chui</w>": 5900,
      "ama</w>": 5901,
      "ướm</w>": 5902,
      "Nhẹ</w>": 5903,
      "Nhựa</w>": 5904,
      "tuýp</w>": 5905,
      "Ngủ</w>": 5906,
      "Ngay</w>": 5907,
      "Trâu</w>": 5908,
      "Triệu</w>": 5909,
      "Khang</w>": 5910,
      "Khác</w>": 5911,
      "Phân</w>": 5912,
      "okk</w>": 5913,
      "land</w>": 5914,
      "sjb": 5915,
      "sjs": 5916,
      "tia</w>": 5917,
      "tiêm</w>": 5918,
      "tieng</w>": 5919,
      "dit": 5920,
      "mag</w>": 5921,
      "sns</w>": 5922,
      "snapdragon</w>": 5923,
      "nnnnnn</w>": 5924,
      "sena</w>": 5925,
      "dksk": 5926,
      "tes</w>": 5927,
      "dudu": 5928,
      "fjf": 5929,
      "djdjj": 5930,
      "cal</w>": 5931,
      "THU": 5932,
      "THÌ</w>": 5933,
      "CHI": 5934,
      "film</w>": 5935,
      "iiiiiiiii</w>": 5936,
      "pupg</w>": 5937,
      "rry</w>": 5938,
      "mes</w>": 5939,
      "snsnsnsn": 5940,
      "nova</w>": 5941,
      "this</w>": 5942,
      "Top</w>": 5943,
      "Miễn</w>": 5944,
      "kiem</w>": 5945,
      "ciy": 5946,
      "stt</w>": 5947,
      "ster</w>": 5948,
      "style</w>": 5949,
      "Thuỷ</w>": 5950,
      "tttttttttttttttttttttttt</w>": 5951,
      "QUÁ</w>": 5952,
      "QUỐC</w>": 5953,
      "cbcb": 5954,
      "yyyyttttttttt</w>": 5955,
      "foy": 5956,
      "skksksk": 5957,
      "ooooo</w>": 5958,
      "haiz</w>": 5959,
      "hhhhhhhhhhhhhhhhhhhhhhhhhhhhhhhh": 5960,
      "vvvvvvvv": 5961,
      "wwwwwwwwwwwwwwww": 5962,
      "tikinow</w>": 5963,
      "rrrrrrrrrrrrrrrr": 5964,
      "CÁC</w>": 5965,
      "RAB</w>": 5966,
      "watch</w>": 5967,
      "ttttttttttttttyyyyttttttttt</w>": 5968,
      "Microsoft</w>": 5969,
      "SCARAB</w>": 5970,
      "AN": 5971,
      "Ac": 5972,
      "Ar": 5973,
      "AC</w>": 5974,
      "Bả</w>": 5975,
      "Bước</w>": 5976,
      "Bọc</w>": 5977,
      "Báo</w>": 5978,
      "Diện</w>": 5979,
      "Diệp</w>": 5980,
      "EL": 5981,
      "Gà</w>": 5982,
      "Gọn</w>": 5983,
      "Galaxy</w>": 5984,
      "Hhhhhhhhhh</w>": 5985,
      "Jo": 5986,
      "KC</w>": 5987,
      "Kể</w>": 5988,
      "Kkk</w>": 5989,
      "Lo</w>": 5990,
      "LE</w>": 5991,
      "Lòng</w>": 5992,
      "ME": 5993,
      "Na</w>": 5994,
      "No</w>": 5995,
      "Nản</w>": 5996,
      "NAY</w>": 5997,
      "Ong</w>": 5998,
      "Offi": 5999,
      "OPP": 6000,
      "PC</w>": 6001,
      "Plus</w>": 6002,
      "Sh": 6003,
      "Tới</w>": 6004,
      "Tiết</w>": 6005,
      "Tgdd</w>": 6006,
      "Vs</w>": 6007,
      "Vợ</w>": 6008,
      "Vàng</w>": 6009,
      "Viết</w>": 6010,
      "XH</w>": 6011,
      "aok": 6012,
      "ada</w>": 6013,
      "ass": 6014,
      "bj</w>": 6015,
      "bưu</w>": 6016,
      "bén</w>": 6017,
      "câ": 6018,
      "cò</w>": 6019,
      "cã</w>": 6020,
      "côn</w>": 6021,
      "cóc</w>": 6022,
      "cạch</w>": 6023,
      "dội</w>": 6024,
      "fan": 6025,
      "fal</w>": 6026,
      "gm": 6027,
      "gn": 6028,
      "gv": 6029,
      "gập</w>": 6030,
      "gjj": 6031,
      "gót</w>": 6032,
      "hv": 6033,
      "hc</w>": 6034,
      "hem</w>": 6035,
      "hột</w>": 6036,
      "hcm</w>": 6037,
      "ib": 6038,
      "jk": 6039,
      "jo</w>": 6040,
      "kd": 6041,
      "lố</w>": 6042,
      "lin</w>": 6043,
      "ler</w>": 6044,
      "lều</w>": 6045,
      "lứa</w>": 6046,
      "lún</w>": 6047,
      "llow</w>": 6048,
      "mn": 6049,
      "mé</w>": 6050,
      "mầm</w>": 6051,
      "mìn</w>": 6052,
      "mộc</w>": 6053,
      "múi</w>": 6054,
      "mắng</w>": 6055,
      "mệnh</w>": 6056,
      "nong</w>": 6057,
      "nan</w>": 6058,
      "ndk": 6059,
      "neu</w>": 6060,
      "nấc</w>": 6061,
      "pr</w>": 6062,
      "rổ</w>": 6063,
      "rỉ</w>": 6064,
      "rắc</w>": 6065,
      "rjj": 6066,
      "sỹ</w>": 6067,
      "ssk": 6068,
      "sta": 6069,
      "tự": 6070,
      "tản</w>": 6071,
      "tiệt</w>": 6072,
      "tăn</w>": 6073,
      "tal": 6074,
      "tiệc</w>": 6075,
      "tẹt</w>": 6076,
      "ur": 6077,
      "vf": 6078,
      "vin</w>": 6079,
      "vcc</w>": 6080,
      "vía</w>": 6081,
      "wv": 6082,
      "woo": 6083,
      "xj</w>": 6084,
      "xau</w>": 6085,
      "xgj": 6086,
      "ÀY</w>": 6087,
      "ÂU</w>": 6088,
      "ÒNG</w>": 6089,
      "ÚC</w>": 6090,
      "ĂN</w>": 6091,
      "Đời</w>": 6092,
      "Đài</w>": 6093,
      "Đau</w>": 6094,
      "Đưa</w>": 6095,
      "Đập</w>": 6096,
      "Đựng</w>": 6097,
      "đe</w>": 6098,
      "đua</w>": 6099,
      "đong</w>": 6100,
      "điệp</w>": 6101,
      "đắp</w>": 6102,
      "điêu</w>": 6103,
      "đúg</w>": 6104,
      "ẢO</w>": 6105,
      "Ấn</w>": 6106,
      "ọa</w>": 6107,
      "ỐT</w>": 6108,
      "ỒI</w>": 6109,
      "ớc</w>": 6110,
      "ụa</w>": 6111,
      "ủn</w>": 6112,
      "thág</w>": 6113,
      "chì</w>": 6114,
      "chau</w>": 6115,
      "chìa</w>": 6116,
      "chênh</w>": 6117,
      "chưởi</w>": 6118,
      "nhẽ</w>": 6119,
      "nhấp</w>": 6120,
      "ngô</w>": 6121,
      "ngó</w>": 6122,
      "nggggg": 6123,
      "giơ</w>": 6124,
      "triều</w>": 6125,
      "trăng</w>": 6126,
      "trội</w>": 6127,
      "phe</w>": 6128,
      "phế</w>": 6129,
      "Chuyển</w>": 6130,
      "amo": 6131,
      "Già</w>": 6132,
      "Giặt</w>": 6133,
      "Giúp</w>": 6134,
      "Tri</w>": 6135,
      "Troi</w>": 6136,
      "tttt</w>": 6137,
      "nnis": 6138,
      "sic</w>": 6139,
      "amer</w>": 6140,
      "thoả</w>": 6141,
      "hiu</w>": 6142,
      "hihihi</w>": 6143,
      "toả</w>": 6144,
      "tobe</w>": 6145,
      "tone</w>": 6146,
      "viu</w>": 6147,
      "ali": 6148,
      "okee</w>": 6149,
      "sjk": 6150,
      "hahh": 6151,
      "reen</w>": 6152,
      "licon</w>": 6153,
      "dnj": 6154,
      "sky</w>": 6155,
      "snb": 6156,
      "iiiiiiii</w>": 6157,
      "aaaaaa</w>": 6158,
      "ppppp</w>": 6159,
      "ser": 6160,
      "cover</w>": 6161,
      "dky": 6162,
      "mie</w>": 6163,
      "eno</w>": 6164,
      "duty</w>": 6165,
      "nhiễu</w>": 6166,
      "doc</w>": 6167,
      "ris</w>": 6168,
      "suc</w>": 6169,
      "wep</w>": 6170,
      "THI": 6171,
      "THÔNG</w>": 6172,
      "CHỈ</w>": 6173,
      "mmmmm</w>": 6174,
      "NHÀ</w>": 6175,
      "TRUNG</w>": 6176,
      "baba": 6177,
      "cici": 6178,
      "pod</w>": 6179,
      "pop</w>": 6180,
      "Remote</w>": 6181,
      "Nghỉ</w>": 6182,
      "Hic</w>": 6183,
      "Mobile</w>": 6184,
      "kkkkkkkkkkkkkkkkkkkkkkkkkkkkkkkkkkkkkkkkkkkkkkkkkkkkkkkkkkkkkkkk": 6185,
      "eueu": 6186,
      "Diễm</w>": 6187,
      "fast</w>": 6188,
      "nnnnnnnnnnnnnnnnnnnnnnnnnnnnnnnnnnnnnnnnnnnnnnnnnnnnnnnnnnnnnnnn": 6189,
      "Minn</w>": 6190,
      "blabla": 6191,
      "pass</w>": 6192,
      "Form</w>": 6193,
      "Soạn</w>": 6194,
      "pqpq": 6195,
      "prime</w>": 6196,
      "driver</w>": 6197,
      "Corona</w>": 6198,
      "donate</w>": 6199,
      "ƯỜNG</w>": 6200,
      "girl</w>": 6201,
      "tựNội</w>": 6202,
      "nnisfree</w>": 6203,
      "Ai": 6204,
      "AT</w>": 6205,
      "BH</w>": 6206,
      "Bật</w>": 6207,
      "Bấm</w>": 6208,
      "CẢ</w>": 6209,
      "Cương</w>": 6210,
      "Da": 6211,
      "Eo</w>": 6212,
      "EU</w>": 6213,
      "FC</w>": 6214,
      "Gaming</w>": 6215,
      "GBT</w>": 6216,
      "Hành</w>": 6217,
      "Hiểu</w>": 6218,
      "Hỏi</w>": 6219,
      "Hội</w>": 6220,
      "HSD</w>": 6221,
      "ICM</w>": 6222,
      "JBL</w>": 6223,
      "Khoá</w>": 6224,
      "Khong</w>": 6225,
      "La</w>": 6226,
      "Lai</w>": 6227,
      "Lượng</w>": 6228,
      "LÊN</w>": 6229,
      "LẠI</w>": 6230,
      "LGBT</w>": 6231,
      "MẠ": 6232,
      "Ms</w>": 6233,
      "Mì</w>": 6234,
      "Mô</w>": 6235,
      "MÀ</w>": 6236,
      "Ni": 6237,
      "Nạp</w>": 6238,
      "PU</w>": 6239,
      "Quyền</w>": 6240,
      "RA</w>": 6241,
      "Rõ</w>": 6242,
      "SB": 6243,
      "SX</w>": 6244,
      "Sờ</w>": 6245,
      "Soan</w>": 6246,
      "Tp</w>": 6247,
      "Tác</w>": 6248,
      "Tuyền</w>": 6249,
      "Tín</w>": 6250,
      "TẠI</w>": 6251,
      "Vo</w>": 6252,
      "VOS</w>": 6253,
      "Xàm</w>": 6254,
      "bf": 6255,
      "bỉ</w>": 6256,
      "bần</w>": 6257,
      "band</w>": 6258,
      "cớ</w>": 6259,
      "cúc</w>": 6260,
      "cốt</w>": 6261,
      "csg": 6262,
      "cừi</w>": 6263,
      "dh</w>": 6264,
      "don</w>": 6265,
      "dược</w>": 6266,
      "dàn</w>": 6267,
      "ddj": 6268,
      "dùg</w>": 6269,
      "eb</w>": 6270,
      "ejj": 6271,
      "exynos</w>": 6272,
      "fa</w>": 6273,
      "fif": 6274,
      "gr</w>": 6275,
      "ge</w>": 6276,
      "gờ</w>": 6277,
      "gài</w>": 6278,
      "gác</w>": 6279,
      "gầy</w>": 6280,
      "ghim</w>": 6281,
      "hg</w>": 6282,
      "hp</w>": 6283,
      "hưng</w>": 6284,
      "hung</w>": 6285,
      "hây</w>": 6286,
      "hơm</w>": 6287,
      "hjj": 6288,
      "hỏa</w>": 6289,
      "iOS</w>": 6290,
      "jb": 6291,
      "kiu</w>": 6292,
      "kara": 6293,
      "lơ</w>": 6294,
      "lanh</w>": 6295,
      "lạm</w>": 6296,
      "lấp</w>": 6297,
      "lém</w>": 6298,
      "mói</w>": 6299,
      "mộng</w>": 6300,
      "miến</w>": 6301,
      "man": 6302,
      "nng</w>": 6303,
      "nách</w>": 6304,
      "okkkkkkkkkkkkkkkk": 6305,
      "off": 6306,
      "pas": 6307,
      "rần</w>": 6308,
      "rủa</w>": 6309,
      "room</w>": 6310,
      "sì</w>": 6311,
      "sọ</w>": 6312,
      "sàm</w>": 6313,
      "sét</w>": 6314,
      "smm": 6315,
      "sgj": 6316,
      "sfh": 6317,
      "tạ</w>": 6318,
      "tdj": 6319,
      "tám</w>": 6320,
      "tép</w>": 6321,
      "tòa</w>": 6322,
      "ultra</w>": 6323,
      "vê</w>": 6324,
      "vơ</w>": 6325,
      "vấp</w>": 6326,
      "vắng</w>": 6327,
      "vườn</w>": 6328,
      "wa": 6329,
      "wt": 6330,
      "wá</w>": 6331,
      "wkk": 6332,
      "xù</w>": 6333,
      "xông</w>": 6334,
      "xyo": 6335,
      "xgk": 6336,
      "ys</w>": 6337,
      "ze": 6338,
      "zị</w>": 6339,
      "Ít</w>": 6340,
      "àk</w>": 6341,
      "Đấy</w>": 6342,
      "Đêm</w>": 6343,
      "Đối</w>": 6344,
      "đờ</w>": 6345,
      "đao</w>": 6346,
      "đỗi</w>": 6347,
      "đực</w>": 6348,
      "đớp</w>": 6349,
      "đũa</w>": 6350,
      "ưn</w>": 6351,
      "ưng": 6352,
      "ưiiii</w>": 6353,
      "ẶNG</w>": 6354,
      "ọe</w>": 6355,
      "ừg</w>": 6356,
      "ỮA</w>": 6357,
      "tho</w>": 6358,
      "thí</w>": 6359,
      "thầm</w>": 6360,
      "thầu</w>": 6361,
      "chước</w>": 6362,
      "cháo</w>": 6363,
      "chìm</w>": 6364,
      "nhé": 6365,
      "nhay</w>": 6366,
      "nhốt</w>": 6367,
      "nhắm</w>": 6368,
      "nhẽo</w>": 6369,
      "ngõ</w>": 6370,
      "ngây</w>": 6371,
      "ngạc</w>": 6372,
      "ngườ": 6373,
      "ngậm</w>": 6374,
      "ging</w>": 6375,
      "tra": 6376,
      "pho": 6377,
      "phanh</w>": 6378,
      "quật</w>": 6379,
      "quoc</w>": 6380,
      "tống</w>": 6381,
      "Chốt</w>": 6382,
      "Cháu</w>": 6383,
      "Thơ</w>": 6384,
      "Thà</w>": 6385,
      "Thao</w>": 6386,
      "Trẻ</w>": 6387,
      "Trí</w>": 6388,
      "Tranh</w>": 6389,
      "Truyện</w>": 6390,
      "iififif": 6391,
      "ttt</w>": 6392,
      "hhe": 6393,
      "toc</w>": 6394,
      "toẹt</w>": 6395,
      "Phản</w>": 6396,
      "Phật</w>": 6397,
      "ghen</w>": 6398,
      "khoảnh</w>": 6399,
      "but</w>": 6400,
      "recomm": 6401,
      "tis</w>": 6402,
      "tiger</w>": 6403,
      "diem</w>": 6404,
      "mmmm</w>": 6405,
      "ont</w>": 6406,
      "cuo": 6407,
      "shion</w>": 6408,
      "come</w>": 6409,
      "dkm</w>": 6410,
      "ens</w>": 6411,
      "duong</w>": 6412,
      "internet</w>": 6413,
      "quyên</w>": 6414,
      "akakk": 6415,
      "bot</w>": 6416,
      "case</w>": 6417,
      "xnxm": 6418,
      "xiy": 6419,
      "xinh": 6420,
      "THP</w>": 6421,
      "zzzz</w>": 6422,
      "xoh": 6423,
      "vvv</w>": 6424,
      "NHẤT</w>": 6425,
      "dhdhdhdh": 6426,
      "NGAY</w>": 6427,
      "NGUY": 6428,
      "fnfj": 6429,
      "Mik</w>": 6430,
      "Mixi": 6431,
      "cial</w>": 6432,
      "KHI</w>": 6433,
      "llll": 6434,
      "Thuỳ</w>": 6435,
      "Nghèo</w>": 6436,
      "clh": 6437,
      "xbxbxbxb": 6438,
      "TiKi</w>": 6439,
      "Live</w>": 6440,
      "type</w>": 6441,
      "zmzm": 6442,
      "eeeeeeeeeeeeeeeeeeeeeeeeeeeeeeee": 6443,
      "InDo</w>": 6444,
      "CSVN</w>": 6445,
      "CSKH</w>": 6446,
      "cece": 6447,
      "amamamam": 6448,
      "okokokokokok</w>": 6449,
      "okokokokokokokokokokokokokokokok": 6450,
      "cccccccccccccccc": 6451,
      "CÁI</w>": 6452,
      "blue</w>": 6453,
      "dddddddddddddddddddddddddddddddd": 6454,
      "Trump</w>": 6455,
      "screen</w>": 6456,
      "store</w>": 6457,
      "youtobe</w>": 6458,
      "ytb</w>": 6459,
      "okila</w>": 6460,
      "dislike</w>": 6461,
      "reaction</w>": 6462,
      "shoppe</w>": 6463,
      "AE</w>": 6464,
      "Anh": 6465,
      "Add</w>": 6466,
      "BO": 6467,
      "BÁ": 6468,
      "BA</w>": 6469,
      "Binh</w>": 6470,
      "Bảnh</w>": 6471,
      "Củ</w>": 6472,
      "CD</w>": 6473,
      "CC</w>": 6474,
      "Cung</w>": 6475,
      "CEO</w>": 6476,
      "Clear</w>": 6477,
      "DM</w>": 6478,
      "DK</w>": 6479,
      "Dong</w>": 6480,
      "FM</w>": 6481,
      "Free</w>": 6482,
      "Go": 6483,
      "Gì</w>": 6484,
      "GD</w>": 6485,
      "HP</w>": 6486,
      "Hóa</w>": 6487,
      "HÌNH</w>": 6488,
      "It</w>": 6489,
      "IP</w>": 6490,
      "Ju": 6491,
      "Kb</w>": 6492,
      "Kong</w>": 6493,
      "Lau</w>": 6494,
      "Lực</w>": 6495,
      "Lớp</w>": 6496,
      "Lag</w>": 6497,
      "Mắt</w>": 6498,
      "Mỏng</w>": 6499,
      "NO": 6500,
      "Nc</w>": 6501,
      "Nệm</w>": 6502,
      "NÀO</w>": 6503,
      "NÓI</w>": 6504,
      "ON": 6505,
      "Okkkkkkkkkkkkkkkk": 6506,
      "OLED</w>": 6507,
      "Pay</w>": 6508,
      "Pau": 6509,
      "Reno</w>": 6510,
      "SM": 6511,
      "Sp": 6512,
      "Su</w>": 6513,
      "Sư</w>": 6514,
      "Sim</w>": 6515,
      "TG</w>": 6516,
      "TỪ</w>": 6517,
      "Tấm</w>": 6518,
      "Thoi</w>": 6519,
      "TUY": 6520,
      "TẶNG</w>": 6521,
      "Vỏ</w>": 6522,
      "Vụ</w>": 6523,
      "Xo": 6524,
      "Xạo</w>": 6525,
      "bới</w>": 6526,
      "bái</w>": 6527,
      "bựa</w>": 6528,
      "bón</w>": 6529,
      "bệt</w>": 6530,
      "bướm</w>": 6531,
      "cx": 6532,
      "ci</w>": 6533,
      "cưa</w>": 6534,
      "cồng</w>": 6535,
      "cmm": 6536,
      "cúp</w>": 6537,
      "clm</w>": 6538,
      "cúm</w>": 6539,
      "dx</w>": 6540,
      "dỡ</w>": 6541,
      "dĩ</w>": 6542,
      "dạn</w>": 6543,
      "diệu</w>": 6544,
      "dgk": 6545,
      "duyen</w>": 6546,
      "dỏm</w>": 6547,
      "ey</w>": 6548,
      "eie": 6549,
      "ft": 6550,
      "fz": 6551,
      "fkk": 6552,
      "fnn": 6553,
      "fhh": 6554,
      "fpt</w>": 6555,
      "gr": 6556,
      "gn</w>": 6557,
      "gv</w>": 6558,
      "gem</w>": 6559,
      "gìn</w>": 6560,
      "gel</w>": 6561,
      "ht</w>": 6562,
      "hơ</w>": 6563,
      "hắc</w>": 6564,
      "hiệp</w>": 6565,
      "hòm</w>": 6566,
      "ij": 6567,
      "it": 6568,
      "ju": 6569,
      "ja</w>": 6570,
      "jsi": 6571,
      "jaj": 6572,
      "kl": 6573,
      "kong</w>": 6574,
      "kout</w>": 6575,
      "lò": 6576,
      "lè</w>": 6577,
      "lủ</w>": 6578,
      "lùng</w>": 6579,
      "láng</w>": 6580,
      "lôn</w>": 6581,
      "lột</w>": 6582,
      "lường</w>": 6583,
      "lầy</w>": 6584,
      "lấm</w>": 6585,
      "lốc</w>": 6586,
      "luyến</w>": 6587,
      "mg</w>": 6588,
      "mó</w>": 6589,
      "mạc</w>": 6590,
      "mầu</w>": 6591,
      "mui</w>": 6592,
      "mãnh</w>": 6593,
      "mìh</w>": 6594,
      "nề</w>": 6595,
      "nỡ</w>": 6596,
      "nôi</w>": 6597,
      "nưa</w>": 6598,
      "nãy</w>": 6599,
      "px</w>": 6600,
      "pay</w>": 6601,
      "ql": 6602,
      "qc</w>": 6603,
      "rô</w>": 6604,
      "ron</w>": 6605,
      "rùa</w>": 6606,
      "sục</w>": 6607,
      "sụp</w>": 6608,
      "súp</w>": 6609,
      "sứt</w>": 6610,
      "ts": 6611,
      "tz": 6612,
      "tà</w>": 6613,
      "tém</w>": 6614,
      "táp</w>": 6615,
      "tịt</w>": 6616,
      "túm</w>": 6617,
      "vch</w>": 6618,
      "vèo</w>": 6619,
      "vụn</w>": 6620,
      "wy": 6621,
      "xs</w>": 6622,
      "xế</w>": 6623,
      "xmm": 6624,
      "xjj": 6625,
      "yf": 6626,
      "ÁY</w>": 6627,
      "ÁNG</w>": 6628,
      "Óc</w>": 6629,
      "ÓNG</w>": 6630,
      "ÚNG</w>": 6631,
      "ôk</w>": 6632,
      "Đố</w>": 6633,
      "ĐỘ</w>": 6634,
      "Đứng</w>": 6635,
      "Địa</w>": 6636,
      "ĐỔI</w>": 6637,
      "đư": 6638,
      "đên</w>": 6639,
      "đkm</w>": 6640,
      "đớn</w>": 6641,
      "ƯNG</w>": 6642,
      "ẤP</w>": 6643,
      "ỀU</w>": 6644,
      "ỌN</w>": 6645,
      "ốg</w>": 6646,
      "ữi</w>": 6647,
      "thw</w>": 6648,
      "thỏ</w>": 6649,
      "thắt</w>": 6650,
      "thập</w>": 6651,
      "thím</w>": 6652,
      "chéo</w>": 6653,
      "chửa</w>": 6654,
      "chùm</w>": 6655,
      "nhf</w>": 6656,
      "nhích</w>": 6657,
      "nhaaaaaaaa": 6658,
      "khôg</w>": 6659,
      "ngư": 6660,
      "ngất</w>": 6661,
      "ngưng</w>": 6662,
      "ngào</w>": 6663,
      "trẩu</w>": 6664,
      "phảm</w>": 6665,
      "quạo</w>": 6666,
      "quẩy</w>": 6667,
      "Chi": 6668,
      "Chua</w>": 6669,
      "Chau</w>": 6670,
      "Chương</w>": 6671,
      "lui</w>": 6672,
      "luông</w>": 6673,
      "Thùng</w>": 6674,
      "Thường</w>": 6675,
      "Thánh</w>": 6676,
      "tuệ</w>": 6677,
      "Nguyệt</w>": 6678,
      "Ngta</w>": 6679,
      "silicon</w>": 6680,
      "Khung</w>": 6681,
      "Khởi</w>": 6682,
      "Phẩm</w>": 6683,
      "okeeee</w>": 6684,
      "ghj": 6685,
      "sjs</w>": 6686,
      "chuỗi</w>": 6687,
      "ani": 6688,
      "ant</w>": 6689,
      "mak</w>": 6690,
      "main</w>": 6691,
      "ons</w>": 6692,
      "cuc</w>": 6693,
      "dback</w>": 6694,
      "thuc</w>": 6695,
      "thuoc</w>": 6696,
      "coa</w>": 6697,
      "cotton</w>": 6698,
      "dkd</w>": 6699,
      "Hong": 6700,
      "dhdhh": 6701,
      "enen": 6702,
      "ine</w>": 6703,
      "dom</w>": 6704,
      "boy</w>": 6705,
      "body</w>": 6706,
      "sus</w>": 6707,
      "suýt</w>": 6708,
      "rome</w>": 6709,
      "websi": 6710,
      "run</w>": 6711,
      "rum</w>": 6712,
      "head</w>": 6713,
      "xig": 6714,
      "orry</w>": 6715,
      "CHỊ</w>": 6716,
      "dag</w>": 6717,
      "dap</w>": 6718,
      "xbn": 6719,
      "đoan</w>": 6720,
      "dndndn": 6721,
      "medi": 6722,
      "mess": 6723,
      "meback</w>": 6724,
      "muot</w>": 6725,
      "NHÉ</w>": 6726,
      "shopp</w>": 6727,
      "xkxk": 6728,
      "TRONG</w>": 6729,
      "kek": 6730,
      "NGO": 6731,
      "wjwj": 6732,
      "kiêng</w>": 6733,
      "PHẢI</w>": 6734,
      "auth</w>": 6735,
      "TIỀN</w>": 6736,
      "spen</w>": 6737,
      "tttttttttttttttttttttttttt</w>": 6738,
      "QUY": 6739,
      "Nghiệp</w>": 6740,
      "nek</w>": 6741,
      "vuông</w>": 6742,
      "GIA</w>": 6743,
      "HOT</w>": 6744,
      "skksk": 6745,
      "job</w>": 6746,
      "vhvh": 6747,
      "haizzz</w>": 6748,
      "Mobi": 6749,
      "snnsnsn": 6750,
      "bjo</w>": 6751,
      "luônn</w>": 6752,
      "luônnn</w>": 6753,
      "Luận</w>": 6754,
      "USD</w>": 6755,
      "Linda</w>": 6756,
      "dndndndndndndndn": 6757,
      "SAO</w>": 6758,
      "gjgjgjgj": 6759,
      "alalalalalalalal": 6760,
      "Snapdragon</w>": 6761,
      "camara</w>": 6762,
      "hhahaha": 6763,
      "bbbbbbbbbbbbbbbb": 6764,
      "hàg</w>": 6765,
      "Fire</w>": 6766,
      "word</w>": 6767,
      "qqqqqqqq": 6768,
      "vailon</w>": 6769,
      "nyc</w>": 6770,
      "tốtChất</w>": 6771,
      "OPPO</w>": 6772,
      "Shin</w>": 6773,
      "karaoke</w>": 6774,
      "Paula</w>": 6775,
      "AO</w>": 6776,
      "App</w>": 6777,
      "Admin</w>": 6778,
      "Bh</w>": 6779,
      "Bo</w>": 6780,
      "BỊ</w>": 6781,
      "Bắp</w>": 6782,
      "Bún</w>": 6783,
      "CÒ": 6784,
      "Cấp</w>": 6785,
      "DI": 6786,
      "Dc</w>": 6787,
      "DMX</w>": 6788,
      "FF</w>": 6789,
      "Fone</w>": 6790,
      "FPT</w>": 6791,
      "Ghi</w>": 6792,
      "Hạn</w>": 6793,
      "II": 6794,
      "Kg</w>": 6795,
      "Kì</w>": 6796,
      "Kiếm</w>": 6797,
      "LA": 6798,
      "LS</w>": 6799,
      "Lười</w>": 6800,
      "Lạc</w>": 6801,
      "Lừa</w>": 6802,
      "MO": 6803,
      "Mu": 6804,
      "Mao</w>": 6805,
      "Mệt</w>": 6806,
      "Medi": 6807,
      "Nu": 6808,
      "Okkkkkkkkkkkkkkkkkkkkkkkkkkkkkkkk": 6809,
      "PA</w>": 6810,
      "Quyết</w>": 6811,
      "SE</w>": 6812,
      "SHI": 6813,
      "TA</w>": 6814,
      "TS</w>": 6815,
      "TỰ</w>": 6816,
      "Tạo</w>": 6817,
      "Tỉnh</w>": 6818,
      "Tẩy</w>": 6819,
      "TKC</w>": 6820,
      "VÌ</w>": 6821,
      "Vệ</w>": 6822,
      "Van</w>": 6823,
      "Việc</w>": 6824,
      "ae": 6825,
      "alo": 6826,
      "bế</w>": 6827,
      "bam</w>": 6828,
      "bến</w>": 6829,
      "bừa</w>": 6830,
      "ben</w>": 6831,
      "bét</w>": 6832,
      "cư": 6833,
      "cb</w>": 6834,
      "came": 6835,
      "cồn</w>": 6836,
      "cla": 6837,
      "cli": 6838,
      "cbb": 6839,
      "cởi</w>": 6840,
      "clear</w>": 6841,
      "dv</w>": 6842,
      "dũng</w>": 6843,
      "dưa</w>": 6844,
      "dii": 6845,
      "dti": 6846,
      "dle</w>": 6847,
      "dfb": 6848,
      "dặm</w>": 6849,
      "eat</w>": 6850,
      "email</w>": 6851,
      "fd": 6852,
      "ffj": 6853,
      "gào</w>": 6854,
      "group</w>": 6855,
      "hm": 6856,
      "hò</w>": 6857,
      "hé</w>": 6858,
      "hó</w>": 6859,
      "hường</w>": 6860,
      "hóc</w>": 6861,
      "húp</w>": 6862,
      "huống</w>": 6863,
      "idb": 6864,
      "jd</w>": 6865,
      "ksao</w>": 6866,
      "kén</w>": 6867,
      "lj": 6868,
      "lạ": 6869,
      "lh</w>": 6870,
      "lổ</w>": 6871,
      "lày</w>": 6872,
      "lêu</w>": 6873,
      "lấn</w>": 6874,
      "lội</w>": 6875,
      "mk": 6876,
      "mc</w>": 6877,
      "mạ</w>": 6878,
      "mảng</w>": 6879,
      "mon": 6880,
      "men": 6881,
      "mẩu</w>": 6882,
      "mọt</w>": 6883,
      "mẽo</w>": 6884,
      "nd": 6885,
      "nf": 6886,
      "nộ</w>": 6887,
      "nến</w>": 6888,
      "nóc</w>": 6889,
      "nảy</w>": 6890,
      "ow": 6891,
      "oce</w>": 6892,
      "pc</w>": 6893,
      "pm</w>": 6894,
      "po</w>": 6895,
      "pv</w>": 6896,
      "rr</w>": 6897,
      "rv</w>": 6898,
      "rầu</w>": 6899,
      "rỗi</w>": 6900,
      "rieng</w>": 6901,
      "sy</w>": 6902,
      "sữ</w>": 6903,
      "sạo</w>": 6904,
      "sad</w>": 6905,
      "sưu</w>": 6906,
      "srm</w>": 6907,
      "tô": 6908,
      "tàng</w>": 6909,
      "tày</w>": 6910,
      "tme</w>": 6911,
      "tsu": 6912,
      "tym</w>": 6913,
      "usd</w>": 6914,
      "vp</w>": 6915,
      "vại</w>": 6916,
      "vần</w>": 6917,
      "vlon</w>": 6918,
      "way</w>": 6919,
      "xo</w>": 6920,
      "xua</w>": 6921,
      "xẹp</w>": 6922,
      "xưởng</w>": 6923,
      "yết</w>": 6924,
      "zv": 6925,
      "zi</w>": 6926,
      "zời</w>": 6927,
      "zjj": 6928,
      "ÊM</w>": 6929,
      "ÊU</w>": 6930,
      "àg</w>": 6931,
      "êp</w>": 6932,
      "óg</w>": 6933,
      "Đù</w>": 6934,
      "ĐM</w>": 6935,
      "Đai</w>": 6936,
      "Đen</w>": 6937,
      "Đội</w>": 6938,
      "ĐẦU</w>": 6939,
      "đa": 6940,
      "đk": 6941,
      "đn": 6942,
      "đấ": 6943,
      "đn</w>": 6944,
      "đồi</w>": 6945,
      "độn</w>": 6946,
      "đmm</w>": 6947,
      "Ơn</w>": 6948,
      "ẾN</w>": 6949,
      "ỌC</w>": 6950,
      "ởn</w>": 6951,
      "ỡi</w>": 6952,
      "ỮNG</w>": 6953,
      "thự</w>": 6954,
      "thôn</w>": 6955,
      "ther</w>": 6956,
      "thốn</w>": 6957,
      "thìa</w>": 6958,
      "chưng</w>": 6959,
      "chon</w>": 6960,
      "chong</w>": 6961,
      "chải</w>": 6962,
      "chôn</w>": 6963,
      "chịch</w>": 6964,
      "chiu</w>": 6965,
      "chăc</w>": 6966,
      "nhâ": 6967,
      "như": 6968,
      "nhì</w>": 6969,
      "nhổ</w>": 6970,
      "nhó</w>": 6971,
      "nhây</w>": 6972,
      "nham</w>": 6973,
      "nhột</w>": 6974,
      "nhằng</w>": 6975,
      "nhỉnh</w>": 6976,
      "nhằm</w>": 6977,
      "khát</w>": 6978,
      "ngan</w>": 6979,
      "ngục</w>": 6980,
      "ngừng</w>": 6981,
      "ngẫm</w>": 6982,
      "trau</w>": 6983,
      "trích</w>": 6984,
      "trán</w>": 6985,
      "trọc</w>": 6986,
      "phao</w>": 6987,
      "phẫn</w>": 6988,
      "phộng</w>": 6989,
      "phcm</w>": 6990,
      "quát</w>": 6991,
      "hoả</w>": 6992,
      "Chỗ</w>": 6993,
      "luộc</w>": 6994,
      "Thỉnh</w>": 6995,
      "Nhị</w>": 6996,
      "Nhẫn</w>": 6997,
      "tuan</w>": 6998,
      "Ngộ</w>": 6999,
      "lou": 7000,
      "loạt</w>": 7001,
      "Tránh</w>": 7002,
      "Truy</w>": 7003,
      "Trắng</w>": 7004,
      "ttel": 7005,
      "nnn": 7006,
      "tou": 7007,
      "tor</w>": 7008,
      "tottttttttttttttyyyyttttttttt</w>": 7009,
      "Khai</w>": 7010,
      "Khúc</w>": 7011,
      "vin": 7012,
      "vice</w>": 7013,
      "Phí</w>": 7014,
      "Phía</w>": 7015,
      "djk": 7016,
      "djdi": 7017,
      "okla</w>": 7018,
      "Quoc</w>": 7019,
      "sjsi": 7020,
      "chuồng</w>": 7021,
      "antutu</w>": 7022,
      "rea</w>": 7023,
      "diy": 7024,
      "dio</w>": 7025,
      "ona": 7026,
      "cuu</w>": 7027,
      "sns": 7028,
      "sndn": 7029,
      "ood</w>": 7030,
      "ies</w>": 7031,
      "sen": 7032,
      "comeback</w>": 7033,
      "Hot</w>": 7034,
      "Hoà</w>": 7035,
      "Hoặc</w>": 7036,
      "mien</w>": 7037,
      "sbb": 7038,
      "sbh": 7039,
      "ted</w>": 7040,
      "bolsa</w>": 7041,
      "ruru": 7042,
      "cccc</w>": 7043,
      "Logitech</w>": 7044,
      "xit</w>": 7045,
      "THPT</w>": 7046,
      "THẤY</w>": 7047,
      "air": 7048,
      "cjfj": 7049,
      "CHƯA</w>": 7050,
      "viettel</w>": 7051,
      "mobi</w>": 7052,
      "smsn": 7053,
      "meow</w>": 7054,
      "gjk": 7055,
      "NHỮNG</w>": 7056,
      "bede</w>": 7057,
      "belike</w>": 7058,
      "fhk": 7059,
      "TRỜI</w>": 7060,
      "sksksksk": 7061,
      "tream</w>": 7062,
      "thien</w>": 7063,
      "bab": 7064,
      "witch</w>": 7065,
      "gkgk": 7066,
      "TIN</w>": 7067,
      "spam</w>": 7068,
      "nhuận</w>": 7069,
      "svsb": 7070,
      "pew</w>": 7071,
      "clg</w>": 7072,
      "shshsh": 7073,
      "nhanhhhh</w>": 7074,
      "dkkdkdk": 7075,
      "hahahahahahahaha": 7076,
      "produ": 7077,
      "router</w>": 7078,
      "zzzzzzzzzzzzzzzz": 7079,
      "HDMI</w>": 7080,
      "AMOLED</w>": 7081,
      "LUÔN</w>": 7082,
      "WiFi</w>": 7083,
      "kaging</w>": 7084,
      "Nguoi</w>": 7085,
      "linda</w>": 7086,
      "assmin</w>": 7087,
      "csgt</w>": 7088,
      "offline</w>": 7089,
      "website</w>": 7090,
      "MobiFone</w>": 7091,
      "Au": 7092,
      "AL</w>": 7093,
      "BH": 7094,
      "Ba": 7095,
      "Bù</w>": 7096,
      "Biên</w>": 7097,
      "Bịch</w>": 7098,
      "Bền</w>": 7099,
      "Cụ</w>": 7100,
      "Cắt</w>": 7101,
      "Cảnh</w>": 7102,
      "Cửa</w>": 7103,
      "Cậu</w>": 7104,
      "DD": 7105,
      "Dì</w>": 7106,
      "Dăm</w>": 7107,
      "Dkm</w>": 7108,
      "Ex": 7109,
      "Fr": 7110,
      "GA</w>": 7111,
      "HA": 7112,
      "Hư</w>": 7113,
      "Hít</w>": 7114,
      "Kẻ</w>": 7115,
      "LẮ": 7116,
      "Lon</w>": 7117,
      "Lớn</w>": 7118,
      "Laz": 7119,
      "MM": 7120,
      "Mắc</w>": 7121,
      "Mềm</w>": 7122,
      "NI": 7123,
      "NT</w>": 7124,
      "OR": 7125,
      "Pe": 7126,
      "Quynh</w>": 7127,
      "Răng</w>": 7128,
      "SH</w>": 7129,
      "SẼ</w>": 7130,
      "SỬ</w>": 7131,
      "Sung</w>": 7132,
      "TF": 7133,
      "Tho": 7134,
      "Tấu</w>": 7135,
      "Uy</w>": 7136,
      "Ve": 7137,
      "VE</w>": 7138,
      "VC</w>": 7139,
      "Vớ</w>": 7140,
      "Xl</w>": 7141,
      "app": 7142,
      "angg</w>": 7143,
      "bở</w>": 7144,
      "bầy</w>": 7145,
      "bổng</w>": 7146,
      "bao": 7147,
      "bẩy</w>": 7148,
      "bịa</w>": 7149,
      "bsbsbsb": 7150,
      "cừ</w>": 7151,
      "cch": 7152,
      "càn</w>": 7153,
      "cọng</w>": 7154,
      "cre": 7155,
      "csk": 7156,
      "coo": 7157,
      "cyo": 7158,
      "cún</w>": 7159,
      "cọp</w>": 7160,
      "dc": 7161,
      "dx": 7162,
      "dgi": 7163,
      "fim</w>": 7164,
      "gật</w>": 7165,
      "gầm</w>": 7166,
      "ghi": 7167,
      "gồng</w>": 7168,
      "ggh": 7169,
      "gram</w>": 7170,
      "gpi": 7171,
      "hf": 7172,
      "hê": 7173,
      "hơ": 7174,
      "hù</w>": 7175,
      "hã</w>": 7176,
      "hanh</w>": 7177,
      "hau</w>": 7178,
      "hii": 7179,
      "hàu</w>": 7180,
      "hee": 7181,
      "ir</w>": 7182,
      "icon</w>": 7183,
      "icm</w>": 7184,
      "jdk": 7185,
      "jej": 7186,
      "jwj": 7187,
      "kx": 7188,
      "kìm</w>": 7189,
      "ktra</w>": 7190,
      "kfk": 7191,
      "kiep</w>": 7192,
      "lv</w>": 7193,
      "lặp</w>": 7194,
      "lượn</w>": 7195,
      "lens</w>": 7196,
      "mỉ</w>": 7197,
      "mợ</w>": 7198,
      "mần</w>": 7199,
      "mạn</w>": 7200,
      "miệt</w>": 7201,
      "mềnh</w>": 7202,
      "nu</w>": 7203,
      "nỉ</w>": 7204,
      "nạt</w>": 7205,
      "nsn": 7206,
      "nặn</w>": 7207,
      "op": 7208,
      "os</w>": 7209,
      "okk": 7210,
      "pj</w>": 7211,
      "pla": 7212,
      "rm": 7213,
      "rả</w>": 7214,
      "rợ</w>": 7215,
      "ran</w>": 7216,
      "rọi</w>": 7217,
      "ráo</w>": 7218,
      "ria</w>": 7219,
      "rạch</w>": 7220,
      "rứa</w>": 7221,
      "sr": 7222,
      "sin</w>": 7223,
      "sầu</w>": 7224,
      "stu": 7225,
      "slo": 7226,
      "sen</w>": 7227,
      "sút</w>": 7228,
      "sảy</w>": 7229,
      "tn": 7230,
      "tv": 7231,
      "tưng</w>": 7232,
      "tong</w>": 7233,
      "tam": 7234,
      "tánh</w>": 7235,
      "tsj": 7236,
      "vb": 7237,
      "vã": 7238,
      "vù</w>": 7239,
      "vắc</w>": 7240,
      "ven</w>": 7241,
      "vat</w>": 7242,
      "vẩy</w>": 7243,
      "vẫy</w>": 7244,
      "we</w>": 7245,
      "xưng</w>": 7246,
      "xào</w>": 7247,
      "xảo</w>": 7248,
      "ya": 7249,
      "yt</w>": 7250,
      "ybe": 7251,
      "zl": 7252,
      "znn": 7253,
      "zve": 7254,
      "ÀU</w>": 7255,
      "ÁCH</w>": 7256,
      "ÉO</w>": 7257,
      "ÓC</w>": 7258,
      "ào": 7259,
      "ĂM</w>": 7260,
      "Đế</w>": 7261,
      "ĐỂ</w>": 7262,
      "Đan</w>": 7263,
      "Đàn</w>": 7264,
      "Đạo</w>": 7265,
      "Đệm</w>": 7266,
      "đb": 7267,
      "đay</w>": 7268,
      "điếc</w>": 7269,
      "đóm</w>": 7270,
      "ơiiiii</w>": 7271,
      "ẠP</w>": 7272,
      "ạh</w>": 7273,
      "ẢNH</w>": 7274,
      "ỂM</w>": 7275,
      "Ổng</w>": 7276,
      "ứg</w>": 7277,
      "thy</w>": 7278,
      "thạch</w>": 7279,
      "tháp</w>": 7280,
      "cha": 7281,
      "chư</w>": 7282,
      "chọi</w>": 7283,
      "chánh</w>": 7284,
      "chen</w>": 7285,
      "chổi</w>": 7286,
      "chưi</w>": 7287,
      "chplay</w>": 7288,
      "nhị</w>": 7289,
      "nhóc</w>": 7290,
      "khô": 7291,
      "khau</w>": 7292,
      "khẳng</w>": 7293,
      "khía</w>": 7294,
      "ngt</w>": 7295,
      "ngốc</w>": 7296,
      "nguyền</w>": 7297,
      "nggg</w>": 7298,
      "ngợm</w>": 7299,
      "giông</w>": 7300,
      "giãy</w>": 7301,
      "tri": 7302,
      "trg</w>": 7303,
      "trọ</w>": 7304,
      "trương</w>": 7305,
      "phin</w>": 7306,
      "phẩn</w>": 7307,
      "phâm</w>": 7308,
      "qué</w>": 7309,
      "hom</w>": 7310,
      "hoạn</w>": 7311,
      "homie</w>": 7312,
      "Chánh</w>": 7313,
      "Chấp</w>": 7314,
      "lub</w>": 7315,
      "luân</w>": 7316,
      "Thượng</w>": 7317,
      "Thiệt</w>": 7318,
      "Thức</w>": 7319,
      "Thăng</w>": 7320,
      "Thịt</w>": 7321,
      "Thanh": 7322,
      "Nhan</w>": 7323,
      "Nhiệt</w>": 7324,
      "Nhục</w>": 7325,
      "Nhưg</w>": 7326,
      "Giật</w>": 7327,
      "tus</w>": 7328,
      "Trai</w>": 7329,
      "nny</w>": 7330,
      "hit</w>": 7331,
      "totttttttttttttttttttttttttt</w>": 7332,
      "Khả</w>": 7333,
      "Khóc</w>": 7334,
      "Phường</w>": 7335,
      "dje": 7336,
      "dji": 7337,
      "djfj": 7338,
      "okok</w>": 7339,
      "Quản</w>": 7340,
      "Quật</w>": 7341,
      "eed</w>": 7342,
      "xur": 7343,
      "xuong</w>": 7344,
      "xuxu": 7345,
      "sjjsj": 7346,
      "hah</w>": 7347,
      "chun</w>": 7348,
      "burn</w>": 7349,
      "tik</w>": 7350,
      "tieu</w>": 7351,
      "mat": 7352,
      "make": 7353,
      "dnb": 7354,
      "sksj": 7355,
      "skdk": 7356,
      "skso": 7357,
      "cut": 7358,
      "dbd": 7359,
      "ooc</w>": 7360,
      "sear": 7361,
      "dkdjdj": 7362,
      "ene": 7363,
      "duoi</w>": 7364,
      "aka</w>": 7365,
      "super</w>": 7366,
      "shs": 7367,
      "shdh": 7368,
      "eeeee</w>": 7369,
      "fun</w>": 7370,
      "Loạn</w>": 7371,
      "xjxn": 7372,
      "THẺ</w>": 7373,
      "THỨ</w>": 7374,
      "THAY</w>": 7375,
      "huấn</w>": 7376,
      "xoài</w>": 7377,
      "xoắn</w>": 7378,
      "cjck": 7379,
      "CHẤT</w>": 7380,
      "sop</w>": 7381,
      "mom</w>": 7382,
      "mode</w>": 7383,
      "smsk": 7384,
      "Tuần</w>": 7385,
      "benh</w>": 7386,
      "xkx": 7387,
      "tap</w>": 7388,
      "tab</w>": 7389,
      "đuỹ</w>": 7390,
      "zjf": 7391,
      "Huong</w>": 7392,
      "NGON</w>": 7393,
      "Tom</w>": 7394,
      "Viru": 7395,
      "PHÍ</w>": 7396,
      "vjvj": 7397,
      "fort</w>": 7398,
      "TINH</w>": 7399,
      "fjfjfj": 7400,
      "zbzbb": 7401,
      "wow</w>": 7402,
      "dyl": 7403,
      "xmxn": 7404,
      "vuvu": 7405,
      "yeah</w>": 7406,
      "Cuong</w>": 7407,
      "Cute</w>": 7408,
      "vos</w>": 7409,
      "IỆU</w>": 7410,
      "okey</w>": 7411,
      "Team</w>": 7412,
      "MIỄN</w>": 7413,
      "Viettel": 7414,
      "ajajajaj": 7415,
      "Internet</w>": 7416,
      "SALE</w>": 7417,
      "VID</w>": 7418,
      "ƯỢNG</w>": 7419,
      "hihihihihihihihi": 7420,
      "kekekeke": 7421,
      "COVID</w>": 7422,
      "express</w>": 7423,
      "NNNN": 7424,
      "your</w>": 7425,
      "Rubik</w>": 7426,
      "hdsd</w>": 7427,
      "Tikinow</w>": 7428,
      "okokokokokOkikokokokokokOkikokokokokokOkikokokokokokOkik": 7429,
      "feedback</w>": 7430,
      "fect</w>": 7431,
      "sales</w>": 7432,
      "You</w>": 7433,
      "llagen</w>": 7434,
      "amoled</w>": 7435,
      "recommend</w>": 7436,
      "SMS</w>": 7437,
      "CÒN</w>": 7438,
      "AC": 7439,
      "Bi</w>": 7440,
      "Bò</w>": 7441,
      "Bến</w>": 7442,
      "Bla": 7443,
      "Bạch</w>": 7444,
      "CT": 7445,
      "Canh</w>": 7446,
      "Cáp</w>": 7447,
      "Call</w>": 7448,
      "CẢM</w>": 7449,
      "CPU</w>": 7450,
      "Dn": 7451,
      "DT</w>": 7452,
      "Dơ</w>": 7453,
      "Dày</w>": 7454,
      "Dưỡng</w>": 7455,
      "DAT": 7456,
      "Eu": 7457,
      "FI": 7458,
      "Fake</w>": 7459,
      "Go</w>": 7460,
      "HA</w>": 7461,
      "Hổ</w>": 7462,
      "Hí</w>": 7463,
      "Hỗ</w>": 7464,
      "Hên</w>": 7465,
      "Hân</w>": 7466,
      "Hung</w>": 7467,
      "HAY</w>": 7468,
      "HƠN</w>": 7469,
      "Iu</w>": 7470,
      "Ib</w>": 7471,
      "Kí</w>": 7472,
      "Kéo</w>": 7473,
      "Kkkk</w>": 7474,
      "Làng</w>": 7475,
      "Lục</w>": 7476,
      "Lạy</w>": 7477,
      "Lịch</w>": 7478,
      "Lều</w>": 7479,
      "Luu</w>": 7480,
      "Mb": 7481,
      "Mv</w>": 7482,
      "MN</w>": 7483,
      "Mê</w>": 7484,
      "Mát</w>": 7485,
      "Mộc</w>": 7486,
      "Mãnh</w>": 7487,
      "MÀU</w>": 7488,
      "NO</w>": 7489,
      "Nổ</w>": 7490,
      "Nữ</w>": 7491,
      "Nchung</w>": 7492,
      "Nón</w>": 7493,
      "NƯỚC</w>": 7494,
      "NẠP</w>": 7495,
      "OC</w>": 7496,
      "Pa": 7497,
      "Pi": 7498,
      "Phi": 7499,
      "QR</w>": 7500,
      "RE</w>": 7501,
      "RF</w>": 7502,
      "RAM</w>": 7503,
      "RỒI</w>": 7504,
      "SU": 7505,
      "Sd</w>": 7506,
      "Sông</w>": 7507,
      "Súng</w>": 7508,
      "Suy</w>": 7509,
      "San": 7510,
      "Set</w>": 7511,
      "Sty": 7512,
      "TD</w>": 7513,
      "Tày</w>": 7514,
      "Tang</w>": 7515,
      "Tôn</w>": 7516,
      "Toi</w>": 7517,
      "Tụt</w>": 7518,
      "TPH": 7519,
      "Tuyển</w>": 7520,
      "Uầy</w>": 7521,
      "Vượng</w>": 7522,
      "Viền</w>": 7523,
      "Vấn</w>": 7524,
      "XU": 7525,
      "Xưa</w>": 7526,
      "Xạc</w>": 7527,
      "Yen</w>": 7528,
      "bổn</w>": 7529,
      "bầm</w>": 7530,
      "bục</w>": 7531,
      "bạt</w>": 7532,
      "bim</w>": 7533,
      "bsj": 7534,
      "bsn": 7535,
      "bển</w>": 7536,
      "bee</w>": 7537,
      "bịnh</w>": 7538,
      "cở</w>": 7539,
      "cúi</w>": 7540,
      "cro</w>": 7541,
      "củi</w>": 7542,
      "dò</w>": 7543,
      "dú</w>": 7544,
      "dee": 7545,
      "dứa</w>": 7546,
      "dyo": 7547,
      "dtk": 7548,
      "ec</w>": 7549,
      "font</w>": 7550,
      "gw": 7551,
      "gò</w>": 7552,
      "gỉ</w>": 7553,
      "gợi</w>": 7554,
      "gap</w>": 7555,
      "gẫy</w>": 7556,
      "hk": 7557,
      "hẫ": 7558,
      "hỉ</w>": 7559,
      "hất</w>": 7560,
      "hói</w>": 7561,
      "hắt</w>": 7562,
      "hsau</w>": 7563,
      "hổi</w>": 7564,
      "hửi</w>": 7565,
      "hdb": 7566,
      "hịn</w>": 7567,
      "hsd</w>": 7568,
      "id": 7569,
      "isj": 7570,
      "ja": 7571,
      "jv": 7572,
      "jk</w>": 7573,
      "jdn": 7574,
      "jsn": 7575,
      "jfj": 7576,
      "jxj": 7577,
      "kg": 7578,
      "kn": 7579,
      "kô</w>": 7580,
      "ker</w>": 7581,
      "klq</w>": 7582,
      "kềnh</w>": 7583,
      "ls</w>": 7584,
      "lú</w>": 7585,
      "lề</w>": 7586,
      "lói</w>": 7587,
      "lặt</w>": 7588,
      "lậy</w>": 7589,
      "lạng</w>": 7590,
      "lèo</w>": 7591,
      "lứt</w>": 7592,
      "lùm</w>": 7593,
      "lởm</w>": 7594,
      "lụa</w>": 7595,
      "mải</w>": 7596,
      "mem</w>": 7597,
      "mung</w>": 7598,
      "meo</w>": 7599,
      "mạt</w>": 7600,
      "mõi</w>": 7601,
      "more</w>": 7602,
      "nv": 7603,
      "nè": 7604,
      "nài</w>": 7605,
      "năn</w>": 7606,
      "nsj": 7607,
      "nấm</w>": 7608,
      "nsk": 7609,
      "nin": 7610,
      "nín</w>": 7611,
      "nếp</w>": 7612,
      "ncn": 7613,
      "nzn": 7614,
      "núm</w>": 7615,
      "oanh</w>": 7616,
      "okkkkkkkk": 7617,
      "oder</w>": 7618,
      "rải</w>": 7619,
      "rinh</w>": 7620,
      "rỗng</w>": 7621,
      "sư": 7622,
      "sứ</w>": 7623,
      "str": 7624,
      "sưng</w>": 7625,
      "ssi": 7626,
      "sat</w>": 7627,
      "sđt</w>": 7628,
      "sọt</w>": 7629,
      "sao": 7630,
      "sườn</w>": 7631,
      "sorry</w>": 7632,
      "tư": 7633,
      "tàm</w>": 7634,
      "teo</w>": 7635,
      "tsi": 7636,
      "tét</w>": 7637,
      "tệp</w>": 7638,
      "ut": 7639,
      "vỗ</w>": 7640,
      "vung</w>": 7641,
      "vành</w>": 7642,
      "vọc</w>": 7643,
      "vướng</w>": 7644,
      "vjj": 7645,
      "vac": 7646,
      "vll</w>": 7647,
      "wj</w>": 7648,
      "wer</w>": 7649,
      "xr": 7650,
      "xắc</w>": 7651,
      "xéo</w>": 7652,
      "xóc</w>": 7653,
      "xel</w>": 7654,
      "youtu": 7655,
      "zo</w>": 7656,
      "ztk": 7657,
      "ÀNG</w>": 7658,
      "ÁI</w>": 7659,
      "ÁC</w>": 7660,
      "Ân</w>": 7661,
      "ÂM</w>": 7662,
      "ÃI</w>": 7663,
      "ÍCH</w>": 7664,
      "ÔM</w>": 7665,
      "òii</w>": 7666,
      "Đỡ</w>": 7667,
      "Đứa</w>": 7668,
      "Đùa</w>": 7669,
      "đh</w>": 7670,
      "đv</w>": 7671,
      "đẽ</w>": 7672,
      "đan</w>": 7673,
      "đọng</w>": 7674,
      "đãng</w>": 7675,
      "đéc</w>": 7676,
      "đào": 7677,
      "ưiiiii</w>": 7678,
      "ẠO</w>": 7679,
      "ẦY</w>": 7680,
      "ẮC</w>": 7681,
      "ẽn</w>": 7682,
      "ỂN</w>": 7683,
      "ễng</w>": 7684,
      "ỆT</w>": 7685,
      "ỎI</w>": 7686,
      "ỐI</w>": 7687,
      "ỒNG</w>": 7688,
      "ỡn</w>": 7689,
      "ủm</w>": 7690,
      "ỪNG</w>": 7691,
      "ỬI</w>": 7692,
      "thê": 7693,
      "thổ</w>": 7694,
      "thặc</w>": 7695,
      "thít</w>": 7696,
      "thịnh</w>": 7697,
      "thằg</w>": 7698,
      "chừ</w>": 7699,
      "chiết</w>": 7700,
      "chác</w>": 7701,
      "chắt</w>": 7702,
      "chấn</w>": 7703,
      "chie": 7704,
      "chụy</w>": 7705,
      "chữi</w>": 7706,
      "nhiề": 7707,
      "nhang</w>": 7708,
      "nhàu</w>": 7709,
      "nhọn</w>": 7710,
      "nhím</w>": 7711,
      "nhac</w>": 7712,
      "khè</w>": 7713,
      "khống</w>": 7714,
      "khán</w>": 7715,
      "ngư</w>": 7716,
      "ngả</w>": 7717,
      "ngóng</w>": 7718,
      "ngòi</w>": 7719,
      "ngươi</w>": 7720,
      "ngggg</w>": 7721,
      "giup</w>": 7722,
      "giun</w>": 7723,
      "trồ</w>": 7724,
      "triệt</w>": 7725,
      "pho</w>": 7726,
      "phì</w>": 7727,
      "phó</w>": 7728,
      "phèo</w>": 7729,
      "qui</w>": 7730,
      "quơ</w>": 7731,
      "quad</w>": 7732,
      "hoo": 7733,
      "hoay</w>": 7734,
      "uyet</w>": 7735,
      "Che": 7736,
      "Chinh</w>": 7737,
      "Chịu</w>": 7738,
      "Chíp</w>": 7739,
      "amen</w>": 7740,
      "lắmm</w>": 7741,
      "Thi": 7742,
      "Thai</w>": 7743,
      "Thang</w>": 7744,
      "Tháng</w>": 7745,
      "Nho</w>": 7746,
      "Nhiên</w>": 7747,
      "Nhập</w>": 7748,
      "Nhat</w>": 7749,
      "Nhím</w>": 7750,
      "Giả</w>": 7751,
      "tup</w>": 7752,
      "tuý</w>": 7753,
      "tuấn</w>": 7754,
      "lozz</w>": 7755,
      "siê": 7756,
      "thoy</w>": 7757,
      "hien</w>": 7758,
      "tom</w>": 7759,
      "too</w>": 7760,
      "Khu": 7761,
      "Khô</w>": 7762,
      "Khải</w>": 7763,
      "Khỏi</w>": 7764,
      "kkkkkkkk</w>": 7765,
      "viễn</w>": 7766,
      "vide": 7767,
      "Phượng</w>": 7768,
      "djsj": 7769,
      "Quỹ</w>": 7770,
      "Quận</w>": 7771,
      "ghẻ</w>": 7772,
      "khoác</w>": 7773,
      "sjf": 7774,
      "sjh": 7775,
      "ggd</w>": 7776,
      "have</w>": 7777,
      "hangg</w>": 7778,
      "hard</w>": 7779,
      "chuan</w>": 7780,
      "bum</w>": 7781,
      "buông</w>": 7782,
      "uuu": 7783,
      "rep": 7784,
      "rena</w>": 7785,
      "refund</w>": 7786,
      "ttttt</w>": 7787,
      "die</w>": 7788,
      "lia</w>": 7789,
      "dnsn": 7790,
      "sky": 7791,
      "skak": 7792,
      "cut</w>": 7793,
      "dbdn": 7794,
      "pppppp</w>": 7795,
      "pppppppp</w>": 7796,
      "chuyền</w>": 7797,
      "ieb": 7798,
      "iel</w>": 7799,
      "setup</w>": 7800,
      "dkg": 7801,
      "ddr</w>": 7802,
      "sbs</w>": 7803,
      "ter": 7804,
      "eno": 7805,
      "duc</w>": 7806,
      "indo": 7807,
      "inox</w>": 7808,
      "doạ</w>": 7809,
      "down</w>": 7810,
      "riêu</w>": 7811,
      "sss</w>": 7812,
      "sui": 7813,
      "sum</w>": 7814,
      "supp": 7815,
      "shsj": 7816,
      "hello</w>": 7817,
      "der": 7818,
      "cci</w>": 7819,
      "ful</w>": 7820,
      "fufu": 7821,
      "uuuuuu</w>": 7822,
      "THẾ</w>": 7823,
      "biêt</w>": 7824,
      "huỷ</w>": 7825,
      "huhuhu</w>": 7826,
      "xoa</w>": 7827,
      "air</w>": 7828,
      "CHÓ</w>": 7829,
      "CHÍNH</w>": 7830,
      "soso": 7831,
      "moẹ</w>": 7832,
      "modem</w>": 7833,
      "fff": 7834,
      "hhhhhhhhhhh</w>": 7835,
      "NHA": 7836,
      "NHANH</w>": 7837,
      "fhf": 7838,
      "shop": 7839,
      "dmm</w>": 7840,
      "leg": 7841,
      "les</w>": 7842,
      "TRẦN</w>": 7843,
      "cnxn": 7844,
      "xhcn</w>": 7845,
      "zjg": 7846,
      "bag</w>": 7847,
      "fnfk": 7848,
      "xxx</w>": 7849,
      "wkwk": 7850,
      "KHO": 7851,
      "yyyyy</w>": 7852,
      "Hahaha</w>": 7853,
      "fom</w>": 7854,
      "jjjjj": 7855,
      "wbwb": 7856,
      "combank</w>": 7857,
      "gold</w>": 7858,
      "Hehe</w>": 7859,
      "Mom</w>": 7860,
      "alaska</w>": 7861,
      "khum</w>": 7862,
      "Lisa</w>": 7863,
      "Tefal</w>": 7864,
      "asonic</w>": 7865,
      "djdjdjdjdjdjdjdj": 7866,
      "sting</w>": 7867,
      "Susan</w>": 7868,
      "frie": 7869,
      "dbbdbdb": 7870,
      "cmnl</w>": 7871,
      "zmz": 7872,
      "nka</w>": 7873,
      "anananan": 7874,
      "KICM</w>": 7875,
      "chien</w>": 7876,
      "Khoe</w>": 7877,
      "SAU</w>": 7878,
      "uuuuuuuuuuuuuuuuuuuuuuuu": 7879,
      "gygy": 7880,
      "freefire</w>": 7881,
      "cammera</w>": 7882,
      "fly": 7883,
      "vas</w>": 7884,
      "blutooth</w>": 7885,
      "coycoy": 7886,
      "mmmmmmmmmmmmmmmmmmmmmmmmmmmmmmmm": 7887,
      "black</w>": 7888,
      "đẹpKhăn</w>": 7889,
      "Truong</w>": 7890,
      "HIẾU</w>": 7891,
      "rkrk": 7892,
      "doydoy": 7893,
      "Camara</w>": 7894,
      "Tiki": 7895,
      "New</w>": 7896,
      "Combo</w>": 7897,
      "Sena</w>": 7898,
      "Senka</w>": 7899,
      "uiTốt</w>": 7900,
      "CMND</w>": 7901,
      "Panda</w>": 7902,
      "where</w>": 7903,
      "lqmb</w>": 7904,
      "brand</w>": 7905,
      "office</w>": 7906,
      "packaging</w>": 7907,
      "Active</w>": 7908,
      "ndkd": 7909,
      "ngggggggg</w>": 7910,
      "Lazada</w>": 7911,
      "TFT</w>": 7912,
      "search</w>": 7913,
      "Virus</w>": 7914,
      "ViettelPay</w>": 7915,
      "TPHCM</w>": 7916,
      "hẫng</w>": 7917,
      "đàoNgon</w>": 7918,
      "AB": 7919,
      "Ala": 7920,
      "Ahihi</w>": 7921,
      "ABe</w>": 7922,
      "Br": 7923,
      "Bổ</w>": 7924,
      "BỘ</w>": 7925,
      "Bay</w>": 7926,
      "Bon</w>": 7927,
      "Bơm</w>": 7928,
      "Cờ</w>": 7929,
      "CK</w>": 7930,
      "Chàng</w>": 7931,
      "Cang</w>": 7932,
      "CTV</w>": 7933,
      "CỰC</w>": 7934,
      "DU": 7935,
      "DI</w>": 7936,
      "DO</w>": 7937,
      "DN</w>": 7938,
      "Day</w>": 7939,
      "Don</w>": 7940,
      "Diên</w>": 7941,
      "Diệt</w>": 7942,
      "Dạng</w>": 7943,
      "Dep</w>": 7944,
      "FE</w>": 7945,
      "FA</w>": 7946,
      "Gr": 7947,
      "Gu</w>": 7948,
      "GÌ</w>": 7949,
      "Gái</w>": 7950,
      "Góc</w>": 7951,
      "GHz</w>": 7952,
      "GỌI</w>": 7953,
      "HU": 7954,
      "Há": 7955,
      "HL</w>": 7956,
      "Hao</w>": 7957,
      "Hán</w>": 7958,
      "Hèn</w>": 7959,
      "HẾT</w>": 7960,
      "HCN</w>": 7961,
      "HÔM</w>": 7962,
      "Ip</w>": 7963,
      "ID</w>": 7964,
      "IOS</w>": 7965,
      "Innisfree</w>": 7966,
      "JP": 7967,
      "KY": 7968,
      "Ka": 7969,
      "Kêu</w>": 7970,
      "Ly": 7971,
      "Lí</w>": 7972,
      "Lỗ</w>": 7973,
      "LÝ</w>": 7974,
      "Lắm</w>": 7975,
      "Lee</w>": 7976,
      "Lót</w>": 7977,
      "LƯỢNG</w>": 7978,
      "MO</w>": 7979,
      "Mé</w>": 7980,
      "Màng</w>": 7981,
      "Mưa</w>": 7982,
      "Mức</w>": 7983,
      "Mốt</w>": 7984,
      "Mat</w>": 7985,
      "Mac</w>": 7986,
      "Mồm</w>": 7987,
      "Mar": 7988,
      "MỌI</w>": 7989,
      "MÁY</w>": 7990,
      "NA": 7991,
      "NQ": 7992,
      "Ns</w>": 7993,
      "Ny</w>": 7994,
      "Nể</w>": 7995,
      "NK</w>": 7996,
      "Nến</w>": 7997,
      "Nằm</w>": 7998,
      "On": 7999,
      "Oanh</w>": 8000,
      "Oke": 8001,
      "PR</w>": 8002,
      "Park</w>": 8003,
      "Quy": 8004,
      "Quyên</w>": 8005,
      "Sk": 8006,
      "Sổ</w>": 8007,
      "Sức</w>": 8008,
      "Sợi</w>": 8009,
      "Sắm</w>": 8010,
      "Smar": 8011,
      "Sing</w>": 8012,
      "Sony</w>": 8013,
      "TA": 8014,
      "Ty": 8015,
      "To</w>": 8016,
      "Tử</w>": 8017,
      "TK</w>": 8018,
      "Tớ</w>": 8019,
      "Tương</w>": 8020,
      "Tuyên</w>": 8021,
      "Tịch</w>": 8022,
      "Tĩnh</w>": 8023,
      "Tùy</w>": 8024,
      "TỘI</w>": 8025,
      "TỐT</w>": 8026,
      "Ultra</w>": 8027,
      "VỊ</w>": 8028,
      "Vỹ</w>": 8029,
      "VÔ</w>": 8030,
      "Vcl</w>": 8031,
      "Wow</w>": 8032,
      "Web</w>": 8033,
      "Xa</w>": 8034,
      "XO</w>": 8035,
      "af": 8036,
      "bv": 8037,
      "bl</w>": 8038,
      "bõ</w>": 8039,
      "bấy</w>": 8040,
      "bồng</w>": 8041,
      "bướng</w>": 8042,
      "bdk": 8043,
      "biếng</w>": 8044,
      "bịp</w>": 8045,
      "bỗng</w>": 8046,
      "bẫy</w>": 8047,
      "boom</w>": 8048,
      "bthg</w>": 8049,
      "bằg</w>": 8050,
      "cs": 8051,
      "cr</w>": 8052,
      "cgi": 8053,
      "ctu": 8054,
      "căm</w>": 8055,
      "cta</w>": 8056,
      "cac": 8057,
      "còi</w>": 8058,
      "cel</w>": 8059,
      "clone</w>": 8060,
      "cựu</w>": 8061,
      "dp": 8062,
      "dử</w>": 8063,
      "dkh": 8064,
      "dọng</w>": 8065,
      "dồn</w>": 8066,
      "dgh": 8067,
      "dùi</w>": 8068,
      "dốc</w>": 8069,
      "dứt</w>": 8070,
      "dĩa</w>": 8071,
      "eieie": 8072,
      "fn</w>": 8073,
      "fm</w>": 8074,
      "fo</w>": 8075,
      "fl</w>": 8076,
      "fu</w>": 8077,
      "fbb": 8078,
      "fyo": 8079,
      "fail</w>": 8080,
      "gl": 8081,
      "gù</w>": 8082,
      "gạ</w>": 8083,
      "goc</w>": 8084,
      "gxk": 8085,
      "gfy": 8086,
      "hg": 8087,
      "hô": 8088,
      "hẹp</w>": 8089,
      "ham": 8090,
      "hòn</w>": 8091,
      "hiên</w>": 8092,
      "hầm</w>": 8093,
      "hdj": 8094,
      "hách</w>": 8095,
      "hsj": 8096,
      "hạch</w>": 8097,
      "hớt</w>": 8098,
      "hót</w>": 8099,
      "hụi</w>": 8100,
      "hxh": 8101,
      "hrm</w>": 8102,
      "hỡi</w>": 8103,
      "iy": 8104,
      "ice</w>": 8105,
      "itel</w>": 8106,
      "jsh": 8107,
      "jdjdj": 8108,
      "kn</w>": 8109,
      "kcn</w>": 8110,
      "lơi</w>": 8111,
      "láy</w>": 8112,
      "lộng</w>": 8113,
      "léo</w>": 8114,
      "lquan</w>": 8115,
      "lám</w>": 8116,
      "lặn</w>": 8117,
      "lén</w>": 8118,
      "mà": 8119,
      "mị": 8120,
      "mên</w>": 8121,
      "mơi</w>": 8122,
      "mược</w>": 8123,
      "mầy</w>": 8124,
      "mét</w>": 8125,
      "ns": 8126,
      "nb</w>": 8127,
      "nực</w>": 8128,
      "nuôn</w>": 8129,
      "nãn</w>": 8130,
      "nẵng</w>": 8131,
      "nxnxm": 8132,
      "od</w>": 8133,
      "oa</w>": 8134,
      "opp": 8135,
      "okkk</w>": 8136,
      "pj": 8137,
      "pr": 8138,
      "pà</w>": 8139,
      "pua</w>": 8140,
      "poo": 8141,
      "qn": 8142,
      "rấ": 8143,
      "rh</w>": 8144,
      "rờ</w>": 8145,
      "rật</w>": 8146,
      "rán</w>": 8147,
      "ren</w>": 8148,
      "rơm</w>": 8149,
      "rèn</w>": 8150,
      "rìa</w>": 8151,
      "rank</w>": 8152,
      "rủi</w>": 8153,
      "sf</w>": 8154,
      "sả</w>": 8155,
      "sước</w>": 8156,
      "sii": 8157,
      "sảo</w>": 8158,
      "see": 8159,
      "sla": 8160,
      "sấm</w>": 8161,
      "sma": 8162,
      "sou": 8163,
      "sfj": 8164,
      "sáu</w>": 8165,
      "tí": 8166,
      "tw</w>": 8167,
      "tq</w>": 8168,
      "tiề": 8169,
      "táng</w>": 8170,
      "tạc</w>": 8171,
      "tành</w>": 8172,
      "tảng</w>": 8173,
      "tèo</w>": 8174,
      "tâng</w>": 8175,
      "tnao</w>": 8176,
      "tủi</w>": 8177,
      "tĩu</w>": 8178,
      "tphcm</w>": 8179,
      "tggd</w>": 8180,
      "uiii</w>": 8181,
      "vy</w>": 8182,
      "vạ</w>": 8183,
      "vó</w>": 8184,
      "vạn</w>": 8185,
      "vạy</w>": 8186,
      "vét</w>": 8187,
      "vãn</w>": 8188,
      "vali</w>": 8189,
      "võng</w>": 8190,
      "wr": 8191,
      "wc</w>": 8192,
      "whh": 8193,
      "wjj": 8194,
      "what</w>": 8195,
      "xơ</w>": 8196,
      "xhh": 8197,
      "xtj": 8198,
      "yk": 8199,
      "ys": 8200,
      "ya</w>": 8201,
      "yo</w>": 8202,
      "zl</w>": 8203,
      "Ái</w>": 8204,
      "Áp</w>": 8205,
      "ÁT</w>": 8206,
      "ÈO</w>": 8207,
      "ÚT</w>": 8208,
      "ák</w>": 8209,
      "ân": 8210,
      "âc</w>": 8211,
      "óe</w>": 8212,
      "ăg</w>": 8213,
      "Đi": 8214,
      "Đẹ": 8215,
      "Đô</w>": 8216,
      "Đĩ</w>": 8217,
      "ĐỒ</w>": 8218,
      "Đần</w>": 8219,
      "Điệp</w>": 8220,
      "Đcm</w>": 8221,
      "Đkm</w>": 8222,
      "ĐỨC</w>": 8223,
      "ĐĂNG</w>": 8224,
      "ĐỪNG</w>": 8225,
      "đọ</w>": 8226,
      "đố</w>": 8227,
      "đơi</w>": 8228,
      "đúc</w>": 8229,
      "đách</w>": 8230,
      "đjj": 8231,
      "đhs</w>": 8232,
      "đếch</w>": 8233,
      "ũy</w>": 8234,
      "ẠM</w>": 8235,
      "ẠC</w>": 8236,
      "ẤU</w>": 8237,
      "ẬP</w>": 8238,
      "ậndkd": 8239,
      "ẮT</w>": 8240,
      "ẶT</w>": 8241,
      "ẻng</w>": 8242,
      "Ốc</w>": 8243,
      "ỒN</w>": 8244,
      "ổm</w>": 8245,
      "ỘT</w>": 8246,
      "ỘNG</w>": 8247,
      "ợc</w>": 8248,
      "ủg</w>": 8249,
      "Ứng</w>": 8250,
      "ứk</w>": 8251,
      "ừu</w>": 8252,
      "ỵt</w>": 8253,
      "thk</w>": 8254,
      "thét</w>": 8255,
      "thiệc</w>": 8256,
      "thât</w>": 8257,
      "chắ": 8258,
      "chùng</w>": 8259,
      "chạp</w>": 8260,
      "chêt</w>": 8261,
      "chym</w>": 8262,
      "chỉn</w>": 8263,
      "nhè</w>": 8264,
      "nhọ</w>": 8265,
      "nhò</w>": 8266,
      "nhô</w>": 8267,
      "nhào</w>": 8268,
      "nhem</w>": 8269,
      "nhát</w>": 8270,
      "nhou": 8271,
      "nhậndkd": 8272,
      "khà</w>": 8273,
      "khôi</w>": 8274,
      "khoi</w>": 8275,
      "khâm</w>": 8276,
      "khập</w>": 8277,
      "ngớ</w>": 8278,
      "ngơi</w>": 8279,
      "ngoi</w>": 8280,
      "ngợi</w>": 8281,
      "ngốn</w>": 8282,
      "ngap": 8283,
      "gil</w>": 8284,
      "giã</w>": 8285,
      "gióng</w>": 8286,
      "giáng</w>": 8287,
      "trơ</w>": 8288,
      "triết</w>": 8289,
      "trắc</w>": 8290,
      "trừng</w>": 8291,
      "trèo</w>": 8292,
      "phẩ": 8293,
      "phệ</w>": 8294,
      "phô</w>": 8295,
      "phiêu</w>": 8296,
      "quánh</w>": 8297,
      "hoành</w>": 8298,
      "house</w>": 8299,
      "Chao</w>": 8300,
      "Chăm</w>": 8301,
      "Chim</w>": 8302,
      "Chấm</w>": 8303,
      "Chỉnh</w>": 8304,
      "nghĩnh</w>": 8305,
      "ướn</w>": 8306,
      "lunnn</w>": 8307,
      "luot</w>": 8308,
      "Thy</w>": 8309,
      "Thọ</w>": 8310,
      "kkj": 8311,
      "Nhựt</w>": 8312,
      "Gil</w>": 8313,
      "Giữ</w>": 8314,
      "Giận</w>": 8315,
      "Gian</w>": 8316,
      "iểng</w>": 8317,
      "tum</w>": 8318,
      "tube</w>": 8319,
      "tuii</w>": 8320,
      "Nge</w>": 8321,
      "Ngũ</w>": 8322,
      "loay</w>": 8323,
      "loang</w>": 8324,
      "Tre</w>": 8325,
      "Trư</w>": 8326,
      "Treo</w>": 8327,
      "Trái</w>": 8328,
      "Trăm</w>": 8329,
      "Trãi</w>": 8330,
      "iii": 8331,
      "tte</w>": 8332,
      "nna</w>": 8333,
      "sil": 8334,
      "sing</w>": 8335,
      "hii</w>": 8336,
      "hiêu</w>": 8337,
      "high": 8338,
      "toà</w>": 8339,
      "toshop</w>": 8340,
      "toét</w>": 8341,
      "tore</w>": 8342,
      "vivi": 8343,
      "album</w>": 8344,
      "Phê</w>": 8345,
      "Phím</w>": 8346,
      "Phuc</w>": 8347,
      "djxj": 8348,
      "djcj": 8349,
      "Quét</w>": 8350,
      "ghet</w>": 8351,
      "xuôi</w>": 8352,
      "sjdn": 8353,
      "sjak": 8354,
      "happy</w>": 8355,
      "chuộng</w>": 8356,
      "ans</w>": 8357,
      "ande": 8358,
      "bui": 8359,
      "red</w>": 8360,
      "tic</w>": 8361,
      "liu</w>": 8362,
      "lix</w>": 8363,
      "ling</w>": 8364,
      "liễu</w>": 8365,
      "dnsk": 8366,
      "cung": 8367,
      "custo": 8368,
      "dby": 8369,
      "dbsb": 8370,
      "dbfb": 8371,
      "aaaaaa": 8372,
      "nnnnnnnn</w>": 8373,
      "thue</w>": 8374,
      "see</w>": 8375,
      "cou": 8376,
      "cod</w>": 8377,
      "covi": 8378,
      "coco": 8379,
      "collagen</w>": 8380,
      "jjh": 8381,
      "kkkkkkkkkkkkk</w>": 8382,
      "dhd": 8383,
      "hhhhhhh</w>": 8384,
      "ming</w>": 8385,
      "micro</w>": 8386,
      "sbsj": 8387,
      "duo</w>": 8388,
      "inb</w>": 8389,
      "indle</w>": 8390,
      "rie</w>": 8391,
      "rist": 8392,
      "ssa</w>": 8393,
      "sskk": 8394,
      "shbag</w>": 8395,
      "djdjdkdk": 8396,
      "djdjdjj": 8397,
      "roài</w>": 8398,
      "rofi</w>": 8399,
      "cai": 8400,
      "ccjcj": 8401,
      "full": 8402,
      "xnk": 8403,
      "Lol</w>": 8404,
      "xixi": 8405,
      "xinhh</w>": 8406,
      "THEO</w>": 8407,
      "THÀNH</w>": 8408,
      "hum</w>": 8409,
      "huhu": 8410,
      "xoáy</w>": 8411,
      "ailer</w>": 8412,
      "cjcjj": 8413,
      "CHI</w>": 8414,
      "vietnam</w>": 8415,
      "mmmmmm</w>": 8416,
      "xbdb": 8417,
      "đoạt</w>": 8418,
      "moá</w>": 8419,
      "cky</w>": 8420,
      "cksk": 8421,
      "dbdbd</w>": 8422,
      "NHA</w>": 8423,
      "beb": 8424,
      "show": 8425,
      "shock</w>": 8426,
      "taxi</w>": 8427,
      "lea": 8428,
      "levi</w>": 8429,
      "TRỊ</w>": 8430,
      "đuợc</w>": 8431,
      "ard</w>": 8432,
      "thiêu</w>": 8433,
      "fnfb": 8434,
      "Mic</w>": 8435,
      "wjfj": 8436,
      "kien</w>": 8437,
      "kill</w>": 8438,
      "kicm</w>": 8439,
      "eeeeeeeee</w>": 8440,
      "Chuc</w>": 8441,
      "stress</w>": 8442,
      "streamer</w>": 8443,
      "znzb": 8444,
      "wkwi": 8445,
      "lll": 8446,
      "Oki</w>": 8447,
      "sach</w>": 8448,
      "saoooo</w>": 8449,
      "spi": 8450,
      "spa</w>": 8451,
      "Thuong</w>": 8452,
      "QUAN</w>": 8453,
      "woaok": 8454,
      "svsh": 8455,
      "follow</w>": 8456,
      "Ngoan</w>": 8457,
      "year</w>": 8458,
      "High": 8459,
      "HOA</w>": 8460,
      "skksksksk": 8461,
      "Head</w>": 8462,
      "dly": 8463,
      "khuân</w>": 8464,
      "nhanhh</w>": 8465,
      "Đoạn</w>": 8466,
      "Vietnam</w>": 8467,
      "gxgk": 8468,
      "wnload</w>": 8469,
      "Ghét</w>": 8470,
      "Ghép</w>": 8471,
      "dbbxb": 8472,
      "dbbdbdbdbdb": 8473,
      "fkfkfkfk": 8474,
      "ers</w>": 8475,
      "vnch</w>": 8476,
      "chill</w>": 8477,
      "Duong</w>": 8478,
      "VIE": 8479,
      "unbox</w>": 8480,
      "iswoaok": 8481,
      "promax</w>": 8482,
      "zgzg": 8483,
      "wlwl": 8484,
      "Vina": 8485,
      "gigigigi": 8486,
      "ngừi</w>": 8487,
      "VNA</w>": 8488,
      "dtdj": 8489,
      "ndnsn": 8490,
      "dtjdtjdtjdtj": 8491,
      "đâuu</w>": 8492,
      "Nhuệ</w>": 8493,
      "jjjjjjjjjjjjjjjj": 8494,
      "Bitis</w>": 8495,
      "gato</w>": 8496,
      "Best</w>": 8497,
      "Doanh</w>": 8498,
      "Levi</w>": 8499,
      "carton</w>": 8500,
      "xxxxxxxx": 8501,
      "TOÀN</w>": 8502,
      "hahaa": 8503,
      "anker</w>": 8504,
      "fuofuo": 8505,
      "Comfort</w>": 8506,
      "Haizzz</w>": 8507,
      "fpufpu": 8508,
      "tflix</w>": 8509,
      "troll</w>": 8510,
      "panda</w>": 8511,
      "wiffi</w>": 8512,
      "dbdbbdbdbdbdb": 8513,
      "cpu</w>": 8514,
      "double</w>": 8515,
      "thích": 8516,
      "THUỐC</w>": 8517,
      "MEI</w>": 8518,
      "Official</w>": 8519,
      "Air": 8520,
      "MẠNG</w>": 8521,
      "SBTC</w>": 8522,
      "okkkkkkkkkkkkkkkkk</w>": 8523,
      "pastel</w>": 8524,
      "iififififif": 8525,
      "LẮM</w>": 8526,
      "cskh</w>": 8527,
      "tamin</w>": 8528,
      "sksoiswoaok": 8529,
      "DATA</w>": 8530,
      "Mbps</w>": 8531,
      "Style</w>": 8532,
      "Check</w>": 8533,
      "indows</w>": 8534,
      "Alaska</w>": 8535,
      "JPH</w>": 8536,
      "NQJPH</w>": 8537,
      "nhouse</w>": 8538,
      "nhậndkdsksoiswoaok": 8539,
      "ngapore</w>": 8540,
      "nhậndkdsksoiswoaoknxnxm": 8541,
      "Ao</w>": 8542,
      "Alo</w>": 8543,
      "BI</w>": 8544,
      "Bã</w>": 8545,
      "Bó</w>": 8546,
      "Bạc</w>": 8547,
      "Béo</w>": 8548,
      "Bạt</w>": 8549,
      "Ci": 8550,
      "Ck</w>": 8551,
      "CB</w>": 8552,
      "Cày</w>": 8553,
      "Cua</w>": 8554,
      "Căn</w>": 8555,
      "Cẩn</w>": 8556,
      "Cánh</w>": 8557,
      "Cáo</w>": 8558,
      "Cre": 8559,
      "Con": 8560,
      "Cty</w>": 8561,
      "Cửu</w>": 8562,
      "CÙNG</w>": 8563,
      "CỤC</w>": 8564,
      "Club</w>": 8565,
      "DN": 8566,
      "DỊ": 8567,
      "DD</w>": 8568,
      "DS</w>": 8569,
      "Dcm</w>": 8570,
      "Duc</w>": 8571,
      "Dio": 8572,
      "DẦN</w>": 8573,
      "DAC</w>": 8574,
      "Dlv</w>": 8575,
      "Eng": 8576,
      "Fa": 8577,
      "Fo": 8578,
      "Fin": 8579,
      "FPS</w>": 8580,
      "FRE": 8581,
      "GO": 8582,
      "GT</w>": 8583,
      "GH</w>": 8584,
      "Giết</w>": 8585,
      "Goi</w>": 8586,
      "Gắn</w>": 8587,
      "GAM</w>": 8588,
      "GPS</w>": 8589,
      "HÃ": 8590,
      "Hâ": 8591,
      "HỢ": 8592,
      "Hk</w>": 8593,
      "HỘ</w>": 8594,
      "Hào</w>": 8595,
      "Han</w>": 8596,
      "Hoi</w>": 8597,
      "Hát</w>": 8598,
      "Hứa</w>": 8599,
      "Hẹn</w>": 8600,
      "HỌC</w>": 8601,
      "IQ</w>": 8602,
      "IPS</w>": 8603,
      "IMEI</w>": 8604,
      "Je": 8605,
      "Ji": 8606,
      "JJ</w>": 8607,
      "Jzj": 8608,
      "Kh</w>": 8609,
      "Kỷ</w>": 8610,
      "Kiểm</w>": 8611,
      "Kênh</w>": 8612,
      "KẾT</w>": 8613,
      "La": 8614,
      "LL</w>": 8615,
      "Lò</w>": 8616,
      "Lữ</w>": 8617,
      "Lao</w>": 8618,
      "Lầy</w>": 8619,
      "Lồn</w>": 8620,
      "Liệu</w>": 8621,
      "Lạnh</w>": 8622,
      "Luc</w>": 8623,
      "Mr</w>": 8624,
      "Mĩ</w>": 8625,
      "MẸ</w>": 8626,
      "MỸ</w>": 8627,
      "Mac": 8628,
      "Mượn</w>": 8629,
      "MTP</w>": 8630,
      "Mum</w>": 8631,
      "Na": 8632,
      "NN</w>": 8633,
      "Nỗ</w>": 8634,
      "Nai</w>": 8635,
      "NÀY</w>": 8636,
      "NỮA</w>": 8637,
      "NĂM</w>": 8638,
      "Or": 8639,
      "OTP</w>": 8640,
      "PP</w>": 8641,
      "Pad</w>": 8642,
      "Pedi": 8643,
      "RI": 8644,
      "Ram": 8645,
      "Rửa</w>": 8646,
      "Rèm</w>": 8647,
      "Rom</w>": 8648,
      "SE": 8649,
      "SP": 8650,
      "Ss</w>": 8651,
      "Si</w>": 8652,
      "Se</w>": 8653,
      "SN</w>": 8654,
      "Sỉ</w>": 8655,
      "Sĩ</w>": 8656,
      "SƯ</w>": 8657,
      "Sủa</w>": 8658,
      "Sảm</w>": 8659,
      "Sâm</w>": 8660,
      "Sướng</w>": 8661,
      "Sai": 8662,
      "Sẵn</w>": 8663,
      "Sửu</w>": 8664,
      "Store</w>": 8665,
      "Tủ": 8666,
      "Th</w>": 8667,
      "TE</w>": 8668,
      "TN</w>": 8669,
      "Tx</w>": 8670,
      "Tào</w>": 8671,
      "Tôm</w>": 8672,
      "Tim</w>": 8673,
      "Tằm</w>": 8674,
      "Tuyến</w>": 8675,
      "TẤT</w>": 8676,
      "TÀI</w>": 8677,
      "TĂNG</w>": 8678,
      "TÍNH</w>": 8679,
      "UV</w>": 8680,
      "Xs</w>": 8681,
      "XIN</w>": 8682,
      "XHCN</w>": 8683,
      "YO": 8684,
      "aj</w>": 8685,
      "av</w>": 8686,
      "atar</w>": 8687,
      "bạ": 8688,
      "bd</w>": 8689,
      "bv</w>": 8690,
      "bời</w>": 8691,
      "bói</w>": 8692,
      "bal": 8693,
      "băm</w>": 8694,
      "bửa</w>": 8695,
      "boo": 8696,
      "bac": 8697,
      "bgio</w>": 8698,
      "bưởi</w>": 8699,
      "cw": 8700,
      "cạ</w>": 8701,
      "cui</w>": 8702,
      "cal": 8703,
      "cer</w>": 8704,
      "cti": 8705,
      "cằm</w>": 8706,
      "cụt</w>": 8707,
      "cdm</w>": 8708,
      "cưỡng</w>": 8709,
      "cửu</w>": 8710,
      "dụ": 8711,
      "df</w>": 8712,
      "dộ</w>": 8713,
      "diều</w>": 8714,
      "dme</w>": 8715,
      "dòi</w>": 8716,
      "dìm</w>": 8717,
      "dìa</w>": 8718,
      "dởm</w>": 8719,
      "ej</w>": 8720,
      "ez</w>": 8721,
      "eii</w>": 8722,
      "eye": 8723,
      "ect</w>": 8724,
      "fy</w>": 8725,
      "fải</w>": 8726,
      "fhe": 8727,
      "flh": 8728,
      "gp": 8729,
      "ganh</w>": 8730,
      "gân</w>": 8731,
      "găng</w>": 8732,
      "gút</w>": 8733,
      "gal": 8734,
      "gãi</w>": 8735,
      "gòi</w>": 8736,
      "gbt</w>": 8737,
      "gía</w>": 8738,
      "gree</w>": 8739,
      "hr": 8740,
      "hx": 8741,
      "hr</w>": 8742,
      "hầy</w>": 8743,
      "háo</w>": 8744,
      "hãi</w>": 8745,
      "hưu</w>": 8746,
      "hxj": 8747,
      "hiii</w>": 8748,
      "ih": 8749,
      "iph": 8750,
      "its</w>": 8751,
      "ings</w>": 8752,
      "innisfree</w>": 8753,
      "js</w>": 8754,
      "je</w>": 8755,
      "jns</w>": 8756,
      "kc": 8757,
      "kd</w>": 8758,
      "kt</w>": 8759,
      "ku</w>": 8760,
      "kề</w>": 8761,
      "kẽ</w>": 8762,
      "kao</w>": 8763,
      "kon</w>": 8764,
      "ken</w>": 8765,
      "ksn": 8766,
      "kím</w>": 8767,
      "ket</w>": 8768,
      "king</w>": 8769,
      "kbiet</w>": 8770,
      "know</w>": 8771,
      "lk": 8772,
      "là": 8773,
      "lâ": 8774,
      "lô": 8775,
      "lư": 8776,
      "lồ": 8777,
      "lả</w>": 8778,
      "lở</w>": 8779,
      "lđ</w>": 8780,
      "lua</w>": 8781,
      "lết</w>": 8782,
      "lánh</w>": 8783,
      "lal": 8784,
      "lạt</w>": 8785,
      "lạp</w>": 8786,
      "lẹo</w>": 8787,
      "lũi</w>": 8788,
      "lõm</w>": 8789,
      "lằn</w>": 8790,
      "md</w>": 8791,
      "mừ</w>": 8792,
      "mao</w>": 8793,
      "mâu</w>": 8794,
      "miên</w>": 8795,
      "múc</w>": 8796,
      "mách</w>": 8797,
      "mít</w>": 8798,
      "msm": 8799,
      "mle": 8800,
      "mât</w>": 8801,
      "mlem</w>": 8802,
      "măt</w>": 8803,
      "mọe</w>": 8804,
      "nc": 8805,
      "nm": 8806,
      "nư": 8807,
      "nì</w>": 8808,
      "nê</w>": 8809,
      "nử</w>": 8810,
      "neo</w>": 8811,
      "ner</w>": 8812,
      "nạo</w>": 8813,
      "nco": 8814,
      "nứa</w>": 8815,
      "ning</w>": 8816,
      "niu</w>": 8817,
      "nén</w>": 8818,
      "nếm</w>": 8819,
      "nail</w>": 8820,
      "ob": 8821,
      "oc": 8822,
      "ol</w>": 8823,
      "oai</w>": 8824,
[...]
