{
  "version": "1.0",
  "truncation": null,
  "padding": null,
  "added_tokens": [
    {
      "id": 0,
      "content": "<pad>",
      "single_word": false,
      "lstrip": false,
      "rstrip": false,
      "normalized": false,
      "special": true
    },
    {
      "id": 1,
      "content": "<s>",
      "single_word": false,
      "lstrip": false,
      "rstrip": false,
      "normalized": false,
      "special": true
    },
    {
      "id": 2,
      "content": "</s>",
      "single_word": false,
      "lstrip": false,
      "rstrip": false,
      "normalized": false,
      "special": true
    },
    {
      "id": 3,
      "content": "<unk>",
      "single_word": false,
      "lstrip": false,
      "rstrip": false,
      "normalized": false,
      "special": true
    }
  ],
  "normalizer": {
    "type": "NFC"
  },
  "pre_tokenizer": {
    "type": "Whitespace"
  },
  "post_processor": {
    "type": "TemplateProcessing",
    "single": [
      {
        "SpecialToken": {
          "id": "<s>",
          "type_id": 0
        }
      },
      {
        "Sequence": {
          "id": "A",
          "type_id": 0
        }
      },
      {
        "SpecialToken": {
          "id": "</s>",
          "type_id": 0
        }
      }
    ],
    "pair": [
      {
        "SpecialToken": {
          "id": "<s>",
          "type_id": 0
        }
      },
      {
        "Sequence": {
          "id": "A",
          "type_id": 0
        }
      },
      {
        "SpecialToken": {
          "id": "</s>",
          "type_id": 0
        }
      },
      {
        "SpecialToken": {
          "id": "</s>",
          "type_id": 0
        }
      },
      {
        "Sequence": {
          "id": "B",
          "type_id": 0
        }
      },
      {
        "SpecialToken": {
          "id": "</s>",
          "type_id": 0
        }
      }
    ],
    "special_tokens": {
      "</s>": {
        "id": "</s>",
        "ids": [
          2
        ],
        "tokens": [
          "</s>"
        ]
      },
      "<s>": {
        "id": "<s>",
        "ids": [
          1
        ],
        "tokens": [
          "<s>"
        ]
      }
    }
  },
  "decoder": {
    "type": "BPEDecoder",
    "suffix": "</w>"
  },
  "model": {
    "type": "BPE",
    "dropout": null,
    "unk_token": "<unk>",
    "continuing_subword_prefix": null,
    "end_of_word_suffix": "</w>",
    "fuse_unk": false,
    "byte_fallback": false,
    "ignore_merges": false,
    "vocab": {
      "<pad>": 0,
      "<s>": 1,
      "</s>": 2,
      "<unk>": 3,
      "!": 4,
      "\"": 5,
      "#": 6,
      "$": 7,
      "%": 8,
      "&": 9,
      "'": 10,
      "(": 11,
      ")": 12,
      "*": 13,
      "+": 14,
      ",": 15,
      "-": 16,
      ".": 17,
      "/": 18,
      "0": 19,
      "1": 20,
      "2": 21,
      "3": 22,
      "4": 23,
      "5": 24,
      "6": 25,
      "7": 26,
      "8": 27,
      "9": 28,
      ":": 29,
      ";": 30,
      "<": 31,
      "=": 32,
      ">": 33,
      "?": 34,
      "@": 35,
      "A": 36,
      "B": 37,
      "C": 38,
      "D": 39,
      "E": 40,
      "F": 41,
      "G": 42,
      "H": 43,
      "I": 44,
      "J": 45,
      "K": 46,
      "L": 47,
      "M": 48,
      "N": 49,
      "O": 50,
      "P": 51,
      "Q": 52,
      "R": 53,
      "S": 54,
      "T": 55,
      "U": 56,
      "V": 57,
      "W": 58,
      "X": 59,
      "Y": 60,
      "Z": 61,
      "[": 62,
      "\\": 63,
      "]": 64,
      "^": 65,
      "_": 66,
      "`": 67,
      "a": 68,
      "b": 69,
      "c": 70,
      "d": 71,
      "e": 72,
      "f": 73,
      "g": 74,
      "h": 75,
      "i": 76,
      "j": 77,
      "k": 78,
      "l": 79,
      "m": 80,
      "n": 81,
      "o": 82,
      "p": 83,
      "q": 84,
      "r": 85,
      "s": 86,
      "t": 87,
      "u": 88,
      "v": 89,
      "w": 90,
      "x": 91,
      "y": 92,
      "z": 93,
      "{": 94,
      "|": 95,
      "}": 96,
      "~": 97,
      "À": 98,
      "Á": 99,
      "Â": 100,
      "Ã": 101,
      "Ç": 102,
      "È": 103,
      "É": 104,
      "Ê": 105,
      "Ì": 106,
      "Í": 107,
      "Ï": 108,
      "Ò": 109,
      "Ó": 110,
      "Ô": 111,
      "Õ": 112,
      "Ö": 113,
      "×": 114,
      "Ù": 115,
      "Ú": 116,
      "Ý": 117,
      "ß": 118,
      "à": 119,
      "á": 120,
      "â": 121,
      "ã": 122,
      "ä": 123,
      "å": 124,
      "è": 125,
      "é": 126,
      "ê": 127,
      "ì": 128,
      "í": 129,
      "ï": 130,
      "ò": 131,
      "ó": 132,
      "ô": 133,
      "õ": 134,
      "ö": 135,
      "÷": 136,
      "ø": 137,
      "ù": 138,
      "ú": 139,
      "ü": 140,
      "ý": 141,
      "ÿ": 142,
      "ā": 143,
      "Ă": 144,
      "ă": 145,
      "Ą": 146,
      "ą": 147,
      "Č": 148,
      "Đ": 149,
      "đ": 150,
      "ē": 151,
      "Ę": 152,
      "ě": 153,
      "Ģ": 154,
      "Ĩ": 155,
      "ĩ": 156,
      "ī": 157,
      "Į": 158,
      "į": 159,
      "ń": 160,
      "Ő": 161,
      "ő": 162,
      "Ũ": 163,
      "ũ": 164,
      "ū": 165,
      "ů": 166,
      "Ų": 167,
      "ƈ": 168,
      "Ơ": 169,
      "ơ": 170,
      "Ư": 171,
      "ư": 172,
      "ǹ": 173,
      "̀": 174,
      "́": 175,
      "̂": 176,
      "̃": 177,
      "̆": 178,
      "̈": 179,
      "̉": 180,
      "̛": 181,
      "̣": 182,
      "̷": 183,
      "̿": 184,
      "͟": 185,
      "Ạ": 186,
      "ạ": 187,
      "Ả": 188,
      "ả": 189,
      "Ấ": 190,
      "ấ": 191,
      "Ầ": 192,
      "ầ": 193,
      "Ẩ": 194,
      "ẩ": 195,
      "Ẫ": 196,
      "ẫ": 197,
      "Ậ": 198,
      "ậ": 199,
      "Ắ": 200,
      "ắ": 201,
      "Ằ": 202,
      "ằ": 203,
      "Ẳ": 204,
      "ẳ": 205,
      "Ẵ": 206,
      "ẵ": 207,
      "Ặ": 208,
      "ặ": 209,
      "Ẹ": 210,
      "ẹ": 211,
      "Ẻ": 212,
      "ẻ": 213,
      "Ẽ": 214,
      "ẽ": 215,
      "Ế": 216,
      "ế": 217,
      "Ề": 218,
      "ề": 219,
      "Ể": 220,
      "ể": 221,
      "Ễ": 222,
      "ễ": 223,
      "Ệ": 224,
      "ệ": 225,
      "Ỉ": 226,
      "ỉ": 227,
      "Ị": 228,
      "ị": 229,
      "Ọ": 230,
      "ọ": 231,
      "Ỏ": 232,
      "ỏ": 233,
      "Ố": 234,
      "ố": 235,
      "Ồ": 236,
      "ồ": 237,
      "Ổ": 238,
      "ổ": 239,
      "Ỗ": 240,
      "ỗ": 241,
      "Ộ": 242,
      "ộ": 243,
      "Ớ": 244,
      "ớ": 245,
      "Ờ": 246,
      "ờ": 247,
      "Ở": 248,
      "ở": 249,
      "Ỡ": 250,
      "ỡ": 251,
      "Ợ": 252,
      "ợ": 253,
      "Ụ": 254,
      "ụ": 255,
      "Ủ": 256,
      "ủ": 257,
      "Ứ": 258,
      "ứ": 259,
      "Ừ": 260,
      "ừ": 261,
      "Ử": 262,
      "ử": 263,
      "Ữ": 264,
      "ữ": 265,
      "Ự": 266,
      "ự": 267,
      "Ỳ": 268,
      "ỳ": 269,
      "Ỵ": 270,
      "ỵ": 271,
      "Ỷ": 272,
      "ỷ": 273,
      "Ỹ": 274,
      "ỹ": 275,
      "‘": 276,
      "’": 277,
      "“": 278,
      "”": 279,
      "…": 280,
      "s</w>": 281,
      "R</w>": 282,
      "1</w>": 283,
      "y</w>": 284,
      "g</w>": 285,
      "f</w>": 286,
      "S</w>": 287,
      "r</w>": 288,
      "m</w>": 289,
      "u</w>": 290,
      "h</w>": 291,
      "i</w>": 292,
      "n</w>": 293,
      "t</w>": 294,
      ")</w>": 295,
      "O</w>": 296,
      "M</w>": 297,
      "a</w>": 298,
      "8</w>": 299,
      "I</w>": 300,
      "o</w>": 301,
      "e</w>": 302,
      "9</w>": 303,
      "d</w>": 304,
      "p</w>": 305,
      "K</w>": 306,
      "A</w>": 307,
      "N</w>": 308,
      "k</w>": 309,
      "ô</w>": 310,
      "(</w>": 311,
      "3</w>": 312,
      "j</w>": 313,
      "!</w>": 314,
      "5</w>": 315,
      "ơ</w>": 316,
      "ớ</w>": 317,
      "Ệ</w>": 318,
      "G</w>": 319,
      ",</w>": 320,
      "ễ</w>": 321,
      "q</w>": 322,
      "Y</w>": 323,
      "v</w>": 324,
      "c</w>": 325,
      "ộ</w>": 326,
      "6</w>": 327,
      "F</w>": 328,
      "l</w>": 329,
      "C</w>": 330,
      "H</w>": 331,
      "’</w>": 332,
      "à</w>": 333,
      "ú</w>": 334,
      "T</w>": 335,
      "ỹ</w>": 336,
      "Ự</w>": 337,
      "_</w>": 338,
      "B</w>": 339,
      "ã</w>": 340,
      "D</w>": 341,
      "ể</w>": 342,
      "ỏ</w>": 343,
      "w</w>": 344,
      "z</w>": 345,
      "V</w>": 346,
      "è</w>": 347,
      "E</w>": 348,
      "x</w>": 349,
      "L</w>": 350,
      "Ủ</w>": 351,
      "ố</w>": 352,
      "â</w>": 353,
      "7</w>": 354,
      "2</w>": 355,
      "<</w>": 356,
      "Ê</w>": 357,
      "|</w>": 358,
      "ỷ</w>": 359,
      "?</w>": 360,
      "^</w>": 361,
      "ế</w>": 362,
      "ứ</w>": 363,
      "á</w>": 364,
      "ẽ</w>": 365,
      "P</w>": 366,
      "0</w>": 367,
      "Ợ</w>": 368,
      "[</w>": 369,
      "ị</w>": 370,
      "ì</w>": 371,
      "ệ</w>": 372,
      "ý</w>": 373,
      ".</w>": 374,
      "ề</w>": 375,
      "b</w>": 376,
      "À</w>": 377,
      "U</w>": 378,
      "ổ</w>": 379,
      "ê</w>": 380,
      "*</w>": 381,
      "4</w>": 382,
      "Đ</w>": 383,
      "đ</w>": 384,
      "ồ</w>": 385,
      "̃</w>": 386,
      "Ạ</w>": 387,
      "ũ</w>": 388,
      "ĩ</w>": 389,
      "></w>": 390,
      "ó</w>": 391,
      "ờ</w>": 392,
      "ẹ</w>": 393,
      "-</w>": 394,
      "ò</w>": 395,
      "ử</w>": 396,
      "í</w>": 397,
      "̂</w>": 398,
      "Ữ</w>": 399,
      "ả</w>": 400,
      "Ỡ</w>": 401,
      "…</w>": 402,
      "ụ</w>": 403,
      "é</w>": 404,
      "‘</w>": 405,
      "Ũ</w>": 406,
      "ỗ</w>": 407,
      "ợ</w>": 408,
      ";</w>": 409,
      "õ</w>": 410,
      "Ỳ</w>": 411,
      "ư</w>": 412,
      "Ử</w>": 413,
      "ỉ</w>": 414,
      "@</w>": 415,
      "W</w>": 416,
      "ỡ</w>": 417,
      "Á</w>": 418,
      "Ở</w>": 419,
      "&</w>": 420,
      "ọ</w>": 421,
      "ữ</w>": 422,
      "ừ</w>": 423,
      "å</w>": 424,
      "ỵ</w>": 425,
      "`</w>": 426,
      "ỳ</w>": 427,
      "Ọ</w>": 428,
      "ủ</w>": 429,
      "ạ</w>": 430,
      "ở</w>": 431,
      "X</w>": 432,
      "ù</w>": 433,
      "Ỵ</w>": 434,
      "Ị</w>": 435,
      "Ú</w>": 436,
      "Ả</w>": 437,
      "Ó</w>": 438,
      "J</w>": 439,
      "ẻ</w>": 440,
      "Ộ</w>": 441,
      "'</w>": 442,
      "ă</w>": 443,
      "Ô</w>": 444,
      "Ỉ</w>": 445,
      "Ừ</w>": 446,
      "ě</w>": 447,
      "Ố</w>": 448,
      "ự</w>": 449,
      "Ẻ</w>": 450,
      ":</w>": 451,
      "ø</w>": 452,
      "×</w>": 453,
      "ā</w>": 454,
      "Ỏ</w>": 455,
      "ấ</w>": 456,
      "Ụ</w>": 457,
      "”</w>": 458,
      "Ã</w>": 459,
      "Ể</w>": 460,
      "̀</w>": 461,
      "\"</w>": 462,
      "Ứ</w>": 463,
      "̉</w>": 464,
      "Ờ</w>": 465,
      "Í</w>": 466,
      "+</w>": 467,
      "ƈ</w>": 468,
      "Ễ</w>": 469,
      "Q</w>": 470,
      "Ò</w>": 471,
      "Ư</w>": 472,
      "Ý</w>": 473,
      "ẫ</w>": 474,
      "~</w>": 475,
      "Ổ</w>": 476,
      "Õ</w>": 477,
      "/</w>": 478,
      "Ĩ</w>": 479,
      "́</w>": 480,
      "ầ</w>": 481,
      "̣</w>": 482,
      "È</w>": 483,
      "%</w>": 484,
      "Ơ</w>": 485,
      "Ù</w>": 486,
      "Ồ</w>": 487,
      "Ì</w>": 488,
      "ặ</w>": 489,
      "Ỗ</w>": 490,
      "Ẹ</w>": 491,
      "Ę</w>": 492,
      "ö</w>": 493,
      "#</w>": 494,
      "\\</w>": 495,
      "ẩ</w>": 496,
      "]</w>": 497,
      "}</w>": 498,
      "=</w>": 499,
      "ē</w>": 500,
      "{</w>": 501,
      "į</w>": 502,
      "Ề</w>": 503,
      "÷</w>": 504,
      "̈</w>": 505,
      "$</w>": 506,
      "ậ</w>": 507,
      "Ỷ</w>": 508,
      "Z</w>": 509,
      "Ế</w>": 510,
      "É</w>": 511,
      "Â</w>": 512,
      "“</w>": 513,
      "ẵ</w>": 514,
      "ä</w>": 515,
      "ằ</w>": 516,
      "Ö</w>": 517,
      "ī</w>": 518,
      "Į</w>": 519,
      "ǹ</w>": 520,
      "ÿ</w>": 521,
      "Ớ</w>": 522,
      "Ỹ</w>": 523,
      "Ẽ</w>": 524,
      "̆</w>": 525,
      "ng</w>": 526,
      "th": 527,
      "ch": 528,
      "nh": 529,
      "nh</w>": 530,
      "kh": 531,
      "ng": 532,
      "gi": 533,
      "ất</w>": 534,
      "tr": 535,
      "ình</w>": 536,
      "ph": 537,
      "ên</w>": 538,
      "ao</w>": 539,
      "ông</w>": 540,
      "ượ": 541,
      "qu": 542,
      "àng</w>": 543,
      "ày</w>": 544,
      "có</w>": 545,
      "ới</w>": 546,
      "là</w>": 547,
      "anh</w>": 548,
      "ua</w>": 549,
      "iệ": 550,
      "thì</w>": 551,
      "..": 552,
      "ay</w>": 553,
      "iế": 554,
      "ấy</w>": 555,
      "ời</w>": 556,
      "hàng</w>": 557,
      "mua</w>": 558,
      "rất</w>": 559,
      "ài</w>": 560,
      "ại</w>": 561,
      "không</w>": 562,
      "cá": 563,
      "ơi</w>": 564,
      "áy</w>": 565,
      "ho": 566,
      "mà</w>": 567,
      "in</w>": 568,
      "ần</w>": 569,
      "iề": 570,
      "ưng</w>": 571,
      "ói</w>": 572,
      "ch</w>": 573,
      "on</w>": 574,
      "mình</w>": 575,
      "ược</w>": 576,
      "nhanh</w>": 577,
      "ản</w>": 578,
      "này</w>": 579,
      "ân</w>": 580,
      "tố": 581,
      "uy": 582,
      "được</w>": 583,
      "ẹp</w>": 584,
      "ùng</w>": 585,
      "âu</w>": 586,
      "ong</w>": 587,
      "và</w>": 588,
      "cho</w>": 589,
      "ận</w>": 590,
      "đẹp</w>": 591,
      "ồi</w>": 592,
      "ũng</w>": 593,
      "tốt</w>": 594,
      "ào</w>": 595,
      "ải</w>": 596,
      "ko</w>": 597,
      "máy</w>": 598,
      "cũng</w>": 599,
      "ơn</w>": 600,
      "giá</w>": 601,
      "ai</w>": 602,
      "ẩm</w>": 603,
      "Ch": 604,
      "nhưng</w>": 605,
      "em</w>": 606,
      "như</w>": 607,
      "quá</w>": 608,
      "nên</w>": 609,
      "am": 610,
      "phẩm</w>": 611,
      "ra</w>": 612,
      "ười</w>": 613,
      "óng</w>": 614,
      "ang</w>": 615,
      "ôi</w>": 616,
      "ung</w>": 617,
      "hop</w>": 618,
      "òn</w>": 619,
      "lại</w>": 620,
      "ết</w>": 621,
      "ngh": 622,
      "ướ": 623,
      "an</w>": 624,
      "ủa</w>": 625,
      "lu": 626,
      "bị</w>": 627,
      "iên</w>": 628,
      "hình</w>": 629,
      "))</w>": 630,
      "của</w>": 631,
      "rồi</w>": 632,
      "iều</w>": 633,
      "dùng</w>": 634,
      "áng</w>": 635,
      "ok</w>": 636,
      "giao</w>": 637,
      "cái</w>": 638,
      "thấy</w>": 639,
      "pin</w>": 640,
      "với</w>": 641,
      "iết</w>": 642,
      "àn</w>": 643,
      "inh</w>": 644,
      "người</w>": 645,
      "đi</w>": 646,
      "mới</w>": 647,
      "ôn</w>": 648,
      "lắ": 649,
      "au</w>": 650,
      "ật</w>": 651,
      "Th": 652,
      "còn</w>": 653,
      "kk": 654,
      "ác</w>": 655,
      "ắc</w>": 656,
      "ảm</w>": 657,
      "con</w>": 658,
      "ưa</w>": 659,
      "shop</w>": 660,
      "ượng</w>": 661,
      "nó</w>": 662,
      "iện</w>": 663,
      "gì</w>": 664,
      "để</w>": 665,
      "hơn</w>": 666,
      "àm</w>": 667,
      "lắm</w>": 668,
      "chất</w>": 669,
      "ước</w>": 670,
      "ạn</w>": 671,
      "luôn</w>": 672,
      "úc</w>": 673,
      "sản</w>": 674,
      "iệt</w>": 675,
      "lượng</w>": 676,
      "ữa</w>": 677,
      "ăn</w>": 678,
      "nói</w>": 679,
      "Nh": 680,
      "sao</w>": 681,
      "Gi": 682,
      "ây</w>": 683,
      "iền</w>": 684,
      "phải</w>": 685,
      "ặt</w>": 686,
      "ống</w>": 687,
      "làm</w>": 688,
      "về</w>": 689,
      "iể": 690,
      "hơi</w>": 691,
      "am</w>": 692,
      "úng</w>": 693,
      "nhiều</w>": 694,
      "ổn</w>": 695,
      "khi</w>": 696,
      "ngày</w>": 697,
      "ọi</w>": 698,
      "êu</w>": 699,
      "ầm</w>": 700,
      "đã</w>": 701,
      "nào</w>": 702,
      "gói</w>": 703,
      "ạc</w>": 704,
      "trong</w>": 705,
      "hay</w>": 706,
      "ụng</w>": 707,
      "nhận</w>": 708,
      "...</w>": 709,
      "ầu</w>": 710,
      "chơi</w>": 711,
      "biết</w>": 712,
      "đc</w>": 713,
      "chỉ</w>": 714,
      "ích</w>": 715,
      "ẫn</w>": 716,
      "tu": 717,
      "Ng": 718,
      "ame</w>": 719,
      "ươ": 720,
      "chưa</w>": 721,
      "ương</w>": 722,
      "ậy</w>": 723,
      "lo": 724,
      "án</w>": 725,
      "ính</w>": 726,
      "khá</w>": 727,
      "sẽ</w>": 728,
      "òng</w>": 729,
      "ắt</w>": 730,
      "game</w>": 731,
      "dụng</w>": 732,
      "nữa</w>": 733,
      "cả</w>": 734,
      "ỗi</w>": 735,
      "..</w>": 736,
      "ột</w>": 737,
      "ực</w>": 738,
      "bạn</w>": 739,
      "tiền</w>": 740,
      "ẩn</w>": 741,
      "êm</w>": 742,
      "ảnh</w>": 743,
      "ục</w>": 744,
      "các</w>": 745,
      "cảm</w>": 746,
      "Tr": 747,
      "pp": 748,
      "eo</w>": 749,
      "ượt</w>": 750,
      "ứng</w>": 751,
      "thế</w>": 752,
      "oi</w>": 753,
      "Máy</w>": 754,
      "ii": 755,
      "ườ": 756,
      "lần</w>": 757,
      "nha</w>": 758,
      "ắn</w>": 759,
      "ọc</w>": 760,
      "ường</w>": 761,
      "ành</w>": 762,
      "vậy</w>": 763,
      "hết</w>": 764,
      "ằng</w>": 765,
      "sau</w>": 766,
      "vẫn</w>": 767,
      "ầy</w>": 768,
      "lên</w>": 769,
      "tt": 770,
      "uố": 771,
      "uyệ": 772,
      "chắc</w>": 773,
      "tiế": 774,
      "tình</w>": 775,
      "ức</w>": 776,
      "....": 777,
      "ến</w>": 778,
      "đóng</w>": 779,
      "àu</w>": 780,
      "ánh</w>": 781,
      "mượt</w>": 782,
      "thôi</w>": 783,
      ")))</w>": 784,
      "vào</w>": 785,
      "ăng</w>": 786,
      "mấy</w>": 787,
      "nn": 788,
      "ừa</w>": 789,
      "Sản</w>": 790,
      "lâu</w>": 791,
      "tay</w>": 792,
      "ảo</w>": 793,
      "thích</w>": 794,
      "đúng</w>": 795,
      "đó</w>": 796,
      "nhà</w>": 797,
      "en</w>": 798,
      "ụp</w>": 799,
      "ổi</w>": 800,
      "hh": 801,
      "nghe</w>": 802,
      "ái</w>": 803,
      "Mình</w>": 804,
      "át</w>": 805,
      "xài</w>": 806,
      "aa": 807,
      "nhé</w>": 808,
      "Giao</w>": 809,
      "sử</w>": 810,
      "ạy</w>": 811,
      "lúc</w>": 812,
      "ìn</w>": 813,
      "sạc</w>": 814,
      ":))</w>": 815,
      "tầm</w>": 816,
      "ủng</w>": 817,
      "si": 818,
      "áo</w>": 819,
      "âm</w>": 820,
      "đầu</w>": 821,
      "chung</w>": 822,
      "đâu</w>": 823,
      "ngon</w>": 824,
      "xem</w>": 825,
      "ấu</w>": 826,
      "chụp</w>": 827,
      "ame": 828,
      "mọi</w>": 829,
      "qua</w>": 830,
      "hộ</w>": 831,
      "ik": 832,
      "chứ</w>": 833,
      "ặc</w>": 834,
      "ọng</w>": 835,
      "đến</w>": 836,
      "khác</w>": 837,
      "vì</w>": 838,
      "tho": 839,
      "lòng</w>": 840,
      "tao</w>": 841,
      "amera</w>": 842,
      "ếu</w>": 843,
      "ộng</w>": 844,
      "một</w>": 845,
      "viên</w>": 846,
      "ợp</w>": 847,
      "dễ</w>": 848,
      "từ</w>": 849,
      "nhiệt</w>": 850,
      "ọn</w>": 851,
      "hi": 852,
      "út</w>": 853,
      "iểu</w>": 854,
      "ỏi</w>": 855,
      "ồn</w>": 856,
      "iệu</w>": 857,
      "to": 858,
      "ấn</w>": 859,
      "hợp</w>": 860,
      "vừa</w>": 861,
      "trâu</w>": 862,
      "Kh": 863,
      "giờ</w>": 864,
      "thật</w>": 865,
      "ồng</w>": 866,
      "hài</w>": 867,
      "kkkk": 868,
      "vi": 869,
      "lỗi</w>": 870,
      "thận</w>": 871,
      "ui</w>": 872,
      "cẩn</w>": 873,
      "al": 874,
      "ôm</w>": 875,
      "màu</w>": 876,
      "rẻ</w>": 877,
      "Ph": 878,
      "nước</w>": 879,
      "màn</w>": 880,
      "dj": 881,
      "ặng</w>": 882,
      "Hàng</w>": 883,
      "ok": 884,
      "ăm</w>": 885,
      "ập</w>": 886,
      "tháng</w>": 887,
      "er</w>": 888,
      "uyệt</w>": 889,
      "éo</w>": 890,
      "nhìn</w>": 891,
      "ừng</w>": 892,
      "ội</w>": 893,
      "ững</w>": 894,
      "độ</w>": 895,
      "nhân</w>": 896,
      "thứ</w>": 897,
      "ta</w>": 898,
      "trước</w>": 899,
      "thể</w>": 900,
      "uyên</w>": 901,
      "đặt</w>": 902,
      "ối</w>": 903,
      "mặt</w>": 904,
      "ngo": 905,
      "tôi</w>": 906,
      "đủ</w>": 907,
      "Qu": 908,
      "ạnh</w>": 909,
      "đây</w>": 910,
      "gh": 911,
      "ịch</w>": 912,
      "uốn</w>": 913,
      "ễn</w>": 914,
      "bảo</w>": 915,
      "iến</w>": 916,
      "ãi</w>": 917,
      "iki</w>": 918,
      "những</w>": 919,
      "camera</w>": 920,
      "thêm</w>": 921,
      "đáng</w>": 922,
      "nhất</w>": 923,
      "ạt</w>": 924,
      "chắn</w>": 925,
      "tuyệt</w>": 926,
      "uy</w>": 927,
      "ạm</w>": 928,
      "ảng</w>": 929,
      "ửi</w>": 930,
      "ấp</w>": 931,
      "nay</w>": 932,
      "nhỏ</w>": 933,
      "ền</w>": 934,
      "))": 935,
      "sự</w>": 936,
      "óc</w>": 937,
      "ét</w>": 938,
      "to</w>": 939,
      "đang</w>": 940,
      "cao</w>": 941,
      "ách</w>": 942,
      "mẹ</w>": 943,
      "00": 944,
      "Shop</w>": 945,
      "so</w>": 946,
      "ưở": 947,
      "trên</w>": 948,
      "iểm</w>": 949,
      "im</w>": 950,
      "muốn</w>": 951,
      "cực</w>": 952,
      "chị</w>": 953,
      "ee": 954,
      "tính</w>": 955,
      "kho": 956,
      "mang</w>": 957,
      "hôm</w>": 958,
      "do</w>": 959,
      "bao</w>": 960,
      "ưởng</w>": 961,
      "Nguy": 962,
      "xu": 963,
      "ều</w>": 964,
      "thời</w>": 965,
      "đị": 966,
      "dc</w>": 967,
      "ùi</w>": 968,
      "sj": 969,
      "la": 970,
      "đánh</w>": 971,
      "phục</w>": 972,
      "mày</w>": 973,
      "ha": 974,
      "gg": 975,
      "đều</w>": 976,
      "sáng</w>": 977,
      "nóng</w>": 978,
      "vụ</w>": 979,
      "điện</w>": 980,
      "vời</w>": 981,
      "chu": 982,
      "yêu</w>": 983,
      "ơm</w>": 984,
      "chạy</w>": 985,
      "mất</w>": 986,
      "vọng</w>": 987,
      "thương</w>": 988,
      "Mua</w>": 989,
      "bên</w>": 990,
      "ít</w>": 991,
      "tự</w>": 992,
      "cứ</w>": 993,
      "ộc</w>": 994,
      "ạo</w>": 995,
      "vấn</w>": 996,
      "!!": 997,
      "ngoài</w>": 998,
      "an": 999,
      "động</w>": 1000,
      "cần</w>": 1001,
      "năm</w>": 1002,
      "tiếp</w>": 1003,
      "gian</w>": 1004,
      "Pin</w>": 1005,
      "sài</w>": 1006,
      "công</w>": 1007,
      "liên</w>": 1008,
      "đổi</w>": 1009,
      "ạng</w>": 1010,
      "ấm</w>": 1011,
      "hã": 1012,
      "Chất</w>": 1013,
      "bu": 1014,
      "thằng</w>": 1015,
      "tin</w>": 1016,
      "thoại</w>": 1017,
      "Mới</w>": 1018,
      "uu": 1019,
      "úi</w>": 1020,
      "chính</w>": 1021,
      "Nguyễn</w>": 1022,
      "xong</w>": 1023,
      "siêu</w>": 1024,
      "bán</w>": 1025,
      "học</w>": 1026,
      "gọi</w>": 1027,
      "re": 1028,
      "iệm</w>": 1029,
      "dân</w>": 1030,
      "tới</w>": 1031,
      "di": 1032,
      "ti": 1033,
      "tư</w>": 1034,
      "ửa</w>": 1035,
      "tttt": 1036,
      "số</w>": 1037,
      "Có</w>": 1038,
      "cô</w>": 1039,
      "bằng</w>": 1040,
      "tiếng</w>": 1041,
      "định</w>": 1042,
      "vô</w>": 1043,
      "cách</w>": 1044,
      "bình</w>": 1045,
      "ma": 1046,
      "ợi</w>": 1047,
      "ậm</w>": 1048,
      "iếu</w>": 1049,
      "Nói</w>": 1050,
      "bắt</w>": 1051,
      "te</w>": 1052,
      "lớ": 1053,
      "giống</w>": 1054,
      "dn": 1055,
      "tâm</w>": 1056,
      "tặng</w>": 1057,
      ":)))</w>": 1058,
      "li": 1059,
      "mm": 1060,
      "đấy</w>": 1061,
      "thử</w>": 1062,
      "thường</w>": 1063,
      "10</w>": 1064,
      "ộp</w>": 1065,
      "loại</w>": 1066,
      "thầy</w>": 1067,
      "sk": 1068,
      "đồng</w>": 1069,
      "ia</w>": 1070,
      "điều</w>": 1071,
      "ốc</w>": 1072,
      "on": 1073,
      "tụ": 1074,
      "cu": 1075,
      "if": 1076,
      "nếu</w>": 1077,
      "xinh</w>": 1078,
      "cùng</w>": 1079,
      "đầy</w>": 1080,
      "........": 1081,
      "vân</w>": 1082,
      "sn": 1083,
      "hành</w>": 1084,
      "db": 1085,
      "ịn</w>": 1086,
      "theo</w>": 1087,
      "tại</w>": 1088,
      "uyện</w>": 1089,
      "quan</w>": 1090,
      "mặc</w>": 1091,
      "ba</w>": 1092,
      "bé</w>": 1093,
      "tệ</w>": 1094,
      "iiii": 1095,
      "lấy</w>": 1096,
      "ắng</w>": 1097,
      "chi</w>": 1098,
      "nhẹ</w>": 1099,
      "thành</w>": 1100,
      "ém</w>": 1101,
      "vui</w>": 1102,
      "năng</w>": 1103,
      "ịu</w>": 1104,
      "Nhưng</w>": 1105,
      "vs</w>": 1106,
      "nhiên</w>": 1107,
      "hỏi</w>": 1108,
      "be</w>": 1109,
      "lý</w>": 1110,
      "ám</w>": 1111,
      "tuần</w>": 1112,
      "dù</w>": 1113,
      "xe</w>": 1114,
      "đéo</w>": 1115,
      "....</w>": 1116,
      "dài</w>": 1117,
      "aaaa": 1118,
      "deo</w>": 1119,
      "10": 1120,
      "đồ</w>": 1121,
      "pppp": 1122,
      "nnnn": 1123,
      "bản</w>": 1124,
      "Anh</w>": 1125,
      "ốt</w>": 1126,
      "chết</w>": 1127,
      "nghĩ</w>": 1128,
      "toàn</w>": 1129,
      "ỏng</w>": 1130,
      "xin</w>": 1131,
      "Tiki</w>": 1132,
      "phần</w>": 1133,
      "Đóng</w>": 1134,
      "da</w>": 1135,
      "Rất</w>": 1136,
      "gần</w>": 1137,
      "tạm</w>": 1138,
      "oo": 1139,
      "sợ</w>": 1140,
      "mở</w>": 1141,
      "mong</w>": 1142,
      "per</w>": 1143,
      "mỗi</w>": 1144,
      "ển</w>": 1145,
      "Cảm</w>": 1146,
      "chửi</w>": 1147,
      "lag</w>": 1148,
      "ie": 1149,
      "điểm</w>": 1150,
      "chậm</w>": 1151,
      "hiện</w>": 1152,
      "ỉnh</w>": 1153,
      "mạnh</w>": 1154,
      "hộp</w>": 1155,
      "chịu</w>": 1156,
      "shi": 1157,
      "thu": 1158,
      "hãng</w>": 1159,
      "sinh</w>": 1160,
      "??": 1161,
      "bỏ</w>": 1162,
      "hiểu</w>": 1163,
      "kém</w>": 1164,
      "dịch</w>": 1165,
      "chuy": 1166,
      "20": 1167,
      "loa</w>": 1168,
      "kế</w>": 1169,
      "thơm</w>": 1170,
      "chúng</w>": 1171,
      "ướng</w>": 1172,
      "Đã</w>": 1173,
      "nhau</w>": 1174,
      "sp</w>": 1175,
      "áp</w>": 1176,
      "ạch</w>": 1177,
      "ngay</w>": 1178,
      "kiểu</w>": 1179,
      "thất</w>": 1180,
      "se": 1181,
      "cười</w>": 1182,
      "ifi</w>": 1183,
      "co": 1184,
      "bộ</w>": 1185,
      "video</w>": 1186,
      "chuẩn</w>": 1187,
      "jj": 1188,
      "hiệu</w>": 1189,
      "kkkkkkkk": 1190,
      "iệc</w>": 1191,
      "dk": 1192,
      "ắm</w>": 1193,
      "Việt</w>": 1194,
      "khó</w>": 1195,
      "=))</w>": 1196,
      "ac": 1197,
      "mn</w>": 1198,
      "Ho": 1199,
      "tưởng</w>": 1200,
      "sắc</w>": 1201,
      "ou": 1202,
      "chuyện</w>": 1203,
      "tục</w>": 1204,
      "sống</w>": 1205,
      "báo</w>": 1206,
      "at</w>": 1207,
      "dh": 1208,
      "đường</w>": 1209,
      "rõ</w>": 1210,
      "ứa</w>": 1211,
      "nè</w>": 1212,
      "))))</w>": 1213,
      "sang</w>": 1214,
      "vãi</w>": 1215,
      "phim</w>": 1216,
      "may</w>": 1217,
      "kết</w>": 1218,
      "hhhh": 1219,
      "thiết</w>": 1220,
      "chó</w>": 1221,
      "èm</w>": 1222,
      "ép</w>": 1223,
      "việc</w>": 1224,
      "nhạy</w>": 1225,
      "mùi</w>": 1226,
      "túi</w>": 1227,
      "chê</w>": 1228,
      "iệp</w>": 1229,
      "mi": 1230,
      "bác</w>": 1231,
      "thân</w>": 1232,
      "tối</w>": 1233,
      "mắt</w>": 1234,
      "tiki</w>": 1235,
      "yếu</w>": 1236,
      "tr</w>": 1237,
      "Giá</w>": 1238,
      "thanh</w>": 1239,
      "giảm</w>": 1240,
      "nét</w>": 1241,
      "ềm</w>": 1242,
      "xu</w>": 1243,
      "Không</w>": 1244,
      "OK</w>": 1245,
      "te": 1246,
      "đơ</w>": 1247,
      "chuyển</w>": 1248,
      "cơ</w>": 1249,
      "cấu</w>": 1250,
      "tiện</w>": 1251,
      "gia</w>": 1252,
      "mạng</w>": 1253,
      "nhớ</w>": 1254,
      "giật</w>": 1255,
      "phát</w>": 1256,
      "NG</w>": 1257,
      "wifi</w>": 1258,
      "me</w>": 1259,
      "mềm</w>": 1260,
      "sung</w>": 1261,
      "ựa</w>": 1262,
      "quay</w>": 1263,
      "dd": 1264,
      "đừng</w>": 1265,
      "Nam</w>": 1266,
      "Trần</w>": 1267,
      "tụt</w>": 1268,
      "nhật</w>": 1269,
      "phù</w>": 1270,
      "la</w>": 1271,
      "ướt</w>": 1272,
      "quả</w>": 1273,
      "bà</w>": 1274,
      "ẫu</w>": 1275,
      "lớn</w>": 1276,
      "ha</w>": 1277,
      "chán</w>": 1278,
      "nguyên</w>": 1279,
      "trả</w>": 1280,
      "sb": 1281,
      "vẻ</w>": 1282,
      "thông</w>": 1283,
      "minh</w>": 1284,
      "èo</w>": 1285,
      "vài</w>": 1286,
      "nhỉ</w>": 1287,
      "nghiệm</w>": 1288,
      "Còn</w>": 1289,
      "bọn</w>": 1290,
      "tai</w>": 1291,
      "en": 1292,
      "giới</w>": 1293,
      "ad</w>": 1294,
      "kì</w>": 1295,
      "trời</w>": 1296,
      "du": 1297,
      "buồn</w>": 1298,
      "ẳng</w>": 1299,
      "lắp</w>": 1300,
      "20</w>": 1301,
      "cầm</w>": 1302,
      "cầu</w>": 1303,
      "coi</w>": 1304,
      "in": 1305,
      "ngu</w>": 1306,
      "bàn</w>": 1307,
      "úp</w>": 1308,
      "chút</w>": 1309,
      "khỏi</w>": 1310,
      "trung</w>": 1311,
      "chân</w>": 1312,
      "bài</w>": 1313,
      "kèm</w>": 1314,
      "thức</w>": 1315,
      "vải</w>": 1316,
      "nhạc</w>": 1317,
      "Hình</w>": 1318,
      "ặp</w>": 1319,
      "ghê</w>": 1320,
      "hi</w>": 1321,
      "vl</w>": 1322,
      "nhi": 1323,
      "quân</w>": 1324,
      "Nhân</w>": 1325,
      ":)</w>": 1326,
      "he</w>": 1327,
      "đt</w>": 1328,
      "ặn</w>": 1329,
      "chế</w>": 1330,
      "cam</w>": 1331,
      "quy": 1332,
      "ma</w>": 1333,
      "((</w>": 1334,
      "òi</w>": 1335,
      "óa</w>": 1336,
      "ak": 1337,
      "bb": 1338,
      "đọc</w>": 1339,
      "ngu": 1340,
      "óp</w>": 1341,
      "sóng</w>": 1342,
      "sai</w>": 1343,
      "ale</w>": 1344,
      "co</w>": 1345,
      "do": 1346,
      "bố</w>": 1347,
      "hồi</w>": 1348,
      "lo</w>": 1349,
      "tiên</w>": 1350,
      "thực</w>": 1351,
      "iển</w>": 1352,
      "chọn</w>": 1353,
      "trợ</w>": 1354,
      "thiện</w>": 1355,
      "xuống</w>": 1356,
      "dung</w>": 1357,
      "ưu</w>": 1358,
      "kinh</w>": 1359,
      "nam</w>": 1360,
      "chỗ</w>": 1361,
      "bo": 1362,
      "ắp</w>": 1363,
      "uyết</w>": 1364,
      "tội</w>": 1365,
      "càng</w>": 1366,
      "mẫu</w>": 1367,
      "giải</w>": 1368,
      "ri": 1369,
      "đợi</w>": 1370,
      "xuất</w>": 1371,
      "bền</w>": 1372,
      "nặng</w>": 1373,
      "ổng</w>": 1374,
      "ss": 1375,
      "dòng</w>": 1376,
      "tắt</w>": 1377,
      "ve</w>": 1378,
      "kia</w>": 1379,
      "chống</w>": 1380,
      "cáo</w>": 1381,
      "sale</w>": 1382,
      "đề</w>": 1383,
      "kỹ</w>": 1384,
      "--": 1385,
      "Minh</w>": 1386,
      "xa</w>": 1387,
      "fj": 1388,
      "su": 1389,
      "tí</w>": 1390,
      "đời</w>": 1391,
      "câu</w>": 1392,
      "trọng</w>": 1393,
      "Con</w>": 1394,
      "Dùng</w>": 1395,
      "le</w>": 1396,
      "amsung</w>": 1397,
      "okok": 1398,
      "khách</w>": 1399,
      "Camera</w>": 1400,
      "yên</w>": 1401,
      "chủ</w>": 1402,
      "ship</w>": 1403,
      "dư": 1404,
      "gọn</w>": 1405,
      "chả</w>": 1406,
      "tác</w>": 1407,
      "ro": 1408,
      "êng</w>": 1409,
      "mát</w>": 1410,
      "tả</w>": 1411,
      "oke</w>": 1412,
      "sh": 1413,
      "tất</w>": 1414,
      "djdj": 1415,
      "Sẽ</w>": 1416,
      "cứng</w>": 1417,
      "gd": 1418,
      "no": 1419,
      "ca": 1420,
      "trang</w>": 1421,
      "Cho</w>": 1422,
      "dây</w>": 1423,
      "trai</w>": 1424,
      "Em</w>": 1425,
      "ớt</w>": 1426,
      "quần</w>": 1427,
      "dày</w>": 1428,
      "cấp</w>": 1429,
      "vàng</w>": 1430,
      "ệnh</w>": 1431,
      "gửi</w>": 1432,
      "đen</w>": 1433,
      "lướt</w>": 1434,
      "áu</w>": 1435,
      "lời</w>": 1436,
      "mã</w>": 1437,
      "ze</w>": 1438,
      "đêm</w>": 1439,
      "đứa</w>": 1440,
      "ậu</w>": 1441,
      "tuy</w>": 1442,
      "tui</w>": 1443,
      "biến</w>": 1444,
      "cm": 1445,
      "giác</w>": 1446,
      "VN</w>": 1447,
      "=)))</w>": 1448,
      "kiến</w>": 1449,
      "đơn</w>": 1450,
      "st</w>": 1451,
      "íu</w>": 1452,
      "thay</w>": 1453,
      "họ</w>": 1454,
      "yy": 1455,
      "vị</w>": 1456,
      "……": 1457,
      "mỏng</w>": 1458,
      "we": 1459,
      "giúp</w>": 1460,
      "cập</w>": 1461,
      "ịt</w>": 1462,
      "gái</w>": 1463,
      "Quá</w>": 1464,
      "he": 1465,
      "kg</w>": 1466,
      "mi</w>": 1467,
      "ru": 1468,
      "mức</w>": 1469,
      "ùa</w>": 1470,
      "ii</w>": 1471,
      "kĩ</w>": 1472,
      "việt</w>": 1473,
      "hoa</w>": 1474,
      "uối</w>": 1475,
      "gggg": 1476,
      "100</w>": 1477,
      "xịn</w>": 1478,
      "iếc</w>": 1479,
      "ngủ</w>": 1480,
      "nghiệp</w>": 1481,
      "eeee": 1482,
      "bây</w>": 1483,
      "ip</w>": 1484,
      "al</w>": 1485,
      "de": 1486,
      "nổi</w>": 1487,
      "Chỉ</w>": 1488,
      "di</w>": 1489,
      "dán</w>": 1490,
      "ìm</w>": 1491,
      "chu</w>": 1492,
      "tttttttt": 1493,
      "Mọi</w>": 1494,
      "thiếu</w>": 1495,
      "ro</w>": 1496,
      "khoảng</w>": 1497,
      "nhu</w>": 1498,
      "cc": 1499,
      "gặp</w>": 1500,
      "quảng</w>": 1501,
      "size</w>": 1502,
      "xấu</w>": 1503,
      "ảy</w>": 1504,
      "thua</w>": 1505,
      "bất</w>": 1506,
      "oc</w>": 1507,
      "??</w>": 1508,
      "phân</w>": 1509,
      "ẩu</w>": 1510,
      "thi</w>": 1511,
      "fu": 1512,
      "kỳ</w>": 1513,
      "bật</w>": 1514,
      "dẫn</w>": 1515,
      "ne</w>": 1516,
      "xanh</w>": 1517,
      "ón</w>": 1518,
      "xn": 1519,
      "xíu</w>": 1520,
      "Nghe</w>": 1521,
      "Nên</w>": 1522,
      "biệt</w>": 1523,
      "bệnh</w>": 1524,
      "ởi</w>": 1525,
      "hoặc</w>": 1526,
      "!!!</w>": 1527,
      "đối</w>": 1528,
      "trải</w>": 1529,
      "Lo": 1530,
      "uốc</w>": 1531,
      "tượng</w>": 1532,
      "Ai</w>": 1533,
      "hồ</w>": 1534,
      "hả</w>": 1535,
      "hỗ</w>": 1536,
      "liệu</w>": 1537,
      "mô</w>": 1538,
      "ớm</w>": 1539,
      "ựng</w>": 1540,
      "đất</w>": 1541,
      "Nhìn</w>": 1542,
      "mãi</w>": 1543,
      "ck</w>": 1544,
      "xi": 1545,
      "xj": 1546,
      "ím</w>": 1547,
      "kêu</w>": 1548,
      "ll</w>": 1549,
      "hai</w>": 1550,
      "mái</w>": 1551,
      "đôi</w>": 1552,
      "thị</w>": 1553,
      "uuuu": 1554,
      "Tôi</w>": 1555,
      "lợi</w>": 1556,
      "tgd": 1557,
      "uống</w>": 1558,
      "ọt</w>": 1559,
      "lun</w>": 1560,
      "ốp</w>": 1561,
      "quốc</w>": 1562,
      "one</w>": 1563,
      "sạch</w>": 1564,
      "tận</w>": 1565,
      "alo</w>": 1566,
      "cuộc</w>": 1567,
      ":))))</w>": 1568,
      "Chị</w>": 1569,
      "đau</w>": 1570,
      "uyền</w>": 1571,
      "TH": 1572,
      "bi": 1573,
      "tế</w>": 1574,
      "tiết</w>": 1575,
      "zz": 1576,
      "lớp</w>": 1577,
      "or": 1578,
      "tên</w>": 1579,
      "!!</w>": 1580,
      "Sau</w>": 1581,
      "ss</w>": 1582,
      "giấy</w>": 1583,
      "triệu</w>": 1584,
      "phụ</w>": 1585,
      "Chơi</w>": 1586,
      "11</w>": 1587,
      "th</w>": 1588,
      "lí</w>": 1589,
      "ín</w>": 1590,
      "vận</w>": 1591,
      "đứng</w>": 1592,
      "))))": 1593,
      "ban</w>": 1594,
      "hu": 1595,
      "ww": 1596,
      "ỏe</w>": 1597,
      "trừ</w>": 1598,
      ":((</w>": 1599,
      "Cái</w>": 1600,
      "chờ</w>": 1601,
      "ngồi</w>": 1602,
      "nguồn</w>": 1603,
      "Ko</w>": 1604,
      "cố</w>": 1605,
      "tìm</w>": 1606,
      "xo": 1607,
      "khỏe</w>": 1608,
      "ai": 1609,
      "hoàn</w>": 1610,
      "ae</w>": 1611,
      "ly</w>": 1612,
      "chức</w>": 1613,
      "ao": 1614,
      "cài</w>": 1615,
      "trường</w>": 1616,
      "trắng</w>": 1617,
      "phòng</w>": 1618,
      "iếm</w>": 1619,
      "GD": 1620,
      "cj": 1621,
      "uôn</w>": 1622,
      "phí</w>": 1623,
      "so": 1624,
      "ppo</w>": 1625,
      "Hoàng</w>": 1626,
      "lưng</w>": 1627,
      "mo": 1628,
      "thuyết</w>": 1629,
      "CH": 1630,
      "đỡ</w>": 1631,
      "chóng</w>": 1632,
      "tuổi</w>": 1633,
      "lồn</w>": 1634,
      "nối</w>": 1635,
      "000</w>": 1636,
      "dưới</w>": 1637,
      "Màn</w>": 1638,
      "cá</w>": 1639,
      "hướng</w>": 1640,
      "đeo</w>": 1641,
      "trẻ</w>": 1642,
      "phone</w>": 1643,
      "TGD": 1644,
      "rộng</w>": 1645,
      "đăng</w>": 1646,
      "ike</w>": 1647,
      "haha": 1648,
      "tuột</w>": 1649,
      "iếng</w>": 1650,
      "tập</w>": 1651,
      "chấp</w>": 1652,
      "vie": 1653,
      "sớm</w>": 1654,
      "tinh</w>": 1655,
      "từng</w>": 1656,
      "quà</w>": 1657,
      "Chưa</w>": 1658,
      "ẳn</w>": 1659,
      "diện</w>": 1660,
      "mịn</w>": 1661,
      "chiếc</w>": 1662,
      "già</w>": 1663,
      "nnnnnnnn": 1664,
      "cửa</w>": 1665,
      "văn</w>": 1666,
      "thu</w>": 1667,
      "fi": 1668,
      "ếp</w>": 1669,
      "hoạt</w>": 1670,
      "tóc</w>": 1671,
      "tra</w>": 1672,
      "mmmm": 1673,
      "Sp</w>": 1674,
      "bay</w>": 1675,
      "da": 1676,
      "nấu</w>": 1677,
      "sức</w>": 1678,
      "thoải</w>": 1679,
      "Lần</w>": 1680,
      "ão</w>": 1681,
      ").</w>": 1682,
      "fan</w>": 1683,
      "lực</w>": 1684,
      "ệt</w>": 1685,
      "Sao</w>": 1686,
      "dự</w>": 1687,
      "hẳn</w>": 1688,
      "má</w>": 1689,
      "samsung</w>": 1690,
      "tgdd</w>": 1691,
      "iiiiiiii": 1692,
      "đòi</w>": 1693,
      "chẳng</w>": 1694,
      "ag": 1695,
      "ca</w>": 1696,
      "tài</w>": 1697,
      "chú</w>": 1698,
      "tụi</w>": 1699,
      "ứt</w>": 1700,
      "sjsj": 1701,
      "no</w>": 1702,
      "cũ</w>": 1703,
      "ks</w>": 1704,
      "nu": 1705,
      "pu": 1706,
      "đem</w>": 1707,
      "ợt</w>": 1708,
      "Lê</w>": 1709,
      "cung</w>": 1710,
      "chiều</w>": 1711,
      "hội</w>": 1712,
      "xb": 1713,
      "Trung</w>": 1714,
      "30</w>": 1715,
      "50": 1716,
      "nhắn</w>": 1717,
      "aaaaaaaa": 1718,
      "outu": 1719,
      "Các</w>": 1720,
      "cộng</w>": 1721,
      "sữa</w>": 1722,
      "bấm</w>": 1723,
      "èn</w>": 1724,
      "đo": 1725,
      "đa</w>": 1726,
      ".....</w>": 1727,
      "ac</w>": 1728,
      "bóng</w>": 1729,
      "de</w>": 1730,
      "sách</w>": 1731,
      "12</w>": 1732,
      "cuối</w>": 1733,
      "ịp</w>": 1734,
      "chỉnh</w>": 1735,
      "pppppppp": 1736,
      "ĩa</w>": 1737,
      "ằm</w>": 1738,
      "Cô</w>": 1739,
      "cm</w>": 1740,
      "vv": 1741,
      "ốn</w>": 1742,
      "giáo</w>": 1743,
      "Chúc</w>": 1744,
      "tiếc</w>": 1745,
      "Nếu</w>": 1746,
      "cơm</w>": 1747,
      "lịch</w>": 1748,
      "mờ</w>": 1749,
      "tương</w>": 1750,
      "óm</w>": 1751,
      "chữ</w>": 1752,
      "Thanh</w>": 1753,
      "Ok</w>": 1754,
      "et</w>": 1755,
      "Lúc</w>": 1756,
      "ck": 1757,
      "kiểm</w>": 1758,
      "phản</w>": 1759,
      "outube</w>": 1760,
      "fk": 1761,
      "re</w>": 1762,
      "Đúng</w>": 1763,
      "Chi</w>": 1764,
      "................": 1765,
      "chúc</w>": 1766,
      "nhựa</w>": 1767,
      "Sài</w>": 1768,
      "ee</w>": 1769,
      "sm": 1770,
      "ùm</w>": 1771,
      "mắc</w>": 1772,
      "Điện</w>": 1773,
      "đại</w>": 1774,
      "kk</w>": 1775,
      "lũ</w>": 1776,
      "mai</w>": 1777,
      "ạp</w>": 1778,
      "ẹn</w>": 1779,
      "chai</w>": 1780,
      "trình</w>": 1781,
      "abe</w>": 1782,
      "haha</w>": 1783,
      "Tuy</w>": 1784,
      "like</w>": 1785,
      "lol</w>": 1786,
      "kích</w>": 1787,
      "pper</w>": 1788,
      "kkkkkkkkkkkkkkkk": 1789,
      "NH</w>": 1790,
      "Xin</w>": 1791,
      "bg</w>": 1792,
      "fb</w>": 1793,
      "ồm</w>": 1794,
      "thần</w>": 1795,
      "bò</w>": 1796,
      "rr": 1797,
      "đặc</w>": 1798,
      "Xài</w>": 1799,
      "hút</w>": 1800,
      "kiện</w>": 1801,
      "kể</w>": 1802,
      "du</w>": 1803,
      "pp</w>": 1804,
      "ãn</w>": 1805,
      "Đẹp</w>": 1806,
      ":(</w>": 1807,
      "ót</w>": 1808,
      "Tu": 1809,
      "viết</w>": 1810,
      "chiến</w>": 1811,
      "Ngọc</w>": 1812,
      "nơi</w>": 1813,
      "đáo</w>": 1814,
      "tham</w>": 1815,
      "ej": 1816,
      "uốt</w>": 1817,
      "quyền</w>": 1818,
      "riêng</w>": 1819,
      "Linh</w>": 1820,
      "đạo</w>": 1821,
      "cây</w>": 1822,
      "noi</w>": 1823,
      "ưỡ": 1824,
      "tăng</w>": 1825,
      "vợ</w>": 1826,
      "dndn": 1827,
      "cmt</w>": 1828,
      "dám</w>": 1829,
      "ẩy</w>": 1830,
      "ênh</w>": 1831,
      "ìa</w>": 1832,
      "trí</w>": 1833,
      "???</w>": 1834,
      "Mong</w>": 1835,
      "me": 1836,
      "Tốt</w>": 1837,
      "pro</w>": 1838,
      "mar": 1839,
      "linh</w>": 1840,
      "mau</w>": 1841,
      "xử</w>": 1842,
      "xác</w>": 1843,
      "thấp</w>": 1844,
      "ff": 1845,
      "Ông</w>": 1846,
      "phím</w>": 1847,
      "cân</w>": 1848,
      "miếng</w>": 1849,
      "tạo</w>": 1850,
      "dbdb": 1851,
      "dần</w>": 1852,
      "kính</w>": 1853,
      "mu": 1854,
      "nội</w>": 1855,
      "Phạm</w>": 1856,
      "dính</w>": 1857,
      "cháu</w>": 1858,
      "hhhhhhhh": 1859,
      "cục</w>": 1860,
      "hãy</w>": 1861,
      "dddd": 1862,
      "Túi</w>": 1863,
      "aj": 1864,
      "đưa</w>": 1865,
      "giữ</w>": 1866,
      "quen</w>": 1867,
      "50</w>": 1868,
      "dặn</w>": 1869,
      "mk</w>": 1870,
      "view</w>": 1871,
      "dầu</w>": 1872,
      "ộn</w>": 1873,
      "trc</w>": 1874,
      "ghi</w>": 1875,
      "Cực</w>": 1876,
      "Màu</w>": 1877,
      "cl</w>": 1878,
      "hệ</w>": 1879,
      "mèo</w>": 1880,
      "vật</w>": 1881,
      "âng</w>": 1882,
      "chip</w>": 1883,
      "gj": 1884,
      "đựng</w>": 1885,
      "Nhận</w>": 1886,
      "NH": 1887,
      "be": 1888,
      "cà</w>": 1889,
      "lạnh</w>": 1890,
      "4g</w>": 1891,
      "Mà</w>": 1892,
      "ing</w>": 1893,
      "nằm</w>": 1894,
      "Độ</w>": 1895,
      "hihi</w>": 1896,
      "lương</w>": 1897,
      "đình</w>": 1898,
      "chia</w>": 1899,
      "phút</w>": 1900,
      "Dần</w>": 1901,
      "cắt</w>": 1902,
      "góp</w>": 1903,
      "vo</w>": 1904,
      "khắc</w>": 1905,
      "nhiêu</w>": 1906,
      "trị</w>": 1907,
      "trở</w>": 1908,
      "tốc</w>": 1909,
      "00k</w>": 1910,
      "cổ</w>": 1911,
      "cụ</w>": 1912,
      "giả</w>": 1913,
      "aomi</w>": 1914,
      "bánh</w>": 1915,
      "hao</w>": 1916,
      "liền</w>": 1917,
      "mùa</w>": 1918,
      "vn</w>": 1919,
      "trông</w>": 1920,
      "nghỉ</w>": 1921,
      "snsn": 1922,
      "test</w>": 1923,
      "web</w>": 1924,
      "19</w>": 1925,
      "Về</w>": 1926,
      "tức</w>": 1927,
      "ãnh</w>": 1928,
      "cha</w>": 1929,
      "Chụp</w>": 1930,
      "Mỹ</w>": 1931,
      "nt": 1932,
      "sd</w>": 1933,
      "tín</w>": 1934,
      "15</w>": 1935,
      "Hiếu</w>": 1936,
      "ah</w>": 1937,
      "lam</w>": 1938,
      "nữ</w>": 1939,
      "khẩu</w>": 1940,
      "khuôn</w>": 1941,
      "tri</w>": 1942,
      "TGDD</w>": 1943,
      "Hà</w>": 1944,
      "tử</w>": 1945,
      "xk": 1946,
      "đá</w>": 1947,
      "Thấy</w>": 1948,
      "bọc</w>": 1949,
      "fh": 1950,
      "smar": 1951,
      "luận</w>": 1952,
      "kkk</w>": 1953,
      "Văn</w>": 1954,
      "cc</w>": 1955,
      "iu</w>": 1956,
      "xét</w>": 1957,
      "đàn</w>": 1958,
      "thiệt</w>": 1959,
      "khủng</w>": 1960,
      "Mấy</w>": 1961,
      "kh</w>": 1962,
      "oppo</w>": 1963,
      "sho": 1964,
      "ta": 1965,
      "youtube</w>": 1966,
      "ìu</w>": 1967,
      "thẻ</w>": 1968,
      "giàu</w>": 1969,
      "seal</w>": 1970,
      "quyết</w>": 1971,
      "Với</w>": 1972,
      "hư</w>": 1973,
      "mng</w>": 1974,
      "mừng</w>": 1975,
      "se</w>": 1976,
      "vệ</w>": 1977,
      "nhập</w>": 1978,
      "Vừa</w>": 1979,
      "bt</w>": 1980,
      "dm": 1981,
      "nồi</w>": 1982,
      "đỏ</w>": 1983,
      "end</w>": 1984,
      "30": 1985,
      "kiếm</w>": 1986,
      "thủ</w>": 1987,
      "uyến</w>": 1988,
      ":))": 1989,
      "le": 1990,
      "nhờ</w>": 1991,
      "khóa</w>": 1992,
      "phê</w>": 1993,
      "Thời</w>": 1994,
      "max</w>": 1995,
      "book</w>": 1996,
      "----": 1997,
      "TR": 1998,
      "dáng</w>": 1999,
      "ke": 2000,
      "vi</w>": 2001,
      "đu": 2002,
      "khổ</w>": 2003,
      "giày</w>": 2004,
      "note</w>": 2005,
      "fac": 2006,
      "lỗ</w>": 2007,
      "ram</w>": 2008,
      "ỉu</w>": 2009,
      "cua</w>": 2010,
      "lưu</w>": 2011,
      "nc</w>": 2012,
      "xưa</w>": 2013,
      "hạn</w>": 2014,
      "não</w>": 2015,
      "ve": 2016,
      "xứng</w>": 2017,
      "the</w>": 2018,
      "nhảy</w>": 2019,
      "khô</w>": 2020,
      "ngờ</w>": 2021,
      "sksk": 2022,
      "dhdh": 2023,
      "Sạc</w>": 2024,
      "danh</w>": 2025,
      "lai</w>": 2026,
      "mồm</w>": 2027,
      "ụi</w>": 2028,
      "giặt</w>": 2029,
      "bi</w>": 2030,
      "cn": 2031,
      "rửa</w>": 2032,
      "chuyên</w>": 2033,
      "nhiệm</w>": 2034,
      "iii</w>": 2035,
      "shipper</w>": 2036,
      "iphone</w>": 2037,
      "đắt</w>": 2038,
      "nghĩa</w>": 2039,
      "Vì</w>": 2040,
      "cảnh</w>": 2041,
      "kéo</w>": 2042,
      "ty</w>": 2043,
      "ẻo</w>": 2044,
      "lus</w>": 2045,
      "mệt</w>": 2046,
      "úa</w>": 2047,
      "000": 2048,
      "pubg</w>": 2049,
      "đợt</w>": 2050,
      "Nguyen</w>": 2051,
      "ieu</w>": 2052,
      "bắn</w>": 2053,
      "hạt</w>": 2054,
      "thui</w>": 2055,
      "khúc</w>": 2056,
      "id</w>": 2057,
      "tết</w>": 2058,
      "xh": 2059,
      "zj": 2060,
      "thái</w>": 2061,
      "**": 2062,
      "dt</w>": 2063,
      "gà</w>": 2064,
      "họ": 2065,
      "nhìu</w>": 2066,
      "Thầy</w>": 2067,
      "cắm</w>": 2068,
      "zalo</w>": 2069,
      "đổ</w>": 2070,
      "hoá</w>": 2071,
      "date</w>": 2072,
      "smart</w>": 2073,
      "Ba</w>": 2074,
      "Hu": 2075,
      "cx</w>": 2076,
      "ni": 2077,
      "săn</w>": 2078,
      "trưởng</w>": 2079,
      "iệng</w>": 2080,
      "!!!!": 2081,
      "Bạn</w>": 2082,
      "Vân</w>": 2083,
      "ar": 2084,
      "củ</w>": 2085,
      "lon</w>": 2086,
      "khởi</w>": 2087,
      "khoẻ</w>": 2088,
      "lip</w>": 2089,
      "dành</w>": 2090,
      "lành</w>": 2091,
      "méo</w>": 2092,
      "tre": 2093,
      "…………": 2094,
      "33": 2095,
      "lẽ</w>": 2096,
      "nút</w>": 2097,
      "va</w>": 2098,
      "Đây</w>": 2099,
      "thịt</w>": 2100,
      "ngoại</w>": 2101,
      "tải</w>": 2102,
      "tộc</w>": 2103,
      "Đáng</w>": 2104,
      "khuyên</w>": 2105,
      "Trang</w>": 2106,
      "age</w>": 2107,
      "hu</w>": 2108,
      "môi</w>": 2109,
      "roi</w>": 2110,
      "yo": 2111,
      "ngta</w>": 2112,
      "trạng</w>": 2113,
      "Thị</w>": 2114,
      "nuôi</w>": 2115,
      "Quốc</w>": 2116,
      "^^</w>": 2117,
      "nửa</w>": 2118,
      "chồng</w>": 2119,
      "Hay</w>": 2120,
      "ebook</w>": 2121,
      "plus</w>": 2122,
      "vỡ</w>": 2123,
      "Thế</w>": 2124,
      "Khi</w>": 2125,
      "Phải</w>": 2126,
      "90</w>": 2127,
      "aa</w>": 2128,
      "dạy</w>": 2129,
      "mê</w>": 2130,
      "ía</w>": 2131,
      "Đang</w>": 2132,
      "bữa</w>": 2133,
      "sĩ</w>": 2134,
      "Được</w>": 2135,
      "thiên</w>": 2136,
      "Phương</w>": 2137,
      "ba": 2138,
      "hưởng</w>": 2139,
      "lạ</w>": 2140,
      "móp</w>": 2141,
      "ỉa</w>": 2142,
      "thi": 2143,
      "nhe</w>": 2144,
      "trần</w>": 2145,
      "anks</w>": 2146,
      "review</w>": 2147,
      "202": 2148,
      "NG": 2149,
      "Nó</w>": 2150,
      "Pho": 2151,
      "kệ</w>": 2152,
      "ỳnh</w>": 2153,
      "12": 2154,
      "Mỗi</w>": 2155,
      "To": 2156,
      "Và</w>": 2157,
      "eu</w>": 2158,
      "lông</w>": 2159,
      "suy</w>": 2160,
      "đỉnh</w>": 2161,
      "nhắc</w>": 2162,
      "tiêu</w>": 2163,
      "Mi": 2164,
      "fn": 2165,
      "hạnh</w>": 2166,
      "răng</w>": 2167,
      "sửa</w>": 2168,
      "khóc</w>": 2169,
      "phúc</w>": 2170,
      "ak</w>": 2171,
      "hiếu</w>": 2172,
      "mỹ</w>": 2173,
      "miệng</w>": 2174,
      "rút</w>": 2175,
      "vay</w>": 2176,
      "quên</w>": 2177,
      "Chắc</w>": 2178,
      "bì</w>": 2179,
      "gạo</w>": 2180,
      "hại</w>": 2181,
      "hóa</w>": 2182,
      "lựa</w>": 2183,
      "Để</w>": 2184,
      "nhung</w>": 2185,
      "sim</w>": 2186,
      "=))))</w>": 2187,
      "cưng</w>": 2188,
      "kìa</w>": 2189,
      "món</w>": 2190,
      "che</w>": 2191,
      "Như</w>": 2192,
      "ack</w>": 2193,
      "dol</w>": 2194,
      "cai</w>": 2195,
      "hẹn</w>": 2196,
      "wj": 2197,
      "đm</w>": 2198,
      "đập</w>": 2199,
      "tốn</w>": 2200,
      "Nhà</w>": 2201,
      "Người</w>": 2202,
      "Loa</w>": 2203,
      "ap</w>": 2204,
      "hỏng</w>": 2205,
      "ki": 2206,
      "lầm</w>": 2207,
      "nn</w>": 2208,
      "xỉu</w>": 2209,
      "õi</w>": 2210,
      "nhầm</w>": 2211,
      "trái</w>": 2212,
      "Chu": 2213,
      "eeeeeeee": 2214,
      "ntn</w>": 2215,
      "Samsung</w>": 2216,
      "bụng</w>": 2217,
      "xước</w>": 2218,
      "đèn</w>": 2219,
      "phá</w>": 2220,
      "nghệ</w>": 2221,
      "Nhung</w>": 2222,
      "Nhật</w>": 2223,
      "Khánh</w>": 2224,
      "Shi": 2225,
      "goo": 2226,
      "hận</w>": 2227,
      "máu</w>": 2228,
      "nắng</w>": 2229,
      "đội</w>": 2230,
      "ẵn</w>": 2231,
      "ịnh</w>": 2232,
      "ngang</w>": 2233,
      "Thật</w>": 2234,
      "loạn</w>": 2235,
      "Quần</w>": 2236,
      "cải</w>": 2237,
      "góc</w>": 2238,
      "sh</w>": 2239,
      "độc</w>": 2240,
      "ễm</w>": 2241,
      "0k</w>": 2242,
      ":(": 2243,
      "Làm</w>": 2244,
      "Vi": 2245,
      "kem</w>": 2246,
      "rùi</w>": 2247,
      "su</w>": 2248,
      "wi": 2249,
      "phong</w>": 2250,
      "hoi</w>": 2251,
      "nghèo</w>": 2252,
      "luật</w>": 2253,
      "top</w>": 2254,
      "iet</w>": 2255,
      "full</w>": 2256,
      "PH": 2257,
      "xã</w>": 2258,
      "ãy</w>": 2259,
      "Đức</w>": 2260,
      "thiệu</w>": 2261,
      ",,": 2262,
      "Bảo</w>": 2263,
      "dữ</w>": 2264,
      "gây</w>": 2265,
      "stre": 2266,
      "tu</w>": 2267,
      "xx": 2268,
      "nhá</w>": 2269,
      "phạt</w>": 2270,
      "khoá</w>": 2271,
      "bổ</w>": 2272,
      "cạnh</w>": 2273,
      "hát</w>": 2274,
      "ún</w>": 2275,
      "ẹo</w>": 2276,
      "ụt</w>": 2277,
      "hoàng</w>": 2278,
      "Thiết</w>": 2279,
      "vid</w>": 2280,
      "cute</w>": 2281,
      "Vũ</w>": 2282,
      "sơ</w>": 2283,
      "suốt</w>": 2284,
      "tù</w>": 2285,
      "tem</w>": 2286,
      "vòng</w>": 2287,
      "đông</w>": 2288,
      "ngọt</w>": 2289,
      "okokokok": 2290,
      "clip</w>": 2291,
      "ho</w>": 2292,
      "nâng</w>": 2293,
      "son</w>": 2294,
      "sướng</w>": 2295,
      "wk": 2296,
      "ịa</w>": 2297,
      "iếp</w>": 2298,
      "line</w>": 2299,
      "huhu</w>": 2300,
      "Hải</w>": 2301,
      "Yêu</w>": 2302,
      "bớt</w>": 2303,
      "dấu</w>": 2304,
      "hiểm</w>": 2305,
      "vk": 2306,
      "zn": 2307,
      "Ảnh</w>": 2308,
      "hoài</w>": 2309,
      "diễn</w>": 2310,
      "70</w>": 2311,
      "dàng</w>": 2312,
      "gk": 2313,
      "gi</w>": 2314,
      "st": 2315,
      "íp</w>": 2316,
      "ngắn</w>": 2317,
      "giỏi</w>": 2318,
      "iiii</w>": 2319,
      "thoảng</w>": 2320,
      "Khá</w>": 2321,
      "Quang</w>": 2322,
      "Cam</w>": 2323,
      "Hài</w>": 2324,
      "fb": 2325,
      "hối</w>": 2326,
      "tắm</w>": 2327,
      "điên</w>": 2328,
      "chua</w>": 2329,
      "trò</w>": 2330,
      "hihi": 2331,
      "Cũng</w>": 2332,
      "Tùng</w>": 2333,
      "bù</w>": 2334,
      "ci": 2335,
      "rớt</w>": 2336,
      "sắp</w>": 2337,
      "đo</w>": 2338,
      "thuốc</w>": 2339,
      "quê</w>": 2340,
      "Bình</w>": 2341,
      "Duy</w>": 2342,
      "Hộp</w>": 2343,
      "au": 2344,
      "bo</w>": 2345,
      "long</w>": 2346,
      "mm</w>": 2347,
      "ps</w>": 2348,
      "tàu</w>": 2349,
      "ươi</w>": 2350,
      "nhạt</w>": 2351,
      "hang</w>": 2352,
      "tổ</w>": 2353,
      "all</w>": 2354,
      "buổi</w>": 2355,
      "Dễ</w>": 2356,
      "KH": 2357,
      "bụi</w>": 2358,
      "hà</w>": 2359,
      "lao</w>": 2360,
      "lừa</w>": 2361,
      "mo</w>": 2362,
      "po": 2363,
      "vj": 2364,
      "chục</w>": 2365,
      "),</w>": 2366,
      "Công</w>": 2367,
      "dai</w>": 2368,
      "ms</w>": 2369,
      "mưa</w>": 2370,
      "mỏi</w>": 2371,
      "tích</w>": 2372,
      "viền</w>": 2373,
      "én</w>": 2374,
      "trend</w>": 2375,
      "nguoi</w>": 2376,
      "gggggggg": 2377,
      "19": 2378,
      "An</w>": 2379,
      "bin</w>": 2380,
      "duy</w>": 2381,
      "ll": 2382,
      "màng</w>": 2383,
      "uu</w>": 2384,
      "Áo</w>": 2385,
      "thuật</w>": 2386,
      "wwww": 2387,
      "Hôm</w>": 2388,
      "Một</w>": 2389,
      "Từ</w>": 2390,
      "Tuyệt</w>": 2391,
      "biển</w>": 2392,
      "dro": 2393,
      "hiển</w>": 2394,
      "Đặt</w>": 2395,
      "ĩnh</w>": 2396,
      "chí</w>": 2397,
      "chăm</w>": 2398,
      "trận</w>": 2399,
      "alal": 2400,
      "uuuuuuuu": 2401,
      "Do</w>": 2402,
      "Sống</w>": 2403,
      "Tất</w>": 2404,
      "ep</w>": 2405,
      "kịp</w>": 2406,
      "ote</w>": 2407,
      "rơi</w>": 2408,
      "sánh</w>": 2409,
      "sẵn</w>": 2410,
      "vặn</w>": 2411,
      "xò</w>": 2412,
      "thao</w>": 2413,
      "khen</w>": 2414,
      "khuyến</w>": 2415,
      "Thích</w>": 2416,
      "Ok": 2417,
      "Xem</w>": 2418,
      "duyên</w>": 2419,
      "hề</w>": 2420,
      "nv</w>": 2421,
      "tung</w>": 2422,
      "giản</w>": 2423,
      "cám</w>": 2424,
      "Thành</w>": 2425,
      "nhiễm</w>": 2426,
      "ưỡi</w>": 2427,
      "bút</w>": 2428,
      "dị</w>": 2429,
      "page</w>": 2430,
      "ấc</w>": 2431,
      "Trong</w>": 2432,
      "stream</w>": 2433,
      "Bộ</w>": 2434,
      "Co": 2435,
      "dơ</w>": 2436,
      "lãnh</w>": 2437,
      "miền</w>": 2438,
      "xi</w>": 2439,
      "Đồng</w>": 2440,
      "Ngon</w>": 2441,
      "toán</w>": 2442,
      "ghét</w>": 2443,
      "chuột</w>": 2444,
      "ree</w>": 2445,
      "ssss": 2446,
      "Huy</w>": 2447,
      "biểu</w>": 2448,
      "for": 2449,
      "hương</w>": 2450,
      "kênh</w>": 2451,
      "nk</w>": 2452,
      "tấm</w>": 2453,
      "Đánh</w>": 2454,
      "ngăn</w>": 2455,
      "trầy</w>": 2456,
      "nghi": 2457,
      "thoát</w>": 2458,
      "dưỡ": 2459,
      "Xu": 2460,
      "bẩn</w>": 2461,
      "hôi</w>": 2462,
      "lm</w>": 2463,
      "rè</w>": 2464,
      "rằng</w>": 2465,
      "sát</w>": 2466,
      "xúc</w>": 2467,
      "iềm</w>": 2468,
      "họa</w>": 2469,
      "dưỡng</w>": 2470,
      "60</w>": 2471,
      "bông</w>": 2472,
      "cu</w>": 2473,
      "gắn</w>": 2474,
      "sg": 2475,
      "sa</w>": 2476,
      "tổng</w>": 2477,
      "khăn</w>": 2478,
      "triển</w>": 2479,
      "pháp</w>": 2480,
      "Thảo</w>": 2481,
      "Thái</w>": 2482,
      "Huyền</w>": 2483,
      "bếp</w>": 2484,
      "dạng</w>": 2485,
      "el</w>": 2486,
      "ráp</w>": 2487,
      "san</w>": 2488,
      "sam</w>": 2489,
      "ộm</w>": 2490,
      "hoạ</w>": 2491,
      "Thu</w>": 2492,
      "Phan</w>": 2493,
      "địa</w>": 2494,
      "Mai</w>": 2495,
      "cứ": 2496,
      "ce</w>": 2497,
      "gối</w>": 2498,
      "hạ</w>": 2499,
      "rat</w>": 2500,
      "tỷ</w>": 2501,
      "vũ</w>": 2502,
      "voi</w>": 2503,
      "Ăn</w>": 2504,
      "trách</w>": 2505,
      "ank</w>": 2506,
      "dume</w>": 2507,
      "dep</w>": 2508,
      "anh": 2509,
      "app</w>": 2510,
      "bát</w>": 2511,
      "keo</w>": 2512,
      "pee</w>": 2513,
      "đảng</w>": 2514,
      "ữu</w>": 2515,
      "thấm</w>": 2516,
      "treo</w>": 2517,
      "droid</w>": 2518,
      "cứu</w>": 2519,
      "15": 2520,
      "Re": 2521,
      "dm</w>": 2522,
      "nắp</w>": 2523,
      "sa": 2524,
      "tôm</w>": 2525,
      "vẽ</w>": 2526,
      "ớp</w>": 2527,
      "thư</w>": 2528,
      "thừa</w>": 2529,
      "chăng</w>": 2530,
      "khai</w>": 2531,
      "cánh</w>": 2532,
      "Bác</w>": 2533,
      "Hi</w>": 2534,
      "Long</w>": 2535,
      "TI": 2536,
      "__": 2537,
      "bực</w>": 2538,
      "gb</w>": 2539,
      "hồng</w>": 2540,
      "iêu</w>": 2541,
      "sâu</w>": 2542,
      "tỉnh</w>": 2543,
      "vcl</w>": 2544,
      "chạm</w>": 2545,
      "trăm</w>": 2546,
      "quản</w>": 2547,
      "live</w>": 2548,
      "fjfj": 2549,
      "Cao</w>": 2550,
      "dậy</w>": 2551,
      "gấp</w>": 2552,
      "lay</w>": 2553,
      "nền</w>": 2554,
      "ràng</w>": 2555,
      "wa</w>": 2556,
      "thú</w>": 2557,
      "nhan</w>": 2558,
      "nguy</w>": 2559,
      "giữa</w>": 2560,
      "cáp</w>": 2561,
      "Tran</w>": 2562,
      "too": 2563,
      "miễn</w>": 2564,
      "xiaomi</w>": 2565,
      "ký</w>": 2566,
      "man</w>": 2567,
      "xạo</w>": 2568,
      "Đồ</w>": 2569,
      "nghị</w>": 2570,
      "Thu": 2571,
      "Thằng</w>": 2572,
      "Giờ</w>": 2573,
      "%.</w>": 2574,
      "Hơi</w>": 2575,
      "idol</w>": 2576,
      "moi</w>": 2577,
      "nỗi</w>": 2578,
      "sp": 2579,
      "tt</w>": 2580,
      "zb": 2581,
      "ùy</w>": 2582,
      "Đi</w>": 2583,
      "gió</w>": 2584,
      "Chán</w>": 2585,
      "ướp</w>": 2586,
      "tttttttttttttttt": 2587,
      "Lại</w>": 2588,
      "dmi</w>": 2589,
      "hy</w>": 2590,
      "kiệm</w>": 2591,
      "tẩy</w>": 2592,
      "tươi</w>": 2593,
      "zk": 2594,
      "đảm</w>": 2595,
      "ũi</w>": 2596,
      "ẹt</w>": 2597,
      "chữa</w>": 2598,
      "vivo</w>": 2599,
      "akak": 2600,
      "=))": 2601,
      "QU": 2602,
      "cs</w>": 2603,
      "gắng</w>": 2604,
      "hồn</w>": 2605,
      "sóc</w>": 2606,
      "up</w>": 2607,
      "vỏ</w>": 2608,
      "vạch</w>": 2609,
      "Đt</w>": 2610,
      "chứng</w>": 2611,
      "tranh</w>": 2612,
      "pha</w>": 2613,
      "......</w>": 2614,
      "GB</w>": 2615,
      "Oppo</w>": 2616,
      "Vải</w>": 2617,
      "cb": 2618,
      "lót</w>": 2619,
      "rung</w>": 2620,
      "sủa</w>": 2621,
      "xả</w>": 2622,
      "xuyên</w>": 2623,
      "ờn</w>": 2624,
      "Ủa</w>": 2625,
      "nhu": 2626,
      "trưa</w>": 2627,
      "truyền</w>": 2628,
      "nnnnnnnnnnnnnnnn": 2629,
      "51</w>": 2630,
      "kim</w>": 2631,
      "lộ</w>": 2632,
      "lá</w>": 2633,
      "lau</w>": 2634,
      "thoi</w>": 2635,
      "mmmmmmmm": 2636,
      "ưỡng</w>": 2637,
      "béo</w>": 2638,
      "hậu</w>": 2639,
      "sv": 2640,
      "sư</w>": 2641,
      "tỏ</w>": 2642,
      "wo": 2643,
      "đậm</w>": 2644,
      "chui</w>": 2645,
      "Ngh": 2646,
      "love</w>": 2647,
      "khoe</w>": 2648,
      "and</w>": 2649,
      "online</w>": 2650,
      "bbbb": 2651,
      "yyyy": 2652,
      "4G</w>": 2653,
      "cờ</w>": 2654,
      "cay</w>": 2655,
      "dép</w>": 2656,
      "rách</w>": 2657,
      "òa</w>": 2658,
      "Đm</w>": 2659,
      "ưới</w>": 2660,
      "khong</w>": 2661,
      "phạm</w>": 2662,
      "phép</w>": 2663,
      "kkkk</w>": 2664,
      "Quỳnh</w>": 2665,
      "2020</w>": 2666,
      "duoc</w>": 2667,
      "Bắt</w>": 2668,
      "Dân</w>": 2669,
      "Gói</w>": 2670,
      "Ha": 2671,
      "Mặc</w>": 2672,
      "Xi": 2673,
      "cỡ</w>": 2674,
      "mì</w>": 2675,
      "tj": 2676,
      "tim</w>": 2677,
      "ụn</w>": 2678,
      "thang</w>": 2679,
      "tránh</w>": 2680,
      "Giang</w>": 2681,
      "dkdk": 2682,
      "đoạn</w>": 2683,
      "Phone</w>": 2684,
      "5k</w>": 2685,
      "Cấu</w>": 2686,
      "Cám</w>": 2687,
      "Dương</w>": 2688,
      "Tao</w>": 2689,
      "cong</w>": 2690,
      "dy": 2691,
      "dk</w>": 2692,
      "free</w>": 2693,
      "gle</w>": 2694,
      "rj": 2695,
      "xây</w>": 2696,
      "đảo</w>": 2697,
      "đáp</w>": 2698,
      "châu</w>": 2699,
      "nhàng</w>": 2700,
      "zzzz": 2701,
      ":)))))</w>": 2702,
      "60": 2703,
      "Abe</w>": 2704,
      "Bu": 2705,
      "Hy</w>": 2706,
      "căng</w>": 2707,
      "fo": 2708,
      "lan</w>": 2709,
      "ne": 2710,
      "nạn</w>": 2711,
      "ÔNG</w>": 2712,
      "đạt</w>": 2713,
      "che": 2714,
      "chương</w>": 2715,
      "Thất</w>": 2716,
      "tien</w>": 2717,
      "????</w>": 2718,
      "set</w>": 2719,
      "18": 2720,
      "nọ</w>": 2721,
      "toi</w>": 2722,
      "ủy</w>": 2723,
      "tha</w>": 2724,
      "giết</w>": 2725,
      "giọng</w>": 2726,
      "...": 2727,
      "Thanks</w>": 2728,
      "tooth</w>": 2729,
      "40</w>": 2730,
      "Vẫn</w>": 2731,
      "Vậy</w>": 2732,
      "bạc</w>": 2733,
      "củng</w>": 2734,
      "mật</w>": 2735,
      "nát</w>": 2736,
      "tý</w>": 2737,
      "vc</w>": 2738,
      "thơ</w>": 2739,
      "khung</w>": 2740,
      "phía</w>": 2741,
      "Ngo": 2742,
      "hehe": 2743,
      "cccc": 2744,
      "face</w>": 2745,
      "14</w>": 2746,
      "An": 2747,
      "Bao</w>": 2748,
      "Nội</w>": 2749,
      "bởi</w>": 2750,
      "dong</w>": 2751,
      "goi</w>": 2752,
      "hj": 2753,
      "ns</w>": 2754,
      "vu": 2755,
      "xm": 2756,
      "ât</w>": 2757,
      "ợn</w>": 2758,
      "thùng</w>": 2759,
      "thống</w>": 2760,
      "khả</w>": 2761,
      "phủ</w>": 2762,
      "Thôi</w>": 2763,
      "Thương</w>": 2764,
      "Nhiều</w>": 2765,
      "tiến</w>": 2766,
      "aaa</w>": 2767,
      "link</w>": 2768,
      "thuộc</w>": 2769,
      "xnxn": 2770,
      "smsm": 2771,
      "Hồ</w>": 2772,
      "Tiền</w>": 2773,
      "ap": 2774,
      "cướp</w>": 2775,
      "dan</w>": 2776,
      "fps</w>": 2777,
      "hào</w>": 2778,
      "iPhone</w>": 2779,
      "xy": 2780,
      "thắng</w>": 2781,
      "khí</w>": 2782,
      "ngại</w>": 2783,
      "lue": 2784,
      "TGDĐ</w>": 2785,
      "iiiiiiiiiiiiiiii": 2786,
      "GI": 2787,
      "dã</w>": 2788,
      "dư</w>": 2789,
      "lỡ</w>": 2790,
      "lây</w>": 2791,
      "lạc</w>": 2792,
      "pe": 2793,
      "sẻ</w>": 2794,
      "ví</w>": 2795,
      "ye": 2796,
      "chíp</w>": 2797,
      "giãn</w>": 2798,
      "alme</w>": 2799,
      "khoản</w>": 2800,
      "jjjj": 2801,
      "dddddddd": 2802,
      "Chuẩn</w>": 2803,
      "Hồng</w>": 2804,
      "Nồi</w>": 2805,
      "cậu</w>": 2806,
      "nao</w>": 2807,
      "niên</w>": 2808,
      "tây</w>": 2809,
      "thề</w>": 2810,
      "cháy</w>": 2811,
      "phết</w>": 2812,
      "hong</w>": 2813,
      "lắc</w>": 2814,
      "sbsb": 2815,
      "rrrr": 2816,
      "Xiaomi</w>": 2817,
      ",,</w>": 2818,
      "40": 2819,
      "May</w>": 2820,
      "dịp</w>": 2821,
      "hở</w>": 2822,
      "hảo</w>": 2823,
      "mại</w>": 2824,
      "nướng</w>": 2825,
      "tủ</w>": 2826,
      "mik</w>": 2827,
      "Sử</w>": 2828,
      "ab": 2829,
      "bể</w>": 2830,
      "bịch</w>": 2831,
      "mũi</w>": 2832,
      "nd</w>": 2833,
      "viện</w>": 2834,
      "đk</w>": 2835,
      "ệch</w>": 2836,
      "Ủng</w>": 2837,
      "quy</w>": 2838,
      "Chào</w>": 2839,
      "aid</w>": 2840,
      ":(((</w>": 2841,
      "@@": 2842,
      "AY</w>": 2843,
      "Hi": 2844,
      "ad": 2845,
      "bóc</w>": 2846,
      "dhh": 2847,
      "dùm</w>": 2848,
      "ib</w>": 2849,
      "km</w>": 2850,
      "lung</w>": 2851,
      "wb": 2852,
      "đê</w>": 2853,
      "ngược</w>": 2854,
      "trơn</w>": 2855,
      "quý</w>": 2856,
      "2021</w>": 2857,
      "Ad</w>": 2858,
      "Cứ</w>": 2859,
      "HO": 2860,
      "Liên</w>": 2861,
      "ip": 2862,
      "jo": 2863,
      "skk": 2864,
      "tờ</w>": 2865,
      "ãng</w>": 2866,
      "nhục</w>": 2867,
      "pple</w>": 2868,
      "ghép</w>": 2869,
      "aaaaaaaaaaaaaaaa": 2870,
      "facebook</w>": 2871,
      "luetooth</w>": 2872,
      "18</w>": 2873,
      "CM</w>": 2874,
      "Game</w>": 2875,
      "bn</w>": 2876,
      "bè</w>": 2877,
      "cường</w>": 2878,
      "cứt</w>": 2879,
      "kẻ</w>": 2880,
      "nổ</w>": 2881,
      "sờ</w>": 2882,
      "tô</w>": 2883,
      "Đừng</w>": 2884,
      "ệm</w>": 2885,
      "chừng</w>": 2886,
      "địt</w>": 2887,
      "oooo": 2888,
      "com": 2889,
      "ake</w>": 2890,
      "13</w>": 2891,
      "cl": 2892,
      "dở</w>": 2893,
      "dạo</w>": 2894,
      "go": 2895,
      "lỏng</w>": 2896,
      "vh": 2897,
      "xay</w>": 2898,
      "xóa</w>": 2899,
      "zh": 2900,
      "đế</w>": 2901,
      "đức</w>": 2902,
      "thước</w>": 2903,
      "thỉnh</w>": 2904,
      "quang</w>": 2905,
      "Chứ</w>": 2906,
      "redmi</w>": 2907,
      "Ship</w>": 2908,
      "16</w>": 2909,
      "Bé</w>": 2910,
      "He": 2911,
      "HD</w>": 2912,
      "Là</w>": 2913,
      "Tại</w>": 2914,
      "\\\"</w>": 2915,
      "biet</w>": 2916,
      "dao</w>": 2917,
      "ra": 2918,
      "sân</w>": 2919,
      "táo</w>": 2920,
      "up": 2921,
      "vùng</w>": 2922,
      "vượt</w>": 2923,
      "ưi</w>": 2924,
      "khịa</w>": 2925,
      "trà</w>": 2926,
      "bh</w>": 2927,
      "lq</w>": 2928,
      "mơ</w>": 2929,
      "said</w>": 2930,
      "đỗ</w>": 2931,
      "than</w>": 2932,
      "khiến</w>": 2933,
      "trụ</w>": 2934,
      "phu": 2935,
      "quán</w>": 2936,
      "Giày</w>": 2937,
      "Tuấn</w>": 2938,
      "AN</w>": 2939,
      "Cu": 2940,
      "Fac": 2941,
      "Goo": 2942,
      "Mo": 2943,
      "Võ</w>": 2944,
      "gu": 2945,
      "mụn</w>": 2946,
      "thẳng</w>": 2947,
      "kho</w>": 2948,
      "nge</w>": 2949,
      "phai</w>": 2950,
      "quanh</w>": 2951,
      "Chúng</w>": 2952,
      "djj": 2953,
      "oki": 2954,
      "oki</w>": 2955,
      "thuế</w>": 2956,
      "24</w>": 2957,
      "5000</w>": 2958,
      "Bên</w>": 2959,
      "Muốn</w>": 2960,
      "Tui</w>": 2961,
      "Vsmart</w>": 2962,
      "Wifi</w>": 2963,
      "bám</w>": 2964,
      "gáy</w>": 2965,
      "hh</w>": 2966,
      "hôn</w>": 2967,
      "nt</w>": 2968,
      "nua</w>": 2969,
      "súc</w>": 2970,
      "tuy": 2971,
      "vầy</w>": 2972,
      "xàm</w>": 2973,
      "zz</w>": 2974,
      "ÊN</w>": 2975,
      "Đình</w>": 2976,
      "khùng</w>": 2977,
      "hai": 2978,
      "ona</w>": 2979,
      "team</w>": 2980,
      "rom</w>": 2981,
      "--------": 2982,
      "form</w>": 2983,
      "09": 2984,
      "17</w>": 2985,
      "Cần</w>": 2986,
      "Dung</w>": 2987,
      "Dây</w>": 2988,
      "Mặt</w>": 2989,
      "Tú</w>": 2990,
      "băng</w>": 2991,
      "dl": 2992,
      "hk</w>": 2993,
      "hông</w>": 2994,
      "mũ</w>": 2995,
      "na</w>": 2996,
      "vít</w>": 2997,
      "êt</w>": 2998,
      "úm</w>": 2999,
      "đài</w>": 3000,
      "trốn</w>": 3001,
      "Quả</w>": 3002,
      "2h</w>": 3003,
      "4h</w>": 3004,
      "Dù</w>": 3005,
      "Dép</w>": 3006,
      "So</w>": 3007,
      "Săn</w>": 3008,
      "TB</w>": 3009,
      "Yến</w>": 3010,
      "ag</w>": 3011,
      "dẻo</w>": 3012,
      "gg</w>": 3013,
      "li</w>": 3014,
      "lập</w>": 3015,
      "lệch</w>": 3016,
      "sl": 3017,
      "snn": 3018,
      "tịch</w>": 3019,
      "choi</w>": 3020,
      "nho</w>": 3021,
      "pham</w>": 3022,
      "ượn</w>": 3023,
      "nnn</w>": 3024,
      "thoáng</w>": 3025,
      "!!!!</w>": 3026,
      "ding</w>": 3027,
      "wei</w>": 3028,
      "***</w>": 3029,
      "Xuân</w>": 3030,
      "check</w>": 3031,
      "Facebook</w>": 3032,
      "99</w>": 3033,
      "Kim</w>": 3034,
      "Tết</w>": 3035,
      "Vie": 3036,
      "cặp</w>": 3037,
      "lóc</w>": 3038,
      "nợ</w>": 3039,
      "ow</w>": 3040,
      "sói</w>": 3041,
      "ym</w>": 3042,
      "Đường</w>": 3043,
      "ưg</w>": 3044,
      "thánh</w>": 3045,
      "Trước</w>": 3046,
      "mat</w>": 3047,
      "kkkkkkkkkkkkkkkkkkkkkkkkkkkkkkkk": 3048,
      "80</w>": 3049,
      "Ca": 3050,
      "bả</w>": 3051,
      "cắn</w>": 3052,
      "cấm</w>": 3053,
      "day</w>": 3054,
      "hàn</w>": 3055,
      "hữu</w>": 3056,
      "xy</w>": 3057,
      "xạc</w>": 3058,
      "đứt</w>": 3059,
      "thèm</w>": 3060,
      "chào</w>": 3061,
      "chặt</w>": 3062,
      "chấm</w>": 3063,
      "ngã</w>": 3064,
      "ngôn</w>": 3065,
      "ngọc</w>": 3066,
      "phố</w>": 3067,
      "phương</w>": 3068,
      "Theo</w>": 3069,
      "Gia</w>": 3070,
      "tot</w>": 3071,
      "viru": 3072,
      "realme</w>": 3073,
      "pppppppppppppppp": 3074,
      "%,</w>": 3075,
      ":))))": 3076,
      "Mùi</w>": 3077,
      "awei</w>": 3078,
      "canh</w>": 3079,
      "lọc</w>": 3080,
      "lộn</w>": 3081,
      "mồ</w>": 3082,
      "mắn</w>": 3083,
      "ngg</w>": 3084,
      "tru": 3085,
      "Chửi</w>": 3086,
      "Những</w>": 3087,
      "ala": 3088,
      "shsh": 3089,
      "xbxb": 3090,
      "dmin</w>": 3091,
      "MI": 3092,
      "Sói</w>": 3093,
      "Sơn</w>": 3094,
      "Tiên</w>": 3095,
      "Tạm</w>": 3096,
      "bắc</w>": 3097,
      "bước</w>": 3098,
      "cy": 3099,
      "dựng</w>": 3100,
      "gốc</w>": 3101,
      "hè</w>": 3102,
      "lười</w>": 3103,
      "ni</w>": 3104,
      "ry</w>": 3105,
      "vo": 3106,
      "vẹn</w>": 3107,
      "đít</w>": 3108,
      "ủi</w>": 3109,
      "chat</w>": 3110,
      "khu": 3111,
      "giòn</w>": 3112,
      "uyễn</w>": 3113,
      ".......</w>": 3114,
      "xoá</w>": 3115,
      "25</w>": 3116,
      "@@</w>": 3117,
      "Bắc</w>": 3118,
      "Fan</w>": 3119,
      "ON</w>": 3120,
      "Ti": 3121,
      "cũ": 3122,
      "cãi</w>": 3123,
      "dịu</w>": 3124,
      "of</w>": 3125,
      "qq": 3126,
      "ts</w>": 3127,
      "vv</w>": 3128,
      "vsmart</w>": 3129,
      "đống</w>": 3130,
      "đương</w>": 3131,
      "thả</w>": 3132,
      "chim</w>": 3133,
      "phông</w>": 3134,
      "luong</w>": 3135,
      "okia</w>": 3136,
      "thuận</w>": 3137,
      "doanh</w>": 3138,
      "Buồn</w>": 3139,
      "Tóm</w>": 3140,
      "cận</w>": 3141,
      "dục</w>": 3142,
      "dọn</w>": 3143,
      "dừng</w>": 3144,
      "fe</w>": 3145,
      "lồi</w>": 3146,
      "mp</w>": 3147,
      "vy": 3148,
      "van</w>": 3149,
      "đám</w>": 3150,
      "đẳng</w>": 3151,
      "tháo</w>": 3152,
      "nhấn</w>": 3153,
      "nhieu</w>": 3154,
      "khu</w>": 3155,
      "nghề</w>": 3156,
      "oke": 3157,
      "hhhhhhhhhhhhhhhh": 3158,
      "……………………": 3159,
      "you</w>": 3160,
      "good</w>": 3161,
      "Coi</w>": 3162,
      "Kết</w>": 3163,
      "Li": 3164,
      "Lên</w>": 3165,
      "My</w>": 3166,
      "Te": 3167,
      "Tâm</w>": 3168,
      "ach</w>": 3169,
      "dau</w>": 3170,
      "ff</w>": 3171,
      "hd</w>": 3172,
      "heo</w>": 3173,
      "ny</w>": 3174,
      "nma</w>": 3175,
      "sy": 3176,
      "sb</w>": 3177,
      "sở</w>": 3178,
      "song</w>": 3179,
      "tỉ</w>": 3180,
      "tan</w>": 3181,
      "tiệm</w>": 3182,
      "tướng</w>": 3183,
      "xịt</w>": 3184,
      "Điểm</w>": 3185,
      "địch</w>": 3186,
      "chốt</w>": 3187,
      "nhanh": 3188,
      "giận</w>": 3189,
      "trực</w>": 3190,
      "Giống</w>": 3191,
      "pppp</w>": 3192,
      "Quân</w>": 3193,
      "buôn</w>": 3194,
      "box</w>": 3195,
      "xoay</w>": 3196,
      "=)))))</w>": 3197,
      "3g</w>": 3198,
      "CH</w>": 3199,
      "IỆ": 3200,
      "dí</w>": 3201,
      "dõi</w>": 3202,
      "gỗ</w>": 3203,
      "hô</w>": 3204,
      "hứng</w>": 3205,
      "io": 3206,
      "lợn</w>": 3207,
      "ml</w>": 3208,
      "nàn</w>": 3209,
      "oo</w>": 3210,
      "rn": 3211,
      "rưỡi</w>": 3212,
      "tớ</w>": 3213,
      "tùng</w>": 3214,
      "ùn</w>": 3215,
      "Đo": 3216,
      "đô</w>": 3217,
      "đấu</w>": 3218,
      "Ổn</w>": 3219,
      "chiên</w>": 3220,
      "chập</w>": 3221,
      "chảy</w>": 3222,
      "ngáo</w>": 3223,
      "trộm</w>": 3224,
      "uynh</w>": 3225,
      "nghi</w>": 3226,
      "Nhanh</w>": 3227,
      "aaaa</w>": 3228,
      "android</w>": 3229,
      "ent</w>": 3230,
      "Toàn</w>": 3231,
      "11": 3232,
      ":></w>": 3233,
      "Si": 3234,
      "Su": 3235,
      "as": 3236,
      "bj": 3237,
      "bê</w>": 3238,
      "bậy</w>": 3239,
      "go</w>": 3240,
      "kak": 3241,
      "manh</w>": 3242,
      "sông</w>": 3243,
      "tam</w>": 3244,
      "tùy</w>": 3245,
      "đốt</w>": 3246,
      "chay</w>": 3247,
      "phiên</w>": 3248,
      "cát</w>": 3249,
      "hoang</w>": 3250,
      "Ngày</w>": 3251,
      "thuong</w>": 3252,
      "djdjdjdj": 3253,
      "50k</w>": 3254,
      "90": 3255,
      "Biết</w>": 3256,
      "Mn</w>": 3257,
      "Mày</w>": 3258,
      "bày</w>": 3259,
      "bong</w>": 3260,
      "cặc</w>": 3261,
      "cốc</w>": 3262,
      "dr": 3263,
      "fr": 3264,
      "fy": 3265,
      "kỷ</w>": 3266,
      "móc</w>": 3267,
      "nắm</w>": 3268,
      "sti": 3269,
      "văng</w>": 3270,
      "xứ</w>": 3271,
      "đái</w>": 3272,
      "đùa</w>": 3273,
      "ẤT</w>": 3274,
      "ỗng</w>": 3275,
      "nhũng</w>": 3276,
      "ngàn</w>": 3277,
      "giọt</w>": 3278,
      "tròn</w>": 3279,
      "truy</w>": 3280,
      "quạt</w>": 3281,
      "Châu</w>": 3282,
      "nghìn</w>": 3283,
      "Khuyên</w>": 3284,
      "Phù</w>": 3285,
      "thuê</w>": 3286,
      "cor": 3287,
      "out</w>": 3288,
      "suất</w>": 3289,
      "cap</w>": 3290,
      "500</w>": 3291,
      "shopee</w>": 3292,
      "nghiêm</w>": 3293,
      "Bọn</w>": 3294,
      "Gh": 3295,
      "Hương</w>": 3296,
      "Hợp</w>": 3297,
      "Lan</w>": 3298,
      "Tầm</w>": 3299,
      "ate</w>": 3300,
      "call</w>": 3301,
      "dạ</w>": 3302,
      "dang</w>": 3303,
      "gx": 3304,
      "kẹo</w>": 3305,
      "lượt</w>": 3306,
      "mộ</w>": 3307,
      "sắm</w>": 3308,
      "tán</w>": 3309,
      "tường</w>": 3310,
      "wn": 3311,
      "Đặc</w>": 3312,
      "đẹ": 3313,
      "đẻ</w>": 3314,
      "đậu</w>": 3315,
      "khôn</w>": 3316,
      "trứng</w>": 3317,
      "phàn</w>": 3318,
      "hok</w>": 3319,
      "Chính</w>": 3320,
      "khoan</w>": 3321,
      "2019</w>": 3322,
      "Hoa</w>": 3323,
      "muộn</w>": 3324,
      "48": 3325,
      "9k</w>": 3326,
      "AT": 3327,
      "Bài</w>": 3328,
      "Zalo</w>": 3329,
      "cưới</w>": 3330,
      "it</w>": 3331,
      "ke</w>": 3332,
      "láo</w>": 3333,
      "nấy</w>": 3334,
      "qá</w>": 3335,
      "súng</w>": 3336,
      "ty": 3337,
      "ti</w>": 3338,
      "xắn</w>": 3339,
      "Đéo</w>": 3340,
      "đào</w>": 3341,
      "đạp</w>": 3342,
      "thà</w>": 3343,
      "thắc</w>": 3344,
      "thanks</w>": 3345,
      "chật</w>": 3346,
      "ngộ</w>": 3347,
      "loz</w>": 3348,
      "Trinh</w>": 3349,
      "Trường</w>": 3350,
      "hieu</w>": 3351,
      "đoàn</w>": 3352,
      ":<</w>": 3353,
      "CA": 3354,
      "Co</w>": 3355,
      "Cả</w>": 3356,
      "Hưng</w>": 3357,
      "Rẻ</w>": 3358,
      "Sho": 3359,
      "Tự</w>": 3360,
      "Tân</w>": 3361,
      "admin</w>": 3362,
      "cuốn</w>": 3363,
      "cổng</w>": 3364,
      "huy</w>": 3365,
      "jsj": 3366,
      "làng</w>": 3367,
      "vai</w>": 3368,
      "vết</w>": 3369,
      "xếp</w>": 3370,
      "yy</w>": 3371,
      "Đào</w>": 3372,
      "ỜI</w>": 3373,
      "thâm</w>": 3374,
      "that</w>": 3375,
      "nhưg</w>": 3376,
      "trúng</w>": 3377,
      "Thì</w>": 3378,
      "Trọng</w>": 3379,
      "hhh</w>": 3380,
      "ruột</w>": 3381,
      "google</w>": 3382,
      "32": 3383,
      "33</w>": 3384,
      "5sao</w>": 3385,
      "5tr</w>": 3386,
      "65</w>": 3387,
      "90k</w>": 3388,
      "Ae</w>": 3389,
      "Bàn</w>": 3390,
      "Tặng</w>": 3391,
      "Youtube</w>": 3392,
      "ah": 3393,
      "bung</w>": 3394,
      "kê</w>": 3395,
      "kẹp</w>": 3396,
      "kín</w>": 3397,
      "lễ</w>": 3398,
      "lọ</w>": 3399,
      "lẻ</w>": 3400,
      "lẫn</w>": 3401,
      "mục</w>": 3402,
      "niềm</w>": 3403,
      "oi": 3404,
      "rác</w>": 3405,
      "sương</w>": 3406,
      "sha": 3407,
      "tấu</w>": 3408,
      "tóm</w>": 3409,
      "vẩn</w>": 3410,
      "Ưng</w>": 3411,
      "ựt</w>": 3412,
      "thẩm</w>": 3413,
      "lắng</w>": 3414,
      "Ngô</w>": 3415,
      "Phùng</w>": 3416,
      "chuông</w>": 3417,
      "dnd</w>": 3418,
      "comm": 3419,
      "bile</w>": 3420,
      "vvvv": 3421,
      "đuổi</w>": 3422,
      "Video</w>": 3423,
      "alaxy</w>": 3424,
      "//": 3425,
      "1h": 3426,
      "4000</w>": 3427,
      "HN</w>": 3428,
      "Mũ</w>": 3429,
      "Mở</w>": 3430,
      "Tiến</w>": 3431,
      "Xe</w>": 3432,
      "ading</w>": 3433,
      "bức</w>": 3434,
      "cmn</w>": 3435,
      "dnn": 3436,
      "ei": 3437,
      "ek": 3438,
      "eu": 3439,
      "hổ</w>": 3440,
      "sò</w>": 3441,
      "sàn</w>": 3442,
      "tím</w>": 3443,
      "vang</w>": 3444,
      "ver</w>": 3445,
      "Đọc</w>": 3446,
      "khui</w>": 3447,
      "ngón</w>": 3448,
      "giây</w>": 3449,
      "tráng</w>": 3450,
      "toang</w>": 3451,
      "Quy</w>": 3452,
      "ghé</w>": 3453,
      "dbb": 3454,
      "iiiii</w>": 3455,
      "cmn": 3456,
      "update</w>": 3457,
      "corona</w>": 3458,
      "07</w>": 3459,
      "100": 3460,
      "Bố</w>": 3461,
      "Hãy</w>": 3462,
      "Lu": 3463,
      "Mạnh</w>": 3464,
      "TQ</w>": 3465,
      "Tai</w>": 3466,
      "Tưởng</w>": 3467,
      "a70</w>": 3468,
      "can</w>": 3469,
      "gàng</w>": 3470,
      "hấp</w>": 3471,
      "lệ</w>": 3472,
      "lẹ</w>": 3473,
      "mh</w>": 3474,
      "nạp</w>": 3475,
      "rh": 3476,
      "tố</w>": 3477,
      "vl": 3478,
      "xóm</w>": 3479,
      "õm</w>": 3480,
      "đep</w>": 3481,
      "ện</w>": 3482,
      "cher</w>": 3483,
      "chờn</w>": 3484,
      "ngầu</w>": 3485,
      "trùng</w>": 3486,
      "trượt</w>": 3487,
      "Nguyên</w>": 3488,
      "Trời</w>": 3489,
      "ttel</w>": 3490,
      "hehe</w>": 3491,
      "bik</w>": 3492,
      "fkfk": 3493,
      "13": 3494,
      "CÓ</w>": 3495,
      "Lưu</w>": 3496,
      "Qua</w>": 3497,
      "Sang</w>": 3498,
      "av": 3499,
      "ar</w>": 3500,
      "eb": 3501,
      "is</w>": 3502,
      "len</w>": 3503,
      "mốt</w>": 3504,
      "nầy</w>": 3505,
      "og</w>": 3506,
      "sn</w>": 3507,
      "sơn</w>": 3508,
      "sập</w>": 3509,
      "tôn</w>": 3510,
      "vao</w>": 3511,
      "váy</w>": 3512,
      "vực</w>": 3513,
      "xung</w>": 3514,
      "zm": 3515,
      "cho": 3516,
      "uyen</w>": 3517,
      "Chip</w>": 3518,
      "het</w>": 3519,
      "ajaj": 3520,
      "cũg</w>": 3521,
      "17": 3522,
      "500": 3523,
      "Hàn</w>": 3524,
      "Nay</w>": 3525,
      "Note</w>": 3526,
      "Tối</w>": 3527,
      "cùi</w>": 3528,
      "dv": 3529,
      "dkk": 3530,
      "dương</w>": 3531,
      "hải</w>": 3532,
      "lô</w>": 3533,
      "lái</w>": 3534,
      "lõi</w>": 3535,
      "mẽ</w>": 3536,
      "mượn</w>": 3537,
      "nản</w>": 3538,
      "nốt</w>": 3539,
      "si</w>": 3540,
      "sốc</w>": 3541,
      "tiểu</w>": 3542,
      "vặt</w>": 3543,
      "ÌNH</w>": 3544,
      "Ôi</w>": 3545,
      "Đc</w>": 3546,
      "Đạt</w>": 3547,
      "đụ</w>": 3548,
      "đàng</w>": 3549,
      "đai</w>": 3550,
      "đằng</w>": 3551,
      "ĩu</w>": 3552,
      "ầng</w>": 3553,
      "ởm</w>": 3554,
      "thảm</w>": 3555,
      "thượng</w>": 3556,
      "thối</w>": 3557,
      "khốn</w>": 3558,
      "khớp</w>": 3559,
      "phi</w>": 3560,
      "phận</w>": 3561,
      "phóng</w>": 3562,
      "Nhi</w>": 3563,
      "........</w>": 3564,
      "Phúc</w>": 3565,
      "xuân</w>": 3566,
      "time</w>": 3567,
      "sett": 3568,
      "Hoài</w>": 3569,
      "nhiêng</w>": 3570,
      "hahahaha": 3571,
      "Shipper</w>": 3572,
      "Ngoài</w>": 3573,
      "okie</w>": 3574,
      "1m": 3575,
      "71</w>": 3576,
      "8tr</w>": 3577,
      "Ah</w>": 3578,
      "Bà</w>": 3579,
      "Bị</w>": 3580,
      "Ban</w>": 3581,
      "Hiện</w>": 3582,
      "Hiệp</w>": 3583,
      "Má</w>": 3584,
      "Ra</w>": 3585,
      "Rồi</w>": 3586,
      "Sai</w>": 3587,
      "Ví</w>": 3588,
      "bột</w>": 3589,
      "bảng</w>": 3590,
      "cột</w>": 3591,
      "dẹp</w>": 3592,
      "dâm</w>": 3593,
      "er": 3594,
      "ga</w>": 3595,
      "hời</w>": 3596,
      "lưỡng</w>": 3597,
      "mỏ</w>": 3598,
      "nb": 3599,
      "nông</w>": 3600,
      "oan</w>": 3601,
      "pi": 3602,
      "rảnh</w>": 3603,
      "sếp</w>": 3604,
      "wu": 3605,
      "xảy</w>": 3606,
      "đầm</w>": 3607,
      "đón</w>": 3608,
      "chiếu</w>": 3609,
      "phối</w>": 3610,
      "luô": 3611,
      "ifif": 3612,
      "200</w>": 3613,
      "tgdđ</w>": 3614,
      "!!!!!!!!": 3615,
      "ssssssss": 3616,
      "35</w>": 3617,
      "5s</w>": 3618,
      ">></w>": 3619,
      "Bùi</w>": 3620,
      "CS</w>": 3621,
      "Cố</w>": 3622,
      "Cầm</w>": 3623,
      "Lân</w>": 3624,
      "Lâu</w>": 3625,
      "Lương</w>": 3626,
      "Lỗi</w>": 3627,
      "]]</w>": 3628,
      "bá</w>": 3629,
      "bự</w>": 3630,
      "cru": 3631,
      "dg": 3632,
      "der</w>": 3633,
      "fla": 3634,
      "fake</w>": 3635,
      "lh": 3636,
      "lào</w>": 3637,
      "nk": 3638,
      "nen</w>": 3639,
      "tật</w>": 3640,
      "tùm</w>": 3641,
      "xì</w>": 3642,
      "Đặng</w>": 3643,
      "thô</w>": 3644,
      "chs</w>": 3645,
      "chợ</w>": 3646,
      "chứa</w>": 3647,
      "gio</w>": 3648,
      "truyện</w>": 3649,
      "lum</w>": 3650,
      "................................": 3651,
      "họp</w>": 3652,
      ":((": 3653,
      "wwwwwwww": 3654,
      "add</w>": 3655,
      "16": 3656,
      "Di": 3657,
      "Du": 3658,
      "Di</w>": 3659,
      "Khoa</w>": 3660,
      "LH</w>": 3661,
      "Ma": 3662,
      "UB": 3663,
      "bận</w>": 3664,
      "bốc</w>": 3665,
      "dưng</w>": 3666,
      "den</w>": 3667,
      "hên</w>": 3668,
      "hiền</w>": 3669,
      "kí</w>": 3670,
      "lão</w>": 3671,
      "mực</w>": 3672,
      "múa</w>": 3673,
      "pt": 3674,
      "say</w>": 3675,
      "shh": 3676,
      "tv</w>": 3677,
      "tắc</w>": 3678,
      "vc": 3679,
      "vả</w>": 3680,
      "ÂN</w>": 3681,
      "Ốp</w>": 3682,
      "ớn</w>": 3683,
      "nhai</w>": 3684,
      "ngắt</w>": 3685,
      "trôi</w>": 3686,
      "Thi</w>": 3687,
      "Thực</w>": 3688,
      "Khăn</w>": 3689,
      "anan": 3690,
      "tive</w>": 3691,
      "oucher</w>": 3692,
      "mixi</w>": 3693,
      "))))))))": 3694,
      "pppppppppppp</w>": 3695,
      "000d</w>": 3696,
      "eeeeeeeeeeeeeeee": 3697,
      "____": 3698,
      "AM</w>": 3699,
      "Bản</w>": 3700,
      "Da</w>": 3701,
      "Dịch</w>": 3702,
      "Học</w>": 3703,
      "Lin": 3704,
      "Ram</w>": 3705,
      "TP</w>": 3706,
      "US": 3707,
      "at": 3708,
      "bã</w>": 3709,
      "bó</w>": 3710,
      "bôi</w>": 3711,
      "ec": 3712,
      "gương</w>": 3713,
      "mù</w>": 3714,
      "mẻ</w>": 3715,
      "mông</w>": 3716,
      "môn</w>": 3717,
      "pe</w>": 3718,
      "rau</w>": 3719,
      "wh": 3720,
      "xnn": 3721,
      "Đến</w>": 3722,
      "ẾT</w>": 3723,
      "khảo</w>": 3724,
      "khuyết</w>": 3725,
      "khach</w>": 3726,
      "giang</w>": 3727,
      "quét</w>": 3728,
      "hoại</w>": 3729,
      "loài</w>": 3730,
      "dien</w>": 3731,
      "tion</w>": 3732,
      "cac</w>": 3733,
      "Oke</w>": 3734,
      "Shopee</w>": 3735,
      "setting</w>": 3736,
      "crush</w>": 3737,
      "ptpppppppppppp</w>": 3738,
      "9s</w>": 3739,
      "Hai</w>": 3740,
      "In": 3741,
      "Iphone</w>": 3742,
      "KI": 3743,
      "Mất</w>": 3744,
      "OS</w>": 3745,
      "cty</w>": 3746,
      "dụ</w>": 3747,
      "diệt</w>": 3748,
      "doi</w>": 3749,
      "gai</w>": 3750,
      "gãy</w>": 3751,
      "lôi</w>": 3752,
      "my</w>": 3753,
      "sz</w>": 3754,
      "tàn</w>": 3755,
      "vd</w>": 3756,
      "Đề</w>": 3757,
      "đói</w>": 3758,
      "đam</w>": 3759,
      "ẫy</w>": 3760,
      "ỏa</w>": 3761,
      "chén</w>": 3762,
      "khiển</w>": 3763,
      "ngầm</w>": 3764,
      "hon</w>": 3765,
      "Chả</w>": 3766,
      "Thứ</w>": 3767,
      "Nhờ</w>": 3768,
      "Pham</w>": 3769,
      "Phát</w>": 3770,
      "lap": 3771,
      "sel": 3772,
      "Huỳnh</w>": 3773,
      "KHÔNG</w>": 3774,
      "virus</w>": 3775,
      "Đoàn</w>": 3776,
      "38": 3777,
      "4tr</w>": 3778,
      "6tr</w>": 3779,
      "A51</w>": 3780,
      "Cười</w>": 3781,
      "FB</w>": 3782,
      "KM</w>": 3783,
      "Lộc</w>": 3784,
      "Mk</w>": 3785,
      "Mẫu</w>": 3786,
      "Số</w>": 3787,
      "binh</w>": 3788,
      "cơn</w>": 3789,
      "dt": 3790,
      "gf": 3791,
      "hí</w>": 3792,
      "jdj": 3793,
      "lồng</w>": 3794,
      "lòi</w>": 3795,
      "mọc</w>": 3796,
      "na": 3797,
      "ninh</w>": 3798,
      "sấy</w>": 3799,
      "tc</w>": 3800,
      "tik": 3801,
      "vn": 3802,
      "võ</w>": 3803,
      "òe</w>": 3804,
      "úy</w>": 3805,
      "Đầu</w>": 3806,
      "ẠI</w>": 3807,
      "ọp</w>": 3808,
      "chi": 3809,
      "chảnh</w>": 3810,
      "cán</w>": 3811,
      "luon</w>": 3812,
      "Ngu</w>": 3813,
      "ghế</w>": 3814,
      "oom</w>": 3815,
      "car": 3816,
      "xjxj": 3817,
      "tar</w>": 3818,
      "30p</w>": 3819,
      "Android</w>": 3820,
      "1tr</w>": 3821,
      "2tr": 3822,
      "3tr</w>": 3823,
      "64": 3824,
      "Cường</w>": 3825,
      "Hết</w>": 3826,
      "Hằng</w>": 3827,
      "Hiệu</w>": 3828,
      "HCM</w>": 3829,
      "Kệ</w>": 3830,
      "Kho": 3831,
      "Tộc</w>": 3832,
      "Tiệp</w>": 3833,
      "Vào</w>": 3834,
      "You": 3835,
      "bờ</w>": 3836,
      "cày</w>": 3837,
      "dtj": 3838,
      "gấu</w>": 3839,
      "hóng</w>": 3840,
      "hòa</w>": 3841,
      "kỉ</w>": 3842,
      "mún</w>": 3843,
      "nở</w>": 3844,
      "ot</w>": 3845,
      "rừng</w>": 3846,
      "soi</w>": 3847,
      "ván</w>": 3848,
      "Âm</w>": 3849,
      "Đăng</w>": 3850,
      "Đảng</w>": 3851,
      "đụng</w>": 3852,
      "nho": 3853,
      "trễ</w>": 3854,
      "trân</w>": 3855,
      "phán</w>": 3856,
      "Chung</w>": 3857,
      "aming</w>": 3858,
      "Thư</w>": 3859,
      "Nhược</w>": 3860,
      "Quan</w>": 3861,
      "hãm</w>": 3862,
      "rep</w>": 3863,
      "tttttt": 3864,
      "mmm</w>": 3865,
      "chuyen</w>": 3866,
      "dndndndn": 3867,
      "thich</w>": 3868,
      "okela</w>": 3869,
      "laptop</w>": 3870,
      "1h</w>": 3871,
      ":'": 3872,
      "Jack</w>": 3873,
      "Kiều</w>": 3874,
      "SA": 3875,
      "Vinh</w>": 3876,
      "banh</w>": 3877,
      "bóp</w>": 3878,
      "cn</w>": 3879,
      "cấn</w>": 3880,
      "edi": 3881,
      "fi</w>": 3882,
      "gồm</w>": 3883,
      "kj": 3884,
      "làn</w>": 3885,
      "lác</w>": 3886,
      "llo</w>": 3887,
      "mụ</w>": 3888,
      "men</w>": 3889,
      "mướt</w>": 3890,
      "mAh</w>": 3891,
      "sse": 3892,
      "sac</w>": 3893,
      "vuốt</w>": 3894,
      "zi": 3895,
      "Đỗ</w>": 3896,
      "đích</w>": 3897,
      "nhện</w>": 3898,
      "nguyễn</w>": 3899,
      "trì</w>": 3900,
      "phiền</w>": 3901,
      "que</w>": 3902,
      "Chủ</w>": 3903,
      "Thua</w>": 3904,
      "him</w>": 3905,
      "Phần</w>": 3906,
      "Quảng</w>": 3907,
      "mah</w>": 3908,
      "dndj": 3909,
      "aaaaa</w>": 3910,
      "Loại</w>": 3911,
      "zzz</w>": 3912,
      "mote</w>": 3913,
      "dbdbdbdb": 3914,
      "tag</w>": 3915,
      "Covid</w>": 3916,
      ",...</w>": 3917,
      "00</w>": 3918,
      "55</w>": 3919,
      "7plus</w>": 3920,
      "Bằng</w>": 3921,
      "Hạnh</w>": 3922,
      "Luôn</w>": 3923,
      "Này</w>": 3924,
      "Nước</w>": 3925,
      "PUB": 3926,
      "Siêu</w>": 3927,
      "Ta</w>": 3928,
      "Tủ</w>": 3929,
      "Tàu</w>": 3930,
      "UY": 3931,
      "VI": 3932,
      "Vy</w>": 3933,
      "Xu</w>": 3934,
      "apple</w>": 3935,
      "bít</w>": 3936,
      "bluetooth</w>": 3937,
      "cú</w>": 3938,
      "dn</w>": 3939,
      "galaxy</w>": 3940,
      "hinh</w>": 3941,
      "ky</w>": 3942,
      "kiếp</w>": 3943,
      "lăn</w>": 3944,
      "mj": 3945,
      "mỡ</w>": 3946,
      "mõm</w>": 3947,
      "tg</w>": 3948,
      "tổn</w>": 3949,
      "tồn</w>": 3950,
      "đồn</w>": 3951,
      "đền</w>": 3952,
      "đắng</w>": 3953,
      "ẦN</w>": 3954,
      "thg</w>": 3955,
      "thai</w>": 3956,
      "chớ</w>": 3957,
      "nhăn</w>": 3958,
      "quỷ</w>": 3959,
      "Chiến</w>": 3960,
      "lock</w>": 3961,
      "Phước</w>": 3962,
      "iep</w>": 3963,
      "????": 3964,
      "covid</w>": 3965,
      "fire</w>": 3966,
      "sjsjsjsj": 3967,
      "50s</w>": 3968,
      "đoán</w>": 3969,
      "ejej": 3970,
      ":))))))</w>": 3971,
      "3333": 3972,
      "Viettel</w>": 3973,
      "500k</w>": 3974,
      "CS": 3975,
      "Hạt</w>": 3976,
      "Idol</w>": 3977,
      "Kiểu</w>": 3978,
      "Lâm</w>": 3979,
      "MU": 3980,
      "Mẹ</w>": 3981,
      "Mượt</w>": 3982,
      "Tiếc</w>": 3983,
      "Xinh</w>": 3984,
      "a51</w>": 3985,
      "bề</w>": 3986,
      "bơm</w>": 3987,
      "bắp</w>": 3988,
      "cức</w>": 3989,
      "fa": 3990,
      "gõ</w>": 3991,
      "gui</w>": 3992,
      "han</w>": 3993,
      "hiến</w>": 3994,
      "huyền</w>": 3995,
      "jack</w>": 3996,
      "ki</w>": 3997,
      "lùi</w>": 3998,
      "mời</w>": 3999,
      "mác</w>": 4000,
      "mặn</w>": 4001,
      "nâu</w>": 4002,
      "núi</w>": 4003,
      "sk</w>": 4004,
      "tông</w>": 4005,
      "tầng</w>": 4006,
      "vớ</w>": 4007,
      "xĩu</w>": 4008,
      "Đinh</w>": 4009,
      "Đổi</w>": 4010,
      "the": 4011,
      "nhin</w>": 4012,
      "nhược</w>": 4013,
      "nhòe</w>": 4014,
      "ngữ</w>": 4015,
      "phan</w>": 4016,
      "quái</w>": 4017,
      "Trân</w>": 4018,
      "uuu</w>": 4019,
      "Hoang</w>": 4020,
      "nhiu</w>": 4021,
      "bit</w>": 4022,
      "Tube</w>": 4023,
      "gjgj": 4024,
      "Phong</w>": 4025,
      "with</w>": 4026,
      "alalalal": 4027,
      "uuuuuuuuuuuuuuuu": 4028,
      "ATM</w>": 4029,
      "share</w>": 4030,
      "YouTube</w>": 4031,
      "PUBG</w>": 4032,
      "\".</w>": 4033,
      "5p</w>": 4034,
      "990</w>": 4035,
      "Apple</w>": 4036,
      "Bluetooth</w>": 4037,
      "Cà</w>": 4038,
      "Hậu</w>": 4039,
      "IN</w>": 4040,
      "LÀ</w>": 4041,
      "Năm</w>": 4042,
      "SP</w>": 4043,
      "SHO": 4044,
      "Tây</w>": 4045,
      "Tính</w>": 4046,
      "^^": 4047,
      "bầu</w>": 4048,
      "con": 4049,
      "dô</w>": 4050,
      "dể</w>": 4051,
      "duyệt</w>": 4052,
      "gy": 4053,
      "gạch</w>": 4054,
      "hú</w>": 4055,
      "lò</w>": 4056,
      "lửa</w>": 4057,
      "lưỡi</w>": 4058,
      "qa</w>": 4059,
      "riết</w>": 4060,
      "rụng</w>": 4061,
      "sỉ</w>": 4062,
      "un": 4063,
      "vu</w>": 4064,
      "vá</w>": 4065,
      "vội</w>": 4066,
      "ôt</w>": 4067,
      "Đó</w>": 4068,
      "đãi</w>": 4069,
      "thở</w>": 4070,
      "thớt</w>": 4071,
      "chép</w>": 4072,
      "chặn</w>": 4073,
      "chiếm</w>": 4074,
      "khâu</w>": 4075,
      "trưng</w>": 4076,
      "phường</w>": 4077,
      "phấn</w>": 4078,
      "Chạy</w>": 4079,
      "load</w>": 4080,
      "siu</w>": 4081,
      "vien</w>": 4082,
      "Phú</w>": 4083,
      "eeee</w>": 4084,
      "buộc</w>": 4085,
      "ieng</w>": 4086,
      "cafe</w>": 4087,
      "ruồi</w>": 4088,
      "cjcj": 4089,
      "mobile</w>": 4090,
      "CHO</w>": 4091,
      "2022</w>": 4092,
      "cmnr</w>": 4093,
      "23</w>": 4094,
      "200k</w>": 4095,
      "4k</w>": 4096,
      "8h</w>": 4097,
      "98</w>": 4098,
      "ANH</w>": 4099,
      "Bán</w>": 4100,
      "Du</w>": 4101,
      "Hùng</w>": 4102,
      "Ly</w>": 4103,
      "Sợ</w>": 4104,
      "Sóng</w>": 4105,
      "Sữa</w>": 4106,
      "Tình</w>": 4107,
      "Tiện</w>": 4108,
      "bro</w>": 4109,
      "bọt</w>": 4110,
      "dz": 4111,
      "fjj": 4112,
      "gạt</w>": 4113,
      "hâ": 4114,
      "lật</w>": 4115,
      "muôn</w>": 4116,
      "nx</w>": 4117,
      "pro": 4118,
      "play</w>": 4119,
      "râu</w>": 4120,
      "tấc</w>": 4121,
      "xt": 4122,
      "xl</w>": 4123,
      "xui</w>": 4124,
      "đấm</w>": 4125,
      "đĩa</w>": 4126,
      "đệm</w>": 4127,
      "ƯỢ": 4128,
      "ẵng</w>": 4129,
      "ễu</w>": 4130,
      "chang</w>": 4131,
      "khít</w>": 4132,
      "khiếp</w>": 4133,
      "nger</w>": 4134,
      "trao</w>": 4135,
      "tràn</w>": 4136,
      "Nhớ</w>": 4137,
      "Ngân</w>": 4138,
      ".........</w>": 4139,
      "kkkkk</w>": 4140,
      "Phu": 4141,
      "Quý</w>": 4142,
      "ưởi</w>": 4143,
      "eee</w>": 4144,
      "sjj": 4145,
      "and": 4146,
      "live": 4147,
      "20k</w>": 4148,
      "inch</w>": 4149,
      "now</w>": 4150,
      "hahaha</w>": 4151,
      "cker</w>": 4152,
      "fhfh": 4153,
      "led</w>": 4154,
      "thik</w>": 4155,
      "hihihihi": 4156,
      "auto</w>": 4157,
      "nnnnnnnnnnnnnnnnnnnnnnnnnnnnnnnn": 4158,
      "tuyển</w>": 4159,
      "kaka</w>": 4160,
      "free": 4161,
      "21</w>": 4162,
      "28</w>": 4163,
      "22</w>": 4164,
      "2tr</w>": 4165,
      "31</w>": 4166,
      "75</w>": 4167,
      "91</w>": 4168,
      "Bỏ</w>": 4169,
      "Hữu</w>": 4170,
      "KI</w>": 4171,
      "MX</w>": 4172,
      "NV</w>": 4173,
      "ONG</w>": 4174,
      "Sn": 4175,
      "Tài</w>": 4176,
      "UI</w>": 4177,
      "Vui</w>": 4178,
      "Vãi</w>": 4179,
      "Yên</w>": 4180,
      "cam": 4181,
      "eo": 4182,
      "gớm</w>": 4183,
      "hước</w>": 4184,
      "hầu</w>": 4185,
      "il</w>": 4186,
      "lận</w>": 4187,
      "mút</w>": 4188,
      "nà</w>": 4189,
      "ròi</w>": 4190,
      "sổ</w>": 4191,
      "sắt</w>": 4192,
      "tần</w>": 4193,
      "vắt</w>": 4194,
      "vứt</w>": 4195,
      "xách</w>": 4196,
      "zg": 4197,
      "Đông</w>": 4198,
      "đĩ</w>": 4199,
      "đâm</w>": 4200,
      "thù</w>": 4201,
      "thưởng</w>": 4202,
      "chém</w>": 4203,
      "nhịn</w>": 4204,
      "ngột</w>": 4205,
      "ngỗng</w>": 4206,
      "trinh</w>": 4207,
      "troi</w>": 4208,
      "phiếu</w>": 4209,
      "hot</w>": 4210,
      "amam": 4211,
      "Giấy</w>": 4212,
      "loi</w>": 4213,
      "Trúc</w>": 4214,
      "hha": 4215,
      "wed</w>": 4216,
      "đuôi</w>": 4217,
      "000đ</w>": 4218,
      "okokokokok": 4219,
      "vkl</w>": 4220,
      "gggggggggggggggg": 4221,
      "nghiêng</w>": 4222,
      "nhuộm</w>": 4223,
      "rrrrrrrr": 4224,
      "24h</w>": 4225,
      "Cầu</w>": 4226,
      "Cát</w>": 4227,
      "Dm</w>": 4228,
      "Duyên</w>": 4229,
      "Lý</w>": 4230,
      "Lướt</w>": 4231,
      "Mang</w>": 4232,
      "Mèo</w>": 4233,
      "Ninh</w>": 4234,
      "Sam</w>": 4235,
      "Sách</w>": 4236,
      "Tư</w>": 4237,
      "Xịn</w>": 4238,
      "bh": 4239,
      "cj</w>": 4240,
      "dè</w>": 4241,
      "dì</w>": 4242,
      "gỡ</w>": 4243,
      "hùng</w>": 4244,
      "is": 4245,
      "liệt</w>": 4246,
      "mò</w>": 4247,
      "nồng</w>": 4248,
      "rời</w>": 4249,
      "tồi</w>": 4250,
      "ter</w>": 4251,
      "va": 4252,
      "wl": 4253,
      "wf</w>": 4254,
      "ằn</w>": 4255,
      "thủy</w>": 4256,
      "chổ</w>": 4257,
      "chở</w>": 4258,
      "chch": 4259,
      "nhở</w>": 4260,
      "nhóm</w>": 4261,
      "khánh</w>": 4262,
      "ngứa</w>": 4263,
      "phỏng</w>": 4264,
      "hoà</w>": 4265,
      "Chí</w>": 4266,
      "Thiên</w>": 4267,
      "Thắng</w>": 4268,
      "Trên</w>": 4269,
      "hic</w>": 4270,
      "uuuu</w>": 4271,
      "miêu</w>": 4272,
      "yyy</w>": 4273,
      "soạn</w>": 4274,
      "fie</w>": 4275,
      "nuoc</w>": 4276,
      "cncn": 4277,
      "okokokokokokokok": 4278,
      "Google</w>": 4279,
      "comment</w>": 4280,
      "14": 4281,
      "1k</w>": 4282,
      "5h</w>": 4283,
      "Cơ</w>": 4284,
      "Cùng</w>": 4285,
      "Cách</w>": 4286,
      "Dũng</w>": 4287,
      "Hóng</w>": 4288,
      "Jo": 4289,
      "Like</w>": 4290,
      "Pu": 4291,
      "QC</w>": 4292,
      "Ri": 4293,
      "Tốc</w>": 4294,
      "bai</w>": 4295,
      "balo</w>": 4296,
      "bth</w>": 4297,
      "bac</w>": 4298,
      "dập</w>": 4299,
      "dối</w>": 4300,
      "dãn</w>": 4301,
      "gu</w>": 4302,
      "hd": 4303,
      "há</w>": 4304,
      "hốt</w>": 4305,
      "lu</w>": 4306,
      "mối</w>": 4307,
      "om</w>": 4308,
      "sấp</w>": 4309,
      "tok</w>": 4310,
      "vote</w>": 4311,
      "xv": 4312,
      "Ánh</w>": 4313,
      "Đủ</w>": 4314,
      "đu</w>": 4315,
      "đẩy</w>": 4316,
      "Ưu</w>": 4317,
      "ẽo</w>": 4318,
      "thải</w>": 4319,
      "nhh</w>": 4320,
      "nhái</w>": 4321,
      "giám</w>": 4322,
      "log</w>": 4323,
      "Trend</w>": 4324,
      "Quạt</w>": 4325,
      "sjsk": 4326,
      "reset</w>": 4327,
      "lite</w>": 4328,
      "huawei</w>": 4329,
      "bass</w>": 4330,
      "Xuất</w>": 4331,
      "cccccccc": 4332,
      "ios</w>": 4333,
      "100k</w>": 4334,
      "2k</w>": 4335,
      "A70</w>": 4336,
      "Cây</w>": 4337,
      "Kính</w>": 4338,
      "Le</w>": 4339,
      "Lắp</w>": 4340,
      "Min": 4341,
      "TT": 4342,
      "UNG</w>": 4343,
      "Vô</w>": 4344,
      "bú</w>": 4345,
      "bon</w>": 4346,
      "back</w>": 4347,
      "cg": 4348,
      "cử</w>": 4349,
      "căn</w>": 4350,
      "dại</w>": 4351,
      "dầy</w>": 4352,
      "fl": 4353,
      "ffi": 4354,
      "gánh</w>": 4355,
      "hz</w>": 4356,
      "hâm</w>": 4357,
      "lặng</w>": 4358,
      "lẻo</w>": 4359,
      "non</w>": 4360,
      "nokia</w>": 4361,
      "rít</w>": 4362,
      "sụt</w>": 4363,
      "tào</w>": 4364,
      "tởm</w>": 4365,
      "vong</w>": 4366,
      "xg": 4367,
      "xương</w>": 4368,
      "xăng</w>": 4369,
      "Đơn</w>": 4370,
      "đế": 4371,
      "để": 4372,
      "đà</w>": 4373,
      "đú</w>": 4374,
      "đinh</w>": 4375,
      "ơiii</w>": 4376,
      "ơiiii</w>": 4377,
      "ặm</w>": 4378,
      "ỗn</w>": 4379,
      "chàng</w>": 4380,
      "chùi</w>": 4381,
      "nhể</w>": 4382,
      "nguyện</w>": 4383,
      "giặc</w>": 4384,
      "trữ</w>": 4385,
      "Chu</w>": 4386,
      "nghiện</w>": 4387,
      "Thank</w>": 4388,
      "Nhỏ</w>": 4389,
      "Nhất</w>": 4390,
      "tuong</w>": 4391,
      "Trải</w>": 4392,
      "Trịnh</w>": 4393,
      "ườn</w>": 4394,
      "djdk": 4395,
      "ngoan</w>": 4396,
      "jjj": 4397,
      "mini</w>": 4398,
      "Loan</w>": 4399,
      "agon</w>": 4400,
      "best</w>": 4401,
      "keke": 4402,
      "Huawei</w>": 4403,
      "niêm</w>": 4404,
      "128": 4405,
      ",,,</w>": 4406,
      "TIKI</w>": 4407,
      "combo</w>": 4408,
      "Hello</w>": 4409,
      "///</w>": 4410,
      "selfie</w>": 4411,
      "25": 4412,
      "29</w>": 4413,
      "32</w>": 4414,
      "=]]</w>": 4415,
      "AB": 4416,
      "Bây</w>": 4417,
      "Balo</w>": 4418,
      "CÁ": 4419,
      "CA</w>": 4420,
      "Câu</w>": 4421,
      "Fu": 4422,
      "HD": 4423,
      "Miếng</w>": 4424,
      "No": 4425,
      "Nokia</w>": 4426,
      "San</w>": 4427,
      "TV</w>": 4428,
      "Tức</w>": 4429,
      "Vi</w>": 4430,
      "Vin": 4431,
      "bại</w>": 4432,
      "blu": 4433,
      "bênh</w>": 4434,
      "cư</w>": 4435,
      "cản</w>": 4436,
      "cành</w>": 4437,
      "dj</w>": 4438,
      "dốt</w>": 4439,
      "es</w>": 4440,
      "h30</w>": 4441,
      "hụt</w>": 4442,
      "ic</w>": 4443,
      "ld</w>": 4444,
      "lang</w>": 4445,
      "lạy</w>": 4446,
      "mập</w>": 4447,
      "oko</w>": 4448,
      "pt</w>": 4449,
      "rb": 4450,
      "rou": 4451,
      "sôi</w>": 4452,
      "sịn</w>": 4453,
      "tít</w>": 4454,
      "tạp</w>": 4455,
      "tĩnh</w>": 4456,
      "usb</w>": 4457,
      "voucher</w>": 4458,
      "xốp</w>": 4459,
      "Động</w>": 4460,
      "đươ": 4461,
      "đành</w>": 4462,
      "ụm</w>": 4463,
      "them</w>": 4464,
      "chọc</w>": 4465,
      "chúa</w>": 4466,
      "nhi</w>": 4467,
      "nhét</w>": 4468,
      "khac</w>": 4469,
      "ngũ</w>": 4470,
      "ngân</w>": 4471,
      "ngành</w>": 4472,
      "ngạt</w>": 4473,
      "gigi": 4474,
      "tru</w>": 4475,
      "phức</w>": 4476,
      "quăng</w>": 4477,
      "Thử</w>": 4478,
      "Trừ</w>": 4479,
      "Phục</w>": 4480,
      "chug</w>": 4481,
      "tiep</w>": 4482,
      "ieie": 4483,
      "coy": 4484,
      "dmx</w>": 4485,
      "Mixi</w>": 4486,
      "mmmmmmmmmmmmmmmm": 4487,
      "zzzzzzzz": 4488,
      "dddddddddddddddd": 4489,
      "Size</w>": 4490,
      "đẹp": 4491,
      "06</w>": 4492,
      "200": 4493,
      "3h</w>": 4494,
      "=))))": 4495,
      "AI</w>": 4496,
      "Ca</w>": 4497,
      "Dạo</w>": 4498,
      "Gọi</w>": 4499,
      "Gửi</w>": 4500,
      "HÀ": 4501,
      "SD</w>": 4502,
      "Tổ</w>": 4503,
      "akk": 4504,
      "bu</w>": 4505,
      "bang</w>": 4506,
      "bla": 4507,
      "cau</w>": 4508,
      "ds</w>": 4509,
      "dd</w>": 4510,
      "dăm</w>": 4511,
      "ft</w>": 4512,
      "gắt</w>": 4513,
      "hs</w>": 4514,
      "ham</w>": 4515,
      "hèn</w>": 4516,
      "kép</w>": 4517,
      "lổi</w>": 4518,
      "móng</w>": 4519,
      "mến</w>": 4520,
      "rẽ</w>": 4521,
      "rong</w>": 4522,
      "ráng</w>": 4523,
      "rát</w>": 4524,
      "sợi</w>": 4525,
      "t5": 4526,
      "tks</w>": 4527,
      "uổng</w>": 4528,
      "yd": 4529,
      "zai</w>": 4530,
      "ôg</w>": 4531,
      "đung</w>": 4532,
      "điệu</w>": 4533,
      "thờ</w>": 4534,
      "chời</w>": 4535,
      "chan</w>": 4536,
      "chảo</w>": 4537,
      "chưởng</w>": 4538,
      "chet</w>": 4539,
      "nhãn</w>": 4540,
      "khắp</w>": 4541,
      "giong</w>": 4542,
      "tróc</w>": 4543,
      "trog</w>": 4544,
      "phú</w>": 4545,
      "què</w>": 4546,
      "Chờ</w>": 4547,
      "Chân</w>": 4548,
      "Thông</w>": 4549,
      "tuc</w>": 4550,
      "lone</w>": 4551,
      "Tru": 4552,
      "Trương</w>": 4553,
      "djd</w>": 4554,
      "djdn": 4555,
      "real</w>": 4556,
      "reno</w>": 4557,
      "tiet</w>": 4558,
      "mic</w>": 4559,
      "bbb": 4560,
      "mot</w>": 4561,
      "fix</w>": 4562,
      "........................": 4563,
      "snsnsn": 4564,
      "Vivo</w>": 4565,
      "bbbbbbbb": 4566,
      "@@@@": 4567,
      "Hihi</w>": 4568,
      "dlv</w>": 4569,
      "dragon</w>": 4570,
      "SHOP</w>": 4571,
      "đểu</w>": 4572,
      "((": 4573,
      "26</w>": 4574,
      "6h</w>": 4575,
      "Bánh</w>": 4576,
      "Hồi</w>": 4577,
      "LÀ": 4578,
      "LV</w>": 4579,
      "Lam</w>": 4580,
      "Moi</w>": 4581,
      "Tập</w>": 4582,
      "Tội</w>": 4583,
      "Tks</w>": 4584,
      "Vu</w>": 4585,
      "Vn</w>": 4586,
      "Vl</w>": 4587,
      "Vote</w>": 4588,
      "bồn</w>": 4589,
      "bạo</w>": 4590,
      "ble</w>": 4591,
      "cỏ</w>": 4592,
      "câm</w>": 4593,
      "dâu</w>": 4594,
      "el": 4595,
      "f11</w>": 4596,
      "hà": 4597,
      "hằng</w>": 4598,
      "hứa</w>": 4599,
      "hổng</w>": 4600,
      "huynh</w>": 4601,
      "lì</w>": 4602,
      "lân</w>": 4603,
      "lục</w>": 4604,
      "mài</w>": 4605,
      "tuyến</w>": 4606,
      "ui": 4607,
      "vững</w>": 4608,
      "xai</w>": 4609,
      "xám</w>": 4610,
      "yê": 4611,
      "ziên</w>": 4612,
      "~~": 4613,
      "Đại</w>": 4614,
      "ẫm</w>": 4615,
      "ềnh</w>": 4616,
      "ỐC</w>": 4617,
      "thảo</w>": 4618,
      "nhen</w>": 4619,
      "khe</w>": 4620,
      "khựng</w>": 4621,
      "ngừ": 4622,
      "ngực</w>": 4623,
      "giường</w>": 4624,
      "phốt</w>": 4625,
      "quận</w>": 4626,
      "Chú</w>": 4627,
      "Thay</w>": 4628,
      "ppy</w>": 4629,
      "hhh": 4630,
      "kkkkkk</w>": 4631,
      "Phi</w>": 4632,
      "sksn": 4633,
      "cuoi</w>": 4634,
      "20p</w>": 4635,
      "active</w>": 4636,
      "tern": 4637,
      "okokoko</w>": 4638,
      "dell</w>": 4639,
      "fund</w>": 4640,
      "muon</w>": 4641,
      "Chuột</w>": 4642,
      "198</w>": 4643,
      "Nghĩ</w>": 4644,
      "Haha</w>": 4645,
      "Cuộc</w>": 4646,
      "Good</w>": 4647,
      "Test</w>": 4648,
      "flash</w>": 4649,
      "ssenger</w>": 4650,
      "MUA</w>": 4651,
      "01</w>": 4652,
      "0d</w>": 4653,
      "2k": 4654,
      "27</w>": 4655,
      "38</w>": 4656,
      "39</w>": 4657,
      "Bữa</w>": 4658,
      "CO": 4659,
      "Cá</w>": 4660,
      "De": 4661,
      "EN</w>": 4662,
      "From</w>": 4663,
      "Gòn</w>": 4664,
      "HI": 4665,
      "Lấy</w>": 4666,
      "Mạng</w>": 4667,
      "Ng</w>": 4668,
      "Nv</w>": 4669,
      "Son</w>": 4670,
      "Tóc</w>": 4671,
      "Tổng</w>": 4672,
      "bk": 4673,
      "bí</w>": 4674,
      "cạo</w>": 4675,
      "dat</w>": 4676,
      "eng</w>": 4677,
      "from</w>": 4678,
      "ik</w>": 4679,
      "j7</w>": 4680,
      "ka</w>": 4681,
      "ló</w>": 4682,
      "nụ</w>": 4683,
      "nàng</w>": 4684,
      "rk": 4685,
      "ri</w>": 4686,
      "sc": 4687,
      "sto": 4688,
      "sạt</w>": 4689,
      "sốt</w>": 4690,
      "tn</w>": 4691,
      "tp</w>": 4692,
      "tuyên</w>": 4693,
      "vé</w>": 4694,
      "zui</w>": 4695,
      "Đà</w>": 4696,
      "Đem</w>": 4697,
      "Đôi</w>": 4698,
      "Điều</w>": 4699,
      "Địt</w>": 4700,
      "đj": 4701,
      "đè</w>": 4702,
      "đục</w>": 4703,
      "đắn</w>": 4704,
      "đcm</w>": 4705,
      "đag</w>": 4706,
      "ƯỚ": 4707,
      "ƯỜI</w>": 4708,
      "thợ</w>": 4709,
      "thăm</w>": 4710,
      "thank</w>": 4711,
      "chát</w>": 4712,
      "kháng</w>": 4713,
      "khéo</w>": 4714,
      "khối</w>": 4715,
      "khám</w>": 4716,
      "trầm</w>": 4717,
      "trading</w>": 4718,
      "quài</w>": 4719,
      "quấn</w>": 4720,
      "Chó</w>": 4721,
      "Thêm</w>": 4722,
      "Thắm</w>": 4723,
      "Thùy</w>": 4724,
      "Nhạc</w>": 4725,
      "Giảm</w>": 4726,
      "tuỳ</w>": 4727,
      "Nga</w>": 4728,
      "loc</w>": 4729,
      "nnnn</w>": 4730,
      "Khẩu</w>": 4731,
      "khoa</w>": 4732,
      "didi": 4733,
      "mac": 4734,
      "10k</w>": 4735,
      "chuyến</w>": 4736,
      "zjzj": 4737,
      "truoc</w>": 4738,
      "sticker</w>": 4739,
      "USB</w>": 4740,
      "LÀM</w>": 4741,
      "45</w>": 4742,
      "4500</w>": 4743,
      "57": 4744,
      "9h</w>": 4745,
      "Fi": 4746,
      "Gối</w>": 4747,
      "Kem</w>": 4748,
      "Lãnh</w>": 4749,
      "Sáng</w>": 4750,
      "Sale</w>": 4751,
      "Tin</w>": 4752,
      "Tấn</w>": 4753,
      "Uyên</w>": 4754,
      "Viet</w>": 4755,
      "bô</w>": 4756,
      "bạ</w>": 4757,
      "bào</w>": 4758,
      "ct": 4759,
      "fm": 4760,
      "ge": 4761,
      "gaming</w>": 4762,
      "háng</w>": 4763,
      "ien</w>": 4764,
      "ko": 4765,
      "kb</w>": 4766,
      "lãi</w>": 4767,
      "lĩnh</w>": 4768,
      "mx</w>": 4769,
      "mb</w>": 4770,
      "mảnh</w>": 4771,
      "nạ</w>": 4772,
      "off</w>": 4773,
      "pa": 4774,
      "sx</w>": 4775,
      "sốp</w>": 4776,
      "túc</w>": 4777,
      "vòi</w>": 4778,
      "vlog</w>": 4779,
      "yi": 4780,
      "zô</w>": 4781,
      "ág</w>": 4782,
      "òm</w>": 4783,
      "Đợt</w>": 4784,
      "đắc</w>": 4785,
      "ũa</w>": 4786,
      "ẻm</w>": 4787,
      "ửu</w>": 4788,
      "nháy</w>": 4789,
      "nhậy</w>": 4790,
      "nhậu</w>": 4791,
      "nhah</w>": 4792,
      "nhaaa</w>": 4793,
      "khinh</w>": 4794,
      "trống</w>": 4795,
      "quỳ</w>": 4796,
      "quất</w>": 4797,
      "quai</w>": 4798,
      "logo</w>": 4799,
      "Trà</w>": 4800,
      "Khổ</w>": 4801,
      "buồi</w>": 4802,
      "mail</w>": 4803,
      "iiiiiii</w>": 4804,
      "10h</w>": 4805,
      "com</w>": 4806,
      "boss</w>": 4807,
      "djdjdj": 4808,
      "deal</w>": 4809,
      "mess</w>": 4810,
      "show</w>": 4811,
      "key</w>": 4812,
      "nilon</w>": 4813,
      "NGƯỜI</w>": 4814,
      "Ngoại</w>": 4815,
      "apdragon</w>": 4816,
      "Link</w>": 4817,
      ":'(</w>": 4818,
      "\",</w>": 4819,
      "-.": 4820,
      "28": 4821,
      "300k</w>": 4822,
      "=></w>": 4823,
      "?!</w>": 4824,
      "Bo": 4825,
      "Cẩm</w>": 4826,
      "Date</w>": 4827,
      "EO</w>": 4828,
      "KH</w>": 4829,
      "Kinh</w>": 4830,
      "Mi</w>": 4831,
      "MÌNH</w>": 4832,
      "PT</w>": 4833,
      "PIN</w>": 4834,
      "SS</w>": 4835,
      "Táo</w>": 4836,
      "VN": 4837,
      "ara</w>": 4838,
      "by": 4839,
      "bat</w>": 4840,
      "bsb": 4841,
      "bịt</w>": 4842,
      "ct</w>": 4843,
      "cất</w>": 4844,
      "dinh</w>": 4845,
      "dắt</w>": 4846,
      "dth</w>": 4847,
      "ex": 4848,
      "fg": 4849,
      "gê</w>": 4850,
      "gòn</w>": 4851,
      "gan</w>": 4852,
      "hít</w>": 4853,
      "hạng</w>": 4854,
      "ji</w>": 4855,
      "ksk": 4856,
      "lờ</w>": 4857,
      "mĩ</w>": 4858,
      "mây</w>": 4859,
      "mieng</w>": 4860,
      "nj": 4861,
      "nỗ</w>": 4862,
      "nết</w>": 4863,
      "ndn": 4864,
      "net</w>": 4865,
      "or</w>": 4866,
      "oto</w>": 4867,
      "pk</w>": 4868,
      "pre": 4869,
      "rât</w>": 4870,
      "sr": 4871,
      "sót</w>": 4872,
      "tk": 4873,
      "tân</w>": 4874,
      "tái</w>": 4875,
      "tựa</w>": 4876,
      "uc</w>": 4877,
      "vt": 4878,
      "vua</w>": 4879,
      "vinh</w>": 4880,
      "vâng</w>": 4881,
      "wor": 4882,
      "xí</w>": 4883,
      "ăc</w>": 4884,
      "ĐT</w>": 4885,
      "Đậu</w>": 4886,
      "ỉm</w>": 4887,
      "thúc</w>": 4888,
      "thậm</w>": 4889,
      "chối</w>": 4890,
      "chùa</w>": 4891,
      "nhảm</w>": 4892,
      "nhaa</w>": 4893,
      "nhờn</w>": 4894,
      "khỉ</w>": 4895,
      "khựa</w>": 4896,
      "giùm</w>": 4897,
      "tro</w>": 4898,
      "uyển</w>": 4899,
      "Chiều</w>": 4900,
      "Thịnh</w>": 4901,
      "Thúy</w>": 4902,
      "Ngồi</w>": 4903,
      "lap</w>": 4904,
      "chup</w>": 4905,
      "remote</w>": 4906,
      "diem</w>": 4907,
      "onl</w>": 4908,
      "10s</w>": 4909,
      "thuỷ</w>": 4910,
      "tel</w>": 4911,
      "not</w>": 4912,
      "Tuân</w>": 4913,
      "messenger</w>": 4914,
      "ffff": 4915,
      "dhdhdh": 4916,
      "****": 4917,
      "zkzk": 4918,
      "iiiiiiiiiiiiiiiiiiiiiiiiiiiiiiii": 4919,
      "phun</w>": 4920,
      "Pubg</w>": 4921,
      "!?</w>": 4922,
      "3G</w>": 4923,
      "5000": 4924,
      "68": 4925,
      "64</w>": 4926,
      "70": 4927,
      "7kg</w>": 4928,
      "9tr</w>": 4929,
      "990k</w>": 4930,
      ";))</w>": 4931,
      "Bát</w>": 4932,
      "Bút</w>": 4933,
      "Cập</w>": 4934,
      "CON</w>": 4935,
      "Dòng</w>": 4936,
      "DLV</w>": 4937,
      "Hạ</w>": 4938,
      "Hơn</w>": 4939,
      "NN": 4940,
      "Se": 4941,
      "SG</w>": 4942,
      "Tụi</w>": 4943,
      "Uống</w>": 4944,
      "Vị</w>": 4945,
      "Vận</w>": 4946,
      "Wi": 4947,
      "bb</w>": 4948,
      "bồ</w>": 4949,
      "bãi</w>": 4950,
      "cống</w>": 4951,
      "cặn</w>": 4952,
      "dỗi</w>": 4953,
      "hj</w>": 4954,
      "hàm</w>": 4955,
      "huyện</w>": 4956,
      "kiều</w>": 4957,
      "lg</w>": 4958,
      "lem</w>": 4959,
      "lòn</w>": 4960,
      "lối</w>": 4961,
      "lãng</w>": 4962,
      "mp": 4963,
      "mu</w>": 4964,
      "mùng</w>": 4965,
      "né</w>": 4966,
      "niệm</w>": 4967,
      "nón</w>": 4968,
      "qj": 4969,
      "rệt</w>": 4970,
      "sf": 4971,
      "tk</w>": 4972,
      "tú</w>": 4973,
      "té</w>": 4974,
      "vốn</w>": 4975,
      "xl": 4976,
      "xh</w>": 4977,
      "zậy</w>": 4978,
      "Đợi</w>": 4979,
      "Định</w>": 4980,
      "đg</w>": 4981,
      "đáy</w>": 4982,
      "đột</w>": 4983,
      "ỚI</w>": 4984,
      "thưa</w>": 4985,
      "khử</w>": 4986,
      "gioi</w>": 4987,
      "phầm</w>": 4988,
      "home</w>": 4989,
      "Chat</w>": 4990,
      "nghiệt</w>": 4991,
      "Thần</w>": 4992,
      "Nhu": 4993,
      "Giàu</w>": 4994,
      "tuộc</w>": 4995,
      "loan</w>": 4996,
      "kkkkkkk</w>": 4997,
      "ngoái</w>": 4998,
      "ggg</w>": 4999,
      "cug</w>": 5000,
      "dbd</w>": 5001,
      "10p</w>": 5002,
      "bom</w>": 5003,
      "sub</w>": 5004,
      "note": 5005,
      "xog</w>": 5006,
      "viet</w>": 5007,
      "file</w>": 5008,
      "sksksk": 5009,
      "Okik": 5010,
      "hehehehe": 5011,
      "----------------": 5012,
      "qqqq": 5013,
      "dtjdtj": 5014,
      "ƯỢC</w>": 5015,
      "đươc</w>": 5016,
      "ternet</w>": 5017,
      "-.-</w>": 5018,
      "34": 5019,
      "37</w>": 5020,
      "5kg</w>": 5021,
      "7t": 5022,
      "7tr</w>": 5023,
      "ANG</w>": 5024,
      "Băng</w>": 5025,
      "Cuối</w>": 5026,
      "Dt</w>": 5027,
      "D60": 5028,
      "E6": 5029,
      "For": 5030,
      "Hòa</w>": 5031,
      "Kiên</w>": 5032,
      "Lời</w>": 5033,
      "Ma</w>": 5034,
      "MP</w>": 5035,
      "Phim</w>": 5036,
      "SI": 5037,
      "So": 5038,
      "TC</w>": 5039,
      "Tên</w>": 5040,
      "Tiểu</w>": 5041,
      "ahihi</w>": 5042,
      "bạch</w>": 5043,
      "bún</w>": 5044,
      "cút</w>": 5045,
      "cắp</w>": 5046,
      "cẩu</w>": 5047,
      "db</w>": 5048,
      "fai</w>": 5049,
      "gội</w>": 5050,
      "gởi</w>": 5051,
      "gym</w>": 5052,
      "hủy</w>": 5053,
      "je": 5054,
      "kiềm</w>": 5055,
      "lẩu</w>": 5056,
      "mb": 5057,
      "mạch</w>": 5058,
      "mvũ</w>": 5059,
      "nộp</w>": 5060,
      "ph</w>": 5061,
      "pri": 5062,
      "rủ</w>": 5063,
      "rượ": 5064,
      "rôi</w>": 5065,
      "rãi</w>": 5066,
      "rap</w>": 5067,
      "sừng</w>": 5068,
      "star</w>": 5069,
      "tau</w>": 5070,
      "tgian</w>": 5071,
      "tphone</w>": 5072,
      "vở</w>": 5073,
      "vất</w>": 5074,
      "vác</w>": 5075,
      "vai": 5076,
      "wp": 5077,
      "you": 5078,
      "zin</w>": 5079,
      "ĐMX</w>": 5080,
      "đâ": 5081,
      "đùng</w>": 5082,
      "ƠN</w>": 5083,
      "ưii</w>": 5084,
      "ậc</w>": 5085,
      "thăng</w>": 5086,
      "thấu</w>": 5087,
      "chanh</w>": 5088,
      "nhg</w>": 5089,
      "nhường</w>": 5090,
      "khói</w>": 5091,
      "ngâm</w>": 5092,
      "giựt</w>": 5093,
      "trọn</w>": 5094,
      "phơi</w>": 5095,
      "hoc</w>": 5096,
      "Chết</w>": 5097,
      "Chậm</w>": 5098,
      "The</w>": 5099,
      "Thơm</w>": 5100,
      "Giáo</w>": 5101,
      "tuân</w>": 5102,
      "Ngoc</w>": 5103,
      "ames</w>": 5104,
      "Quay</w>": 5105,
      "lan": 5106,
      "!!!!!</w>": 5107,
      "dich</w>": 5108,
      "make</w>": 5109,
      "dndk": 5110,
      "lien</w>": 5111,
      "snap</w>": 5112,
      "thun</w>": 5113,
      "ina</w>": 5114,
      "inow</w>": 5115,
      "susan</w>": 5116,
      "kemvũ</w>": 5117,
      "xxxx": 5118,
      "post</w>": 5119,
      "Thuận</w>": 5120,
      "jjjjjjjj": 5121,
      "400</w>": 5122,
      "aaaaaaaaaaaaaaaaaaaaaaaaaaaaaaaa": 5123,
      "vyvy": 5124,
      "IỆT</w>": 5125,
      "edit</w>": 5126,
      "androi</w>": 5127,
      "Riêng</w>": 5128,
      "D60E6": 5129,
      "03</w>": 5130,
      "1000</w>": 5131,
      "22": 5132,
      "34</w>": 5133,
      "52</w>": 5134,
      "6D60E6": 5135,
      "AM": 5136,
      "AD</w>": 5137,
      "BF": 5138,
      "BI": 5139,
      "Bi": 5140,
      "CT</w>": 5141,
      "Cộng</w>": 5142,
      "De</w>": 5143,
      "Danh</w>": 5144,
      "D6D60E6": 5145,
      "Fb</w>": 5146,
      "F38": 5147,
      "Gạo</w>": 5148,
      "LU": 5149,
      "Lũ</w>": 5150,
      "Lào</w>": 5151,
      "Mãi</w>": 5152,
      "Ro": 5153,
      "Ru": 5154,
      "Tu</w>": 5155,
      "Tải</w>": 5156,
      "VÀ</w>": 5157,
      "Viên</w>": 5158,
      "Vâng</w>": 5159,
      "bơi</w>": 5160,
      "bùi</w>": 5161,
      "búa</w>": 5162,
      "cv": 5163,
      "ckh": 5164,
      "cang</w>": 5165,
      "cạn</w>": 5166,
      "cjj": 5167,
      "dẻ</w>": 5168,
      "dem</w>": 5169,
      "diên</w>": 5170,
      "dam</w>": 5171,
      "dái</w>": 5172,
      "dri": 5173,
      "ga": 5174,
      "hb": 5175,
      "hũ</w>": 5176,
      "ka": 5177,
      "lược</w>": 5178,
      "lăng</w>": 5179,
      "lát</w>": 5180,
      "luyện</w>": 5181,
      "lọt</w>": 5182,
      "liếm</w>": 5183,
      "nứng</w>": 5184,
      "ném</w>": 5185,
      "rực</w>": 5186,
      "tf": 5187,
      "tê</w>": 5188,
      "tang</w>": 5189,
      "tat</w>": 5190,
      "tiệp</w>": 5191,
      "us</w>": 5192,
      "vây</w>": 5193,
      "vương</w>": 5194,
      "xích</w>": 5195,
      "xót</w>": 5196,
      "zu": 5197,
      "Úc</w>": 5198,
      "àh</w>": 5199,
      "ãm</w>": 5200,
      "úg</w>": 5201,
      "đb</w>": 5202,
      "đùi</w>": 5203,
      "ẢN</w>": 5204,
      "ẬT</w>": 5205,
      "ụy</w>": 5206,
      "thụ</w>": 5207,
      "chuối</w>": 5208,
      "chớp</w>": 5209,
      "nhẫn</w>": 5210,
      "nhám</w>": 5211,
      "nhma</w>": 5212,
      "nhuyễn</w>": 5213,
      "khích</w>": 5214,
      "ngửi</w>": 5215,
      "ngắm</w>": 5216,
      "giỏ</w>": 5217,
      "gioi": 5218,
      "trại</w>": 5219,
      "trào</w>": 5220,
      "trục</w>": 5221,
      "phu</w>": 5222,
      "phật</w>": 5223,
      "nghiên</w>": 5224,
      "Giới</w>": 5225,
      "ppp</w>": 5226,
      "hhhh</w>": 5227,
      "thoai</w>": 5228,
      "ngoai</w>": 5229,
      "didong</w>": 5230,
      "dbdj": 5231,
      "shiper</w>": 5232,
      "??????</w>": 5233,
      "cmm</w>": 5234,
      "order</w>": 5235,
      "soát</w>": 5236,
      "lear</w>": 5237,
      "33F38": 5238,
      "NGH": 5239,
      "tttttttttttttttttttttttttttttttt": 5240,
      "=))))))</w>": 5241,
      "for</w>": 5242,
      "GIÁ</w>": 5243,
      "tuyet</w>": 5244,
      "haizz</w>": 5245,
      "khuẩn</w>": 5246,
      ":((((</w>": 5247,
      "mjh</w>": 5248,
      "okokokokokOkik": 5249,
      "BF33F38": 5250,
      "gioididong</w>": 5251,
      "BF33F38D6D60E6": 5252,
      "*.</w>": 5253,
      "02</w>": 5254,
      "0đ</w>": 5255,
      "24": 5256,
      "3k</w>": 5257,
      "77": 5258,
      "97</w>": 5259,
      "BT</w>": 5260,
      "Bích</w>": 5261,
      "Cài</w>": 5262,
      "Cam": 5263,
      "Cor": 5264,
      "Do": 5265,
      "Dan</w>": 5266,
      "Dầu</w>": 5267,
      "Diệu</w>": 5268,
      "Gần</w>": 5269,
      "Hiền</w>": 5270,
      "Hối</w>": 5271,
      "Huynh</w>": 5272,
      "LI": 5273,
      "Le": 5274,
      "Lệ</w>": 5275,
      "Mùa</w>": 5276,
      "Ne": 5277,
      "RẤT</w>": 5278,
      "Tik": 5279,
      "Váy</w>": 5280,
      "Xanh</w>": 5281,
      "Xong</w>": 5282,
      "ay": 5283,
      "a50</w>": 5284,
      "a50s</w>": 5285,
      "bk</w>": 5286,
      "bơ</w>": 5287,
      "cr": 5288,
      "cọ</w>": 5289,
      "cro": 5290,
      "cbi</w>": 5291,
      "dỗ</w>": 5292,
      "ed</w>": 5293,
      "gv": 5294,
      "gay</w>": 5295,
      "hân</w>": 5296,
      "hỉu</w>": 5297,
      "hiếp</w>": 5298,
      "hỗn</w>": 5299,
      "idi": 5300,
      "jsjsj": 5301,
      "ku": 5302,
      "ké</w>": 5303,
      "kiên</w>": 5304,
      "kẹt</w>": 5305,
      "lê</w>": 5306,
      "leo</w>": 5307,
      "mền</w>": 5308,
      "mãn</w>": 5309,
      "nô</w>": 5310,
      "nứt</w>": 5311,
      "nuốt</w>": 5312,
      "qo": 5313,
      "rồ": 5314,
      "rui</w>": 5315,
      "rốt</w>": 5316,
      "tách</w>": 5317,
      "tôt</w>": 5318,
      "um</w>": 5319,
      "vã": 5320,
      "vịt</w>": 5321,
      "yeu</w>": 5322,
      "zip</w>": 5323,
      "ÀO</w>": 5324,
      "ìh</w>": 5325,
      "Đụ</w>": 5326,
      "Đâu</w>": 5327,
      "Đầy</w>": 5328,
      "đe": 5329,
      "đả</w>": 5330,
      "đmx</w>": 5331,
      "ƠI</w>": 5332,
      "ẹc</w>": 5333,
      "thụt</w>": 5334,
      "chăn</w>": 5335,
      "chừa</w>": 5336,
      "châm</w>": 5337,
      "chóp</w>": 5338,
      "chín</w>": 5339,
      "khg</w>": 5340,
      "kha</w>": 5341,
      "khay</w>": 5342,
      "ngán</w>": 5343,
      "giảng</w>": 5344,
      "trêu</w>": 5345,
      "tren</w>": 5346,
      "trấn</w>": 5347,
      "trãi</w>": 5348,
      "hoan</w>": 5349,
      "hoac</w>": 5350,
      "Chai</w>": 5351,
      "Chuyên</w>": 5352,
      "Chẳng</w>": 5353,
      "nghịch</w>": 5354,
      "Thiếu</w>": 5355,
      "Thủy</w>": 5356,
      "low</w>": 5357,
      "tton</w>": 5358,
      "thoa</w>": 5359,
      "toan</w>": 5360,
      "Khách</w>": 5361,
      "Phụ</w>": 5362,
      "0000": 5363,
      "khoai</w>": 5364,
      "sjsn": 5365,
      "onic</w>": 5366,
      "dbdh": 5367,
      "iiiiii</w>": 5368,
      "10tr</w>": 5369,
      "sela</w>": 5370,
      "cmcm": 5371,
      "xjg": 5372,
      "beat</w>": 5373,
      "30s</w>": 5374,
      "30k</w>": 5375,
      "Toang</w>": 5376,
      "fjfjfjfj": 5377,
      "Tien</w>": 5378,
      "…………………………………………": 5379,
      "card</w>": 5380,
      "tttttttt</w>": 5381,
      "hâhh": 5382,
      "livestream</w>": 5383,
      "freeship</w>": 5384,
      "ƯỚC</w>": 5385,
      "rượu</w>": 5386,
      "okokokokokOkikokokokokokOkik": 5387,
      "BF33F38D6D60E6BF33F38D6D60E6": 5388,
      "**</w>": 5389,
      "120": 5390,
      "120</w>": 5391,
      "48</w>": 5392,
      "40k</w>": 5393,
      ":>></w>": 5394,
      "A50</w>": 5395,
      "A71</w>": 5396,
      "Bê</w>": 5397,
      "Cm": 5398,
      "DV</w>": 5399,
      "Dat</w>": 5400,
      "Hệ</w>": 5401,
      "Họ</w>": 5402,
      "Hai": 5403,
      "Hieu</w>": 5404,
      "Kích</w>": 5405,
      "LE": 5406,
      "LO": 5407,
      "LQ</w>": 5408,
      "Me": 5409,
      "MC</w>": 5410,
      "MV</w>": 5411,
      "PS</w>": 5412,
      "RO": 5413,
      "TO": 5414,
      "Tạ</w>": 5415,
      "Tam</w>": 5416,
      "Tăng</w>": 5417,
      "Thoại</w>": 5418,
      "Vòng</w>": 5419,
      "XL</w>": 5420,
      "ang": 5421,
      "ajj": 5422,
      "are</w>": 5423,
      "a71</w>": 5424,
      "bồi</w>": 5425,
      "biện</w>": 5426,
      "bùn</w>": 5427,
      "cf</w>": 5428,
      "cv</w>": 5429,
      "came</w>": 5430,
      "cạp</w>": 5431,
      "cụm</w>": 5432,
      "eh": 5433,
      "em": 5434,
      "fj</w>": 5435,
      "fin": 5436,
      "gh</w>": 5437,
      "gen</w>": 5438,
      "ger</w>": 5439,
      "hêt</w>": 5440,
      "ji": 5441,
      "kdk": 5442,
      "lâm</w>": 5443,
      "lốp</w>": 5444,
      "mớ</w>": 5445,
      "mả</w>": 5446,
      "mốc</w>": 5447,
      "mắm</w>": 5448,
      "mép</w>": 5449,
      "mưu</w>": 5450,
      "ndj": 5451,
      "py</w>": 5452,
      "qp": 5453,
      "rm": 5454,
      "rắn</w>": 5455,
      "rối</w>": 5456,
      "rạp</w>": 5457,
      "sl</w>": 5458,
      "sọc</w>": 5459,
      "tl</w>": 5460,
      "tát</w>": 5461,
      "tuyết</w>": 5462,
      "wi</w>": 5463,
      "xn</w>": 5464,
      "xbb": 5465,
      "yt": 5466,
      "ydo": 5467,
      "zkk": 5468,
      "ýt</w>": 5469,
      "Đeo</w>": 5470,
      "ĐƯỢC</w>": 5471,
      "đút</w>": 5472,
      "đét</w>": 5473,
      "đốc</w>": 5474,
      "ẾU</w>": 5475,
      "ỉn</w>": 5476,
      "ốm</w>": 5477,
      "thong</w>": 5478,
      "chà</w>": 5479,
      "chè</w>": 5480,
      "chói</w>": 5481,
      "nhặt</w>": 5482,
      "nhức</w>": 5483,
      "khổng</w>": 5484,
      "ngập</w>": 5485,
      "giai</w>": 5486,
      "giau</w>": 5487,
      "giấc</w>": 5488,
      "trộn</w>": 5489,
      "phổ</w>": 5490,
      "quí</w>": 5491,
      "..!</w>": 5492,
      "uya</w>": 5493,
      "Chế</w>": 5494,
      "Chuyện</w>": 5495,
      "nghiep</w>": 5496,
      "Thủ</w>": 5497,
      "Thiện</w>": 5498,
      "Ngu": 5499,
      "Trc</w>": 5500,
      "Trading</w>": 5501,
      "thoii</w>": 5502,
      "Khắc</w>": 5503,
      "ght</w>": 5504,
      "hah": 5505,
      "ank": 5506,
      "ting</w>": 5507,
      "mac</w>": 5508,
      "code</w>": 5509,
      "ace</w>": 5510,
      "shsb": 5511,
      "care</w>": 5512,
      "fuo": 5513,
      "xiu</w>": 5514,
      "ort</w>": 5515,
      "Tuổi</w>": 5516,
      "hhhhhhhhh</w>": 5517,
      "xhxh": 5518,
      "ara": 5519,
      "art</w>": 5520,
      ",,,,": 5521,
      "Com": 5522,
      "Refund</w>": 5523,
      "zbzb": 5524,
      "akakakak": 5525,
      "nhug</w>": 5526,
      "new</w>": 5527,
      "joy</w>": 5528,
      "zhzh": 5529,
      "rab</w>": 5530,
      "MIUI</w>": 5531,
      "tiktok</w>": 5532,
      "HÀNG</w>": 5533,
      "yêuc</w>": 5534,
      "ngừoi</w>": 5535,
      "05</w>": 5536,
      "1tr": 5537,
      "36</w>": 5538,
      "3tr": 5539,
      "91": 5540,
      "<<": 5541,
      "Be": 5542,
      "Be</w>": 5543,
      "Bóng</w>": 5544,
      "Cứng</w>": 5545,
      "Dán</w>": 5546,
      "ET</w>": 5547,
      "Ha</w>": 5548,
      "Hz</w>": 5549,
      "Ki": 5550,
      "Mời</w>": 5551,
      "Nút</w>": 5552,
      "Now</w>": 5553,
      "OI</w>": 5554,
      "PP": 5555,
      "Sa</w>": 5556,
      "Sinh</w>": 5557,
      "Sen": 5558,
      "Tay</w>": 5559,
      "Tường</w>": 5560,
      "Xã</w>": 5561,
      "az": 5562,
      "bẻ</w>": 5563,
      "bùng</w>": 5564,
      "bội</w>": 5565,
      "bìa</w>": 5566,
      "cẩm</w>": 5567,
      "df": 5568,
      "dê</w>": 5569,
      "dừa</w>": 5570,
      "don": 5571,
      "dgj": 5572,
      "fee": 5573,
      "fpu": 5574,
      "gậy</w>": 5575,
      "hắn</w>": 5576,
      "hqua</w>": 5577,
      "họng</w>": 5578,
      "hét</w>": 5579,
      "huyết</w>": 5580,
      "jcj": 5581,
      "kịch</w>": 5582,
      "ly": 5583,
      "lồ</w>": 5584,
      "lít</w>": 5585,
      "lưới</w>": 5586,
      "mổ</w>": 5587,
      "muối</w>": 5588,
      "ny": 5589,
      "nể</w>": 5590,
      "nai</w>": 5591,
      "oh</w>": 5592,
      "qk": 5593,
      "qq</w>": 5594,
      "qúa</w>": 5595,
      "rỗ</w>": 5596,
      "ranh</w>": 5597,
      "rang</w>": 5598,
      "sm</w>": 5599,
      "sj</w>": 5600,
      "sv</w>": 5601,
      "sấu</w>": 5602,
      "sặc</w>": 5603,
      "tứ</w>": 5604,
      "típ</w>": 5605,
      "vĩ</w>": 5606,
      "vỉa</w>": 5607,
      "xô</w>": 5608,
      "xâm</w>": 5609,
      "xac</w>": 5610,
      "xẻo</w>": 5611,
      "yến</w>": 5612,
      "zoom</w>": 5613,
      "ÀN</w>": 5614,
      "éc</w>": 5615,
      "êi</w>": 5616,
      "Đu": 5617,
      "điển</w>": 5618,
      "đuối</w>": 5619,
      "ẠN</w>": 5620,
      "ẢM</w>": 5621,
      "ẬN</w>": 5622,
      "ỀN</w>": 5623,
      "ỤNG</w>": 5624,
      "ỨC</w>": 5625,
      "thói</w>": 5626,
      "thây</w>": 5627,
      "thắm</w>": 5628,
      "thiệp</w>": 5629,
      "chj</w>": 5630,
      "nhaaaa</w>": 5631,
      "khứ</w>": 5632,
      "khét</w>": 5633,
      "khuya</w>": 5634,
      "nga</w>": 5635,
      "ngài</w>": 5636,
      "ngưỡng</w>": 5637,
      "giầy</w>": 5638,
      "tro": 5639,
      "tran</w>": 5640,
      "phat</w>": 5641,
      "luu</w>": 5642,
      "luc</w>": 5643,
      "Tham</w>": 5644,
      "Thuyết</w>": 5645,
      "Thuốc</w>": 5646,
      "Nha</w>": 5647,
      "Giải</w>": 5648,
      "Nghi</w>": 5649,
      "Trông</w>": 5650,
      "Pháp</w>": 5651,
      "ghiền</w>": 5652,
      "khoái</w>": 5653,
      "ggg": 5654,
      "dis": 5655,
      "made</w>": 5656,
      "ska</w>": 5657,
      "nnnnnnn</w>": 5658,
      "ooo</w>": 5659,
      "oooo</w>": 5660,
      "coh": 5661,
      "acc</w>": 5662,
      "Hoàn</w>": 5663,
      "mih</w>": 5664,
      "mix</w>": 5665,
      "tech</w>": 5666,
      "quyển</w>": 5667,
      "ccc</w>": 5668,
      "Lock</w>": 5669,
      "sjsjsj": 5670,
      "Tuan</w>": 5671,
      "smartphone</w>": 5672,
      "300</w>": 5673,
      ":)).</w>": 5674,
      "đuoc</w>": 5675,
      "nick</w>": 5676,
      "!!!!!!</w>": 5677,
      "12h</w>": 5678,
      "fnfn": 5679,
      "191</w>": 5680,
      "15p</w>": 5681,
      "Nghĩa</w>": 5682,
      "yyyyyyyy": 5683,
      "dhhdhdh": 5684,
      "ssssssssssssssss": 5685,
      "________": 5686,
      "thegioididong</w>": 5687,
      "đếm</w>": 5688,
      "đẹpHàng</w>": 5689,
      "--</w>": 5690,
      "08": 5691,
      "150k</w>": 5692,
      "27": 5693,
      "2kg</w>": 5694,
      "4000": 5695,
      "56": 5696,
      "58": 5697,
      "AN": 5698,
      "Bột</w>": 5699,
      "Bệnh</w>": 5700,
      "CC": 5701,
      "CM": 5702,
      "CỦ": 5703,
      "CN</w>": 5704,
      "Càng</w>": 5705,
      "Cân</w>": 5706,
      "Cặp</w>": 5707,
      "Dang</w>": 5708,
      "Gặp</w>": 5709,
      "Hanh</w>": 5710,
      "Hong</w>": 5711,
      "Hang</w>": 5712,
      "Hút</w>": 5713,
      "Nẵng</w>": 5714,
      "Pan": 5715,
      "Pro</w>": 5716,
      "RE": 5717,
      "Sự</w>": 5718,
      "SẢN</w>": 5719,
      "Tô</w>": 5720,
      "TT</w>": 5721,
      "Vương</w>": 5722,
      "Vĩnh</w>": 5723,
      "Xứng</w>": 5724,
      "aba</w>": 5725,
      "bn": 5726,
      "bs</w>": 5727,
      "bia</w>": 5728,
      "bão</w>": 5729,
      "bốn</w>": 5730,
      "bỉm</w>": 5731,
      "cg</w>": 5732,
      "dọc</w>": 5733,
      "dựa</w>": 5734,
      "gặm</w>": 5735,
      "games</w>": 5736,
      "hn</w>": 5737,
      "hủ</w>": 5738,
      "kieu</w>": 5739,
      "lăm</w>": 5740,
      "lộc</w>": 5741,
      "ltra</w>": 5742,
      "mười</w>": 5743,
      "mòn</w>": 5744,
      "mall</w>": 5745,
      "nêu</w>": 5746,
      "nchung</w>": 5747,
      "ncl</w>": 5748,
      "nệm</w>": 5749,
      "pg</w>": 5750,
      "rs</w>": 5751,
      "rì</w>": 5752,
      "rước</w>": 5753,
      "sg</w>": 5754,
      "sạn</w>": 5755,
      "tụ</w>": 5756,
      "tanh</w>": 5757,
      "tấn</w>": 5758,
      "vã</w>": 5759,
      "vờ</w>": 5760,
      "vơi</w>": 5761,
      "vón</w>": 5762,
      "ws</w>": 5763,
      "win</w>": 5764,
      "wif": 5765,
      "wat": 5766,
      "xạ</w>": 5767,
      "xiên</w>": 5768,
      "yen</w>": 5769,
      "Âu</w>": 5770,
      "ÔN</w>": 5771,
      "ÙNG</w>": 5772,
      "ùg</w>": 5773,
      "Đa</w>": 5774,
      "đòn</w>": 5775,
      "ẢI</w>": 5776,
      "ẨM</w>": 5777,
      "ằg</w>": 5778,
      "ẸP</w>": 5779,
      "ỏm</w>": 5780,
      "ừi</w>": 5781,
      "thê</w>": 5782,
      "thọ</w>": 5783,
      "thách</w>": 5784,
      "thúi</w>": 5785,
      "chao</w>": 5786,
      "chinh</w>": 5787,
      "chac</w>": 5788,
      "nhồi</w>": 5789,
      "nhợt</w>": 5790,
      "ngôi</w>": 5791,
      "ngửa</w>": 5792,
      "ngựa</w>": 5793,
      "gián</w>": 5794,
      "trúc</w>": 5795,
      "trùm</w>": 5796,
      "trieu</w>": 5797,
      "phái</w>": 5798,
      "phẳng</w>": 5799,
      "tốt": 5800,
      "Chống</w>": 5801,
      "Chọn</w>": 5802,
      "Chiếc</w>": 5803,
      "nghen</w>": 5804,
      "Thân</w>": 5805,
      "Thảm</w>": 5806,
      "Thuy</w>": 5807,
      "Khó</w>": 5808,
      "all": 5809,
      "ali</w>": 5810,
      "okay</w>": 5811,
      "ghe</w>": 5812,
      "hack</w>": 5813,
      "diêng</w>": 5814,
      "liêm</w>": 5815,
      "cuoc</w>": 5816,
      "nnnnn</w>": 5817,
      "?????</w>": 5818,
      "dhdj": 5819,
      "yyyy</w>": 5820,
      "soan</w>": 5821,
      "hahaa</w>": 5822,
      "data</w>": 5823,
      "NHƯ</w>": 5824,
      "very</w>": 5825,
      "bar</w>": 5826,
      "Redmi</w>": 5827,
      "svsv": 5828,
      "rjrj": 5829,
      "1800": 5830,
      "xnxnxnxn": 5831,
      "smsmsmsm": 5832,
      "sbsbsb": 5833,
      "oooooooo": 5834,
      "pppppppppppppppppppppppppppppppp": 5835,
      "CAR": 5836,
      "CAO</w>": 5837,
      "Khoảng</w>": 5838,
      "Full</w>": 5839,
      "roup</w>": 5840,
      "Cmt</w>": 5841,
      "CỦA</w>": 5842,
      ",.</w>": 5843,
      "1s</w>": 5844,
      "1tháng</w>": 5845,
      "2f</w>": 5846,
      "3000</w>": 5847,
      "6s</w>": 5848,
      "6k</w>": 5849,
      "660</w>": 5850,
      "6gb</w>": 5851,
      "95</w>": 5852,
      "96</w>": 5853,
      "92</w>": 5854,
      "><</w>": 5855,
      ">>></w>": 5856,
      "Bắn</w>": 5857,
      "Bếp</w>": 5858,
      "BẠN</w>": 5859,
      "Cai</w>": 5860,
      "Cơm</w>": 5861,
      "Cắm</w>": 5862,
      "Da": 5863,
      "Dành</w>": 5864,
      "DỤNG</w>": 5865,
      "EM</w>": 5866,
      "Hướng</w>": 5867,
      "Kỳ</w>": 5868,
      "Kiệt</w>": 5869,
      "Keo</w>": 5870,
      "Me</w>": 5871,
      "Miền</w>": 5872,
      "Noi</w>": 5873,
      "Ncl</w>": 5874,
      "NÊN</w>": 5875,
      "Po": 5876,
      "Rong</w>": 5877,
      "Sắp</w>": 5878,
      "Sếp</w>": 5879,
      "Tiếng</w>": 5880,
      "Túm</w>": 5881,
      "aha": 5882,
      "bc": 5883,
      "by</w>": 5884,
      "băn</w>": 5885,
      "bèo</w>": 5886,
      "cương</w>": 5887,
      "cậy</w>": 5888,
      "cọc</w>": 5889,
      "dồi</w>": 5890,
      "ev": 5891,
      "fou": 5892,
      "gd</w>": 5893,
      "gđ</w>": 5894,
      "hdh": 5895,
      "hiếm</w>": 5896,
      "hùm</w>": 5897,
      "kp</w>": 5898,
      "lz</w>": 5899,
      "mí</w>": 5900,
      "miết</w>": 5901,
      "nang</w>": 5902,
      "nta</w>": 5903,
      "núp</w>": 5904,
      "nap</w>": 5905,
      "nịnh</w>": 5906,
      "pa</w>": 5907,
      "pải</w>": 5908,
      "rỡ</w>": 5909,
      "tx": 5910,
      "tã</w>": 5911,
      "t2</w>": 5912,
      "tua</w>": 5913,
      "tẹo</w>": 5914,
      "tỏa</w>": 5915,
      "vm": 5916,
      "wn</w>": 5917,
      "whe": 5918,
      "xà</w>": 5919,
      "xôi</w>": 5920,
      "yle</w>": 5921,
      "ÀI</w>": 5922,
      "ÂY</w>": 5923,
      "ÔI</w>": 5924,
      "õng</w>": 5925,
      "ýp</w>": 5926,
      "ĐI</w>": 5927,
      "ĐẸP</w>": 5928,
      "đi": 5929,
      "đù</w>": 5930,
      "đạn</w>": 5931,
      "đính</w>": 5932,
      "ơii</w>": 5933,
      "ẤY</w>": 5934,
      "ẦU</w>": 5935,
      "ựu</w>": 5936,
      "thiểu</w>": 5937,
      "chủng</w>": 5938,
      "chât</w>": 5939,
      "nhã</w>": 5940,
      "nhat</w>": 5941,
      "nhịp</w>": 5942,
      "nhaaaaa</w>": 5943,
      "ngs</w>": 5944,
      "ngẫu</w>": 5945,
      "giời</w>": 5946,
      "giam</w>": 5947,
      "tre</w>": 5948,
      "trồng</w>": 5949,
      "phà</w>": 5950,
      "phước</w>": 5951,
      "phét</w>": 5952,
      "hoạch</w>": 5953,
      "Thẻ</w>": 5954,
      "kkk": 5955,
      "Nhin</w>": 5956,
      "Giọng</w>": 5957,
      "Trả</w>": 5958,
      "hih": 5959,
      "sjdj": 5960,
      "chuc</w>": 5961,
      "anti</w>": 5962,
      "dndb": 5963,
      "snj": 5964,
      "snsb": 5965,
      "aaaaaaa</w>": 5966,
      "thuần</w>": 5967,
      "Hoan</w>": 5968,
      "inbox</w>": 5969,
      "ssm": 5970,
      "nos</w>": 5971,
      "cach</w>": 5972,
      "cacao</w>": 5973,
      "del</w>": 5974,
      "tttttttttttttt": 5975,
      "Love</w>": 5976,
      "ore</w>": 5977,
      "xoy": 5978,
      "ail</w>": 5979,
      "soft</w>": 5980,
      "ckck": 5981,
      "eje": 5982,
      "ntnt": 5983,
      "đun</w>": 5984,
      "ver": 5985,
      "Huhu</w>": 5986,
      "Micro": 5987,
      "vkvk": 5988,
      "znzn": 5989,
      "fbfb": 5990,
      "hjhj</w>": 5991,
      "ipad</w>": 5992,
      "phut</w>": 5993,
      "phuc</w>": 5994,
      "Case</w>": 5995,
      ":)))))))</w>": 5996,
      "MINH</w>": 5997,
      "Ghê</w>": 5998,
      "avt</w>": 5999,
      "atm</w>": 6000,
      "Joy</w>": 6001,
      "macro</w>": 6002,
      "press</w>": 6003,
      ")(</w>": 6004,
      "07": 6005,
      "360</w>": 6006,
      "400k</w>": 6007,
      "67</w>": 6008,
      "8g</w>": 6009,
      "::": 6010,
      "AR": 6011,
      "BL</w>": 6012,
      "Bá</w>": 6013,
      "Bui</w>": 6014,
      "Bảng</w>": 6015,
      "Cay</w>": 6016,
      "Cưng</w>": 6017,
      "Của</w>": 6018,
      "Dạ</w>": 6019,
      "Dự</w>": 6020,
      "Dao</w>": 6021,
      "DÂN</w>": 6022,
      "Fi</w>": 6023,
      "In</w>": 6024,
      "ME": 6025,
      "Mã</w>": 6026,
      "Mau</w>": 6027,
      "ND</w>": 6028,
      "Nấu</w>": 6029,
      "NAM</w>": 6030,
      "Page</w>": 6031,
      "SM": 6032,
      "Tắt</w>": 6033,
      "Tuyết</w>": 6034,
      "Tìm</w>": 6035,
      "Thoi</w>": 6036,
      "Tấc</w>": 6037,
      "Ui</w>": 6038,
      "VỀ</w>": 6039,
      "Vài</w>": 6040,
      "VỚI</w>": 6041,
      "as</w>": 6042,
      "bg": 6043,
      "br": 6044,
      "bợ</w>": 6045,
      "bsi": 6046,
      "bank</w>": 6047,
      "bậc</w>": 6048,
      "cp": 6049,
      "cy</w>": 6050,
      "cđ</w>": 6051,
      "cnn": 6052,
      "cối</w>": 6053,
      "cuốc</w>": 6054,
      "ds": 6055,
      "dy</w>": 6056,
      "dua</w>": 6057,
      "dời</w>": 6058,
      "dcm</w>": 6059,
      "dựt</w>": 6060,
      "fifif": 6061,
      "gz": 6062,
      "gon</w>": 6063,
      "gam</w>": 6064,
      "gục</w>": 6065,
      "gắm</w>": 6066,
      "hì</w>": 6067,
      "hen</w>": 6068,
      "hùa</w>": 6069,
      "jf": 6070,
      "kiệt</w>": 6071,
      "kẻo</w>": 6072,
      "lq": 6073,
      "lính</w>": 6074,
      "lách</w>": 6075,
      "lsa</w>": 6076,
      "mè</w>": 6077,
      "mỳ</w>": 6078,
      "mịa</w>": 6079,
      "nx": 6080,
      "nà": 6081,
      "nữ": 6082,
      "nôn</w>": 6083,
      "nít</w>": 6084,
      "op</w>": 6085,
      "ox</w>": 6086,
      "pan": 6087,
      "rd": 6088,
      "rn</w>": 6089,
      "rượt</w>": 6090,
      "rành</w>": 6091,
      "sàng</w>": 6092,
      "sanh</w>": 6093,
      "sua</w>": 6094,
      "sal": 6095,
      "tá</w>": 6096,
      "ton</w>": 6097,
      "tnam</w>": 6098,
      "vk</w>": 6099,
      "vĩnh</w>": 6100,
      "wm": 6101,
      "xé</w>": 6102,
      "xao</w>": 6103,
      "xăm</w>": 6104,
      "yu": 6105,
      "y19</w>": 6106,
      "zy": 6107,
      "ÍNH</w>": 6108,
      "ÓI</w>": 6109,
      "ĂNG</w>": 6110,
      "ăt</w>": 6111,
      "Đất</w>": 6112,
      "đệ</w>": 6113,
      "đỉ</w>": 6114,
      "đanh</w>": 6115,
      "ƯỜ": 6116,
      "ƯA</w>": 6117,
      "ưiii</w>": 6118,
      "ỄN</w>": 6119,
      "ỘI</w>": 6120,
      "ỤC</w>": 6121,
      "ửng</w>": 6122,
      "thò</w>": 6123,
      "thổi</w>": 6124,
      "chớt</w>": 6125,
      "chèn</w>": 6126,
      "chốn</w>": 6127,
      "chiêu</w>": 6128,
      "china</w>": 6129,
      "nha": 6130,
      "nhôm</w>": 6131,
      "khi": 6132,
      "nguyen</w>": 6133,
      "trật</w>": 6134,
      "phồng</w>": 6135,
      "hoho": 6136,
      "Chia</w>": 6137,
      "Thề</w>": 6138,
      "Nhu</w>": 6139,
      "Nhẹ</w>": 6140,
      "Già</w>": 6141,
      "tutu</w>": 6142,
      "loai</w>": 6143,
      "Trâu</w>": 6144,
      "Trâm</w>": 6145,
      "Trưởng</w>": 6146,
      "hix</w>": 6147,
      "Khanh</w>": 6148,
      "viêm</w>": 6149,
      "Phòng</w>": 6150,
      "ngoc</w>": 6151,
      "Quà</w>": 6152,
      "khoang</w>": 6153,
      "khoăn</w>": 6154,
      "sjsb": 6155,
      "hat</w>": 6156,
      "chuoi</w>": 6157,
      "ana</w>": 6158,
      "reac": 6159,
      "dit": 6160,
      "dit</w>": 6161,
      "dndnn": 6162,
      "lin": 6163,
      "ony</w>": 6164,
      "cuồng</w>": 6165,
      "cuộn</w>": 6166,
      "aaaaaaaa</w>": 6167,
      "20s</w>": 6168,
      "copy</w>": 6169,
      "hhhhh</w>": 6170,
      "dudu": 6171,
      "gdd</w>": 6172,
      "delay</w>": 6173,
      "tttttttttt</w>": 6174,
      "fup": 6175,
      "uuuuu</w>": 6176,
      "mosa</w>": 6177,
      "hahahaha</w>": 6178,
      "sml</w>": 6179,
      "mera</w>": 6180,
      "dbdbb": 6181,
      "NHẬN</w>": 6182,
      "shopp": 6183,
      "nilong</w>": 6184,
      "ark</w>": 6185,
      "2023</w>": 6186,
      "PHẨM</w>": 6187,
      "sgsg": 6188,
      "Realme</w>": 6189,
      "xynos</w>": 6190,
      "per": 6191,
      "Mobile</w>": 6192,
      "Cafe</w>": 6193,
      "virut</w>": 6194,
      "IỆN</w>": 6195,
      "Luật</w>": 6196,
      "Max</w>": 6197,
      "ect</w>": 6198,
      "nhoè</w>": 6199,
      "Phuong</w>": 6200,
      "(((</w>": 6201,
      "-></w>": 6202,
      ".!</w>": 6203,
      "03": 6204,
      "04</w>": 6205,
      "23": 6206,
      "5tttttttttttttttt": 6207,
      "7k</w>": 6208,
      "70k</w>": 6209,
      "855</w>": 6210,
      "999</w>": 6211,
      "AK</w>": 6212,
      "A50s</w>": 6213,
      "Bất</w>": 6214,
      "Bông</w>": 6215,
      "Bin</w>": 6216,
      "Bớt</w>": 6217,
      "Bởi</w>": 6218,
      "Cu</w>": 6219,
      "Cục</w>": 6220,
      "Clip</w>": 6221,
      "CÔNG</w>": 6222,
      "DA</w>": 6223,
      "HK</w>": 6224,
      "Hãng</w>": 6225,
      "Ki</w>": 6226,
      "KO</w>": 6227,
      "Kẹp</w>": 6228,
      "Lỡ</w>": 6229,
      "MH</w>": 6230,
      "MB</w>": 6231,
      "Mng</w>": 6232,
      "Miệng</w>": 6233,
      "Nào</w>": 6234,
      "Nóng</w>": 6235,
      "Soan</w>": 6236,
      "SCAR": 6237,
      "Tr</w>": 6238,
      "Tệ</w>": 6239,
      "Tinh</w>": 6240,
      "Tiếp</w>": 6241,
      "Vin</w>": 6242,
      "Voucher</w>": 6243,
      "VIỆT</w>": 6244,
      "Yo": 6245,
      "ann": 6246,
      "bl": 6247,
      "bọ</w>": 6248,
      "bưng</w>": 6249,
      "bết</w>": 6250,
      "biên</w>": 6251,
      "bdj": 6252,
      "bỏng</w>": 6253,
      "bla</w>": 6254,
      "bảy</w>": 6255,
      "cx": 6256,
      "cào</w>": 6257,
      "cúng</w>": 6258,
      "cat</w>": 6259,
      "gm": 6260,
      "ghh": 6261,
      "grab</w>": 6262,
      "hn": 6263,
      "hv": 6264,
      "hx": 6265,
      "hố</w>": 6266,
      "hán</w>": 6267,
      "hnay</w>": 6268,
      "hệt</w>": 6269,
      "ib": 6270,
      "il": 6271,
      "it": 6272,
      "jd": 6273,
      "kèo</w>": 6274,
      "kakak": 6275,
      "ln</w>": 6276,
      "lượ": 6277,
      "liều</w>": 6278,
      "lầu</w>": 6279,
      "lìn</w>": 6280,
      "lủng</w>": 6281,
      "lla": 6282,
      "lệnh</w>": 6283,
      "lúa</w>": 6284,
      "liềm</w>": 6285,
      "lùn</w>": 6286,
      "mv</w>": 6287,
      "mị</w>": 6288,
      "mon</w>": 6289,
      "nch</w>": 6290,
      "neu</w>": 6291,
      "offi": 6292,
      "okkkkkkk</w>": 6293,
      "pac": 6294,
      "rỏ</w>": 6295,
      "rồng</w>": 6296,
      "rãnh</w>": 6297,
      "sam": 6298,
      "s20</w>": 6299,
      "tb": 6300,
      "tè</w>": 6301,
      "tơi</w>": 6302,
      "tch</w>": 6303,
      "tỏi</w>": 6304,
      "tậu</w>": 6305,
      "un</w>": 6306,
      "use</w>": 6307,
      "vđ</w>": 6308,
      "vênh</w>": 6309,
      "xỏ</w>": 6310,
      "xá</w>": 6311,
      "zo": 6312,
      "za</w>": 6313,
      "zay</w>": 6314,
      "zbb": 6315,
      "zing</w>": 6316,
      "ÀNH</w>": 6317,
      "ĐH</w>": 6318,
      "ĐÃ</w>": 6319,
      "Đỉnh</w>": 6320,
      "Đèn</w>": 6321,
      "đậy</w>": 6322,
      "ươn</w>": 6323,
      "ệp</w>": 6324,
      "ỌI</w>": 6325,
      "ỐNG</w>": 6326,
      "ỔI</w>": 6327,
      "ợm</w>": 6328,
      "ỰC</w>": 6329,
      "thí": 6330,
      "thô": 6331,
      "thính</w>": 6332,
      "thủng</w>": 6333,
      "thép</w>": 6334,
      "thuyền</w>": 6335,
      "thiet</w>": 6336,
      "chk": 6337,
      "chợt</w>": 6338,
      "nhỡ</w>": 6339,
      "nhàm</w>": 6340,
      "nhánh</w>": 6341,
      "khiếu</w>": 6342,
      "ngơ</w>": 6343,
      "ngỡ</w>": 6344,
      "gir": 6345,
      "giành</w>": 6346,
      "giấu</w>": 6347,
      "giáp</w>": 6348,
      "gitech</w>": 6349,
      "trá</w>": 6350,
      "trặc</w>": 6351,
      "trym</w>": 6352,
      "phò</w>": 6353,
      "pháo</w>": 6354,
      "phẫu</w>": 6355,
      "quãng</w>": 6356,
      "cáu</w>": 6357,
      "hoy</w>": 6358,
      "iềng</w>": 6359,
      "Chui</w>": 6360,
      "ama</w>": 6361,
      "ướm</w>": 6362,
      "Nhựa</w>": 6363,
      "tuýp</w>": 6364,
      "Ngủ</w>": 6365,
      "Ngay</w>": 6366,
      "Triệu</w>": 6367,
      "Khang</w>": 6368,
      "Khác</w>": 6369,
      "Phân</w>": 6370,
      "djt": 6371,
      "okk</w>": 6372,
      ")))))</w>": 6373,
      "sjb": 6374,
      "sjs": 6375,
      "land</w>": 6376,
      "reno": 6377,
      "tia</w>": 6378,
      "tiêm</w>": 6379,
      "tieng</w>": 6380,
      "mag</w>": 6381,
      "...........</w>": 6382,
      "................</w>": 6383,
      "sns</w>": 6384,
      "snapdragon</w>": 6385,
      "10đ</w>": 6386,
      "nnnnnn</w>": 6387,
      "2016</w>": 6388,
      "sena</w>": 6389,
      "dky": 6390,
      "dksk": 6391,
      "miui</w>": 6392,
      "tes</w>": 6393,
      "fjf": 6394,
      "djdjj": 6395,
      "cal</w>": 6396,
      "yy5tttttttttttttttt": 6397,
      "ttttttttt5": 6398,
      "THU": 6399,
      "THÌ</w>": 6400,
      "CHI": 6401,
      "iiiiiiiii</w>": 6402,
      "pupg</w>": 6403,
      "rry</w>": 6404,
      "mes</w>": 6405,
      "snsnsnsn": 6406,
      "this</w>": 6407,
      "Top</w>": 6408,
      "Miễn</w>": 6409,
      "kiem</w>": 6410,
      "stt</w>": 6411,
      "ster</w>": 6412,
      "style</w>": 6413,
      "ciy": 6414,
      "Thuỷ</w>": 6415,
      "QUÁ</w>": 6416,
      "QUỐC</w>": 6417,
      "cbcb": 6418,
      "yyyyttttttttt5": 6419,
      "skksksk": 6420,
      "ooooo</w>": 6421,
      "haiz</w>": 6422,
      "hhhhhhhhhhhhhhhhhhhhhhhhhhhhhhhh": 6423,
      "vvvvvvvv": 6424,
      "wwwwwwwwwwwwwwww": 6425,
      "tikinow</w>": 6426,
      "rrrrrrrrrrrrrrrr": 6427,
      "AB10": 6428,
      "CÁC</w>": 6429,
      "t5yy5tttttttttttttttt": 6430,
      "Dell</w>": 6431,
      "mp3</w>": 6432,
      "LED</w>": 6433,
      "qpqp": 6434,
      "watch</w>": 6435,
      "ttttttttttttttyyyyttttttttt5": 6436,
      "Microsoft</w>": 6437,
      "SCARAB10": 6438,
      "t5yy5tttttttttttttttttttttttt</w>": 6439,
      "ttttttttttttttyyyyttttttttt5t5yy5tttttttttttttttttttttttt</w>": 6440,
      "##": 6441,
      ",....</w>": 6442,
      ".(</w>": 6443,
      ".,</w>": 6444,
      "017": 6445,
      "47</w>": 6446,
      "42</w>": 6447,
      "490</w>": 6448,
      "5g</w>": 6449,
      "66</w>": 6450,
      "76</w>": 6451,
      "7SCARAB10": 6452,
      "80": 6453,
      "89": 6454,
      "85</w>": 6455,
      "=]": 6456,
      "@.": 6457,
      "Ac": 6458,
      "AC</w>": 6459,
      "Bả</w>": 6460,
      "Bước</w>": 6461,
      "Bọc</w>": 6462,
      "Báo</w>": 6463,
      "Diện</w>": 6464,
      "Diệp</w>": 6465,
      "EL": 6466,
      "Gà</w>": 6467,
      "Gb</w>": 6468,
      "Gọn</w>": 6469,
      "Galaxy</w>": 6470,
      "Hhhhhhhhhh</w>": 6471,
      "Kể</w>": 6472,
      "Kkk</w>": 6473,
      "Lo</w>": 6474,
      "LE</w>": 6475,
      "Lòng</w>": 6476,
      "MI</w>": 6477,
      "Na</w>": 6478,
      "No</w>": 6479,
      "Nản</w>": 6480,
      "NAY</w>": 6481,
      "Ong</w>": 6482,
      "Offi": 6483,
      "OPP": 6484,
      "Plus</w>": 6485,
      "ST": 6486,
      "Sh": 6487,
      "TK": 6488,
      "Tới</w>": 6489,
      "Tiết</w>": 6490,
      "Tgdd</w>": 6491,
      "Vs</w>": 6492,
      "Vợ</w>": 6493,
      "Vàng</w>": 6494,
      "Viết</w>": 6495,
      "XH</w>": 6496,
      "aok": 6497,
      "ada</w>": 6498,
      "bj</w>": 6499,
      "bưu</w>": 6500,
      "bén</w>": 6501,
      "câ": 6502,
      "cã</w>": 6503,
      "cò</w>": 6504,
      "côn</w>": 6505,
      "cóc</w>": 6506,
      "can": 6507,
      "cạch</w>": 6508,
      "clm</w>": 6509,
      "dội</w>": 6510,
      "dou": 6511,
      "ejj": 6512,
      "fan": 6513,
      "fal</w>": 6514,
      "gập</w>": 6515,
      "gjj": 6516,
      "gót</w>": 6517,
      "hf": 6518,
      "hem</w>": 6519,
      "hột</w>": 6520,
      "hcm</w>": 6521,
      "jo</w>": 6522,
      "lj": 6523,
      "lố</w>": 6524,
      "lin</w>": 6525,
      "ler</w>": 6526,
      "lều</w>": 6527,
      "lứa</w>": 6528,
      "lún</w>": 6529,
      "llow</w>": 6530,
      "mk": 6531,
      "mn": 6532,
      "mé</w>": 6533,
      "mầm</w>": 6534,
      "mìn</w>": 6535,
      "mộc</w>": 6536,
      "múi</w>": 6537,
      "mắng</w>": 6538,
      "mệnh</w>": 6539,
      "nong</w>": 6540,
      "nan</w>": 6541,
      "ndk": 6542,
      "nấc</w>": 6543,
      "oy</w>": 6544,
      "pr</w>": 6545,
      "ru</w>": 6546,
      "rổ</w>": 6547,
      "rỉ</w>": 6548,
      "ram": 6549,
      "rắc</w>": 6550,
      "rie": 6551,
      "sỹ</w>": 6552,
      "ssk": 6553,
      "sta": 6554,
      "sdt</w>": 6555,
      "tự": 6556,
      "tản</w>": 6557,
      "tiệt</w>": 6558,
      "tăn</w>": 6559,
      "tiệc</w>": 6560,
      "tẹt</w>": 6561,
      "ur": 6562,
      "vf": 6563,
      "vx": 6564,
      "vin</w>": 6565,
      "vcc</w>": 6566,
      "vía</w>": 6567,
      "wt": 6568,
      "wv": 6569,
      "woo": 6570,
      "xt</w>": 6571,
      "xau</w>": 6572,
      "ÀY</w>": 6573,
      "ÂU</w>": 6574,
      "ÒNG</w>": 6575,
      "ÚC</w>": 6576,
      "ĂN</w>": 6577,
      "Đời</w>": 6578,
      "Đài</w>": 6579,
      "Đau</w>": 6580,
      "Đập</w>": 6581,
      "Đựng</w>": 6582,
      "đe</w>": 6583,
      "đx</w>": 6584,
      "đua</w>": 6585,
      "đong</w>": 6586,
      "điệp</w>": 6587,
      "đắp</w>": 6588,
      "điêu</w>": 6589,
      "đúg</w>": 6590,
      "ẢO</w>": 6591,
      "Ấn</w>": 6592,
      "ọa</w>": 6593,
      "ỐT</w>": 6594,
      "ỒI</w>": 6595,
      "ớc</w>": 6596,
      "ụa</w>": 6597,
      "ủn</w>": 6598,
      "thỏa</w>": 6599,
      "thág</w>": 6600,
      "chì</w>": 6601,
      "chau</w>": 6602,
      "chênh</w>": 6603,
      "chìa</w>": 6604,
      "chưởi</w>": 6605,
      "nhẽ</w>": 6606,
      "nhấp</w>": 6607,
      "ngô</w>": 6608,
      "ngó</w>": 6609,
      "nggggg": 6610,
      "giơ</w>": 6611,
      "triều</w>": 6612,
      "trăng</w>": 6613,
      "trội</w>": 6614,
      "phe</w>": 6615,
      "phế</w>": 6616,
      "Chuyển</w>": 6617,
      "amo": 6618,
      "Giặt</w>": 6619,
      "Giúp</w>": 6620,
      "Tri</w>": 6621,
      "Trẻ</w>": 6622,
      "Troi</w>": 6623,
      "tttt</w>": 6624,
      "nnis": 6625,
      "sic</w>": 6626,
      "amer</w>": 6627,
      "thoả</w>": 6628,
      "hiu</w>": 6629,
      "hihihi</w>": 6630,
      "toả</w>": 6631,
      "tobe</w>": 6632,
      "tone</w>": 6633,
      "viu</w>": 6634,
      "ali": 6635,
      "okee</w>": 6636,
      "ghj": 6637,
      "))))))</w>": 6638,
      "sjk": 6639,
      "har": 6640,
      "hahh": 6641,
      "ani": 6642,
      "tivi</w>": 6643,
      "dnj": 6644,
      "licon</w>": 6645,
      "sky</w>": 6646,
      "one": 6647,
      "snb": 6648,
      "iiiiiiii</w>": 6649,
      "aaaaaa</w>": 6650,
      "ppppp</w>": 6651,
      "2018</w>": 6652,
      "cover</w>": 6653,
      "mie</w>": 6654,
      "duty</w>": 6655,
      "nhiễu</w>": 6656,
      "doc</w>": 6657,
      "ris</w>": 6658,
      "suc</w>": 6659,
      "nova</w>": 6660,
      "wep</w>": 6661,
      "THI": 6662,
      "THÔNG</w>": 6663,
      "CHỈ</w>": 6664,
      "mmmmm</w>": 6665,
      "NHÀ</w>": 6666,
      "TRUNG</w>": 6667,
      "baba": 6668,
      "cici": 6669,
      "pop</w>": 6670,
      "Remote</w>": 6671,
      "Nghỉ</w>": 6672,
      "60fps</w>": 6673,
      "foy": 6674,
      "Hic</w>": 6675,
      "ip7</w>": 6676,
      "joy": 6677,
      "098</w>": 6678,
      "kkkkkkkkkkkkkkkkkkkkkkkkkkkkkkkkkkkkkkkkkkkkkkkkkkkkkkkkkkkkkkkk": 6679,
      ":))))))))": 6680,
      "11h</w>": 6681,
      "90hz</w>": 6682,
      "eueu": 6683,
      "Diễm</w>": 6684,
      "64gb</w>": 6685,
      "33333333": 6686,
      "fast</w>": 6687,
      "^^^^": 6688,
      "nnnnnnnnnnnnnnnnnnnnnnnnnnnnnnnnnnnnnnnnnnnnnnnnnnnnnnnnnnnnnnnn": 6689,
      "Minn</w>": 6690,
      "=)))))))</w>": 6691,
      "blabla": 6692,
      "pass</w>": 6693,
      "Form</w>": 6694,
      "Soạn</w>": 6695,
      "prime</w>": 6696,
      "driver</w>": 6697,
      "Corona</w>": 6698,
      "donate</w>": 6699,
      "SMS</w>": 6700,
      "ƯỜNG</w>": 6701,
      "girl</w>": 6702,
      "tựNội</w>": 6703,
      "nnisfree</w>": 6704,
      "!.</w>": 6705,
      "1kg</w>": 6706,
      "365</w>": 6707,
      "4500": 6708,
      "6g</w>": 6709,
      "690</w>": 6710,
      "60k</w>": 6711,
      "665</w>": 6712,
      "7h</w>": 6713,
      "7tr": 6714,
      "720</w>": 6715,
      "88": 6716,
      "93</w>": 6717,
      ":\"": 6718,
      ":-": 6719,
      ":/</w>": 6720,
      ";)))</w>": 6721,
      "=((</w>": 6722,
      "Ai": 6723,
      "A5</w>": 6724,
      "BH</w>": 6725,
      "Bật</w>": 6726,
      "Bấm</w>": 6727,
      "B52</w>": 6728,
      "C3</w>": 6729,
      "CẢ</w>": 6730,
      "Cương</w>": 6731,
      "DK</w>": 6732,
      "ER": 6733,
      "Eo</w>": 6734,
      "EU</w>": 6735,
      "FC</w>": 6736,
      "Gaming</w>": 6737,
      "GBT</w>": 6738,
      "Hành</w>": 6739,
      "Hiểu</w>": 6740,
      "Hỏi</w>": 6741,
      "Hội</w>": 6742,
      "HSD</w>": 6743,
      "ICM</w>": 6744,
      "JBL</w>": 6745,
      "Khoá</w>": 6746,
      "Khong</w>": 6747,
      "La</w>": 6748,
      "Lượng</w>": 6749,
      "LÊN</w>": 6750,
      "LẠI</w>": 6751,
      "LGBT</w>": 6752,
      "MẠ": 6753,
      "Ms</w>": 6754,
      "Mô</w>": 6755,
      "Mì</w>": 6756,
      "MÀ</w>": 6757,
      "NO": 6758,
      "Ni": 6759,
      "Nạp</w>": 6760,
      "Quyền</w>": 6761,
      "RA</w>": 6762,
      "Rõ</w>": 6763,
      "SB": 6764,
      "Sờ</w>": 6765,
      "SX</w>": 6766,
      "Tp</w>": 6767,
      "Tác</w>": 6768,
      "Tuyền</w>": 6769,
      "Tín</w>": 6770,
      "TẠI</w>": 6771,
      "Vo</w>": 6772,
      "VOS</w>": 6773,
      "Xàm</w>": 6774,
      "bf": 6775,
      "bỉ</w>": 6776,
      "bần</w>": 6777,
      "ce": 6778,
      "cớ</w>": 6779,
      "cúc</w>": 6780,
      "cốt</w>": 6781,
      "csg": 6782,
      "cừi</w>": 6783,
      "dg</w>": 6784,
      "dh</w>": 6785,
      "don</w>": 6786,
      "dược</w>": 6787,
      "dàn</w>": 6788,
      "dùg</w>": 6789,
      "eb</w>": 6790,
      "exynos</w>": 6791,
      "ft": 6792,
      "fa</w>": 6793,
      "fkk": 6794,
      "fif": 6795,
      "gs": 6796,
      "ge</w>": 6797,
      "gờ</w>": 6798,
      "gài</w>": 6799,
      "gác</w>": 6800,
      "gầy</w>": 6801,
      "ghim</w>": 6802,
      "ht</w>": 6803,
      "hp</w>": 6804,
      "hưng</w>": 6805,
      "hung</w>": 6806,
      "hây</w>": 6807,
      "hơm</w>": 6808,
      "hjj": 6809,
      "hỏa</w>": 6810,
      "i_": 6811,
      "ij": 6812,
      "iOS</w>": 6813,
      "jh": 6814,
      "kd": 6815,
      "kiu</w>": 6816,
      "kara": 6817,
      "lơ</w>": 6818,
      "lanh</w>": 6819,
      "lạm</w>": 6820,
      "lấp</w>": 6821,
      "lém</w>": 6822,
      "mói</w>": 6823,
      "mộng</w>": 6824,
      "nng</w>": 6825,
      "nách</w>": 6826,
      "okkkkkkkkkkkkkkkk": 6827,
      "off": 6828,
      "pas": 6829,
      "rần</w>": 6830,
      "rủa</w>": 6831,
      "rjj": 6832,
      "rpo": 6833,
      "room</w>": 6834,
      "sì</w>": 6835,
      "sọ</w>": 6836,
      "sàm</w>": 6837,
      "sét</w>": 6838,
      "smm": 6839,
      "tạ</w>": 6840,
      "tal": 6841,
      "tám</w>": 6842,
      "tép</w>": 6843,
      "tòa</w>": 6844,
      "uh</w>": 6845,
      "vơ</w>": 6846,
      "vê</w>": 6847,
      "vấp</w>": 6848,
      "vắng</w>": 6849,
      "vườn</w>": 6850,
      "wa": 6851,
      "wy": 6852,
      "wá</w>": 6853,
      "wkk": 6854,
      "xj</w>": 6855,
      "xx</w>": 6856,
      "x2</w>": 6857,
      "xù</w>": 6858,
      "xông</w>": 6859,
      "yf": 6860,
      "ze": 6861,
      "zị</w>": 6862,
      "Ít</w>": 6863,
      "àk</w>": 6864,
      "Đấy</w>": 6865,
      "Đưa</w>": 6866,
      "Đêm</w>": 6867,
      "Đối</w>": 6868,
      "đờ</w>": 6869,
      "đao</w>": 6870,
      "đỗi</w>": 6871,
      "đực</w>": 6872,
      "đớp</w>": 6873,
      "đũa</w>": 6874,
      "ưn</w>": 6875,
      "ưng": 6876,
      "ưiiii</w>": 6877,
      "ẶNG</w>": 6878,
      "ếm</w>": 6879,
      "ọe</w>": 6880,
      "ừg</w>": 6881,
      "tho</w>": 6882,
      "thí</w>": 6883,
      "thầm</w>": 6884,
      "thầu</w>": 6885,
      "chước</w>": 6886,
      "chìm</w>": 6887,
      "nhé": 6888,
      "nhay</w>": 6889,
      "nhốt</w>": 6890,
      "nhắm</w>": 6891,
      "nhẽo</w>": 6892,
      "ngõ</w>": 6893,
      "ngây</w>": 6894,
      "ngạc</w>": 6895,
      "ngườ": 6896,
      "ngậm</w>": 6897,
      "ging</w>": 6898,
      "pho": 6899,
      "quật</w>": 6900,
      "quoc</w>": 6901,
      "tống</w>": 6902,
      "Chi": 6903,
      "Chốt</w>": 6904,
      "Cháu</w>": 6905,
      "Thơ</w>": 6906,
      "Thà</w>": 6907,
      "Thao</w>": 6908,
      "Trí</w>": 6909,
      "Tranh</w>": 6910,
      "Truyện</w>": 6911,
      "iififif": 6912,
      "ttt</w>": 6913,
      "hhe": 6914,
      "toc</w>": 6915,
      "toẹt</w>": 6916,
      "Phản</w>": 6917,
      "Phật</w>": 6918,
      "dji": 6919,
      "ghen</w>": 6920,
      "khoảnh</w>": 6921,
      "but</w>": 6922,
      "reen</w>": 6923,
      "recomm": 6924,
      "tis</w>": 6925,
      "tiger</w>": 6926,
      "mmmm</w>": 6927,
      "ont</w>": 6928,
      ".............</w>": 6929,
      "...............</w>": 6930,
      "shion</w>": 6931,
      "2017</w>": 6932,
      "come</w>": 6933,
      "dkm</w>": 6934,
      "ens</w>": 6935,
      "duong</w>": 6936,
      "internet</w>": 6937,
      "quyên</w>": 6938,
      "akakk": 6939,
      "bot</w>": 6940,
      "case</w>": 6941,
      "xnxm": 6942,
      "xiy": 6943,
      "xinh": 6944,
      "THP</w>": 6945,
      "zzzz</w>": 6946,
      "film</w>": 6947,
      "vvv</w>": 6948,
      "NHẤT</w>": 6949,
      "dhdhdhdh": 6950,
      "NGAY</w>": 6951,
      "NGUY": 6952,
      "Mik</w>": 6953,
      "Mixi": 6954,
      "fnfj": 6955,
      "cial</w>": 6956,
      "KHI</w>": 6957,
      "llll": 6958,
      "Thuỳ</w>": 6959,
      "Nghèo</w>": 6960,
      "600</w>": 6961,
      "...!</w>": 6962,
      "clh": 6963,
      "okila</w>": 6964,
      "xbxbxbxb": 6965,
      "TiKi</w>": 6966,
      "type</w>": 6967,
      "zmzm": 6968,
      "eeeeeeeeeeeeeeeeeeeeeeeeeeeeeeee": 6969,
      "InDo</w>": 6970,
      "CSVN</w>": 6971,
      "CSKH</w>": 6972,
      "amamamam": 6973,
      "okokokokokok</w>": 6974,
      "okokokokokokokokokokokokokokokok": 6975,
      "cccccccccccccccc": 6976,
      "CÁI</w>": 6977,
      "blue</w>": 6978,
      "dddddddddddddddddddddddddddddddd": 6979,
      "Trump</w>": 6980,
      "@@@@@@@@": 6981,
      "screen</w>": 6982,
      "store</w>": 6983,
      "youtobe</w>": 6984,
      "ytb</w>": 6985,
      "dislike</w>": 6986,
      "reaction</w>": 6987,
      "shoppe</w>": 6988,
      "0175</w>": 6989,
      "7SCARAB107SCARAB10": 6990,
      "++</w>": 6991,
      ",..</w>": 6992,
      "2000</w>": 6993,
      "4tr": 6994,
      "5K</w>": 6995,
      "5cm</w>": 6996,
      "69": 6997,
      "75": 6998,
      "A9</w>": 6999,
      "AT</w>": 7000,
      "AE</w>": 7001,
      "Anh": 7002,
      "Add</w>": 7003,
      "BÁ": 7004,
      "Binh</w>": 7005,
      "Bảnh</w>": 7006,
      "CC</w>": 7007,
      "CD</w>": 7008,
      "Củ</w>": 7009,
      "Cung</w>": 7010,
      "Cấp</w>": 7011,
      "CEO</w>": 7012,
      "Clear</w>": 7013,
      "DM</w>": 7014,
      "Dong</w>": 7015,
      "FM</w>": 7016,
      "Free</w>": 7017,
      "Go": 7018,
      "GD</w>": 7019,
      "Gì</w>": 7020,
      "Hóa</w>": 7021,
      "HÌNH</w>": 7022,
      "It</w>": 7023,
      "Ju": 7024,
      "Kì</w>": 7025,
      "Kb</w>": 7026,
      "Kong</w>": 7027,
      "Lai</w>": 7028,
      "Lau</w>": 7029,
      "Lực</w>": 7030,
      "Lừa</w>": 7031,
      "Lớp</w>": 7032,
      "Lag</w>": 7033,
      "Mắt</w>": 7034,
      "Mỏng</w>": 7035,
      "Nc</w>": 7036,
      "Nệm</w>": 7037,
      "NÀO</w>": 7038,
      "NÓI</w>": 7039,
      "ON": 7040,
      "Okkkkkkkkkkkkkkkk": 7041,
      "Pay</w>": 7042,
      "Pau": 7043,
      "Ren": 7044,
      "Sp": 7045,
      "Su</w>": 7046,
      "Sư</w>": 7047,
      "Sim</w>": 7048,
      "TV": 7049,
      "TG</w>": 7050,
      "TỪ</w>": 7051,
      "Tấm</w>": 7052,
      "TUY": 7053,
      "TẶNG</w>": 7054,
      "Vỏ</w>": 7055,
      "Vụ</w>": 7056,
      "Xo": 7057,
      "Xạo</w>": 7058,
      "bới</w>": 7059,
      "bam</w>": 7060,
      "bái</w>": 7061,
      "bựa</w>": 7062,
      "bón</w>": 7063,
      "bệt</w>": 7064,
      "band</w>": 7065,
      "bướm</w>": 7066,
      "ci</w>": 7067,
      "cưa</w>": 7068,
      "cồng</w>": 7069,
      "cmm": 7070,
      "cúp</w>": 7071,
      "cúm</w>": 7072,
      "dĩ</w>": 7073,
      "dỡ</w>": 7074,
      "dạn</w>": 7075,
      "diệu</w>": 7076,
      "ddj": 7077,
      "dti": 7078,
      "dgk": 7079,
      "duyen</w>": 7080,
      "dỏm</w>": 7081,
      "ei</w>": 7082,
      "eie": 7083,
      "fd": 7084,
      "fz": 7085,
      "fnn": 7086,
      "fhh": 7087,
      "fpt</w>": 7088,
      "gn": 7089,
      "gr</w>": 7090,
      "gn</w>": 7091,
      "gem</w>": 7092,
      "gìn</w>": 7093,
      "gel</w>": 7094,
      "hg</w>": 7095,
      "hơ</w>": 7096,
      "hc</w>": 7097,
      "hắc</w>": 7098,
      "hiệp</w>": 7099,
      "hòm</w>": 7100,
      "jb": 7101,
      "ja</w>": 7102,
      "jsi": 7103,
      "jaj": 7104,
      "kl": 7105,
      "kong</w>": 7106,
      "kout</w>": 7107,
      "lò": 7108,
      "lè</w>": 7109,
      "lủ</w>": 7110,
      "lùng</w>": 7111,
      "láng</w>": 7112,
      "lôn</w>": 7113,
      "lột</w>": 7114,
      "lường</w>": 7115,
      "lầy</w>": 7116,
      "lấm</w>": 7117,
      "lốc</w>": 7118,
      "luyến</w>": 7119,
      "mh": 7120,
      "mg</w>": 7121,
      "mó</w>": 7122,
      "mạc</w>": 7123,
      "mầu</w>": 7124,
      "mui</w>": 7125,
      "men": 7126,
      "mãnh</w>": 7127,
      "mìh</w>": 7128,
      "nề</w>": 7129,
      "nỡ</w>": 7130,
      "nôi</w>": 7131,
      "nưa</w>": 7132,
      "nãy</w>": 7133,
      "ow": 7134,
      "pay</w>": 7135,
      "ql": 7136,
      "qc</w>": 7137,
      "rô</w>": 7138,
      "rùa</w>": 7139,
      "sục</w>": 7140,
      "sụp</w>": 7141,
      "súp</w>": 7142,
      "sứt</w>": 7143,
      "td": 7144,
      "ts": 7145,
      "tà</w>": 7146,
      "tém</w>": 7147,
      "táp</w>": 7148,
      "tịt</w>": 7149,
      "túm</w>": 7150,
      "u10</w>": 7151,
      "vch</w>": 7152,
      "vèo</w>": 7153,
      "vụn</w>": 7154,
      "xr": 7155,
      "xs</w>": 7156,
      "xế</w>": 7157,
      "xmm": 7158,
      "xgj": 7159,
      "xyo": 7160,
      "xgk": 7161,
      "xlh": 7162,
      "ya": 7163,
      "ys</w>": 7164,
      "y11</w>": 7165,
      "ÁY</w>": 7166,
      "ÁNG</w>": 7167,
      "Óc</w>": 7168,
      "ÓNG</w>": 7169,
      "ÚNG</w>": 7170,
      "ân": 7171,
      "ôk</w>": 7172,
      "Đố</w>": 7173,
      "ĐỘ</w>": 7174,
      "Đứng</w>": 7175,
      "Địa</w>": 7176,
      "ĐỔI</w>": 7177,
      "đư": 7178,
      "đên</w>": 7179,
      "đkm</w>": 7180,
      "đớn</w>": 7181,
      "ƯNG</w>": 7182,
      "ẤP</w>": 7183,
      "ỀU</w>": 7184,
      "ỌN</w>": 7185,
      "ốg</w>": 7186,
      "ỮA</w>": 7187,
      "ữi</w>": 7188,
      "thỏ</w>": 7189,
      "thw</w>": 7190,
      "thắt</w>": 7191,
      "thập</w>": 7192,
      "thím</w>": 7193,
      "chéo</w>": 7194,
      "chửa</w>": 7195,
      "chùm</w>": 7196,
      "nhf</w>": 7197,
      "nhích</w>": 7198,
      "nhaaaaaaaa": 7199,
      "khôg</w>": 7200,
      "ngư": 7201,
      "ngất</w>": 7202,
      "ngưng</w>": 7203,
      "ngào</w>": 7204,
      "tra": 7205,
      "trẩu</w>": 7206,
      "phanh</w>": 7207,
      "quạo</w>": 7208,
      "quẩy</w>": 7209,
      "Chua</w>": 7210,
      "Chau</w>": 7211,
      "Chương</w>": 7212,
      "luông</w>": 7213,
      "Thùng</w>": 7214,
      "Thường</w>": 7215,
      "Thánh</w>": 7216,
      "tuệ</w>": 7217,
      "Nguyệt</w>": 7218,
      "Ngta</w>": 7219,
      "silicon</w>": 7220,
      "Khung</w>": 7221,
      "Khởi</w>": 7222,
      "Phẩm</w>": 7223,
      "okeeee</w>": 7224,
      "sjs</w>": 7225,
      "chuỗi</w>": 7226,
      "ant</w>": 7227,
      "mak</w>": 7228,
      "main</w>": 7229,
      "ons</w>": 7230,
      "cuo": 7231,
      "cuc</w>": 7232,
      "..........</w>": 7233,
      "thuc</w>": 7234,
      "thuoc</w>": 7235,
      "coa</w>": 7236,
      "cotton</w>": 7237,
      "dkd</w>": 7238,
      "Hong": 7239,
      "dhdhh": 7240,
      "mien</w>": 7241,
      "ene": 7242,
      "ine</w>": 7243,
      "dom</w>": 7244,
      "boy</w>": 7245,
      "body</w>": 7246,
      "suýt</w>": 7247,
      "rome</w>": 7248,
      "websi": 7249,
      "head</w>": 7250,
      "run</w>": 7251,
      "xig": 7252,
      "orry</w>": 7253,
      "xoh": 7254,
      "CHỊ</w>": 7255,
      "dag</w>": 7256,
      "dap</w>": 7257,
      "xbn": 7258,
      "đoan</w>": 7259,
      "dndndn": 7260,
      "mess": 7261,
      "meback</w>": 7262,
      "muot</w>": 7263,
      "NHÉ</w>": 7264,
      "xkxk": 7265,
      "shopp</w>": 7266,
      "TRONG</w>": 7267,
      "kek": 7268,
      "!!!!!!!</w>": 7269,
      "NGO": 7270,
      "wjwj": 7271,
      "kiêng</w>": 7272,
      "PHẢI</w>": 7273,
      ",,,,</w>": 7274,
      "auth</w>": 7275,
      "TIỀN</w>": 7276,
      "spen</w>": 7277,
      "tttttttttttttttttttttttttt</w>": 7278,
      "QUY": 7279,
      "Nghiệp</w>": 7280,
      "nek</w>": 7281,
      "vuông</w>": 7282,
      "GIA</w>": 7283,
      "HOT</w>": 7284,
      "ip11</w>": 7285,
      "job</w>": 7286,
      "skksk": 7287,
      "vhvh": 7288,
      "Mobi": 7289,
      "haizzz</w>": 7290,
      "snnsnsn": 7291,
      ":))))))))</w>": 7292,
      "Live</w>": 7293,
      "bjo</w>": 7294,
      "Luận</w>": 7295,
      "luônn</w>": 7296,
      "luônnn</w>": 7297,
      "Linda</w>": 7298,
      "USD</w>": 7299,
      "ecec": 7300,
      "Internet</w>": 7301,
      "dndndndndndndndn": 7302,
      "SAO</w>": 7303,
      "gjgjgjgj": 7304,
      "alalalalalalalal": 7305,
      "Snapdragon</w>": 7306,
      "camara</w>": 7307,
      "hhahaha": 7308,
      "bbbbbbbbbbbbbbbb": 7309,
      "hàg</w>": 7310,
      "Fire</w>": 7311,
      "word</w>": 7312,
      "qqqqqqqq": 7313,
      "vailon</w>": 7314,
      "vãi_": 7315,
      "nyc</w>": 7316,
      "tốtChất</w>": 7317,
      "OPPO</w>": 7318,
      "Shin</w>": 7319,
      "karaoke</w>": 7320,
      "Paula</w>": 7321,
      "vãi_chưởng</w>": 7322,
      "\"\"</w>": 7323,
      "&&": 7324,
      "''</w>": 7325,
      "+.</w>": 7326,
      "-))</w>": 7327,
      ".\"</w>": 7328,
      ".!!!</w>": 7329,
      "08</w>": 7330,
      "09</w>": 7331,
      "2g</w>": 7332,
      "2ngay</w>": 7333,
      "2GB</w>": 7334,
      "21s</w>": 7335,
      "39": 7336,
      "3K</w>": 7337,
      "4sao</w>": 7338,
      "58</w>": 7339,
      "63</w>": 7340,
      "6G</w>": 7341,
      "74": 7342,
      "7r": 7343,
      "720": 7344,
      "8k</w>": 7345,
      ":\"</w>": 7346,
      "==": 7347,
      "=))))))))": 7348,
      "App</w>": 7349,
      "Admin</w>": 7350,
      "BO": 7351,
      "Ba": 7352,
      "Bh</w>": 7353,
      "Bo</w>": 7354,
      "BA</w>": 7355,
      "BỊ</w>": 7356,
      "Bắp</w>": 7357,
      "Bún</w>": 7358,
      "CÒ": 7359,
      "DI": 7360,
      "Dc</w>": 7361,
      "DMX</w>": 7362,
      "ER</w>": 7363,
      "FF</w>": 7364,
      "Fone</w>": 7365,
      "FPT</w>": 7366,
      "Ghi</w>": 7367,
      "HP</w>": 7368,
      "Hạn</w>": 7369,
      "II": 7370,
      "Ip": 7371,
      "Kg</w>": 7372,
      "Kẻ</w>": 7373,
      "Kiếm</w>": 7374,
      "LA": 7375,
      "Lười</w>": 7376,
      "Lạc</w>": 7377,
      "MO": 7378,
      "Mu": 7379,
      "Mao</w>": 7380,
      "Mệt</w>": 7381,
      "Medi": 7382,
      "NI": 7383,
      "Nu": 7384,
      "Okkkkkkkkkkkkkkkkkkkkkkkkkkkkkkkk": 7385,
      "OLED</w>": 7386,
      "Pa": 7387,
      "Pe": 7388,
      "PC</w>": 7389,
      "PU</w>": 7390,
      "Quyết</w>": 7391,
      "SE</w>": 7392,
      "SHI": 7393,
      "TS</w>": 7394,
      "TA</w>": 7395,
      "TỰ</w>": 7396,
      "Tỉnh</w>": 7397,
      "Tẩy</w>": 7398,
      "Vệ</w>": 7399,
      "VÌ</w>": 7400,
      "Van</w>": 7401,
      "Việc</w>": 7402,
      "a9</w>": 7403,
      "alo": 7404,
      "assm": 7405,
      "bế</w>": 7406,
      "bến</w>": 7407,
      "bừa</w>": 7408,
      "bét</w>": 7409,
      "cư": 7410,
      "came": 7411,
      "cồn</w>": 7412,
      "cla": 7413,
      "cli": 7414,
      "cbb": 7415,
      "cởi</w>": 7416,
      "clear</w>": 7417,
      "dx": 7418,
      "dũng</w>": 7419,
      "dưa</w>": 7420,
      "dii": 7421,
      "dle</w>": 7422,
      "dfb": 7423,
      "dặm</w>": 7424,
      "eat</w>": 7425,
      "email</w>": 7426,
      "ffj": 7427,
      "group</w>": 7428,
      "hơ": 7429,
      "hó</w>": 7430,
      "hò</w>": 7431,
      "hé</w>": 7432,
      "hường</w>": 7433,
      "hóc</w>": 7434,
      "húp</w>": 7435,
      "huống</w>": 7436,
      "id": 7437,
      "iph": 7438,
      "idb": 7439,
      "ju": 7440,
      "jd</w>": 7441,
      "ksao</w>": 7442,
      "kén</w>": 7443,
      "lạ": 7444,
      "lh</w>": 7445,
      "lổ</w>": 7446,
      "lày</w>": 7447,
      "lêu</w>": 7448,
      "lấn</w>": 7449,
      "lội</w>": 7450,
      "mc</w>": 7451,
      "mạ</w>": 7452,
      "mảng</w>": 7453,
      "mẩu</w>": 7454,
      "mọt</w>": 7455,
      "mẽo</w>": 7456,
      "nd": 7457,
      "nf": 7458,
      "nộ</w>": 7459,
      "nến</w>": 7460,
      "nóc</w>": 7461,
      "nảy</w>": 7462,
      "opp": 7463,
      "oce</w>": 7464,
      "pm</w>": 7465,
      "pv</w>": 7466,
      "ron</w>": 7467,
      "rầu</w>": 7468,
      "rỗi</w>": 7469,
      "rieng</w>": 7470,
      "sữ</w>": 7471,
      "sạo</w>": 7472,
      "sad</w>": 7473,
      "sưu</w>": 7474,
      "sfh": 7475,
      "tô": 7476,
      "tàng</w>": 7477,
      "tày</w>": 7478,
      "tsu": 7479,
      "tym</w>": 7480,
      "usd</w>": 7481,
      "ultra</w>": 7482,
      "vg": 7483,
      "vại</w>": 7484,
      "vần</w>": 7485,
      "vắc</w>": 7486,
      "vlon</w>": 7487,
      "way</w>": 7488,
      "xo</w>": 7489,
      "xua</w>": 7490,
      "xẹp</w>": 7491,
      "xưởng</w>": 7492,
      "xjj": 7493,
      "yết</w>": 7494,
      "zv": 7495,
      "zi</w>": 7496,
      "zời</w>": 7497,
      "zjj": 7498,
      "zve": 7499,
      "ztk": 7500,
      "ÊM</w>": 7501,
      "ÊU</w>": 7502,
      "àg</w>": 7503,
      "êp</w>": 7504,
      "óg</w>": 7505,
      "ĐM</w>": 7506,
      "Đù</w>": 7507,
      "Đai</w>": 7508,
      "Đen</w>": 7509,
      "Đội</w>": 7510,
      "ĐẦU</w>": 7511,
      "đa": 7512,
      "đk": 7513,
      "đn": 7514,
      "đấ": 7515,
      "đn</w>": 7516,
      "đồi</w>": 7517,
      "độn</w>": 7518,
      "đmm</w>": 7519,
      "Ơn</w>": 7520,
      "ẾN</w>": 7521,
      "ếch</w>": 7522,
      "ỌC</w>": 7523,
      "ởn</w>": 7524,
      "ỡi</w>": 7525,
      "ỮNG</w>": 7526,
      "….</w>": 7527,
      "…..</w>": 7528,
      "thự</w>": 7529,
      "thôn</w>": 7530,
      "ther</w>": 7531,
      "thốn</w>": 7532,
      "thìa</w>": 7533,
      "cha": 7534,
      "chj": 7535,
      "chưng</w>": 7536,
      "chon</w>": 7537,
      "chong</w>": 7538,
      "chải</w>": 7539,
      "chôn</w>": 7540,
      "cháo</w>": 7541,
      "chịch</w>": 7542,
      "chiu</w>": 7543,
      "chăc</w>": 7544,
      "như": 7545,
      "nhì</w>": 7546,
      "nhổ</w>": 7547,
      "nhó</w>": 7548,
      "nhây</w>": 7549,
      "nham</w>": 7550,
      "nhột</w>": 7551,
      "nhằng</w>": 7552,
      "nhỉnh</w>": 7553,
      "nhằm</w>": 7554,
      "khát</w>": 7555,
      "ngan</w>": 7556,
      "ngục</w>": 7557,
      "ngừng</w>": 7558,
      "ngẫm</w>": 7559,
      "trau</w>": 7560,
      "trích</w>": 7561,
      "trán</w>": 7562,
      "trọc</w>": 7563,
      "phao</w>": 7564,
      "phảm</w>": 7565,
      "phẫn</w>": 7566,
      "phộng</w>": 7567,
      "phcm</w>": 7568,
      "quát</w>": 7569,
      "hoả</w>": 7570,
      "Chỗ</w>": 7571,
      "luộc</w>": 7572,
      "Nhị</w>": 7573,
      "Nhẫn</w>": 7574,
      "tuan</w>": 7575,
      "Ngộ</w>": 7576,
      "lou": 7577,
      "loạt</w>": 7578,
      "Tránh</w>": 7579,
      "Truy</w>": 7580,
      "Trắng</w>": 7581,
      "ttel": 7582,
      "nnn": 7583,
      "tou": 7584,
      "tor</w>": 7585,
      "tottttttttttttttyyyyttttttttt5t5yy5tttttttttttttttttttttttt</w>": 7586,
      "Khai</w>": 7587,
      "Khúc</w>": 7588,
      "vin": 7589,
      "vice</w>": 7590,
      "Phí</w>": 7591,
      "Phía</w>": 7592,
      "djdi": 7593,
      "okla</w>": 7594,
      "Quoc</w>": 7595,
      "sjsi": 7596,
      "chuồng</w>": 7597,
      "any</w>": 7598,
      "antutu</w>": 7599,
      "rea</w>": 7600,
      "diy": 7601,
      "dio</w>": 7602,
      "may": 7603,
      "ona": 7604,
      "cuu</w>": 7605,
      "............</w>": 7606,
      "sns": 7607,
      "sndn": 7608,
      "dback</w>": 7609,
      "ood</w>": 7610,
      "???": 7611,
      "sen": 7612,
      "covi": 7613,
      "comeback</w>": 7614,
      "Hot</w>": 7615,
      "Hoà</w>": 7616,
      "Hoặc</w>": 7617,
      "ted</w>": 7618,
      "sbb": 7619,
      "sbh": 7620,
      "enen": 7621,
      "duoi</w>": 7622,
      "bolsa</w>": 7623,
      "sus</w>": 7624,
      "not": 7625,
      "rum</w>": 7626,
      "ruru": 7627,
      "cccc</w>": 7628,
      "Loạn</w>": 7629,
      "Logitech</w>": 7630,
      "xit</w>": 7631,
      "THPT</w>": 7632,
      "THẤY</w>": 7633,
      "cjfj": 7634,
      "mobi</w>": 7635,
      "CHƯA</w>": 7636,
      "viettel</w>": 7637,
      "50K</w>": 7638,
      "smsn": 7639,
      "medi": 7640,
      "meow</w>": 7641,
      "NHỮNG</w>": 7642,
      "bede</w>": 7643,
      "belike</w>": 7644,
      "fhk": 7645,
      "TRỜI</w>": 7646,
      "sksksksk": 7647,
      "tream</w>": 7648,
      "333</w>": 7649,
      "bab": 7650,
      "thien</w>": 7651,
      "128</w>": 7652,
      "gkgk": 7653,
      "TIN</w>": 7654,
      "spam</w>": 7655,
      "nhuận</w>": 7656,
      "svsb": 7657,
      "pew</w>": 7658,
      "yeah</w>": 7659,
      "ip6</w>": 7660,
      "clg</w>": 7661,
      "Cute</w>": 7662,
      "shshsh": 7663,
      "nhanhhhh</w>": 7664,
      "48mp</w>": 7665,
      "32G</w>": 7666,
      "dkkdkdk": 7667,
      "hahahahahahahaha": 7668,
      "produ": 7669,
      "HDMI</w>": 7670,
      "router</w>": 7671,
      "zzzzzzzzzzzzzzzz": 7672,
      "=))))))))</w>": 7673,
      "~~~~": 7674,
      "srm</w>": 7675,
      "5000mah</w>": 7676,
      "WiFi</w>": 7677,
      "LUÔN</w>": 7678,
      "kaging</w>": 7679,
      "Nguoi</w>": 7680,
      "Data</w>": 7681,
      "linda</w>": 7682,
      "csgt</w>": 7683,
      "offline</w>": 7684,
      "website</w>": 7685,
      "MobiFone</w>": 7686,
      "assmin</w>": 7687,
      "1c</w>": 7688,
      "1000": 7689,
      "2G</w>": 7690,
      "3M</w>": 7691,
      "3D</w>": 7692,
      "44</w>": 7693,
      "56</w>": 7694,
      "65": 7695,
      "61</w>": 7696,
      "68</w>": 7697,
      "62</w>": 7698,
      "710</w>": 7699,
      "88</w>": 7700,
      "8tr": 7701,
      "8pro</w>": 7702,
      "800k</w>": 7703,
      "8gb</w>": 7704,
      ":&": 7705,
      ";)</w>": 7706,
      "Ar": 7707,
      "Au": 7708,
      "AO</w>": 7709,
      "AL</w>": 7710,
      "A31</w>": 7711,
      "BH": 7712,
      "Bù</w>": 7713,
      "Biên</w>": 7714,
      "Bịch</w>": 7715,
      "Bền</w>": 7716,
      "CT": 7717,
      "Cụ</w>": 7718,
      "Cắt</w>": 7719,
      "Cảnh</w>": 7720,
      "Cửa</w>": 7721,
      "Cậu</w>": 7722,
      "Dì</w>": 7723,
      "Dăm</w>": 7724,
      "Dkm</w>": 7725,
      "Ex": 7726,
      "GA</w>": 7727,
      "HA": 7728,
      "Hư</w>": 7729,
      "Hít</w>": 7730,
      "J7</w>": 7731,
      "LẮ": 7732,
      "Lon</w>": 7733,
      "Lớn</w>": 7734,
      "Laz": 7735,
      "Mắc</w>": 7736,
      "Mềm</w>": 7737,
      "NT</w>": 7738,
      "OR": 7739,
      "Pi": 7740,
      "Quynh</w>": 7741,
      "Răng</w>": 7742,
      "ST</w>": 7743,
      "SỬ</w>": 7744,
      "SẼ</w>": 7745,
      "Sung</w>": 7746,
      "TF": 7747,
      "Tho": 7748,
      "Tấu</w>": 7749,
      "Tạo</w>": 7750,
      "Uy</w>": 7751,
      "Ve": 7752,
      "Vớ</w>": 7753,
      "VC</w>": 7754,
      "VE</w>": 7755,
      "Xl</w>": 7756,
      "app": 7757,
      "angg</w>": 7758,
      "a10s</w>": 7759,
      "bầy</w>": 7760,
      "ben</w>": 7761,
      "bổng</w>": 7762,
      "bao": 7763,
      "bẩy</w>": 7764,
      "bịa</w>": 7765,
      "bsbsbsb": 7766,
      "c6": 7767,
      "cb</w>": 7768,
      "cừ</w>": 7769,
      "cch": 7770,
      "càn</w>": 7771,
      "cọng</w>": 7772,
      "cre": 7773,
      "csk": 7774,
      "coo": 7775,
      "cyo": 7776,
      "cún</w>": 7777,
      "cọp</w>": 7778,
      "dc": 7779,
      "dgi": 7780,
      "f9</w>": 7781,
      "fim</w>": 7782,
      "fect</w>": 7783,
      "gr": 7784,
      "gào</w>": 7785,
      "gật</w>": 7786,
      "gầm</w>": 7787,
      "ghi": 7788,
      "gồng</w>": 7789,
      "ggh": 7790,
      "gram</w>": 7791,
      "gpi": 7792,
      "hg": 7793,
      "hê": 7794,
      "hã</w>": 7795,
      "hù</w>": 7796,
      "hanh</w>": 7797,
      "hau</w>": 7798,
      "hii": 7799,
      "hàu</w>": 7800,
      "hee": 7801,
      "icon</w>": 7802,
      "icm</w>": 7803,
      "jej": 7804,
      "jwj": 7805,
      "kg": 7806,
      "kìm</w>": 7807,
      "ktra</w>": 7808,
      "kfk": 7809,
      "kiep</w>": 7810,
      "lv</w>": 7811,
      "lặp</w>": 7812,
      "lượn</w>": 7813,
      "lens</w>": 7814,
      "m2</w>": 7815,
      "mợ</w>": 7816,
      "mỉ</w>": 7817,
      "mần</w>": 7818,
      "mạn</w>": 7819,
      "miệt</w>": 7820,
      "miến</w>": 7821,
      "mềnh</w>": 7822,
      "nỉ</w>": 7823,
      "nạt</w>": 7824,
      "nsn": 7825,
      "nặn</w>": 7826,
      "ncn": 7827,
      "op": 7828,
      "os</w>": 7829,
      "okk": 7830,
      "pj</w>": 7831,
      "pc</w>": 7832,
      "pla": 7833,
      "rr</w>": 7834,
      "rv</w>": 7835,
      "rả</w>": 7836,
      "rợ</w>": 7837,
      "ran</w>": 7838,
      "rọi</w>": 7839,
      "ráo</w>": 7840,
      "ria</w>": 7841,
      "rạch</w>": 7842,
      "rứa</w>": 7843,
      "sy</w>": 7844,
      "s8</w>": 7845,
      "sầu</w>": 7846,
      "stu": 7847,
      "slo": 7848,
      "sen</w>": 7849,
      "sút</w>": 7850,
      "sảy</w>": 7851,
      "tn": 7852,
      "tv": 7853,
      "td</w>": 7854,
      "tưng</w>": 7855,
      "tong</w>": 7856,
      "tam": 7857,
      "tánh</w>": 7858,
      "tsj": 7859,
      "tme</w>": 7860,
      "vd": 7861,
      "vp</w>": 7862,
      "vù</w>": 7863,
      "ven</w>": 7864,
      "vat</w>": 7865,
      "vẩy</w>": 7866,
      "vẫy</w>": 7867,
      "xưng</w>": 7868,
      "xào</w>": 7869,
      "xảo</w>": 7870,
      "yt</w>": 7871,
      "zl": 7872,
      "znn": 7873,
      "ÀU</w>": 7874,
      "ÁCH</w>": 7875,
      "ÉO</w>": 7876,
      "ÓC</w>": 7877,
      "ào": 7878,
      "ĂM</w>": 7879,
      "Đế</w>": 7880,
      "ĐỂ</w>": 7881,
      "Đan</w>": 7882,
      "Đàn</w>": 7883,
      "Đạo</w>": 7884,
      "Đệm</w>": 7885,
      "đb": 7886,
      "đay</w>": 7887,
      "điếc</w>": 7888,
      "đóm</w>": 7889,
      "ơiiiii</w>": 7890,
      "ẠP</w>": 7891,
      "ạh</w>": 7892,
      "ẢNH</w>": 7893,
      "ỂM</w>": 7894,
      "Ổng</w>": 7895,
      "ứg</w>": 7896,
      "thy</w>": 7897,
      "tháp</w>": 7898,
      "thạch</w>": 7899,
      "chư</w>": 7900,
      "chọi</w>": 7901,
      "chánh</w>": 7902,
      "chen</w>": 7903,
      "chổi</w>": 7904,
      "chưi</w>": 7905,
      "chplay</w>": 7906,
      "nhị</w>": 7907,
      "nhiề": 7908,
      "nhóc</w>": 7909,
      "khô": 7910,
      "khau</w>": 7911,
      "khẳng</w>": 7912,
      "khía</w>": 7913,
      "ngt</w>": 7914,
      "ngốc</w>": 7915,
      "nguyền</w>": 7916,
      "nggg</w>": 7917,
      "ngợm</w>": 7918,
      "giông</w>": 7919,
      "giãy</w>": 7920,
      "trg</w>": 7921,
      "trọ</w>": 7922,
      "trương</w>": 7923,
      "phin</w>": 7924,
      "phẩn</w>": 7925,
      "phâm</w>": 7926,
      "qué</w>": 7927,
      "hom</w>": 7928,
      "hoạn</w>": 7929,
      "homie</w>": 7930,
      "Chánh</w>": 7931,
      "Chấp</w>": 7932,
      "Chịu</w>": 7933,
      "lui</w>": 7934,
      "lub</w>": 7935,
      "luân</w>": 7936,
      "Thượng</w>": 7937,
      "Thiệt</w>": 7938,
      "Thức</w>": 7939,
      "Thăng</w>": 7940,
      "Thỉnh</w>": 7941,
      "Thịt</w>": 7942,
      "Thanh": 7943,
      "Nhan</w>": 7944,
      "Nhiệt</w>": 7945,
      "Nhục</w>": 7946,
      "Nhưg</w>": 7947,
      "Giật</w>": 7948,
      "Trai</w>": 7949,
      "nny</w>": 7950,
      "sit": 7951,
      "hit</w>": 7952,
      "too</w>": 7953,
      "totttttttttttttttttttttttttt</w>": 7954,
      "Khả</w>": 7955,
      "Khóc</w>": 7956,
      "Phường</w>": 7957,
      "djk": 7958,
      "djfj": 7959,
      "okok</w>": 7960,
      "Quỹ</w>": 7961,
      "Quản</w>": 7962,
      "Quật</w>": 7963,
      "eed</w>": 7964,
      "xur": 7965,
      "xuong</w>": 7966,
      "xuxu": 7967,
      "sjjsj": 7968,
      "hah</w>": 7969,
      "chun</w>": 7970,
      "burn</w>": 7971,
      "tik</w>": 7972,
      "tieu</w>": 7973,
      "mat": 7974,
      "make": 7975,
      "dnb": 7976,
      "sksj": 7977,
      "skdk": 7978,
      "skso": 7979,
      "..............</w>": 7980,
      "10m</w>": 7981,
      "1091</w>": 7982,
      "ooc</w>": 7983,
      "2015</w>": 7984,
      "ser": 7985,
      "sear": 7986,
      "dkg": 7987,
      "dkdjdj": 7988,
      "ter": 7989,
      "aka</w>": 7990,
      "super</w>": 7991,
      "shs": 7992,
      "shsj": 7993,
      "shdh": 7994,
      "fun</w>": 7995,
      "xjxn": 7996,
      "THẺ</w>": 7997,
      "THỨ</w>": 7998,
      "THAY</w>": 7999,
      "huấn</w>": 8000,
      "xoài</w>": 8001,
      "xoắn</w>": 8002,
      "cjck": 8003,
      "sop</w>": 8004,
      "mom</w>": 8005,
      "mode</w>": 8006,
      "smsk": 8007,
      "Tuần</w>": 8008,
      "gjk": 8009,
      "benh</w>": 8010,
      "xkx": 8011,
      "tap</w>": 8012,
      "tab</w>": 8013,
      "đuỹ</w>": 8014,
      "zjf": 8015,
      "Huong</w>": 8016,
      "NGON</w>": 8017,
      "Tom</w>": 8018,
      "Viru": 8019,
      "witch</w>": 8020,
      "PHÍ</w>": 8021,
      "vjvj": 8022,
      "fort</w>": 8023,
      "TINH</w>": 8024,
      "fjfjfj": 8025,
      "zbzbb": 8026,
      "wow</w>": 8027,
      "dyl": 8028,
      "18w</w>": 8029,
      "vuvu": 8030,
      "xmxn": 8031,
      "jjjjj": 8032,
      "Cuong</w>": 8033,
      "Viettel": 8034,
      "MIỄN</w>": 8035,
      "okey</w>": 8036,
      "Team</w>": 8037,
      "ajajajaj": 8038,
      "dtk": 8039,
      "SALE</w>": 8040,
      "VID</w>": 8041,
      "ƯỢNG</w>": 8042,
      "hihihihihihihihi": 8043,
      "hdsd</w>": 8044,
      "kekekeke": 8045,
      "128gb</w>": 8046,
      "COVID</w>": 8047,
      "express</w>": 8048,
      "NNNN": 8049,
      "your</w>": 8050,
      "AMOLED</w>": 8051,
      "Rubik</w>": 8052,
      "okokokokokOkikokokokokokOkikokokokokokOkikokokokokokOkik": 8053,
      "BF33F38D6D60E6BF33F38D6D60E6BF33F38D6D60E6BF33F38D6D60E6": 8054,
      "120hz</w>": 8055,
      "18001091</w>": 8056,
      "sales</w>": 8057,
      "You</w>": 8058,
      "llagen</w>": 8059,
      "TKC</w>": 8060,
      "amoled</w>": 8061,
      "joy3</w>": 8062,
      ":-)</w>": 8063,
      "recommend</w>": 8064,
      "Reno</w>": 8065,
      "TV360</w>": 8066,
      "CÒN</w>": 8067,
      "(~</w>": 8068,
      ".:</w>": 8069,
      ".:))</w>": 8070,
      "2h": 8071,
      "2m</w>": 8072,
      "25k</w>": 8073,
      "3s</w>": 8074,
      "300": 8075,
      "3000": 8076,
      "47": 8077,
      "4k": 8078,
      "4m</w>": 8079,
      "400": 8080,
      "5m</w>": 8081,
      "53</w>": 8082,
      "66": 8083,
      "600k</w>": 8084,
      "64G</w>": 8085,
      "78": 8086,
      "79</w>": 8087,
      "700k</w>": 8088,
      "8y": 8089,
      "84</w>": 8090,
      "96": 8091,
      "900": 8092,
      "<<</w>": 8093,
      "=)</w>": 8094,
      ">>>></w>": 8095,
      "AC": 8096,
      "AK": 8097,
      "A4</w>": 8098,
      "A10</w>": 8099,
      "A91</w>": 8100,
      "A30s</w>": 8101,
      "Bi</w>": 8102,
      "Bò</w>": 8103,
      "Bến</w>": 8104,
      "Bla": 8105,
      "Bạch</w>": 8106,
      "Canh</w>": 8107,
      "Cáp</w>": 8108,
      "Call</w>": 8109,
      "Clm</w>": 8110,
      "CẢM</w>": 8111,
      "Dn": 8112,
      "Dơ</w>": 8113,
      "DT</w>": 8114,
      "Dày</w>": 8115,
      "Dưỡng</w>": 8116,
      "FI": 8117,
      "Fake</w>": 8118,
      "Go</w>": 8119,
      "GT</w>": 8120,
      "HA</w>": 8121,
      "Hổ</w>": 8122,
      "Hí</w>": 8123,
      "Hỗ</w>": 8124,
      "Hên</w>": 8125,
      "Hân</w>": 8126,
      "Hung</w>": 8127,
      "HAY</w>": 8128,
      "HƠN</w>": 8129,
      "Iu</w>": 8130,
      "Ib</w>": 8131,
      "Kí</w>": 8132,
      "Kéo</w>": 8133,
      "Kkkk</w>": 8134,
      "LS</w>": 8135,
      "Làng</w>": 8136,
      "Lục</w>": 8137,
      "Lạy</w>": 8138,
      "Lịch</w>": 8139,
      "Lều</w>": 8140,
      "Luu</w>": 8141,
      "Mb": 8142,
      "MN</w>": 8143,
      "Mv</w>": 8144,
      "Mê</w>": 8145,
      "Mưa</w>": 8146,
      "Mát</w>": 8147,
      "Mộc</w>": 8148,
      "Mãnh</w>": 8149,
      "MÀU</w>": 8150,
      "Nổ</w>": 8151,
      "Nữ</w>": 8152,
      "Nchung</w>": 8153,
      "Nón</w>": 8154,
      "NƯỚC</w>": 8155,
      "NẠP</w>": 8156,
      "Or": 8157,
      "P8": 8158,
      "PA</w>": 8159,
      "Phi": 8160,
      "QR</w>": 8161,
      "RF</w>": 8162,
      "RAM</w>": 8163,
      "RỒI</w>": 8164,
      "SU": 8165,
      "Sd</w>": 8166,
      "SH</w>": 8167,
      "Sông</w>": 8168,
      "Súng</w>": 8169,
      "Suy</w>": 8170,
      "San": 8171,
      "Set</w>": 8172,
      "Sty": 8173,
      "TD</w>": 8174,
      "Tày</w>": 8175,
      "Tang</w>": 8176,
      "Tôn</w>": 8177,
      "Toi</w>": 8178,
      "TPH": 8179,
      "Tụt</w>": 8180,
      "Tuyển</w>": 8181,
      "Uầy</w>": 8182,
      "Vượng</w>": 8183,
      "Viền</w>": 8184,
      "Vấn</w>": 8185,
      "Vcl</w>": 8186,
      "XU": 8187,
      "X2</w>": 8188,
      "Xưa</w>": 8189,
      "Xạc</w>": 8190,
      "Yen</w>": 8191,
      "ae": 8192,
      "bổn</w>": 8193,
      "bầm</w>": 8194,
      "bục</w>": 8195,
      "boi</w>": 8196,
      "bạt</w>": 8197,
      "bim</w>": 8198,
      "bsj": 8199,
      "bsn": 8200,
      "bển</w>": 8201,
      "bee</w>": 8202,
      "bịnh</w>": 8203,
      "cs": 8204,
      "c3</w>": 8205,
      "cở</w>": 8206,
      "cúi</w>": 8207,
      "cro</w>": 8208,
      "củi</w>": 8209,
      "dv</w>": 8210,
      "dú</w>": 8211,
      "dx</w>": 8212,
      "dò</w>": 8213,
      "dee": 8214,
      "dứa</w>": 8215,
      "font</w>": 8216,
      "gv</w>": 8217,
      "gò</w>": 8218,
      "gỉ</w>": 8219,
      "gợi</w>": 8220,
      "goc</w>": 8221,
      "gap</w>": 8222,
      "gẫy</w>": 8223,
      "hk": 8224,
      "hẫ": 8225,
      "hỉ</w>": 8226,
      "hất</w>": 8227,
      "hói</w>": 8228,
      "hiên</w>": 8229,
      "hắt</w>": 8230,
      "hsau</w>": 8231,
      "hổi</w>": 8232,
      "hửi</w>": 8233,
      "hdb": 8234,
      "hịn</w>": 8235,
      "hsd</w>": 8236,
      "iy": 8237,
      "ie</w>": 8238,
      "isj": 8239,
      "ja": 8240,
      "jk": 8241,
      "jk</w>": 8242,
      "jdn": 8243,
      "jsn": 8244,
      "jxj": 8245,
      "kô</w>": 8246,
      "ker</w>": 8247,
      "klq</w>": 8248,
      "kềnh</w>": 8249,
      "ls</w>": 8250,
      "lú</w>": 8251,
      "lề</w>": 8252,
      "lói</w>": 8253,
      "lặt</w>": 8254,
      "lậy</w>": 8255,
      "lạng</w>": 8256,
      "lèo</w>": 8257,
      "lứt</w>": 8258,
      "lùm</w>": 8259,
      "lởm</w>": 8260,
      "lụa</w>": 8261,
      "mải</w>": 8262,
      "mem</w>": 8263,
      "mung</w>": 8264,
      "meo</w>": 8265,
      "mạt</w>": 8266,
      "mon": 8267,
      "mõi</w>": 8268,
      "more</w>": 8269,
      "nr": 8270,
      "nè": 8271,
      "nài</w>": 8272,
      "năn</w>": 8273,
      "nsj": 8274,
      "nấm</w>": 8275,
      "nsk": 8276,
      "nin": 8277,
      "nín</w>": 8278,
      "nếp</w>": 8279,
      "nzn": 8280,
      "núm</w>": 8281,
      "oanh</w>": 8282,
      "okkkkkkkk": 8283,
      "oder</w>": 8284,
      "qn": 8285,
      "rải</w>": 8286,
      "rinh</w>": 8287,
      "rỗng</w>": 8288,
      "sư": 8289,
      "sứ</w>": 8290,
      "str": 8291,
      "sin</w>": 8292,
      "sưng</w>": 8293,
      "san": 8294,
      "sat</w>": 8295,
      "sđt</w>": 8296,
      "sọt</w>": 8297,
      "sao": 8298,
      "sgj": 8299,
      "sườn</w>": 8300,
      "sorry</w>": 8301,
      "tư": 8302,
      "tàm</w>": 8303,
      "tét</w>": 8304,
      "tệp</w>": 8305,
      "vỗ</w>": 8306,
      "vung</w>": 8307,
      "vọc</w>": 8308,
      "vành</w>": 8309,
      "vướng</w>": 8310,
      "vjj": 8311,
      "vac": 8312,
      "vll</w>": 8313,
      "v19</w>": 8314,
      "wg": 8315,
      "wer</w>": 8316,
      "wjj": 8317,
      "xắc</w>": 8318,
      "xéo</w>": 8319,
      "xóc</w>": 8320,
      "xel</w>": 8321,
      "yk": 8322,
      "ys": 8323,
      "youtu": 8324,
      "zo</w>": 8325,
      "~~</w>": 8326,
      "ÀNG</w>": 8327,
      "ÁI</w>": 8328,
      "ÁC</w>": 8329,
      "Ân</w>": 8330,
      "ÂM</w>": 8331,
      "ÃI</w>": 8332,
      "ÍCH</w>": 8333,
      "ÔM</w>": 8334,
      "òii</w>": 8335,
      "Đỡ</w>": 8336,
      "Đứa</w>": 8337,
      "Đùa</w>": 8338,
      "đh</w>": 8339,
      "đv</w>": 8340,
      "đẽ</w>": 8341,
      "đan</w>": 8342,
      "đọng</w>": 8343,
      "đãng</w>": 8344,
      "đéc</w>": 8345,
      "đào": 8346,
      "ưiiiii</w>": 8347,
      "ẠO</w>": 8348,
      "ẦY</w>": 8349,
      "ẮC</w>": 8350,
      "ẽn</w>": 8351,
      "ỂN</w>": 8352,
      "ễng</w>": 8353,
      "ỆT</w>": 8354,
      "ỎI</w>": 8355,
      "ỐI</w>": 8356,
      "ỒNG</w>": 8357,
      "ỡn</w>": 8358,
      "ủm</w>": 8359,
      "ỪNG</w>": 8360,
      "ỬI</w>": 8361,
      "thê": 8362,
      "thổ</w>": 8363,
      "thặc</w>": 8364,
      "thít</w>": 8365,
      "thịnh</w>": 8366,
      "thằg</w>": 8367,
      "chừ</w>": 8368,
      "chiết</w>": 8369,
      "chác</w>": 8370,
      "chấn</w>": 8371,
      "chie": 8372,
      "chụy</w>": 8373,
      "chữi</w>": 8374,
      "nhâ": 8375,
      "nhang</w>": 8376,
      "nhàu</w>": 8377,
      "nhọn</w>": 8378,
      "nhím</w>": 8379,
      "nhac</w>": 8380,
      "khè</w>": 8381,
      "khống</w>": 8382,
      "khán</w>": 8383,
      "ngả</w>": 8384,
      "ngư</w>": 8385,
      "ngóng</w>": 8386,
      "ngòi</w>": 8387,
      "ngươi</w>": 8388,
      "ngggg</w>": 8389,
      "giup</w>": 8390,
      "giun</w>": 8391,
      "tri": 8392,
      "trồ</w>": 8393,
      "triệt</w>": 8394,
      "pho</w>": 8395,
      "phì</w>": 8396,
      "phó</w>": 8397,
      "phèo</w>": 8398,
      "qui</w>": 8399,
      "quơ</w>": 8400,
      "quad</w>": 8401,
      "hoo": 8402,
      "uyet</w>": 8403,
      "Che": 8404,
      "Chinh</w>": 8405,
      "Chíp</w>": 8406,
      "amen</w>": 8407,
      "lắmm</w>": 8408,
      "Thi": 8409,
      "Thai</w>": 8410,
      "Thang</w>": 8411,
      "Tháng</w>": 8412,
      "Nho</w>": 8413,
      "Nhiên</w>": 8414,
      "Nhập</w>": 8415,
      "Nhat</w>": 8416,
      "Nhím</w>": 8417,
      "Gil</w>": 8418,
      "Giả</w>": 8419,
      "tus</w>": 8420,
      "tup</w>": 8421,
      "tuý</w>": 8422,
      "tuấn</w>": 8423,
      "lozz</w>": 8424,
      "siê": 8425,
      "thoy</w>": 8426,
      "hien</w>": 8427,
      "tom</w>": 8428,
      "Khu": 8429,
      "Khô</w>": 8430,
      "Khải</w>": 8431,
      "Khỏi</w>": 8432,
      "kkkkkkkk</w>": 8433,
      "viễn</w>": 8434,
      "vide": 8435,
      "Phượng</w>": 8436,
      "dje": 8437,
      "djsj": 8438,
      "Quận</w>": 8439,
      "ghẻ</w>": 8440,
      "khoác</w>": 8441,
      "sjf": 8442,
      "sjh": 8443,
      "have</w>": 8444,
      "hangg</w>": 8445,
      "ggd</w>": 8446,
      "chuan</w>": 8447,
      "bum</w>": 8448,
      "buông</w>": 8449,
      "uuu": 8450,
      "red": 8451,
      "rep": 8452,
      "rena</w>": 8453,
      "refund</w>": 8454,
      "tie": 8455,
      "ttttt</w>": 8456,
      "dnsn": 8457,
      "lia</w>": 8458,
      "sky": 8459,
      "skak": 8460,
      "cut": 8461,
      "cut</w>": 8462,
      "dbd": 8463,
      "dbdn": 8464,
      "pppppp</w>": 8465,
      "pppppppp</w>": 8466,
      "ieb": 8467,
      "chuyền</w>": 8468,
      "setup</w>": 8469,
      "cou": 8470,
      "sbs</w>": 8471,
      "eno": 8472,
      "duc</w>": 8473,
      "indo": 8474,
      "inox</w>": 8475,
      "doạ</w>": 8476,
      "down</w>": 8477,
      "riêu</w>": 8478,
      "---</w>": 8479,
      "----</w>": 8480,
      "sui": 8481,
      "sum</w>": 8482,
      "supp": 8483,
      "hello</w>": 8484,
      "eeeee</w>": 8485,
      "der": 8486,
      "cci</w>": 8487,
      "ful</w>": 8488,
      "fufu": 8489,
      "Lol</w>": 8490,
      "uuuuuu</w>": 8491,
      "THẾ</w>": 8492,
      "biêt</w>": 8493,
      "huỷ</w>": 8494,
      "huhuhu</w>": 8495,
      "xoa</w>": 8496,
      "soso": 8497,
      "moẹ</w>": 8498,
      "modem</w>": 8499,
      "CHÓ</w>": 8500,
      "CHẤT</w>": 8501,
      "CHÍNH</w>": 8502,
      "fir": 8503,
      "....................</w>": 8504,
      "fff": 8505,
      "hhhhhhhhhhh</w>": 8506,
      "NHA": 8507,
      "NHANH</w>": 8508,
      "fhf": 8509,
      "shop": 8510,
      "dmm</w>": 8511,
      ":))).</w>": 8512,
      "leg": 8513,
      "les</w>": 8514,
      "TRẦN</w>": 8515,
      "cnxn": 8516,
      "xhcn</w>": 8517,
      "zjg": 8518,
      "bag</w>": 8519,
      "fnfk": 8520,
      "xxx</w>": 8521,
      "wkwk": 8522,
      "KHO": 8523,
      "yyyyy</w>": 8524,
      "Hahaha</w>": 8525,
      "fom</w>": 8526,
      "...)</w>": 8527,
      "...!!!</w>": 8528,
      "wbwb": 8529,
      "combank</w>": 8530,
      "gold</w>": 8531,
      "Hehe</w>": 8532,
      "Mom</w>": 8533,
      "alaska</w>": 8534,
      "khum</w>": 8535,
      "Lisa</w>": 8536,
      "Tefal</w>": 8537,
      "IỆU</w>": 8538,
      "11pro</w>": 8539,
      "Susan</w>": 8540,
      "asonic</w>": 8541,
      "djdjdjdjdjdjdjdj": 8542,
      "frie": 8543,
      "sting</w>": 8544,
      "32GB</w>": 8545,
      "dbbdbdb": 8546,
      "cmnl</w>": 8547,
      "zmz": 8548,
      "!!!!!!!!!!!!!!!!": 8549,
      "nka</w>": 8550,
      "anananan": 8551,
      "KICM</w>": 8552,
      "chien</w>": 8553,
      "Khoe</w>": 8554,
      "SAU</w>": 8555,
      "????????</w>": 8556,
      "uuuuuuuuuuuuuuuuuuuuuuuu": 8557,
      "gygy": 8558,
      "freefire</w>": 8559,
      "cammera</w>": 8560,
      "vas</w>": 8561,
      "fly": 8562,
      "Note": 8563,
      "blutooth</w>": 8564,
      "coycoy": 8565,
      "mmmmmmmmmmmmmmmmmmmmmmmmmmmmmmmm": 8566,
      "đẹpKhăn</w>": 8567,
      "black</w>": 8568,
      "Truong</w>": 8569,
      "uiTốt</w>": 8570,
      "HIẾU</w>": 8571,
      "rkrk": 8572,
      "********": 8573,
      "note10</w>": 8574,
      "Camara</w>": 8575,
      "New</w>": 8576,
      "Tiki": 8577,
      "Tikinow</w>": 8578,
      "rm1h": 8579,
      "ydoydo": 8580,
      "Combo</w>": 8581,
      "Sena</w>": 8582,
      "Senka</w>": 8583,
      "feedback</w>": 8584,
      "CMND</w>": 8585,
      "Panda</w>": 8586,
      "where</w>": 8587,
      "brand</w>": 8588,
      "lqmb</w>": 8589,
      "office</w>": 8590,
      "packaging</w>": 8591,
      "=]]]</w>": 8592,
      "Active</w>": 8593,
      "ndkd": 8594,
      "ngggggggg</w>": 8595,
      "hard</w>": 8596,
      "Lazada</w>": 8597,
      "TFT</w>": 8598,
      "search</w>": 8599,
      "Virus</w>": 8600,
      "ViettelPay</w>": 8601,
      "TPHCM</w>": 8602,
      "hẫng</w>": 8603,
      "đàoNgon</w>": 8604,
      "!)</w>": 8605,
      "!...</w>": 8606,
      "#.</w>": 8607,
      "%...</w>": 8608,
      "*,</w>": 8609,
      "+,</w>": 8610,
      ".?</w>": 8611,
      "/&": 8612,
      "1tiếng</w>": 8613,
      "112": 8614,
      "140": 8615,
      "26": 8616,
      "2l</w>": 8617,
      "210": 8618,
      "250": 8619,
      "2gb</w>": 8620,
      "250k</w>": 8621,
      "37": 8622,
      "3m</w>": 8623,
      "3i</w>": 8624,
      "3p</w>": 8625,
      "3ngày</w>": 8626,
      "3GB</w>": 8627,
      "46": 8628,
      "41</w>": 8629,
      "43</w>": 8630,
      "4gb</w>": 8631,
      "59": 8632,
      "5i</w>": 8633,
      "5G</w>": 8634,
      "5mm</w>": 8635,
      "7p</w>": 8636,
      "72</w>": 8637,
      "790</w>": 8638,
      "85": 8639,
      "86</w>": 8640,
      "80k</w>": 8641,
      "85k</w>": 8642,
      "92": 8643,
      "99": 8644,
      "9h": 8645,
      "9u": 8646,
      "9tr": 8647,
      "=.": 8648,
      "?\"</w>": 8649,
      "A2</w>": 8650,
      "Ala": 8651,
      "Alo</w>": 8652,
      "A11</w>": 8653,
      "A12</w>": 8654,
      "Ahihi</w>": 8655,
      "A10s</w>": 8656,
      "Br": 8657,
      "Bổ</w>": 8658,
      "BỘ</w>": 8659,
      "Bay</w>": 8660,
      "Bon</w>": 8661,
      "Bơm</w>": 8662,
      "CK</w>": 8663,
      "Cờ</w>": 8664,
      "Chàng</w>": 8665,
      "Cang</w>": 8666,
      "CTV</w>": 8667,
      "CỰC</w>": 8668,
      "CPU</w>": 8669,
      "DN": 8670,
      "DU": 8671,
      "DI</w>": 8672,
      "DN</w>": 8673,
      "DD</w>": 8674,
      "Day</w>": 8675,
      "Don</w>": 8676,
      "Diên</w>": 8677,
      "Diệt</w>": 8678,
      "Dừa</w>": 8679,
      "Dạng</w>": 8680,
      "Dep</w>": 8681,
      "DAT": 8682,
      "Eu": 8683,
      "Fr": 8684,
      "F1</w>": 8685,
      "FA</w>": 8686,
      "Gu</w>": 8687,
      "GÌ</w>": 8688,
      "Goi</w>": 8689,
      "Gái</w>": 8690,
      "Góc</w>": 8691,
      "GHz</w>": 8692,
      "GỌI</w>": 8693,
      "HU": 8694,
      "Há": 8695,
      "HL</w>": 8696,
      "Hao</w>": 8697,
      "Hán</w>": 8698,
      "Hèn</w>": 8699,
      "HẾT</w>": 8700,
      "HCN</w>": 8701,
      "HÔM</w>": 8702,
      "IP": 8703,
      "ID</w>": 8704,
      "IP</w>": 8705,
      "IOS</w>": 8706,
      "Innisfree</w>": 8707,
      "KY": 8708,
      "Ka": 8709,
      "Kêu</w>": 8710,
      "La": 8711,
      "Ly": 8712,
      "Lí</w>": 8713,
      "Lỗ</w>": 8714,
      "LÝ</w>": 8715,
      "Lắm</w>": 8716,
      "Lee</w>": 8717,
      "Lót</w>": 8718,
      "LƯỢNG</w>": 8719,
      "MM": 8720,
      "MO</w>": 8721,
      "Mé</w>": 8722,
      "Màng</w>": 8723,
      "Mức</w>": 8724,
      "Mốt</w>": 8725,
      "Mat</w>": 8726,
      "Mac</w>": 8727,
      "Mồm</w>": 8728,
      "Mar": 8729,
      "MỌI</w>": 8730,
      "MÁY</w>": 8731,
      "NA": 8732,
      "NQ": 8733,
      "Ns</w>": 8734,
      "Ny</w>": 8735,
      "NO</w>": 8736,
      "NK</w>": 8737,
      "Nể</w>": 8738,
      "Nến</w>": 8739,
      "Nằm</w>": 8740,
      "On": 8741,
      "OC</w>": 8742,
      "Oanh</w>": 8743,
      "Oke": 8744,
      "PR</w>": 8745,
      "Park</w>": 8746,
      "Quy": 8747,
      "Quyên</w>": 8748,
      "Sk": 8749,
      "Sổ</w>": 8750,
      "Sức</w>": 8751,
      "Sợi</w>": 8752,
      "S10</w>": 8753,
      "Sắm</w>": 8754,
      "Smar": 8755,
      "Sing</w>": 8756,
      "Sony</w>": 8757,
      "Ty": 8758,
      "To</w>": 8759,
      "TK</w>": 8760,
      "Tớ</w>": 8761,
      "Tử</w>": 8762,
      "Tương</w>": 8763,
      "Tuyên</w>": 8764,
      "Tịch</w>": 8765,
      "Tieu</w>": 8766,
      "Tĩnh</w>": 8767,
      "Tùy</w>": 8768,
      "TỘI</w>": 8769,
      "TỐT</w>": 8770,
      "Ultra</w>": 8771,
      "Vỹ</w>": 8772,
      "VỊ</w>": 8773,
      "VÔ</w>": 8774,
      "Wow</w>": 8775,
      "Web</w>": 8776,
      "XO</w>": 8777,
      "Xa</w>": 8778,
      "af": 8779,
      "a92</w>": 8780,
      "bl</w>": 8781,
      "bõ</w>": 8782,
      "bở</w>": 8783,
      "bấy</w>": 8784,
      "bồng</w>": 8785,
      "bướng</w>": 8786,
      "bdk": 8787,
      "biếng</w>": 8788,
      "bịp</w>": 8789,
      "bỗng</w>": 8790,
      "bẫy</w>": 8791,
      "boom</w>": 8792,
      "bthg</w>": 8793,
      "bằg</w>": 8794,
      "cgi": 8795,
      "căm</w>": 8796,
      "cta</w>": 8797,
      "cac": 8798,
      "còi</w>": 8799,
      "clone</w>": 8800,
      "cựu</w>": 8801,
      "dử</w>": 8802,
      "dọng</w>": 8803,
      "dồn</w>": 8804,
      "dgh": 8805,
      "dùi</w>": 8806,
      "dốc</w>": 8807,
      "dứt</w>": 8808,
      "dĩa</w>": 8809,
      "dyo": 8810,
      "ew": 8811,
      "ey</w>": 8812,
      "eye": 8813,
      "eieie": 8814,
      "fm</w>": 8815,
      "fu</w>": 8816,
      "fn</w>": 8817,
      "fo</w>": 8818,
      "fl</w>": 8819,
      "fbb": 8820,
      "fyo": 8821,
      "fail</w>": 8822,
      "gp": 8823,
      "gạ</w>": 8824,
      "gù</w>": 8825,
      "gxk": 8826,
      "hô": 8827,
      "hẹp</w>": 8828,
      "ham": 8829,
      "hòn</w>": 8830,
      "hầm</w>": 8831,
      "hdj": 8832,
      "hách</w>": 8833,
      "hsj": 8834,
      "hạch</w>": 8835,
      "hớt</w>": 8836,
      "hót</w>": 8837,
      "hụi</w>": 8838,
      "hxh": 8839,
      "hỡi</w>": 8840,
      "itel</w>": 8841,
      "j7": 8842,
      "jdk": 8843,
      "jfj": 8844,
      "jsh": 8845,
      "jdjdj": 8846,
[...]
