{
  "version": "1.0",
  "truncation": null,
  "padding": null,
  "added_tokens": [
    {
      "id": 0,
      "content": "<pad>",
      "single_word": false,
      "lstrip": false,
      "rstrip": false,
      "normalized": false,
      "special": true
    },
    {
      "id": 1,
      "content": "<s>",
      "single_word": false,
      "lstrip": false,
      "rstrip": false,
      "normalized": false,
      "special": true
    },
    {
      "id": 2,
      "content": "</s>",
      "single_word": false,
      "lstrip": false,
      "rstrip": false,
      "normalized": false,
      "special": true
    },
    {
      "id": 3,
      "content": "<unk>",
      "single_word": false,
      "lstrip": false,
      "rstrip": false,
      "normalized": false,
      "special": true
    }
  ],
  "normalizer": {
    "type": "NFC"
  },
  "pre_tokenizer": {
    "type": "ByteLevel",
    "add_prefix_space": true,
    "trim_offsets": true,
    "use_regex": true
  },
  "post_processor": {
    "type": "TemplateProcessing",
    "single": [
      {
        "SpecialToken": {
          "id": "<s>",
          "type_id": 0
        }
      },
      {
        "Sequence": {
          "id": "A",
          "type_id": 0
        }
      },
      {
        "SpecialToken": {
          "id": "</s>",
          "type_id": 0
        }
      }
    ],
    "pair": [
      {
        "SpecialToken": {
          "id": "<s>",
          "type_id": 0
        }
      },
      {
        "Sequence": {
          "id": "A",
          "type_id": 0
        }
      },
      {
        "SpecialToken": {
          "id": "</s>",
          "type_id": 0
        }
      },
      {
        "SpecialToken": {
          "id": "</s>",
          "type_id": 0
        }
      },
      {
        "Sequence": {
          "id": "B",
          "type_id": 0
        }
      },
      {
        "SpecialToken": {
          "id": "</s>",
          "type_id": 0
        }
      }
    ],
    "special_tokens": {
      "</s>": {
        "id": "</s>",
        "ids": [
          2
        ],
        "tokens": [
          "</s>"
        ]
      },
      "<s>": {
        "id": "<s>",
        "ids": [
          1
        ],
        "tokens": [
          "<s>"
        ]
      }
    }
  },
  "decoder": {
    "type": "ByteLevel",
    "add_prefix_space": true,
    "trim_offsets": true,
    "use_regex": true
  },
  "model": {
    "type": "BPE",
    "dropout": null,
    "unk_token": "<unk>",
    "continuing_subword_prefix": null,
    "end_of_word_suffix": null,
    "fuse_unk": false,
    "byte_fallback": false,
    "ignore_merges": false,
    "vocab": {
      "<pad>": 0,
      "<s>": 1,
      "</s>": 2,
      "<unk>": 3,
      "!": 4,
      "\"": 5,
      "#": 6,
      "$": 7,
      "%": 8,
      "&": 9,
      "'": 10,
      "(": 11,
      ")": 12,
      "*": 13,
      "+": 14,
      ",": 15,
      "-": 16,
      ".": 17,
      "/": 18,
      "0": 19,
      "1": 20,
      "2": 21,
      "3": 22,
      "4": 23,
      "5": 24,
      "6": 25,
      "7": 26,
      "8": 27,
      "9": 28,
      ":": 29,
      ";": 30,
      "<": 31,
      "=": 32,
      ">": 33,
      "?": 34,
      "@": 35,
      "A": 36,
      "B": 37,
      "C": 38,
      "D": 39,
      "E": 40,
      "F": 41,
      "G": 42,
      "H": 43,
      "I": 44,
      "J": 45,
      "K": 46,
      "L": 47,
      "M": 48,
      "N": 49,
      "O": 50,
      "P": 51,
      "Q": 52,
      "R": 53,
      "S": 54,
      "T": 55,
      "U": 56,
      "V": 57,
      "W": 58,
      "X": 59,
      "Y": 60,
      "Z": 61,
      "[": 62,
      "\\": 63,
      "]": 64,
      "^": 65,
      "_": 66,
      "`": 67,
      "a": 68,
      "b": 69,
      "c": 70,
      "d": 71,
      "e": 72,
      "f": 73,
      "g": 74,
      "h": 75,
      "i": 76,
      "j": 77,
      "k": 78,
      "l": 79,
      "m": 80,
      "n": 81,
      "o": 82,
      "p": 83,
      "q": 84,
      "r": 85,
      "s": 86,
      "t": 87,
      "u": 88,
      "v": 89,
      "w": 90,
      "x": 91,
      "y": 92,
      "z": 93,
      "{": 94,
      "|": 95,
      "}": 96,
      "~": 97,
      "¡": 98,
      "¢": 99,
      "£": 100,
      "¤": 101,
      "¥": 102,
      "¦": 103,
      "§": 104,
      "¨": 105,
      "©": 106,
      "ª": 107,
      "«": 108,
      "¬": 109,
      "®": 110,
      "¯": 111,
      "°": 112,
      "±": 113,
      "²": 114,
      "³": 115,
      "´": 116,
      "µ": 117,
      "¶": 118,
      "·": 119,
      "¸": 120,
      "¹": 121,
      "º": 122,
      "»": 123,
      "¼": 124,
      "½": 125,
      "¾": 126,
      "¿": 127,
      "À": 128,
      "Á": 129,
      "Â": 130,
      "Ã": 131,
      "Ä": 132,
      "Å": 133,
      "Æ": 134,
      "Ç": 135,
      "È": 136,
      "É": 137,
      "Ê": 138,
      "Ë": 139,
      "Ì": 140,
      "Í": 141,
      "Î": 142,
      "Ï": 143,
      "Ð": 144,
      "Ñ": 145,
      "Ò": 146,
      "Ó": 147,
      "Ô": 148,
      "Õ": 149,
      "Ö": 150,
      "×": 151,
      "Ø": 152,
      "Ù": 153,
      "Ú": 154,
      "Û": 155,
      "Ü": 156,
      "Ý": 157,
      "Þ": 158,
      "ß": 159,
      "à": 160,
      "á": 161,
      "â": 162,
      "ã": 163,
      "ä": 164,
      "å": 165,
      "æ": 166,
      "ç": 167,
      "è": 168,
      "é": 169,
      "ê": 170,
      "ë": 171,
      "ì": 172,
      "í": 173,
      "î": 174,
      "ï": 175,
      "ð": 176,
      "ñ": 177,
      "ò": 178,
      "ó": 179,
      "ô": 180,
      "õ": 181,
      "ö": 182,
      "÷": 183,
      "ø": 184,
      "ù": 185,
      "ú": 186,
      "û": 187,
      "ü": 188,
      "ý": 189,
      "þ": 190,
      "ÿ": 191,
      "Ā": 192,
      "ā": 193,
      "Ă": 194,
      "ă": 195,
      "Ą": 196,
      "ą": 197,
      "Ć": 198,
      "ć": 199,
      "Ĉ": 200,
      "ĉ": 201,
      "Ċ": 202,
      "ċ": 203,
      "Č": 204,
      "č": 205,
      "Ď": 206,
      "ď": 207,
      "Đ": 208,
      "đ": 209,
      "Ē": 210,
      "ē": 211,
      "Ĕ": 212,
      "ĕ": 213,
      "Ė": 214,
      "ė": 215,
      "Ę": 216,
      "ę": 217,
      "Ě": 218,
      "ě": 219,
      "Ĝ": 220,
      "ĝ": 221,
      "Ğ": 222,
      "ğ": 223,
      "Ġ": 224,
      "ġ": 225,
      "Ģ": 226,
      "ģ": 227,
      "Ĥ": 228,
      "ĥ": 229,
      "Ħ": 230,
      "ħ": 231,
      "Ĩ": 232,
      "ĩ": 233,
      "Ī": 234,
      "ī": 235,
      "Ĭ": 236,
      "ĭ": 237,
      "Į": 238,
      "į": 239,
      "İ": 240,
      "ı": 241,
      "Ĳ": 242,
      "ĳ": 243,
      "Ĵ": 244,
      "ĵ": 245,
      "Ķ": 246,
      "ķ": 247,
      "ĸ": 248,
      "Ĺ": 249,
      "ĺ": 250,
      "Ļ": 251,
      "ļ": 252,
      "Ľ": 253,
      "ľ": 254,
      "Ŀ": 255,
      "ŀ": 256,
      "Ł": 257,
      "ł": 258,
      "Ń": 259,
      "á»": 260,
      "áº": 261,
      "ng": 262,
      "Ġt": 263,
      "Ġc": 264,
      "nh": 265,
      "ĠÄ": 266,
      "Ãł": 267,
      "ĠÄĳ": 268,
      "Ġm": 269,
      "Ġl": 270,
      "hÃ": 271,
      "Æ°": 272,
      "Ġnh": 273,
      "Ã¡": 274,
      "Ġv": 275,
      "Ġh": 276,
      "Ġch": 277,
      "Ġk": 278,
      "Ġn": 279,
      "Ġs": 280,
      "Ġb": 281,
      "Ġg": 282,
      "áº¥": 283,
      "Ã³": 284,
      "Ġth": 285,
      "áº£": 286,
      "Æ°á»": 287,
      "Ġd": 288,
      "áº¡": 289,
      "iá»": 290,
      "Ġr": 291,
      "Ãª": 292,
      "áº¿": 293,
      "Ġp": 294,
      "Ã¬": 295,
      "Ġng": 296,
      "Æ¡": 297,
      "ĠthÃ": 298,
      "áº¥t": 299,
      "Ġtr": 300,
      "ĠÄĳá»": 301,
      "Ãªn": 302,
      "Ġgi": 303,
      "Ã¢": 304,
      "á»ĳ": 305,
      "áº§": 306,
      "áºŃ": 307,
      "..": 308,
      "ao": 309,
      "ĠkhÃ": 310,
      "áº¯": 311,
      "ĠlÃł": 312,
      "ua": 313,
      "Ġx": 314,
      "Ã´": 315,
      "ĠT": 316,
      "Ġvá»": 317,
      "Ġph": 318,
      "Æ°á»£": 319,
      "Ã¬nh": 320,
      "Ġq": 321,
      "ĠC": 322,
      "Ãłng": 323,
      "Ġmá»": 324,
      "Ġchá»": 325,
      "Ãły": 326,
      "ĠcÃ³": 327,
      "Ľi": 328,
      "ĠM": 329,
      "anh": 330,
      "iá»ĩ": 331,
      "ĠmÃł": 332,
      "ĠnhÆ°": 333,
      "ĠthÃ¬": 334,
      "ĠN": 335,
      "´ng": 336,
      "iáº¿": 337,
      "Ġqu": 338,
      "áº¥y": 339,
      "Ġá»": 340,
      "ay": 341,
      "Ġcá»": 342,
      "Ġbá»": 343,
      "Ŀi": 344,
      "áº¹": 345,
      "Ã¹": 346,
      "ĠhÃłng": 347,
      "Ġmua": 348,
      "Ġráº¥t": 349,
      "Ġhá»": 350,
      "Ãłi": 351,
      "in": 352,
      "ĠcÃ¡": 353,
      "))": 354,
      "áº¡i": 355,
      "áº©": 356,
      "Ġkh": 357,
      "Ã²": 358,
      "ĠkhÃ´ng": 359,
      "Æ¡i": 360,
      "ĠhÃ": 361,
      "am": 362,
      "ch": 363,
      "ĠvÃł": 364,
      "uy": 365,
      "Ġtá»": 366,
      "on": 367,
      "©ng": 368,
      "Ã¡y": 369,
      "Ġ1": 370,
      "ĠnÃ³": 371,
      "áº§n": 372,
      "iá»ģ": 373,
      "ĠS": 374,
      "Ãº": 375,
      "á»ĵ": 376,
      "áº·": 377,
      "ĠH": 378,
      "Ġnhanh": 379,
      "Æ°á»£c": 380,
      "ĠmÃ¬nh": 381,
      "áº£n": 382,
      "ĠnÃły": 383,
      "Ġthá»": 384,
      "ĠÄĲ": 385,
      "Ġtá»ĳ": 386,
      "Ã£": 387,
      "ĠÄĳÆ°á»£c": 388,
      "áº¹p": 389,
      "ong": 390,
      "Ã©": 391,
      "Ġdá»": 392,
      "Ġcho": 393,
      "ĠchÃ": 394,
      "áºŃn": 395,
      "Ã¢u": 396,
      "ĠgiÃ¡": 397,
      "Ã¹ng": 398,
      "ĠÄĳáº¹p": 399,
      "Ġo": 400,
      "ho": 401,
      "Ġ:": 402,
      "Ġ,": 403,
      "ai": 404,
      "ĠcÅ": 405,
      "Ġtá»ĳt": 406,
      "áº£i": 407,
      "Ġ.": 408,
      "ÃŃ": 409,
      "em": 410,
      "Æ¡n": 411,
      "ĠcÅ©ng": 412,
      "á»ĵi": 413,
      "Ġko": 414,
      "áº©m": 415,
      "ĠquÃ¡": 416,
      "ĠmÃ¡y": 417,
      "Ġsá»": 418,
      "ĠnÃªn": 419,
      "Ġlá»": 420,
      "Ġpháº©m": 421,
      "ĠnhÆ°ng": 422,
      "Æ°á»Ŀi": 423,
      "hop": 424,
      "Ġcáº£": 425,
      "ung": 426,
      "an": 427,
      "ang": 428,
      "Ġok": 429,
      "Ġbá»ĭ": 430,
      "Äĥ": 431,
      "áº¿t": 432,
      "Ã²n": 433,
      "Ġláº¡i": 434,
      "ĠkhÃ¡": 435,
      "Ġcá»§": 436,
      "Ã¢n": 437,
      "Æ°á»Ľ": 438,
      "iÃªn": 439,
      "¬nh": 440,
      "ĠhÃ¬nh": 441,
      "Ġrá»ĵi": 442,
      "Ġcá»§a": 443,
      "Ġngh": 444,
      "ĠV": 445,
      "ame": 446,
      "iá»ģu": 447,
      "Ġ2": 448,
      "Ġlu": 449,
      "Ġnhá»": 450,
      "Ġná»": 451,
      "ĠG": 452,
      "ĠdÃ¹ng": 453,
      "au": 454,
      "inh": 455,
      "Ġtháº¥y": 456,
      "ĠcÃ¡i": 457,
      "iáº¿t": 458,
      "Ã³i": 459,
      "Ġvá»Ľi": 460,
      "ĠÄĳi": 461,
      "Ġgiao": 462,
      "ĠngÆ°á»Ŀi": 463,
      "Ġláº¯": 464,
      "ĠCh": 465,
      "Ġmá»Ľi": 466,
      "kk": 467,
      "uyá»": 468,
      "áºŃt": 469,
      "ĠÄĳÃ³": 470,
      "ĠL": 471,
      "Ã´n": 472,
      "áº¯c": 473,
      "Ġpin": 474,
      "ĠcÃ²n": 475,
      "Ġshop": 476,
      "Æ°a": 477,
      "Ġcon": 478,
      "Æ°á»£ng": 479,
      "iá»ĩn": 480,
      "ĠgÃ¬": 481,
      "ĠÄĳá»ĥ": 482,
      "Ãło": 483,
      "ĠB": 484,
      "ĠhÆ¡n": 485,
      "Ġgiá»": 486,
      "ĠphÃ": 487,
      "Ġra": 488,
      "Ġláº¯m": 489,
      "áº½": 490,
      "Æ°á»Ľc": 491,
      "Ã´ng": 492,
      "Ġcháº¥t": 493,
      "áº«": 494,
      "áº¡n": 495,
      "áº»": 496,
      "ĠluÃ´n": 497,
      "ĠTh": 498,
      "ĠK": 499,
      "....": 500,
      "iá»ĩt": 501,
      "¯a": 502,
      "ĠlÆ°á»£ng": 503,
      "Ġsáº£n": 504,
      "iá»ģn": 505,
      "Ã¢y": 506,
      "áº·t": 507,
      "Ġá»ķ": 508,
      "Ġpháº£i": 509,
      "ĠlÃłm": 510,
      "iá»ĥ": 511,
      "Ġqua": 512,
      "Ġsao": 513,
      "ĠD": 514,
      "Ġa": 515,
      "Ġvá»ģ": 516,
      "ĠnÃ³i": 517,
      "ĠhÆ¡i": 518,
      "Ġnhiá»ģu": 519,
      "á»į": 520,
      "Ãªu": 521,
      "Ġkhi": 522,
      "ĠÄĳÃ£": 523,
      "Ġá»ķn": 524,
      "Ġ:))": 525,
      "ĠP": 526,
      "áº§m": 527,
      "ĠngÃły": 528,
      "uá»ĳ": 529,
      "Ġchá»ī": 530,
      "ĠnÃło": 531,
      "ĠGi": 532,
      "ĠgÃ³i": 533,
      "ĠÄĳÃ¡": 534,
      "Ġy": 535,
      "áº¡c": 536,
      "¥ng": 537,
      "Ġtrong": 538,
      "ĠnháºŃn": 539,
      "Ġhay": 540,
      "áº§u": 541,
      "ĠÄĳc": 542,
      "Ãłn": 543,
      "Ġbiáº¿t": 544,
      "áº«n": 545,
      "Ġ3": 546,
      "á»Ļ": 547,
      "ĠNg": 548,
      "Ã´i": 549,
      "Æ°Æ¡": 550,
      "ĠchÆ¡i": 551,
      "Ã½": 552,
      "ĠchÆ°a": 553,
      "ii": 554,
      "...": 555,
      "Ġlo": 556,
      "ĥn": 557,
      "Æ°Æ¡ng": 558,
      "áºŃy": 559,
      "ĠÄĳá»Ļ": 560,
      "Ġhá»Ļ": 561,
      "Ġem": 562,
      "áº¯t": 563,
      "Ġdá»¥ng": 564,
      "Ġná»¯a": 565,
      "Ġgame": 566,
      "en": 567,
      "Ġsáº½": 568,
      "Ĺi": 569,
      "pp": 570,
      "±ng": 571,
      "Æ°ng": 572,
      "±c": 573,
      "ĠbÃ¡": 574,
      "Ġho": 575,
      "áº©n": 576,
      "Ġbáº¡n": 577,
      "Ġtiá»ģn": 578,
      "Ġnha": 579,
      "eo": 580,
      "¥c": 581,
      "Ãºc": 582,
      "ĠA": 583,
      "ĠcÃ¡c": 584,
      "Ãºng": 585,
      "Ġáº¡": 586,
      "Ġá»Ł": 587,
      "Ġto": 588,
      "ĠTr": 589,
      "ĠNh": 590,
      "Æ°á»£t": 591,
      "Ã²ng": 592,
      "Ġtháº¿": 593,
      "Ġcáº£m": 594,
      "´i": 595,
      "tt": 596,
      "Æ°á»Ŀ": 597,
      "áº£nh": 598,
      "ĠMÃ¡y": 599,
      "áº¯n": 600,
      "Ġ5": 601,
      "Ġláº§n": 602,
      "Æ°á»Ŀng": 603,
      "áº±ng": 604,
      "Ġháº¿t": 605,
      "áº§y": 606,
      "ĠváºŃy": 607,
      "Ġváº«n": 608,
      "uyá»ĩ": 609,
      "ĠlÃªn": 610,
      "Ġsau": 611,
      "oi": 612,
      "Ġanh": 613,
      "©c": 614,
      "ĠtÃ¬nh": 615,
      "Ġtiáº¿": 616,
      "Ġcháº¯c": 617,
      "Ńch": 618,
      "áº¿n": 619,
      "Ã¨": 620,
      "ĠthÃ´i": 621,
      "Äĥng": 622,
      "hh": 623,
      "nn": 624,
      "ĠÄĳÃ³ng": 625,
      "Ãłnh": 626,
      "«a": 627,
      "ĠvÃło": 628,
      "ĠmÆ°á»£t": 629,
      "Ġáº£nh": 630,
      "Ġtu": 631,
      "Ġmáº¥y": 632,
      "00": 633,
      "ĠSáº£n": 634,
      "á»ĭ": 635,
      "ĠÄĥn": 636,
      "áº£o": 637,
      "Ġsá»Ń": 638,
      "ĠlÃ¢u": 639,
      "aa": 640,
      "Ġtay": 641,
      "ĠthÃŃch": 642,
      "ĠnhÃł": 643,
      "¢n": 644,
      "ĠÄĳÃºng": 645,
      "ĠtÃŃ": 646,
      "ik": 647,
      "ra": 648,
      "¥p": 649,
      "ķi": 650,
      "ĠnhÃ©": 651,
      "hi": 652,
      "Ġnghe": 653,
      "ĠMÃ¬nh": 654,
      "Ġtá»«": 655,
      "áº¡y": 656,
      "ĠxÃłi": 657,
      "ĠGiao": 658,
      "Ä©": 659,
      "Ġf": 660,
      "Ġtrá»": 661,
      "Ġtáº§m": 662,
      "ĠlÃºc": 663,
      "ĠÄĳáº§u": 664,
      "ĠÄĳÃ¢u": 665,
      "įc": 666,
      "Ġngon": 667,
      "Ġchá»ĭ": 668,
      "Ļt": 669,
      "Ġsáº¡c": 670,
      "al": 671,
      "ĠthÃ¡": 672,
      "ĠQ": 673,
      "Ġchung": 674,
      "áº¥u": 675,
      "Ġchá»©": 676,
      "§ng": 677,
      "Ġxem": 678,
      "Ġ4": 679,
      "er": 680,
      "Ġmá»į": 681,
      "áº·c": 682,
      "Ġmá»įi": 683,
      "ĠlÃ²ng": 684,
      "ĠkhÃ¡c": 685,
      "ĠÄĳáº¿n": 686,
      "ĠchÃº": 687,
      "Ġtao": 688,
      "Ã¡ng": 689,
      "Ã¢m": 690,
      "Ġtho": 691,
      "amera": 692,
      "ĠvÃ¬": 693,
      "áº¿u": 694,
      "Ġchá»¥p": 695,
      "!!": 696,
      "Ã³ng": 697,
      "Ġmá»Ļt": 698,
      "ĠviÃªn": 699,
      "ui": 700,
      "Ġai": 701,
      "£p": 702,
      "áº£m": 703,
      "Ġdá»ħ": 704,
      "Ġnhiá»ĩt": 705,
      "Ġsá»ĳ": 706,
      "ĠÃ¡": 707,
      "iá»ĥu": 708,
      "Ġphá»": 709,
      "ıi": 710,
      "ĠÄĳá»ĵ": 711,
      "Ġsi": 712,
      "Ġkhá»": 713,
      "kkkk": 714,
      "iá»ĩu": 715,
      "áº¥n": 716,
      "ĠtrÃ¢u": 717,
      "ĠnhÃ¬": 718,
      "ee": 719,
      "Ġhá»£p": 720,
      "Ġvá»«a": 721,
      "ĠtháºŃn": 722,
      "Ġgiá»Ŀ": 723,
      "ĠhÃłi": 724,
      "ĠtháºŃt": 725,
      "ĠÃ½": 726,
      "Ġlá»Ĺi": 727,
      "ĠÄĳá»ģ": 728,
      "Ġcáº©n": 729,
      "ĠX": 730,
      "ĠR": 731,
      "Ġráº»": 732,
      "ĠnÆ°á»Ľc": 733,
      "áº·ng": 734,
      "ĠMá»": 735,
      "ĠmÃłu": 736,
      "jd": 737,
      "Ġá»§ng": 738,
      "¯ng": 739,
      "Ã¡i": 740,
      "Äĥm": 741,
      "áºŃp": 742,
      "uyá»ĩt": 743,
      "ĠÆ¡i": 744,
      "ĠHÃłng": 745,
      "Ġ=": 746,
      "ĠmÃłn": 747,
      "ĠthÃ¡ng": 748,
      "Ġthá»©": 749,
      "ĠnhÃ¬n": 750,
      "Ã©o": 751,
      "id": 752,
      "á»įi": 753,
      "uyÃªn": 754,
      "Ġthá»ĥ": 755,
      "Ġchu": 756,
      "ĠtrÆ°á»Ľc": 757,
      "ĠÄĳáº·t": 758,
      "Ġmáº·t": 759,
      "Ġká»": 760,
      "ĠÄĳá»§": 761,
      "áº¡nh": 762,
      "im": 763,
      "Ã¡c": 764,
      "ªm": 765,
      "ĠnhÃ¢n": 766,
      "Ġngo": 767,
      "ĠÃ´ng": 768,
      "ĠÄĳÃ¢y": 769,
      "ie": 770,
      "iki": 771,
      "ħn": 772,
      "Ġso": 773,
      "Äĥn": 774,
      "uá»ĳn": 775,
      "Ġw": 776,
      "iáº¿n": 777,
      "ĠtÃ´i": 778,
      "Ġbáº£o": 779,
      "ĠO": 780,
      "ĠhÃ´": 781,
      "Ġnhá»¯ng": 782,
      "ĠthÃªm": 783,
      "Ġcháº¯n": 784,
      "Ġ=))": 785,
      "??": 786,
      "áº¡t": 787,
      "á»ĵn": 788,
      "Ġnháº¥t": 789,
      "Ġtuyá»ĩt": 790,
      "Ġdo": 791,
      "Ã£i": 792,
      "áº£ng": 793,
      "áº¡m": 794,
      "Ġta": 795,
      "Ġchi": 796,
      "ĠÄĳÃ¡ng": 797,
      "Ńi": 798,
      "Ãªm": 799,
      "áº¥p": 800,
      "Ġnhá»ı": 801,
      "įng": 802,
      "ĠShop": 803,
      "Ġcá»©": 804,
      "Ġsá»±": 805,
      "ĠÆ¡n": 806,
      "Ġnay": 807,
      "Ġkho": 808,
      "ģn": 809,
      "Ġmáº¹": 810,
      "Ġcamera": 811,
      "ĠchÃŃ": 812,
      "ĠÄĳá»ĭ": 813,
      "Ġe": 814,
      "Æ°á»Ł": 815,
      "ĠÄĳang": 816,
      "Ġcao": 817,
      "Ġla": 818,
      "gg": 819,
      "ĠtrÃªn": 820,
      "iá»ĥm": 821,
      "Ġmuá»ĳn": 822,
      "Ġxu": 823,
      "Ġ-": 824,
      "ĠtÃŃnh": 825,
      "Ġcá»±c": 826,
      "Ġá»©ng": 827,
      "js": 828,
      "«ng": 829,
      "Æ°á»Łng": 830,
      "Ġbao": 831,
      "Ġmang": 832,
      "ĠhÃ´m": 833,
      "Ġdc": 834,
      "Ġthá»Ŀi": 835,
      "ĠPh": 836,
      "uu": 837,
      "Ġvá»¥": 838,
      "ĠyÃªu": 839,
      "Ġphá»¥c": 840,
      "ĠÄĳÃ¡nh": 841,
      "įn": 842,
      "oo": 843,
      "Ġvá»Ŀi": 844,
      "ĠÄĳá»ģu": 845,
      "ĠmÃły": 846,
      "Ãµ": 847,
      "Ġtá»±": 848,
      "ĠnÃ³ng": 849,
      "ĠsÃ¡ng": 850,
      "ĠÄĳiá»ĩn": 851,
      "Æ¡m": 852,
      "Ã¹i": 853,
      "Ġvá»įng": 854,
      "ks": 855,
      "ĠthÆ°Æ¡ng": 856,
      "Ġcháº¡y": 857,
      "Ġmáº¥t": 858,
      "te": 859,
      "ĠbÃªn": 860,
      "ĠQu": 861,
      "ĠMua": 862,
      "Ġ(": 863,
      "áº¡o": 864,
      "Ġhá»ĵ": 865,
      "á»ĳi": 866,
      "mm": 867,
      "ĠtÆ°": 868,
      "Ġváº¥n": 869,
      "tr": 870,
      "Äĳ": 871,
      "ĳng": 872,
      "ĠÃł": 873,
      "uyá»ħn": 874,
      "Ã¡t": 875,
      "ĭch": 876,
      "ĠÄĳá»Ļng": 877,
      "ĠngoÃłi": 878,
      "ĠkhÃ³": 879,
      "Ã³c": 880,
      "ĠnÄĥm": 881,
      "Ġtiáº¿p": 882,
      "Ġcáº§n": 883,
      "Ġi": 884,
      "ĠKhÃ": 885,
      "á»ī": 886,
      "........": 887,
      "Ġngu": 888,
      "ĠhÃ£": 889,
      "dd": 890,
      "tttt": 891,
      "ĠcÃ´ng": 892,
      "Ã©t": 893,
      "ĠchÃ³": 894,
      "ĠsÃłi": 895,
      "áº¡ng": 896,
      "Ġ!": 897,
      "ĠliÃªn": 898,
      "áº¥m": 899,
      "nd": 900,
      "ĠÄĳá»ķi": 901,
      "ac": 902,
      "Ġthoáº¡i": 903,
      "ĠPin": 904,
      "Å©": 905,
      "Ġgian": 906,
      "Ġtháº±ng": 907,
      "ĠsiÃªu": 908,
      "ĠNguyá»ħn": 909,
      "ĠMá»Ľi": 910,
      "ĠphÃ¡": 911,
      "Ġtin": 912,
      "Ġthu": 913,
      "ĠchÃŃnh": 914,
      "Ġngá»": 915,
      "Ġhá»įc": 916,
      "Ġxong": 917,
      "iá»ĩm": 918,
      "ĠCháº¥t": 919,
      "ĠbÃ¡n": 920,
      "ĠdÃ¢n": 921,
      "ÃŃt": 922,
      "Ġgá»įi": 923,
      "ah": 924,
      "Ġtá»Ľi": 925,
      "Ãºi": 926,
      "ĠnghÄ©": 927,
      "fi": 928,
      "Ġ6": 929,
      "ĠcÃ´": 930,
      "Ġbu": 931,
      "Ġbáº±ng": 932,
      "ĠÄĳá»ĭnh": 933,
      "ĠÆ°ng": 934,
      "£i": 935,
      "ĠvÃ´": 936,
      "ĠchÃ¡": 937,
      "Ġ10": 938,
      "ĠcÃ¡ch": 939,
      "ĠbÃ¬nh": 940,
      "ĠCÃ³": 941,
      "áºŃm": 942,
      "iiii": 943,
      "iáº¿u": 944,
      "Ġ7": 945,
      "Ġtiáº¿ng": 946,
      "Ńa": 947,
      "Ġba": 948,
      "á»ĳng": 949,
      "ĠÄĲá»": 950,
      "Ġlá»Ľ": 951,
      "ĠÃ": 952,
      "ĠÄĳáº¥y": 953,
      "ĠNhÃ": 954,
      "ĠtÃ¢m": 955,
      "Ġgiá»ĳng": 956,
      "Ġtáº·ng": 957,
      "Ġbáº¯t": 958,
      "Ġthá»Ń": 959,
      "Ġco": 960,
      "âĢ": 961,
      "ĠthÆ°á»Ŀng": 962,
      "ĠdÃ¹": 963,
      "Ġxinh": 964,
      "ĠNÃ³i": 965,
      "Ġj": 966,
      "Ġtá»¥": 967,
      "Ġloáº¡i": 968,
      "Ġtháº§y": 969,
      "Ġ:)))": 970,
      "ĠÄĳiá»ģu": 971,
      "Ġvs": 972,
      "ĠÄĳá»ĵng": 973,
      "ĠcÃ¹ng": 974,
      "ĠÄĳáº§y": 975,
      "ĠhÃłnh": 976,
      "Ã¡n": 977,
      "ĠbÃ©": 978,
      "bd": 979,
      "uyá»ĩn": 980,
      "be": 981,
      "áº³": 982,
      "Ġda": 983,
      "Ġz": 984,
      "uá»ĳng": 985,
      "Ġtá»ĩ": 986,
      "Ġtáº¡i": 987,
      "áº¯ng": 988,
      "Ġtheo": 989,
      "Ġnháº¹": 990,
      "Ġláº¥y": 991,
      "Ġquan": 992,
      "ĠthÃłnh": 993,
      "pppp": 994,
      "Ġmáº·c": 995,
      "ĠnÄĥng": 996,
      "Ġvui": 997,
      "ĠChÃ": 998,
      "Ġnáº¿u": 999,
      "ĠghÃ": 1000,
      "Ġ...": 1001,
      "Ļi": 1002,
      "ĠvÃ¢n": 1003,
      "aaaa": 1004,
      "ĠlÃ½": 1005,
      "ĠnhiÃªn": 1006,
      "Ġma": 1007,
      "Ġcu": 1008,
      "Ġhá»ıi": 1009,
      "á»ĳc": 1010,
      "ok": 1011,
      "Ġxe": 1012,
      "Ġtuáº§n": 1013,
      "he": 1014,
      "ĠNhÆ°ng": 1015,
      "Ã©m": 1016,
      "ĠdÃłi": 1017,
      "nnnn": 1018,
      "ĠÄĳÃ©o": 1019,
      "á»Ļt": 1020,
      "ĠVá»": 1021,
      "ss": 1022,
      "Ġcháº¿t": 1023,
      "Ġbáº£n": 1024,
      "Ġsp": 1025,
      "ĠAnh": 1026,
      "ıng": 1027,
      "Ġrá»": 1028,
      "ideo": 1029,
      "ia": 1030,
      "ĠTiki": 1031,
      "((": 1032,
      "ĠtoÃłn": 1033,
      "ns": 1034,
      "ºc": 1035,
      "Ġpháº§n": 1036,
      "Ġ8": 1037,
      "Ġgáº§n": 1038,
      "ĠÄĲÃ³ng": 1039,
      "ar": 1040,
      "Ġtáº¡m": 1041,
      "Ġsá»£": 1042,
      "ĠRáº¥t": 1043,
      "Ã¡ch": 1044,
      "ĠE": 1045,
      "ĠcháºŃm": 1046,
      "Ġlag": 1047,
      "Ġxin": 1048,
      "Ġchá»Ńi": 1049,
      "ĠkÃ¬": 1050,
      "Ġmá»Ł": 1051,
      "Ġmá»Ĺi": 1052,
      "Ġan": 1053,
      "ĠÄĳiá»ĥm": 1054,
      "Ġmáº¡nh": 1055,
      "Ġchá»ĭu": 1056,
      "Ġhiá»ĩn": 1057,
      "ĠhÃ£ng": 1058,
      "Ãłu": 1059,
      "Ġhá»Ļp": 1060,
      "ĠkÃ©m": 1061,
      "Ġ?": 1062,
      "Ġhiá»ĥu": 1063,
      "th": 1064,
      "Ġsinh": 1065,
      "á»Ļc": 1066,
      "ĠCáº£m": 1067,
      "Ġbá»ı": 1068,
      "Ġdá»ĭch": 1069,
      "ifi": 1070,
      "Ġkáº¿": 1071,
      "Ãºt": 1072,
      "Æ°á»Ľng": 1073,
      "jj": 1074,
      "ĠthÆ¡m": 1075,
      "Ġnhau": 1076,
      "Ġper": 1077,
      "Ġáº¥y": 1078,
      "ĠchÃºng": 1079,
      "hd": 1080,
      "ĠÄĲÃ£": 1081,
      "Ġmong": 1082,
      "áº¡ch": 1083,
      "Ġkiá»ĥu": 1084,
      "kkkkkkkk": 1085,
      "uyá»ĥn": 1086,
      "ou": 1087,
      "Ġvideo": 1088,
      "Ġbá»Ļ": 1089,
      "ĠcÆ°á»Ŀi": 1090,
      "Ġgá»": 1091,
      "Ġ9": 1092,
      "iá»ĩc": 1093,
      "á»ĳt": 1094,
      "áº¯m": 1095,
      "hhhh": 1096,
      "Ġchuáº©n": 1097,
      "Ġtháº¥t": 1098,
      "ĠThÃ": 1099,
      "Ġloa": 1100,
      "ll": 1101,
      "Ġsáº¯c": 1102,
      "ĠViá»ĩt": 1103,
      "ĠtÆ°á»Łng": 1104,
      "ĠnÃ¨": 1105,
      "Ġtá»¥c": 1106,
      "ĠchÃª": 1107,
      "ĠvÃ£i": 1108,
      "Ġhiá»ĩu": 1109,
      "Ġchuyá»ĩn": 1110,
      "Ġngay": 1111,
      "ĠbÃ¡o": 1112,
      "Ġsá»ĳng": 1113,
      "ĠÄĳÆ°á»Ŀng": 1114,
      "kd": 1115,
      "ĠrÃµ": 1116,
      "ĠHo": 1117,
      "Ġ20": 1118,
      "Ġphim": 1119,
      "ĠÃªm": 1120,
      "Ġsang": 1121,
      "ĠGiÃ¡": 1122,
      "us": 1123,
      "ĠÃŃt": 1124,
      "Ġkáº¿t": 1125,
      "ĠF": 1126,
      "Ġnháº¡y": 1127,
      "ĠmÃ¹i": 1128,
      "Ġviá»ĩc": 1129,
      "Ġshi": 1130,
      "iá»ĩp": 1131,
      "ĠtÃºi": 1132,
      "ĠkÃŃ": 1133,
      "Ġmay": 1134,
      "Ġthiáº¿t": 1135,
      "Ġtiki": 1136,
      "Ġyáº¿u": 1137,
      "ĠthÃ¢n": 1138,
      "ĠbÃ¡c": 1139,
      "Ġmáº¯t": 1140,
      "Ġtá»ĳi": 1141,
      "Ġnhá»Ľ": 1142,
      "ģm": 1143,
      "Ġthanh": 1144,
      "Ġgiáº£m": 1145,
      "NG": 1146,
      "ĠÄĳÆ¡": 1147,
      "ĠnÃ©t": 1148,
      "Ġre": 1149,
      "Ġchuyá»ĥn": 1150,
      "Ġdi": 1151,
      "ĠOK": 1152,
      "ĠcÆ¡": 1153,
      "Ġ\"": 1154,
      "Ġtiá»ĩn": 1155,
      "Ġgia": 1156,
      "Ġquy": 1157,
      "Ġhá»į": 1158,
      "ĠphÃ¡t": 1159,
      "bs": 1160,
      "ro": 1161,
      "©a": 1162,
      "Ġmáº¡ng": 1163,
      "ĠgiáºŃt": 1164,
      "á»įn": 1165,
      "et": 1166,
      "Ġmá»ģm": 1167,
      "at": 1168,
      "ĠKhÃ´ng": 1169,
      "Ġvl": 1170,
      "Ġmn": 1171,
      "Ġdu": 1172,
      "Ġquay": 1173,
      "ĠnháºŃt": 1174,
      "Ġquáº£": 1175,
      "Æ°á»Ľt": 1176,
      "Ġtá»¥t": 1177,
      "Ġno": 1178,
      "ĠÄĳá»«ng": 1179,
      "ĠTráº§n": 1180,
      "Ġwifi": 1181,
      "ĠNam": 1182,
      "áº«u": 1183,
      "ĠphÃ¹": 1184,
      "ĠbÃł": 1185,
      "Ġnhá»ī": 1186,
      "Ġlá»Ľn": 1187,
      "á»ķi": 1188,
      "ĠnguyÃªn": 1189,
      "ĠTá»": 1190,
      "Ġhi": 1191,
      "Ġsai": 1192,
      "Ġváº»": 1193,
      "Ġtráº£": 1194,
      "ĠY": 1195,
      "Ġcáº¥u": 1196,
      "ĠthÃ´ng": 1197,
      "Ġxá»": 1198,
      "ĠvÃłi": 1199,
      "±a": 1200,
      "st": 1201,
      "Ġminh": 1202,
      "Ġnghiá»ĩm": 1203,
      "ĠkÃ¨": 1204,
      "Ġbá»įn": 1205,
      "ĠphÃŃ": 1206,
      "ĠCÃ²n": 1207,
      "Ġgiá»Ľi": 1208,
      "á»įng": 1209,
      "Ġ:))))": 1210,
      "Ġthá»ĭ": 1211,
      "Ġtrá»Ŀi": 1212,
      "ĠchÃ¡n": 1213,
      "iv": 1214,
      "Ġtai": 1215,
      "áº³ng": 1216,
      "20": 1217,
      "iÃªu": 1218,
      "one": 1219,
      "Ġláº¯p": 1220,
      "Ġbuá»ĵn": 1221,
      "Ġcáº§u": 1222,
      "Ġtrung": 1223,
      "ĠchÃºt": 1224,
      "Ġkhá»ıi": 1225,
      "jf": 1226,
      "ĠbÃłn": 1227,
      "âĢ¦": 1228,
      "Ã¡nh": 1229,
      "ĠbÃłi": 1230,
      "Ġcoi": 1231,
      "ĠCá»": 1232,
      "ĠkÃ¨m": 1233,
      "Ġnháº¡c": 1234,
      "Ġthá»©c": 1235,
      "ĠchÃ¢n": 1236,
      "le": 1237,
      "áº·p": 1238,
      "bb": 1239,
      "Ãºp": 1240,
      "ĠghÃª": 1241,
      "Ġváº£i": 1242,
      "Ġcáº§m": 1243,
      "Ġbá»ĳ": 1244,
      "ck": 1245,
      "ĠquÃ¢n": 1246,
      "áº·n": 1247,
      "ĠChá»": 1248,
      "ĠHÃ¬nh": 1249,
      "Ġcháº¿": 1250,
      "Ġcháº£": 1251,
      "ale": 1252,
      "á»įc": 1253,
      "ĠÄĳá»įc": 1254,
      "ĠNhÃ¢n": 1255,
      "Ġ:)": 1256,
      "gi": 1257,
      "ĠÄĳt": 1258,
      "Ġcam": 1259,
      "Ġtrá»£": 1260,
      "iÃª": 1261,
      "Ġtuy": 1262,
      "ĠtiÃªn": 1263,
      "iá»ĥn": 1264,
      "Ġchá»įn": 1265,
      "Ã²i": 1266,
      "Ġ100": 1267,
      "Ġthá»±c": 1268,
      "Æ°u": 1269,
      "Ġhá»ĵi": 1270,
      "Ġthiá»ĩn": 1271,
      "ĠI": 1272,
      "Ġnhu": 1273,
      "Ġoke": 1274,
      "Ġxuá»ĳng": 1275,
      "áº¯p": 1276,
      "ĠsÃ³ng": 1277,
      "ºt": 1278,
      "Ġchá»Ĺ": 1279,
      "zz": 1280,
      "Ġxá»ĭ": 1281,
      "Ġthi": 1282,
      "ĠÄĳá»ĳ": 1283,
      "Ġtá»Ļi": 1284,
      "Ġkinh": 1285,
      "ĠcÃłng": 1286,
      "Ġad": 1287,
      "--": 1288,
      "Ã¡m": 1289,
      "Ġgiáº£i": 1290,
      "Ġxuáº¥t": 1291,
      "Ġmáº«u": 1292,
      "Ġnáº·ng": 1293,
      "ams": 1294,
      "ak": 1295,
      "ĠÃ¢m": 1296,
      "Ġbá»ģn": 1297,
      "eb": 1298,
      "ĠmÃ£": 1299,
      "Ġsale": 1300,
      "Ã³p": 1301,
      "Ġ..": 1302,
      "Ġkia": 1303,
      "ĠÄĳá»£i": 1304,
      "ĠcÃ¡o": 1305,
      "oc": 1306,
      "ĠdÃ²ng": 1307,
      "Ġchá»ĳng": 1308,
      "Ġdung": 1309,
      "000": 1310,
      "Ġká»¹": 1311,
      "okok": 1312,
      "Ġtáº¯t": 1313,
      "Ġxa": 1314,
      "ĠMinh": 1315,
      "á»ĵng": 1316,
      "Ġnam": 1317,
      "uyáº¿t": 1318,
      "yy": 1319,
      "Ġu": 1320,
      "cc": 1321,
      "Ġse": 1322,
      "ĠÄĳá»Ŀi": 1323,
      "Ġtrá»įng": 1324,
      "eeee": 1325,
      "amsung": 1326,
      "ĠcÃ¢u": 1327,
      "ĠmÃ¡": 1328,
      "ĠkhÃ¡ch": 1329,
      "ĠThá»": 1330,
      "ph": 1331,
      "Ġvá»ĭ": 1332,
      "ĠCon": 1333,
      "Ġchá»§": 1334,
      "Ġtáº£": 1335,
      "ĠtÃ¡c": 1336,
      "Ġgá»įn": 1337,
      "ĠCho": 1338,
      "Ġ:((": 1339,
      "ĠDÃ¹ng": 1340,
      "Ġde": 1341,
      "Ġtrai": 1342,
      "ĠdÆ°á»": 1343,
      "ĠKh": 1344,
      "or": 1345,
      "ze": 1346,
      "ĠmÃ¡t": 1347,
      "Ġcá»©ng": 1348,
      "Ġcm": 1349,
      "hs": 1350,
      "ĠxÃŃ": 1351,
      "¬n": 1352,
      "Ġtrang": 1353,
      "ĠCamera": 1354,
      "ĩnh": 1355,
      "Ġca": 1356,
      "ĠdÃły": 1357,
      "ĠdÃ¢y": 1358,
      "Ġquáº§n": 1359,
      "me": 1360,
      "nx": 1361,
      "ĠÄĳen": 1362,
      "Ľt": 1363,
      "Ġcáº¥p": 1364,
      "ĠSáº½": 1365,
      "jdjd": 1366,
      "Ġtáº¥t": 1367,
      "ĠvÃłng": 1368,
      "Ġgá»Ńi": 1369,
      "áºŃu": 1370,
      "Ġship": 1371,
      "Ġhai": 1372,
      "ĠVN": 1373,
      "ĠEm": 1374,
      "Ġbiáº¿n": 1375,
      "ĠgiÃ¡c": 1376,
      "Ġlá»Ŀi": 1377,
      "©t": 1378,
      "ĠÄĳÃªm": 1379,
      "ĠÄĳá»©a": 1380,
      "Ã´m": 1381,
      "gggg": 1382,
      "tttttttt": 1383,
      "ĠÄĳÆ¡n": 1384,
      "Ġkiáº¿n": 1385,
      "âĢ¦âĢ¦": 1386,
      "Ġ??": 1387,
      "á»Ļng": 1388,
      "tu": 1389,
      "ĠPhÃ": 1390,
      "ĠyÃªn": 1391,
      "Ġthay": 1392,
      "ing": 1393,
      "ĠÄĳo": 1394,
      "ĠlÆ°á»Ľt": 1395,
      "iÃªng": 1396,
      "ĠcáºŃp": 1397,
      "ĠkÄ©": 1398,
      "Ġin": 1399,
      "ĠgÃ¡i": 1400,
      "ĠgiÃºp": 1401,
      "Ġtui": 1402,
      "Ġmá»ıng": 1403,
      "iáº¿c": 1404,
      "Ġngá»§": 1405,
      "Ġviá»ĩt": 1406,
      "Ġmá»©c": 1407,
      "))))": 1408,
      "ĠQuÃ¡": 1409,
      "Ġ=)))": 1410,
      "aha": 1411,
      "uá»ĳi": 1412,
      "pin": 1413,
      "ĭn": 1414,
      "Ġnghiá»ĩp": 1415,
      "Ġxá»ĭn": 1416,
      "Ġná»ķi": 1417,
      "ĠbÃ¢y": 1418,
      "ĠChá»ī": 1419,
      "uuuu": 1420,
      "ĠdÃ¡n": 1421,
      "Ġtg": 1422,
      "Ġhá»Ĺ": 1423,
      "Ġthiáº¿u": 1424,
      "Ġchá»Ŀ": 1425,
      "Ġquáº£ng": 1426,
      "Ġgáº·p": 1427,
      "Ġkhoáº£ng": 1428,
      "Ãłm": 1429,
      "Ġxáº¥u": 1430,
      "ĠMá»įi": 1431,
      "ic": 1432,
      "ĠphÃ¢n": 1433,
      "Ġbáº¥t": 1434,
      "áº©u": 1435,
      "!!!": 1436,
      "Ġká»³": 1437,
      "ĠOk": 1438,
      "Ġthua": 1439,
      "Ġdáº«n": 1440,
      "Ġsize": 1441,
      "Ġxanh": 1442,
      "ĠxÃŃu": 1443,
      "ÃŃnh": 1444,
      "īnh": 1445,
      "Ġbiá»ĩt": 1446,
      "Ġbá»ĩnh": 1447,
      "ĠmÃ´": 1448,
      "uá»ĳc": 1449,
      "Łi": 1450,
      "ĠbáºŃt": 1451,
      "ĠNghe": 1452,
      "Ġsu": 1453,
      "Ġháº£": 1454,
      "ĠNÃªn": 1455,
      "ĠLo": 1456,
      "Ġtráº£i": 1457,
      "Ġhoáº·c": 1458,
      "ĠAi": 1459,
      "Ľm": 1460,
      "Ġte": 1461,
      "ĠtÆ°á»£ng": 1462,
      "ag": 1463,
      "Ġliá»ĩu": 1464,
      "Ã¨o": 1465,
      "ĠÄĳá»ĳi": 1466,
      "Ġlun": 1467,
      "mi": 1468,
      "ĠmÃ£i": 1469,
      "Ã¬m": 1470,
      "Ġkhu": 1471,
      "ĠNhÃ¬n": 1472,
      "uyá»ģn": 1473,
      "á»ĩ": 1474,
      "ĠmÃ¡i": 1475,
      "ĠChá»ĭ": 1476,
      "ĠÄĳáº¥t": 1477,
      "ĠkÃªu": 1478,
      "Ġlá»£i": 1479,
      "ĠÄĳÃ´i": 1480,
      "ĠTÃ´i": 1481,
      "Ġquá»ĳc": 1482,
      "Ã¹a": 1483,
      "ĠcÅ©": 1484,
      "ww": 1485,
      "is": 1486,
      "it": 1487,
      "Ã©p": 1488,
      "Ġ....": 1489,
      "ķng": 1490,
      "ĠtáºŃn": 1491,
      "Ġsáº¡ch": 1492,
      "Ġhoa": 1493,
      "Ġcuá»Ļc": 1494,
      "ĠÄĳau": 1495,
      "ĠlÃŃ": 1496,
      "Ġban": 1497,
      "ĠKhÃ¡": 1498,
      "²ng": 1499,
      "Ġtáº¿": 1500,
      "Ġlá»Ľp": 1501,
      "Ġtiáº¿t": 1502,
      "Ġphá»¥": 1503,
      "áº±": 1504,
      "ĠtÃªn": 1505,
      "ĠSau": 1506,
      "10": 1507,
      "Ġgiáº¥y": 1508,
      "la": 1509,
      "Ġ0": 1510,
      "ĠTH": 1511,
      "ıe": 1512,
      "ĠváºŃn": 1513,
      "ĠChi": 1514,
      "Ġtriá»ĩu": 1515,
      "ĠÃ¡o": 1516,
      "Ġnguá»ĵn": 1517,
      "pppppppp": 1518,
      "vv": 1519,
      "Ġcá»ĳ": 1520,
      "ĠChÆ¡i": 1521,
      "ĠhoÃłn": 1522,
      "kg": 1523,
      "ĠU": 1524,
      "Ġuá»ĳng": 1525,
      "ĠtÃ¬m": 1526,
      "Ġngá»ĵi": 1527,
      "ĠTG": 1528,
      "ppo": 1529,
      "ĠÃĶ": 1530,
      "ĠÌ": 1531,
      "ĠÄĳá»©ng": 1532,
      "iáº¿ng": 1533,
      "ĠSá»": 1534,
      "alo": 1535,
      "Ġkhá»ıe": 1536,
      "ĠCÃ¡i": 1537,
      "ÃĢ": 1538,
      "ĠtrÆ°á»Ŀng": 1539,
      "Ġchá»©c": 1540,
      "iáº¿m": 1541,
      "ĠKo": 1542,
      "Ġ+": 1543,
      "Ã¡o": 1544,
      "Ġtráº¯ng": 1545,
      "ĠphÃ²ng": 1546,
      "¡ng": 1547,
      "Ġtrá»«": 1548,
      "jx": 1549,
      "ub": 1550,
      "¹ng": 1551,
      "ĠlÆ°ng": 1552,
      "ĠSp": 1553,
      "ĠHoÃłng": 1554,
      "ĠcÃłi": 1555,
      "Ġthuyáº¿t": 1556,
      "ĠCH": 1557,
      "ike": 1558,
      "jsjs": 1559,
      "Ġvi": 1560,
      "Ġtráº»": 1561,
      "ĠÄĳá»¡": 1562,
      "ĠchÃ³ng": 1563,
      "ĠÄĳeo": 1564,
      "Ġlá»ĵn": 1565,
      "Ġyou": 1566,
      "................": 1567,
      "Ġná»ĳi": 1568,
      "ĠdÆ°á»Ľi": 1569,
      "ĠÄĳÄĥng": 1570,
      "Ġtuá»ķi": 1571,
      "áº£y": 1572,
      "iá»ħn": 1573,
      "á»ĳp": 1574,
      "ĠTGD": 1575,
      "Ļng": 1576,
      "ĠhÆ°á»Ľng": 1577,
      "Ġrá»Ļng": 1578,
      "Ġdá»±": 1579,
      "Ġtuá»Ļt": 1580,
      "iiiiiiii": 1581,
      "nnnnnnnn": 1582,
      "ĠtáºŃp": 1583,
      "Ġmo": 1584,
      "Ġdá»ĭ": 1585,
      "Ġfan": 1586,
      "ol": 1587,
      "ĠÃŃ": 1588,
      "Ġ12": 1589,
      "Ġsá»Ľm": 1590,
      "Ġtá»«ng": 1591,
      "mmmm": 1592,
      "Ġcháº¥p": 1593,
      "Å©ng": 1594,
      "uyen": 1595,
      "Ġ15": 1596,
      "Ġae": 1597,
      "áº³n": 1598,
      "Ġtinh": 1599,
      "ĠvÄĥn": 1600,
      "ĠgiÃł": 1601,
      "Ġmá»ĭn": 1602,
      "Ġbay": 1603,
      "Ġdiá»ĩn": 1604,
      "áº¿p": 1605,
      "Ġtra": 1606,
      "ĠquÃł": 1607,
      "Ġcá»Ńa": 1608,
      "ĠChÆ°a": 1609,
      "Ġhoáº¡t": 1610,
      "ĠtÃ³c": 1611,
      "ĠMÃłn": 1612,
      "bx": 1613,
      "Ġchiáº¿c": 1614,
      "Ġsá»©c": 1615,
      "Ġnáº¥u": 1616,
      "Ġsamsung": 1617,
      "Ġlá»±c": 1618,
      "Ġthoáº£i": 1619,
      "Ġháº³n": 1620,
      "Ã£o": 1621,
      "ĠJ": 1622,
      "áº¢": 1623,
      "Ġcung": 1624,
      "ĠSao": 1625,
      "ĠLáº§n": 1626,
      "Ġtgdd": 1627,
      "**": 1628,
      "ff": 1629,
      "ĠÄĳÃ²i": 1630,
      "Ã³n": 1631,
      "!!!!": 1632,
      "phone": 1633,
      "ĠQua": 1634,
      "Ġ30": 1635,
      "ĠTrung": 1636,
      "aaaaaaaa": 1637,
      "ta": 1638,
      "ĩt": 1639,
      "Ġcháº³ng": 1640,
      "£t": 1641,
      "ĠÄĳa": 1642,
      "Ġtá»¥i": 1643,
      "á»³": 1644,
      "ĠkhÃ´": 1645,
      "Ġmá»ĵ": 1646,
      "Ġhá»Ļi": 1647,
      "ieu": 1648,
      "ĠtÃłi": 1649,
      "Ġchiá»ģu": 1650,
      "ĠThanh": 1651,
      "©p": 1652,
      "Ġchá»¯": 1653,
      "Ġcá»Ļng": 1654,
      "ĠLÃª": 1655,
      "os": 1656,
      "ĠbÃ³ng": 1657,
      ").": 1658,
      "Ġnu": 1659,
      "Ġbáº¥m": 1660,
      "ĠCÃ¡c": 1661,
      "Ġsá»¯a": 1662,
      "tube": 1663,
      "Ġcuá»ĳi": 1664,
      "ĠsÃ¡ch": 1665,
      "Ġchá»īnh": 1666,
      "Æ¯": 1667,
      "Ġcl": 1668,
      "Ġnháº¯n": 1669,
      "áº±m": 1670,
      "¡i": 1671,
      "ĠÄĳem": 1672,
      "ĠCÃ´": 1673,
      "ix": 1674,
      "á»ģn": 1675,
      "ĠTuy": 1676,
      "ip": 1677,
      "ien": 1678,
      "sm": 1679,
      "ĠtÃ¹": 1680,
      "ĠgiÃ¡o": 1681,
      "ĠcÆ¡m": 1682,
      "Ġmai": 1683,
      "Ġlá»ĭch": 1684,
      "ĠtÆ°Æ¡ng": 1685,
      "ĠlÅ©": 1686,
      "Ġmá»Ŀ": 1687,
      "Ġha": 1688,
      "ĠLÃºc": 1689,
      "ÄĲ": 1690,
      "Ġkiá»ĥm": 1691,
      "ĠNáº¿u": 1692,
      "Ġtiáº¿c": 1693,
      "NH": 1694,
      "ĠÄĳáº¡i": 1695,
      "Ġchai": 1696,
      "Ġnhá»±a": 1697,
      "Ġmáº¯c": 1698,
      "áº¡p": 1699,
      "ĠtrÃ¬nh": 1700,
      "ĠSÃłi": 1701,
      "ĠÄĲÃºng": 1702,
      "jc": 1703,
      "iet": 1704,
      "ĠChÃºc": 1705,
      "art": 1706,
      "ĠÄĲáº¹p": 1707,
      "ĠÄĲiá»ĩn": 1708,
      "Ġabe": 1709,
      "pper": 1710,
      "ive": 1711,
      "Ġpháº£n": 1712,
      "ĠGiá»": 1713,
      "ĠXin": 1714,
      "iao": 1715,
      "Ġxo": 1716,
      "kkkkkkkkkkkkkkkk": 1717,
      "ĠkÃŃch": 1718,
      "ĠbÃ²": 1719,
      "áº¹n": 1720,
      "Ġkiá»ĩn": 1721,
      "Ġtháº§n": 1722,
      "ĠhÃ³": 1723,
      "ĠhÃºt": 1724,
      "ĠLá»": 1725,
      "ĠchÃºc": 1726,
      "je": 1727,
      "re": 1728,
      "ve": 1729,
      "Ġly": 1730,
      "ĠNgá»įc": 1731,
      "bdbd": 1732,
      "lo": 1733,
      "ĠtrÃŃ": 1734,
      "ĠNhá»": 1735,
      "ĠXÃłi": 1736,
      "Ġká»ĥ": 1737,
      "Ġviáº¿t": 1738,
      "Ã³m": 1739,
      "ĠLinh": 1740,
      "uá»ĳt": 1741,
      "Ġfb": 1742,
      "rr": 1743,
      "ĠnÆ¡i": 1744,
      "ĠÄĳÃ¡o": 1745,
      "Ġquyá»ģn": 1746,
      "Ġghi": 1747,
      "Ġcá»¥": 1748,
      "Ġlol": 1749,
      "ndnd": 1750,
      "hu": 1751,
      "ĠÄĳáº¡o": 1752,
      "Ġche": 1753,
      "á»ĳn": 1754,
      "ĠtÄĥng": 1755,
      "Ġvá»£": 1756,
      "end": 1757,
      "Ġcmt": 1758,
      "Ġtham": 1759,
      "áº©y": 1760,
      "Ġthá»§": 1761,
      "ĠcÃ¢y": 1762,
      "á»Ļi": 1763,
      "oy": 1764,
      "ĠriÃªng": 1765,
      "ut": 1766,
      "Ġchiáº¿n": 1767,
      "ĠdÃ¡m": 1768,
      "cl": 1769,
      "ĠÄĳáº·c": 1770,
      "Ġme": 1771,
      "Ġnt": 1772,
      "ĠxÃ¡c": 1773,
      "Ġ:(": 1774,
      "hhhhhhhh": 1775,
      "Ġlinh": 1776,
      "Ġtháº¥p": 1777,
      "iew": 1778,
      ",,": 1779,
      "Ġtáº¡o": 1780,
      "Ġmau": 1781,
      "Ġdáº§n": 1782,
      "ĠMong": 1783,
      "Ġxá»Ń": 1784,
      "§a": 1785,
      "ĠcÃ¢n": 1786,
      "Ġhu": 1787,
      "dddd": 1788,
      "ĠkÃŃnh": 1789,
      "ĠphÃŃm": 1790,
      "ĠÃĶng": 1791,
      "Ġmiáº¿ng": 1792,
      "ĠdÃŃnh": 1793,
      "Ġ11": 1794,
      "ĠHá»": 1795,
      "ĠThu": 1796,
      "ĠDá»": 1797,
      "ĠPháº¡m": 1798,
      "kf": 1799,
      "om": 1800,
      "Ġá»ĳp": 1801,
      "Ġnoi": 1802,
      "ĠnghÃ": 1803,
      "ĠhÃ¡": 1804,
      "Ġoi": 1805,
      "Ġná»Ļi": 1806,
      "ĠchÃ¡u": 1807,
      "33": 1808,
      "90": 1809,
      "¢u": 1810,
      "Ġon": 1811,
      "Ã³t": 1812,
      "Ġquen": 1813,
      "ĠhÃ£y": 1814,
      "ĠÃģ": 1815,
      "Ġdáº·n": 1816,
      "ĠTá»ĳt": 1817,
      "Ġcá»¥c": 1818,
      "Ġnhá»Ŀ": 1819,
      "Ġgiá»¯": 1820,
      "ack": 1821,
      "ĠÄĳu": 1822,
      "ĠÄĳÆ°a": 1823,
      "Ġmu": 1824,
      "Ġthe": 1825,
      "Ã¢ng": 1826,
      "ĠmÃ¨o": 1827,
      "ĠváºŃt": 1828,
      "ĠTÃºi": 1829,
      "Ġ=))))": 1830,
      "Ġnote": 1831,
      "cm": 1832,
      "hx": 1833,
      "ĠcÃł": 1834,
      "Ġdáº§u": 1835,
      "ĠÄĳá»±ng": 1836,
      "ow": 1837,
      "Ġmk": 1838,
      "Ã£n": 1839,
      "ĠBá»": 1840,
      "ĠNháºŃn": 1841,
      "ĠCá»±c": 1842,
      "ubg": 1843,
      "^^": 1844,
      "Ġhaha": 1845,
      "ĠÄĲá»Ļ": 1846,
      "Ġchip": 1847,
      "ĠlÆ°Æ¡ng": 1848,
      "Ġláº¡nh": 1849,
      "Ġnáº±m": 1850,
      "Ġtrá»ĭ": 1851,
      "el": 1852,
      "ĠÄĳÃ¬nh": 1853,
      "ĠnhiÃªu": 1854,
      "Ġhao": 1855,
      "ĠgÃ³p": 1856,
      "Ġtrc": 1857,
      "ĠMÃłu": 1858,
      "Ļc": 1859,
      "ĠMÃł": 1860,
      "Ġkháº¯c": 1861,
      "ĠThá»ĭ": 1862,
      "ĠDáº§n": 1863,
      "ĠÃ¡p": 1864,
      "ook": 1865,
      "ĠÆ°": 1866,
      "Ġcáº¯t": 1867,
      "Ġgiáº£": 1868,
      "ĠNH": 1869,
      "Ġcá»ķ": 1870,
      "Ġtrá»Ł": 1871,
      "Ġliá»ģn": 1872,
      "Ġhá»ĩ": 1873,
      "Ġnghá»ī": 1874,
      "mÃ¡y": 1875,
      "ĠmÃ¹a": 1876,
      "Ġcha": 1877,
      "Ġá»¦": 1878,
      "Ġtá»Ń": 1879,
      "ahah": 1880,
      "iaomi": 1881,
      ":))": 1882,
      "Ġpro": 1883,
      "ĠtrÃ´ng": 1884,
      "Ġná»¯": 1885,
      "ĠbÃ¡nh": 1886,
      "Ġ50": 1887,
      "Ġweb": 1888,
      "ĠVá»ģ": 1889,
      "hf": 1890,
      "Ġ)": 1891,
      "ĵn": 1892,
      "Ġmng": 1893,
      "Ġtá»ĳc": 1894,
      "ĠtÃŃn": 1895,
      "Ġchia": 1896,
      "Ġtest": 1897,
      "ĠTGDD": 1898,
      "ĠÃ´": 1899,
      "Ġlam": 1900,
      "ĠHiáº¿u": 1901,
      "Ġlike": 1902,
      "Ġkg": 1903,
      "Ġtri": 1904,
      "ĠkhuÃ´n": 1905,
      "ĠW": 1906,
      "Ġoppo": 1907,
      "ĠluáºŃn": 1908,
      "jg": 1909,
      "ke": 1910,
      "to": 1911,
      "ĠÄĳÃłn": 1912,
      "Ġthiá»ĩt": 1913,
      "ĠxÃ©t": 1914,
      "ĠMáº¥y": 1915,
      "Ġbá»įc": 1916,
      "ĠVÄĥn": 1917,
      "ĠphÃºt": 1918,
      "ĠTháº¥y": 1919,
      "ĠMá»¹": 1920,
      "ĠChá»¥p": 1921,
      "kx": 1922,
      "Ãģ": 1923,
      "Ãªnh": 1924,
      "ĠgiÃłu": 1925,
      "ĠHÃł": 1926,
      "Ġkhá»§ng": 1927,
      "Ġquyáº¿t": 1928,
      "Ġseal": 1929,
      "11": 1930,
      "ĠnháºŃp": 1931,
      "Ġnc": 1932,
      "Ġtháº»": 1933,
      "ĠTu": 1934,
      "Ġvá»ĩ": 1935,
      "Ġmá»«ng": 1936,
      "Ġtá»©c": 1937,
      "----": 1938,
      "Ġyoutube": 1939,
      "nhÆ°ng": 1940,
      "Ġvn": 1941,
      "ĠhÆ°": 1942,
      "Ġkháº©u": 1943,
      "ksks": 1944,
      "nsns": 1945,
      "ja": 1946,
      "ĵng": 1947,
      "áºµ": 1948,
      "Ġná»ĵi": 1949,
      "ĠphÃª": 1950,
      "Ã¨n": 1951,
      "Ġkiáº¿m": 1952,
      "ĠÄĳá»ı": 1953,
      "ĠkhÃ³a": 1954,
      "ap": 1955,
      "¥i": 1956,
      "ĠdÃ¡ng": 1957,
      "iá»ħ": 1958,
      "Ġlá»Ĺ": 1959,
      "hihi": 1960,
      "Ġkhá»ķ": 1961,
      "ĠVá»«a": 1962,
      "Ġbe": 1963,
      "Ġfu": 1964,
      "Ġiphone": 1965,
      "ĠVá»Ľi": 1966,
      "50": 1967,
      "ote": 1968,
      "ĠlÆ°u": 1969,
      "Ġkkk": 1970,
      "ĠgiÃły": 1971,
      "Ã£nh": 1972,
      "hdhd": 1973,
      "Ġcua": 1974,
      "Ġlai": 1975,
      "ĠxÆ°a": 1976,
      "Ġngá»Ŀ": 1977,
      "ĠThá»Ŀi": 1978,
      "Ġnháº£y": 1979,
      "ĠchuyÃªn": 1980,
      "ĠnÃ£o": 1981,
      "Ġmax": 1982,
      "lus": 1983,
      "Ġnhiá»ĩm": 1984,
      "Ġháº¡n": 1985,
      "Ġdanh": 1986,
      "Ġgiáº·t": 1987,
      "ĠTR": 1988,
      "uyáº¿n": 1989,
      "ĠChu": 1990,
      "Ġxá»©ng": 1991,
      "Ġmá»ĵm": 1992,
      "bi": 1993,
      "Ġsd": 1994,
      "Ġbt": 1995,
      "ine": 1996,
      "ĠBa": 1997,
      "ĠNguyen": 1998,
      "ĠnghÄ©a": 1999,
      "Ġrá»Ńa": 2000,
      "ĠÄĳáº¯t": 2001,
      "ĠkÃ©o": 2002,
      "ad": 2003,
      "Ġcáº£nh": 2004,
      "as": 2005,
      "ĠÄĳá»£t": 2006,
      "Ġmá»ĩt": 2007,
      "ĠSáº¡c": 2008,
      "Ġfac": 2009,
      "jw": 2010,
      "¨o": 2011,
      "Ġbo": 2012,
      "Ġthui": 2013,
      "ĠkhÃºc": 2014,
      "Ġtá»ķ": 2015,
      "Ġlá»Ļ": 2016,
      "Ġshipper": 2017,
      "įt": 2018,
      "Ġháº¡t": 2019,
      "Ġbáº¯n": 2020,
      "ĠVÃ¬": 2021,
      "áº»o": 2022,
      "iii": 2023,
      "ĠthÃ¡i": 2024,
      "nc": 2025,
      "Ġcx": 2026,
      "ĠbÃ¬": 2027,
      "Ġpubg": 2028,
      "ĠTháº§y": 2029,
      "Ġláº½": 2030,
      "Ã¡p": 2031,
      "ĠgÃł": 2032,
      "Ġram": 2033,
      "ĠÄĳá»ķ": 2034,
      "ĠnhÃ¬u": 2035,
      "ig": 2036,
      "ma": 2037,
      "ĠâĢ": 2038,
      "Ġtáº¿t": 2039,
      "ĠsÄĥn": 2040,
      "ĠtrÆ°á»Łng": 2041,
      "iá»ĩng": 2042,
      "Ġkhoáº»": 2043,
      "âĢ¦âĢ¦âĢ¦âĢ¦": 2044,
      "19": 2045,
      "ree": 2046,
      "view": 2047,
      "Ġkem": 2048,
      "ĠlÃłnh": 2049,
      "ĠVÃ¢n": 2050,
      ".....": 2051,
      "ÃĶ": 2052,
      "Ġcáº¯m": 2053,
      "ĠmÃ©o": 2054,
      "Ġxá»ī": 2055,
      "xy": 2056,
      "ĠÄĳm": 2057,
      "ĠnÃºt": 2058,
      "ĠÄĲÃ¢y": 2059,
      "ĠTrang": 2060,
      "Ġkhá»Łi": 2061,
      "Ġthá»ĭt": 2062,
      "Ġáº¥m": 2063,
      "Ġtá»Ļc": 2064,
      "Ġapp": 2065,
      "age": 2066,
      "@@": 2067,
      "Ġáº£o": 2068,
      "ĠmÅ©": 2069,
      "ĠdÃłnh": 2070,
      "Ġtráº¡ng": 2071,
      "Ġchá»ĵng": 2072,
      "Ġngoáº¡i": 2073,
      "ĠnuÃ´i": 2074,
      "30": 2075,
      "Ġuy": 2076,
      "ĠmÃ´i": 2077,
      "Ġláº¡": 2078,
      "Ġnhe": 2079,
      "ĠHay": 2080,
      "ĠBáº¡n": 2081,
      "á»³nh": 2082,
      "Ġtáº£i": 2083,
      "Ġdáº¡y": 2084,
      "Ġvá»¡": 2085,
      "anks": 2086,
      "Ġná»Ńa": 2087,
      "ĠQuá»ĳc": 2088,
      "ebook": 2089,
      "iu": 2090,
      "nf": 2091,
      "Ġngta": 2092,
      "ĠÄĲÃ¡ng": 2093,
      "ĠTháº¿": 2094,
      "ĠKhi": 2095,
      "ĠPhÆ°Æ¡ng": 2096,
      "Ġzalo": 2097,
      "ĠsÄ©": 2098,
      "ĠÄĲÆ°á»£c": 2099,
      "Ġreview": 2100,
      "roi": 2101,
      "ĠmÃ³p": 2102,
      "ĠhÆ°á»Łng": 2103,
      "ĠthiÃªn": 2104,
      "Ġtráº§n": 2105,
      "Ġbá»¯a": 2106,
      "ĠÄĲang": 2107,
      "ĠNhÆ°": 2108,
      "ĠXu": 2109,
      "ĠPháº£i": 2110,
      "eam": 2111,
      "mÃ¬nh": 2112,
      "ĠmÃª": 2113,
      "ĠNÃ³": 2114,
      "Ġá»ŀ": 2115,
      "á»įt": 2116,
      "ĠhoÃ¡": 2117,
      "ĠAn": 2118,
      "Ġká»ĩ": 2119,
      "eeeeeeee": 2120,
      "fu": 2121,
      "¡n": 2122,
      "áºł": 2123,
      "ĠtiÃªu": 2124,
      "Ġnháº¯c": 2125,
      "ĠbÃ¹": 2126,
      "ĠÄĳá»īnh": 2127,
      "ĠÃ¡n": 2128,
      "Ġand": 2129,
      "Ġntn": 2130,
      "ed": 2131,
      "ĠlÃ´ng": 2132,
      "Ġháº¡nh": 2133,
      "ĠrÄĥng": 2134,
      "ĠkhuyÃªn": 2135,
      "ĠphÃºc": 2136,
      "ĠNhung": 2137,
      "Ġsá»Ńa": 2138,
      "ĠkhÃ³c": 2139,
      "iÃªm": 2140,
      "Ġhiáº¿u": 2141,
      "Ġsuy": 2142,
      "ĠquÃªn": 2143,
      "Ġ19": 2144,
      "ĠHi": 2145,
      "ĠMá»Ĺi": 2146,
      "bf": 2147,
      "Ġ^^": 2148,
      "Ġtim": 2149,
      "ĠcÆ°ng": 2150,
      "Ġmiá»ĩng": 2151,
      "Ġháº¡i": 2152,
      "Ġgáº¡o": 2153,
      "Ġmá»¹": 2154,
      "Ġnghá»ĩ": 2155,
      "Ġsim": 2156,
      "Ġfull": 2157,
      "Ġcai": 2158,
      "Ġvay": 2159,
      "Ġká»ĭ": 2160,
      "ĠrÃºt": 2161,
      "ĠNG": 2162,
      "Ġlá»±a": 2163,
      "ĠVÃł": 2164,
      "ĠkÃ¬a": 2165,
      "ĠhÃ³a": 2166,
      "lu": 2167,
      "ĠmÃ³n": 2168,
      "Ġnháº§m": 2169,
      "Ġháº¹n": 2170,
      "Ġhá»ıng": 2171,
      "ko": 2172,
      "īa": 2173,
      "ĠÄĳáºŃp": 2174,
      "Ġláº§m": 2175,
      "Ġdt": 2176,
      "Ġbá»¥ng": 2177,
      "ĠNgÆ°á»Ŀi": 2178,
      "ĠÄĲá»ĥ": 2179,
      "Ġxá»īu": 2180,
      "¢m": 2181,
      "Ġáº¢": 2182,
      "áº¤": 2183,
      "Ġcc": 2184,
      "ĠháºŃn": 2185,
      "ĠtrÃ¡i": 2186,
      "ĠxÆ°á»Ľc": 2187,
      "Ġtá»ĳn": 2188,
      "ĠCháº¯c": 2189,
      "á»Ļp": 2190,
      "ĠKhÃ¡nh": 2191,
      "ĠÄĳÃ¨n": 2192,
      "Ġhe": 2193,
      "Ġnáº¯ng": 2194,
      "ĠÄĳá»Ļi": 2195,
      "ĠNhÃł": 2196,
      "ĠNháºŃt": 2197,
      "ĠmÃ¡u": 2198,
      "ĠLoa": 2199,
      "áºµn": 2200,
      "kw": 2201,
      "Ãĵ": 2202,
      "ĠZ": 2203,
      "ĠnhÃ¡": 2204,
      "ĠhÃł": 2205,
      "Ġru": 2206,
      "ĠrÃ¹i": 2207,
      "Ġbá»ķ": 2208,
      "ĠShi": 2209,
      "ĠSamsung": 2210,
      "ĠTháºŃt": 2211,
      "ĠÄĳá»Ļc": 2212,
      "Ãµi": 2213,
      "ĠQuáº§n": 2214,
      "ĠÄĲá»©c": 2215,
      "70": 2216,
      "ps": 2217,
      "Ġ<": 2218,
      "ĠÆ": 2219,
      "Ġlive": 2220,
      "ĠTo": 2221,
      "ĠCam": 2222,
      "ĠBáº£o": 2223,
      "Ġloáº¡n": 2224,
      "iá»ħm": 2225,
      "bo": 2226,
      "Ġcáº£i": 2227,
      "Ġva": 2228,
      "Ġhang": 2229,
      "ĠgÃ³c": 2230,
      "Ġthiá»ĩu": 2231,
      "ĠxÃ£": 2232,
      "ĠHuy": 2233,
      "ĠLÃłm": 2234,
      "Ġhihi": 2235,
      "ivo": 2236,
      "ĠâĢľ": 2237,
      "ti": 2238,
      "ĠÆ°u": 2239,
      "Ġcáº¡nh": 2240,
      "Ġchua": 2241,
      "Ġngang": 2242,
      "Ãºn": 2243,
      "ĠluáºŃt": 2244,
      "Ġak": 2245,
      "ĠkhoÃ¡": 2246,
      "okokokok": 2247,
      "ĠnghÃ¨o": 2248,
      "Iá»": 2249,
      "vs": 2250,
      "Ġbi": 2251,
      "ĠgÃ¢y": 2252,
      "Ġpháº¡t": 2253,
      "áº¹o": 2254,
      "Ã£y": 2255,
      "Ġdá»¯": 2256,
      "ĠhoÃłng": 2257,
      "all": 2258,
      "Ġip": 2259,
      "ĠÄĳÃ´ng": 2260,
      "Ġnhung": 2261,
      "ĠvÃ²ng": 2262,
      "ĠsÆ¡": 2263,
      "Ġson": 2264,
      "Ġsuá»ĳt": 2265,
      "Ġngá»įt": 2266,
      "ĠthÃº": 2267,
      "Ġphong": 2268,
      "iáº¿p": 2269,
      "Ġ18": 2270,
      "Ġah": 2271,
      "ĠhÃ¡t": 2272,
      "xx": 2273,
      "Ġid": 2274,
      "ĠsÆ°á»Ľng": 2275,
      "chá»": 2276,
      "uc": 2277,
      "Ġtem": 2278,
      "Ġhiá»ĥm": 2279,
      "ĠVÅ©": 2280,
      "ĠThiáº¿t": 2281,
      "ĠhoÃłi": 2282,
      "Ġcute": 2283,
      "ĠQuang": 2284,
      "Ġclip": 2285,
      "Ġonl": 2286,
      "ate": 2287,
      "cÃ³": 2288,
      "nÃ³i": 2289,
      "ĠnÃ¢ng": 2290,
      "Ġgoo": 2291,
      "ĠdÃłng": 2292,
      "Ġdáº¥u": 2293,
      "Ġdiá»ħn": 2294,
      "Ġngáº¯n": 2295,
      "ĠtrÃ²": 2296,
      "ĠKH": 2297,
      "Ġthoáº£ng": 2298,
      "ĠYÃªu": 2299,
      "Ġup": 2300,
      "il": 2301,
      "Ġtáº¯m": 2302,
      "ĠÄĳiÃªn": 2303,
      "ĠTÃ¹ng": 2304,
      "Ãºa": 2305,
      "Ġnghá»ĭ": 2306,
      "ĠBÃ¬nh": 2307,
      "Ġgiá»ıi": 2308,
      "Ġáº¢nh": 2309,
      "jz": 2310,
      "Ġáº¥n": 2311,
      "ĠmÃ¬": 2312,
      "Ġthuá»ĳc": 2313,
      "Ġdm": 2314,
      "Ġtrend": 2315,
      "ĠkhÃŃ": 2316,
      "ĠCo": 2317,
      "ĠCÅ©ng": 2318,
      "Ġbá»Ľt": 2319,
      "ink": 2320,
      "Ġrá»Ľt": 2321,
      "Ġhuhu": 2322,
      "Ġnháº¡t": 2323,
      "Ġgh": 2324,
      "Ġroi": 2325,
      "ĠHáº£i": 2326,
      "Ġlá»ĩ": 2327,
      "ĠDo": 2328,
      "tream": 2329,
      "wwww": 2330,
      "cÃ²n": 2331,
      "ep": 2332,
      "ĠtÃłu": 2333,
      "Ġhá»ĳi": 2334,
      "Ġdai": 2335,
      "ĠquÃª": 2336,
      "ĠHu": 2337,
      "ĠHÃłi": 2338,
      "ĠDuy": 2339,
      "Ġbuá»ķi": 2340,
      "gggggggg": 2341,
      "Æ¯á»": 2342,
      "Ġchá»¥c": 2343,
      "Ġbá»¥i": 2344,
      "ÃŃch": 2345,
      "uuuuuuuu": 2346,
      "Ġmi": 2347,
      "ĠmÆ°a": 2348,
      "Ġsáº¯p": 2349,
      "ĠxÃ²": 2350,
      "Ġmá»¥": 2351,
      "Ġmá»ıi": 2352,
      "ĠtÃŃch": 2353,
      "ĠÃŃch": 2354,
      "ĠDá»ħ": 2355,
      "nz": 2356,
      "ud": 2357,
      "yd": 2358,
      "Ġsung": 2359,
      "Ġduy": 2360,
      "Ġ14": 2361,
      "Ġlá»«a": 2362,
      "ĠthuáºŃt": 2363,
      "ssss": 2364,
      "ĠTá»«": 2365,
      "tttttttttttttttt": 2366,
      "gb": 2367,
      "od": 2368,
      "¥t": 2369,
      "ÃĬ": 2370,
      "Ġ!!!": 2371,
      "áº¾": 2372,
      "Ġlao": 2373,
      "Ġviá»ģn": 2374,
      "Ġhiá»ĥn": 2375,
      "ĠsÃ¡nh": 2376,
      "ĠMá»Ļt": 2377,
      "ĠHá»Ļp": 2378,
      "Ġ40": 2379,
      "jfjf": 2380,
      "ĠÃģo": 2381,
      "sao": 2382,
      "ty": 2383,
      "Ġáº©m": 2384,
      "Ĥn": 2385,
      "ĠmÃłng": 2386,
      "Ġváº·n": 2387,
      "ĠchÄĥm": 2388,
      "ĠrÆ¡i": 2389,
      "ĠtráºŃn": 2390,
      "ĠTáº¥t": 2391,
      "ĠCÃ´ng": 2392,
      "Ġhá»ģ": 2393,
      "Ġkhen": 2394,
      "ĠSá»ĳng": 2395,
      "ĠÄĲáº·t": 2396,
      "Ġká»ĭp": 2397,
      "khÃ": 2398,
      "Ġss": 2399,
      "Ġsam": 2400,
      "Ġsáºµn": 2401,
      "Ġbin": 2402,
      "Ġthao": 2403,
      "Æ°á»¡i": 2404,
      "ĠduyÃªn": 2405,
      "Ġgiáº£n": 2406,
      "ĠTuyá»ĩt": 2407,
      "ĠHÃ´m": 2408,
      "and": 2409,
      "Ġfor": 2410,
      "???": 2411,
      "Ġnguoi": 2412,
      "jv": 2413,
      "á»ģ": 2414,
      "Ġnhiá»ħm": 2415,
      "Ġnv": 2416,
      "ĠbÃºt": 2417,
      "Ġbiá»ĥn": 2418,
      "áº¥c": 2419,
      "Ġkhuyáº¿n": 2420,
      "ĠThÃłnh": 2421,
      "á»Ļn": 2422,
      "Ġiu": 2423,
      "Ġtung": 2424,
      "Ġmiá»ģn": 2425,
      "ĠlÃ£nh": 2426,
      "ĠdÆ¡": 2427,
      "ĠrÃ¨": 2428,
      "Ġtá»ı": 2429,
      "ĠÄĲá»ĵng": 2430,
      "ĠtoÃ¡n": 2431,
      "ĠThÃŃch": 2432,
      "bc": 2433,
      "ce": 2434,
      "hz": 2435,
      "á»·": 2436,
      "Ġtáº¥m": 2437,
      "ĠthÆ°": 2438,
      "Ġtráº§y": 2439,
      "ĠcÃ¡m": 2440,
      "Ġfree": 2441,
      "ĠXem": 2442,
      "Ġchuá»Ļt": 2443,
      "ĠhÆ°Æ¡ng": 2444,
      "ĠkÃªnh": 2445,
      "ĠsÃ¡t": 2446,
      "Ġráº±ng": 2447,
      "ĠngÄĥn": 2448,
      "ĠxÃºc": 2449,
      "ĠMai": 2450,
      "iá»ģm": 2451,
      "ĠTháº£o": 2452,
      "ĠTrong": 2453,
      "alal": 2454,
      "ĠthoÃ¡t": 2455,
      "ĠghÃ©t": 2456,
      "ĠYou": 2457,
      "ĠdÆ°á»¡ng": 2458,
      "12": 2459,
      "Ph": 2460,
      "__": 2461,
      "rus": 2462,
      "sk": 2463,
      "ĠÄĳáº¿": 2464,
      "Ġvoi": 2465,
      "ĠbÃ´ng": 2466,
      "Ġbáº©n": 2467,
      "Ġbiá»ĥu": 2468,
      "Ġgáº¯n": 2469,
      "Ġtriá»ĥn": 2470,
      "ĠhÃ´i": 2471,
      "ĠBá»Ļ": 2472,
      "ĠKho": 2473,
      "Ġhoi": 2474,
      "Ä©nh": 2475,
      "ĠphÃ¡p": 2476,
      "ĠChÃº": 2477,
      "ĠThÃ¡i": 2478,
      "Ġhá»įa": 2479,
      "21": 2480,
      "ct": 2481,
      "eu": 2482,
      "mart": 2483,
      "Ã³a": 2484,
      "Ġdáº¡ng": 2485,
      "ĠrÃ¡p": 2486,
      "Ġpage": 2487,
      "Ġá»īa": 2488,
      "ĠkhÄĥn": 2489,
      "Ġ13": 2490,
      "ĠHuyá»ģn": 2491,
      "ĠÄĲÃ¡nh": 2492,
      "ĠPH": 2493,
      "Ġhoáº¡": 2494,
      "ĠÄĳá»ĭa": 2495,
      "ĠPhan": 2496,
      "zzzz": 2497,
      "bz": 2498,
      "¯u": 2499,
      "Ġháº¡": 2500,
      "Ġbáº¿p": 2501,
      "Ġgá»ĳi": 2502,
      "chÆ¡i": 2503,
      "Ġtá»ķng": 2504,
      "Ġá»ķng": 2505,
      "ĠTrá»": 2506,
      "Ġdume": 2507,
      "Ġ???": 2508,
      "roid": 2509,
      "og": 2510,
      "Ġim": 2511,
      "ĠtÃ´": 2512,
      "Ġms": 2513,
      "Ġnho": 2514,
      "ĠbÃ¡t": 2515,
      "Ġcá»©u": 2516,
      "âĢĿ": 2517,
      "giao": 2518,
      "Ġdep": 2519,
      "jr": 2520,
      "ĠÃ´m": 2521,
      "Ġty": 2522,
      "ĠÄĳáº£ng": 2523,
      "Ġli": 2524,
      "Ġváº½": 2525,
      "ĠchÄĥng": 2526,
      "Ġkeo": 2527,
      "Ġnáº¯p": 2528,
      "Ġtreo": 2529,
      "ĠtrÃ¡ch": 2530,
      "Ġtá»·": 2531,
      "ĠSo": 2532,
      "Ġthá»«a": 2533,
      "ĠÄĲi": 2534,
      "ĠNgon": 2535,
      "Ġcmn": 2536,
      "60": 2537,
      "ĠtÃ´m": 2538,
      "ĠÄĤn": 2539,
      "ĠsÃ¢u": 2540,
      "Ġtháº¥m": 2541,
      "Ġrat": 2542,
      "á»Ļm": 2543,
      "ĠTran": 2544,
      "ĠÃ¡c": 2545,
      "ĠÌģ": 2546,
      "gs": 2547,
      "Ġ&": 2548,
      "Ġman": 2549,
      "Ġvc": 2550,
      "Ġvcl": 2551,
      "ĠsÆ°": 2552,
      "ĠdáºŃy": 2553,
      "ĠrÃłng": 2554,
      "ĠtrÄĥm": 2555,
      "Ġxáº¡o": 2556,
      "ĠCao": 2557,
      "ĠcÃ¡nh": 2558,
      "Ġkhai": 2559,
      "ĠÄĲá»ĵ": 2560,
      "Ġ200": 2561,
      "Ġná»ģn": 2562,
      "Ġhá»ĵng": 2563,
      "Ľp": 2564,
      "Ġlong": 2565,
      "ĠvÃŃ": 2566,
      "Ġcháº¡m": 2567,
      "ĠkÃ½": 2568,
      "Ġgáº¥p": 2569,
      "Ġxiaomi": 2570,
      "Ġquáº£n": 2571,
      "ĠcÃ¡p": 2572,
      "Ġtá»īnh": 2573,
      "Ġná»Ĺi": 2574,
      "ĠLong": 2575,
      "ĠBÃ¡c": 2576,
      "Ġdate": 2577,
      "ĠChÃŃ": 2578,
      "%.": 2579,
      "),": 2580,
      "GB": 2581,
      "vid": 2582,
      "ÃĮ": 2583,
      "Ġnguy": 2584,
      "Ġchá»¯a": 2585,
      "Ġbá»±c": 2586,
      "ank": 2587,
      "Æ°á»Ľp": 2588,
      "Ġgiá»¯a": 2589,
      "ĠTháº±ng": 2590,
      "ĠAd": 2591,
      "Ġ60": 2592,
      "Ġidol": 2593,
      "ei": 2594,
      "kh": 2595,
      "Ġtáº©y": 2596,
      "Ġmiá»ħn": 2597,
      "Ġkiá»ĩm": 2598,
      "ĠgiÃ³": 2599,
      "Ġá»ĵn": 2600,
      "Ġ24": 2601,
      "á»ĭa": 2602,
      "ĠQuá»³nh": 2603,
      "ĠtÆ°Æ¡i": 2604,
      "Ġreal": 2605,
      "bbbb": 2606,
      "yyyy": 2607,
      "nnnnnnnnnnnnnnnn": 2608,
      "ĠGiá»Ŀ": 2609,
      "ĠÄĳk": 2610,
      "ĠÄĳáº£m": 2611,
      "ĠlÃ¡": 2612,
      "Ġlau": 2613,
      "ĠsÃ³c": 2614,
      "Ġgáº¯ng": 2615,
      "Ġchá»©ng": 2616,
      "ĠÄĲt": 2617,
      "ĠQU": 2618,
      "Ġhá»ĵn": 2619,
      "ĠChÃ¡n": 2620,
      "jt": 2621,
      "ĠlÃ³t": 2622,
      "Ġváº¡ch": 2623,
      "Ġvivo": 2624,
      "Ġtranh": 2625,
      "ĠtrÆ°a": 2626,
      "ĠhÃ¨": 2627,
      "ĠHÆ¡i": 2628,
      "Ġsá»§a": 2629,
      "Ġ5000": 2630,
      "ĠOppo": 2631,
      "Ġá»¦a": 2632,
      "jh": 2633,
      "ÃĤ": 2634,
      "Ġcay": 2635,
      "Ġnhan": 2636,
      "Ġkim": 2637,
      "Ġthoi": 2638,
      "Æ°á»¡ng": 2639,
      "Ġtruyá»ģn": 2640,
      "Ġxáº£": 2641,
      "ĠxuyÃªn": 2642,
      "Ġpha": 2643,
      "ĠHD": 2644,
      "ĠHy": 2645,
      "ĠLáº¡i": 2646,
      "ĠGiang": 2647,
      "Ġlove": 2648,
      "aka": 2649,
      "nxnx": 2650,
      "mmmmmmmm": 2651,
      "51": 2652,
      "kz": 2653,
      "thÃ": 2654,
      "up": 2655,
      "ĠÄĳáºŃm": 2656,
      "ĠháºŃu": 2657,
      "Æ°á»Ľi": 2658,
      "Ġrung": 2659,
      "Ġtru": 2660,
      "Ġvá»ı": 2661,
      "Ġtá»§": 2662,
      "ĠVáº£i": 2663,
      "Ġkhoe": 2664,
      "ba": 2665,
      "ĠÃ³c": 2666,
      "Ġmoi": 2667,
      "Ġchui": 2668,
      "Ġne": 2669,
      "ĠbÃ©o": 2670,
      "Ġpháº¡m": 2671,
      "Ġcá»Ŀ": 2672,
      "Ġ16": 2673,
      "ĠphÃ©p": 2674,
      "Ġwa": 2675,
      "cccc": 2676,
      "ixi": 2677,
      "Ġonline": 2678,
      "camera": 2679,
      "de": 2680,
      "gle": 2681,
      "hc": 2682,
      "ur": 2683,
      "Ġ!!": 2684,
      "Ġcong": 2685,
      "ĠrÃ¡ch": 2686,
      "Ġcá»¡": 2687,
      "áº¹t": 2688,
      "ĠchÃ©": 2689,
      "ooth": 2690,
      "ĠÃĿ": 2691,
      "jjjj": 2692,
      "Phone": 2693,
      "Ġá»ĳc": 2694,
      "ĠÄĳáº£o": 2695,
      "Ġlon": 2696,
      "Ġdk": 2697,
      "ĠdÃ©p": 2698,
      "ĠtrÃ¡nh": 2699,
      "ĠMáº·c": 2700,
      "ĠÄĲm": 2701,
      "ĠBáº¯t": 2702,
      "ĠDÆ°Æ¡ng": 2703,
      "ĠNgh": 2704,
      "Ġred": 2705,
      "Ġduoc": 2706,
      "ĠÃ´i": 2707,
      "á»Ľi": 2708,
      "ĠcÄĥng": 2709,
      "ĠnhÃłng": 2710,
      "Ġnáº¡n": 2711,
      "Ġstream": 2712,
      "ĠxÃ¢y": 2713,
      "ĠTao": 2714,
      "ĠTÃº": 2715,
      "ĠchÃ¢u": 2716,
      "Ġ25": 2717,
      "Ġná»į": 2718,
      "ĠGÃ³i": 2719,
      "ĠÄĳÃ¡p": 2720,
      "ĠAbe": 2721,
      "hhh": 2722,
      "ĠÄĳoáº¡n": 2723,
      "iiiiiiiiiiiiiiii": 2724,
      "//": 2725,
      "ĠÄĳáº¡t": 2726,
      "Ġgoi": 2727,
      "ĠCáº¥u": 2728,
      "ĠDÃ¢n": 2729,
      "fe": 2730,
      "vd": 2731,
      "ĠtÃ½": 2732,
      "Ġhy": 2733,
      "ĠchÆ°Æ¡ng": 2734,
      "ĠnÃ¡t": 2735,
      "Ġtha": 2736,
      "ĠthÆ¡": 2737,
      "Ġoki": 2738,
      "Ġgiá»įng": 2739,
      "ĠphÃŃa": 2740,
      "ĠÃ¡m": 2741,
      "Ġphá»§": 2742,
      "hehe": 2743,
      "ĠSá»Ń": 2744,
      "ĠmáºŃt": 2745,
      "Ġthá»ĳng": 2746,
      "Ġdan": 2747,
      "Ġgiáº¿t": 2748,
      "ĠCÃ¡m": 2749,
      "Ġá»Ķ": 2750,
      "Ġ:>": 2751,
      "Ġcá»§ng": 2752,
      "ĠVáº«n": 2753,
      "ĠVáºŃy": 2754,
      "ĠTháº¥t": 2755,
      "ĠNgo": 2756,
      "ĠThÃ´i": 2757,
      "Ġtien": 2758,
      "Ġcs": 2759,
      "ĠhÃło": 2760,
      "Ġbáº¡c": 2761,
      "Ġtháº¯ng": 2762,
      "Ġngáº¡i": 2763,
      "Ġkháº£": 2764,
      "Ġkhong": 2765,
      "ĠLu": 2766,
      "ĠBao": 2767,
      "ĠNhiá»ģu": 2768,
      "Ġtiáº¿n": 2769,
      "á»ĭch": 2770,
      "ĠiPhone": 2771,
      "Ġthuá»Ļc": 2772,
      "ĠTGDÄĲ": 2773,
      "\\\"": 2774,
      "ld": 2775,
      "min": 2776,
      "ráº¥t": 2777,
      "£n": 2778,
      "ĠcÆ°á»Ľp": 2779,
      "ĠlÃ¢y": 2780,
      "Ġve": 2781,
      "Ġhuy": 2782,
      "ĠdÆ°": 2783,
      "ĠdÃ£": 2784,
      "Ġplus": 2785,
      "ĠgiÃ£n": 2786,
      "Ġpháº¿t": 2787,
      "ĠCu": 2788,
      "ĠquÃ½": 2789,
      "ĠhÃª": 2790,
      "ĠHá»ĵ": 2791,
      "ent": 2792,
      "????": 2793,
      "Ġkhoáº£n": 2794,
      "oooo": 2795,
      "dddddddd": 2796,
      "ĠChuáº©n": 2797,
      "ÃĶNG": 2798,
      "Ġ*": 2799,
      "Ġ;": 2800,
      "ĠcáºŃu": 2801,
      "ĠÄĳÃª": 2802,
      "Ġmáº¡i": 2803,
      "Ġlan": 2804,
      "Ġláº¡c": 2805,
      "Ġháº£o": 2806,
      "ĠniÃªn": 2807,
      "Ġsáº»": 2808,
      "ĠTI": 2809,
      "ĠTiá»ģn": 2810,
      "ĠMay": 2811,
      "ĠNá»ĵi": 2812,
      "Ġdá»Ł": 2813,
      "Ġláº¯c": 2814,
      "ĠBu": 2815,
      "ĠThÆ°Æ¡ng": 2816,
      "ĠXiaomi": 2817,
      "jdj": 2818,
      "kdkd": 2819,
      "smart": 2820,
      "luet": 2821,
      "Ġform": 2822,
      "cáº£m": 2823,
      "ĠtÃ¢y": 2824,
      "Ġlink": 2825,
      "Ġviá»ĩn": 2826,
      "ĠthÃ¹ng": 2827,
      "Ġhá»Ł": 2828,
      "Ġkhung": 2829,
      "ona": 2830,
      "Ġthá»ģ": 2831,
      "Ġtoi": 2832,
      "Ġtop": 2833,
      "Ġ500": 2834,
      "ĠchÃ¡y": 2835,
      "Ġcom": 2836,
      "Ġ:)))))": 2837,
      "Ġdá»ĭp": 2838,
      "ĠShip": 2839,
      "AY": 2840,
      "co": 2841,
      "ot": 2842,
      "ĠvÅ©": 2843,
      "ĠnÆ°á»Ľng": 2844,
      "Ġbá»ĥ": 2845,
      "ĠhÃ²": 2846,
      "ĠHá»ĵng": 2847,
      "Ġlá»¡": 2848,
      "Ġná»ķ": 2849,
      "ĠChÃło": 2850,
      "ĠThanks": 2851,
      "ĠÃ¡nh": 2852,
      "Ġwi": 2853,
      "bsbs": 2854,
      "Ġface": 2855,
      "ĠmÅ©i": 2856,
      "khÃ´ng": 2857,
      "mua": 2858,
      "ĠÃª": 2859,
      "nhÃ¢n": 2860,
      "Ġlq": 2861,
      "Ġvai": 2862,
      "Ġhd": 2863,
      "ĠbÃ³c": 2864,
      "ĠngÆ°á»£c": 2865,
      "ĠtrÆ¡n": 2866,
      "Ġof": 2867,
      "ĠGame": 2868,
      "ĠchÃŃp": 2869,
      "rrrr": 2870,
      "Ġá»¦ng": 2871,
      "iw": 2872,
      "kv": 2873,
      "Ġmik": 2874,
      "Ġlung": 2875,
      "Ġkáº»": 2876,
      "ĠbÃ¨": 2877,
      "Ġtá»Ŀ": 2878,
      "Ġsá»Ŀ": 2879,
      "Ġbá»ĭch": 2880,
      "ĠBÃ©": 2881,
      "ĠdÃ¹m": 2882,
      "ĠghÃ©p": 2883,
      "aaaaaaaaaaaaaaaa": 2884,
      "Ġredmi": 2885,
      "luetooth": 2886,
      "CM": 2887,
      "se": 2888,
      "un": 2889,
      "ĠÆ¡": 2890,
      "ĠcÆ°á»Ŀng": 2891,
      "Ġbá»Łi": 2892,
      ")))": 2893,
      "Ġnhá»¥c": 2894,
      "Ġcá»©t": 2895,
      "ĠCá»©": 2896,
      "Ġ:(((": 2897,
      "ON": 2898,
      "ach": 2899,
      "chÃ": 2900,
      "gd": 2901,
      "sh": 2902,
      "Ġhk": 2903,
      "ĠÄĳá»©c": 2904,
      "Ġchá»«ng": 2905,
      "......": 2906,
      "hhd": 2907,
      "Ġtrá»¥": 2908,
      "Ġfacebook": 2909,
      "AN": 2910,
      "lay": 2911,
      "ĠtÃ¡o": 2912,
      "ĠmÆ¡": 2913,
      "ĠvÃ¹ng": 2914,
      "ĠvÆ°á»£t": 2915,
      "Ġns": 2916,
      "ĠthÆ°á»Ľc": 2917,
      "ĠthÃ´": 2918,
      "ĠtrÃł": 2919,
      "ĠÄĳá»Ĺ": 2920,
      "Ġxay": 2921,
      "Ġkhá»ĭa": 2922,
      "ĠhÃŃ": 2923,
      "Ġlá»ıng": 2924,
      "ĠLiÃªn": 2925,
      "ĠÄĳá»ĭt": 2926,
      "ĠÄĲá»«ng": 2927,
      "ĠChá»©": 2928,
      "ĠCHá»": 2929,
      "ĠÄĳÄ©": 2930,
      "Ġle": 2931,
      "ĠsÃ¢n": 2932,
      "Ġbn": 2933,
      "Ġdáº¡o": 2934,
      "ĠthÃ¨": 2935,
      "ĠxÃ³a": 2936,
      "ĠTáº¡i": 2937,
      "Ġkhiáº¿n": 2938,
      "Ġthá»īnh": 2939,
      "ĠquÃ¡n": 2940,
      "ĠLÃł": 2941,
      "ĠKim": 2942,
      "ĠGiÃły": 2943,
      "aaa": 2944,
      "ĠÆł": 2945,
      "]]": 2946,
      "hv": 2947,
      "Ġong": 2948,
      "Ġung": 2949,
      "Ġnua": 2950,
      "Ġtháº³ng": 2951,
      "ĠNá»Ļi": 2952,
      "ĠVÃµ": 2953,
      "ĠGoo": 2954,
      "Ġquanh": 2955,
      "iep": 2956,
      "Ġmat": 2957,
      "Ġsaid": 2958,
      "Ġteam": 2959,
      "***": 2960,
      "Ġcheck": 2961,
      "ĠTuáº¥n": 2962,
      "Ġmá»¥n": 2963,
      "ĠChÃºng": 2964,
      "AM": 2965,
      "con": 2966,
      "km": 2967,
      "ts": 2968,
      "Ġlm": 2969,
      "Ġváº§y": 2970,
      "Ġsh": 2971,
      "Ġsan": 2972,
      "ĠsÃºc": 2973,
      "ĠgÃ¡y": 2974,
      "Ġthang": 2975,
      "ĠkhÃ¹ng": 2976,
      "ĠÄĲÃ¬nh": 2977,
      "ĠchÃ¹": 2978,
      "ĠVsmart": 2979,
      "kks": 2980,
      "ĠBÃªn": 2981,
      "Ġquang": 2982,
      "ĠDung": 2983,
      "ĠbÃ¡m": 2984,
      "Ġ4000": 2985,
      "ĠhÃ´n": 2986,
      "Ġib": 2987,
      "acebook": 2988,
      "Ġthuáº¿": 2989,
      "Ġ90": 2990,
      "ĠYáº¿n": 2991,
      "ĠÌĢ": 2992,
      "--------": 2993,
      "chá»¥p": 2994,
      "ÃĬN": 2995,
      "mÃł": 2996,
      "um": 2997,
      "wei": 2998,
      "áº¦": 2999,
      "Ġtrá»ĳn": 3000,
      "ĠxÃłm": 3001,
      "chá»ī": 3002,
      "ĠGI": 3003,
      "ĠDÃ¢y": 3004,
      "ĠPhá»": 3005,
      "ĠQuáº£": 3006,
      "are": 3007,
      "))))))))": 3008,
      "Ġrealme": 3009,
      "gh": 3010,
      "kl": 3011,
      "qua": 3012,
      "Ġ@@": 3013,
      "ĠÄĳÃłi": 3014,
      "ĠláºŃp": 3015,
      "ĠvÃŃt": 3016,
      "ĠbÄĥng": 3017,
      "Ġdao": 3018,
      "Ġdáº»o": 3019,
      "ĠTui": 3020,
      "Æ°á»£n": 3021,
      "ĠCáº§n": 3022,
      "ĠMáº·t": 3023,
      "ĠMuá»ĳn": 3024,
      "Ã¹m": 3025,
      "ĠhÃ´ng": 3026,
      "Ġtá»ĭch": 3027,
      "ĠDÃ©p": 3028,
      "ĠthoÃ¡ng": 3029,
      "Ġlap": 3030,
      "Äĳá»": 3031,
      "ake": 3032,
      "ĠWifi": 3033,
      "22": 3034,
      "Ch": 3035,
      "mx": 3036,
      "uf": 3037,
      "ĠÆ°á»Ľc": 3038,
      "Ġcáº·p": 3039,
      "Ġsn": 3040,
      "Ġbáº£": 3041,
      "Ġbiet": 3042,
      "Ġthan": 3043,
      "ĠTáº¿t": 3044,
      "ĠTiÃªn": 3045,
      "Ġphá»ĳ": 3046,
      "ĠDÃ¹": 3047,
      "ĠthÃ¡nh": 3048,
      "ĠQuy": 3049,
      "ĠFacebook": 3050,
      "akak": 3051,
      "hshs": 3052,
      "pppppppppppppppp": 3053,
      "kkkkkkkkkkkkkkkkkkkkkkkkkkkkkkkk": 3054,
      "loa": 3055,
      "ĠXuÃ¢n": 3056,
      "Ġlá»ĩch": 3057,
      "ml": 3058,
      "nv": 3059,
      "ĠÃ©o": 3060,
      "Ġcáº¯n": 3061,
      "Ġcac": 3062,
      "ĠlÃ³c": 3063,
      "ĠchÃło": 3064,
      "Ġcháº·t": 3065,
      "Ġcháº¥m": 3066,
      "ĠsÃ³i": 3067,
      "ĠngÃ£": 3068,
      "ĠngÃ´n": 3069,
      "Ġngá»įc": 3070,
      "ĠÄĳá»©t": 3071,
      "uawei": 3072,
      "Ġphai": 3073,
      "ĠphÆ°Æ¡ng": 3074,
      "ĠNá»": 3075,
      "Ġhá»¯u": 3076,
      "ĠSÄĥn": 3077,
      "Ã£ng": 3078,
      "ĠGia": 3079,
      "eno": 3080,
      "ĠTrÆ°á»Ľc": 3081,
      "ĠÃ¡i": 3082,
      "ĠPhÃ¡": 3083,
      "smsm": 3084,
      "%,": 3085,
      "cy": 3086,
      "hr": 3087,
      "iy": 3088,
      "ka": 3089,
      "mÃłn": 3090,
      "sáº¡c": 3091,
      "td": 3092,
      "ter": 3093,
      "Ġcanh": 3094,
      "Ġcáº¥m": 3095,
      "Ġmáº¯n": 3096,
      "ĠhÃłn": 3097,
      "ĠdÃŃ": 3098,
      "ĠMy": 3099,
      "cho": 3100,
      "ĠSÃ³i": 3101,
      "ĠHe": 3102,
      "Ġlá»įc": 3103,
      "Ġtot": 3104,
      "Ġ45": 3105,
      "okia": 3106,
      "ĠChá»Ńi": 3107,
      "ĠthÃ¨m": 3108,
      "plus": 3109,
      "ym": 3110,
      "ĩm": 3111,
      "Ġcan": 3112,
      "ĠÄĳÃło": 3113,
      "ĠÄĳÃŃt": 3114,
      "Ġváº¹n": 3115,
      "Ġhong": 3116,
      "Ġst": 3117,
      "Ġbáº¯c": 3118,
      "Ġgá»ĳc": 3119,
      "Ġday": 3120,
      "ĠMÃ¹i": 3121,
      "ĠSÆ¡n": 3122,
      "ĠHai": 3123,
      "Ġdá»±ng": 3124,
      "Ġsá»Ł": 3125,
      "Ġná»£": 3126,
      "ĠGá»": 3127,
      "ĠLÃĢ": 3128,
      "ĠTheo": 3129,
      "ĠDu": 3130,
      "jsj": 3131,
      "ĠÃĤ": 3132,
      "ĠKhá»": 3133,
      "bxbx": 3134,
      "Ġlá»Ļn": 3135,
      "âĢ¦âĢ¦âĢ¦âĢ¦âĢ¦âĢ¦âĢ¦âĢ¦": 3136,
      "Iá»Ĩ": 3137,
      "pe": 3138,
      "qq": 3139,
      "ĠÃ©p": 3140,
      "ĠcÃ£i": 3141,
      "ĠÄĳÆ°Æ¡ng": 3142,
      "ĠlÆ°á»Ŀi": 3143,
      "Ġvan": 3144,
      "Ġbh": 3145,
      "ĠbÆ°á»Ľc": 3146,
      "Ġtháº£": 3147,
      "ĠÄĳá»ĳng": 3148,
      "ĠgiÃ²n": 3149,
      "ĠTáº¡m": 3150,
      "Ġtá»ī": 3151,
      "Ġchoi": 3152,
      "Ġ:<": 3153,
      "Ġnghi": 3154,
      "Ġluong": 3155,
      "ĠBáº¯c": 3156,
      "Ġdoanh": 3157,
      "ĠthuáºŃn": 3158,
      "ĠFan": 3159,
      "Ġdá»ĭu": 3160,
      "ĠxoÃ¡": 3161,
      "ĠÆ°i": 3162,
      "ĠÄĳáº³ng": 3163,
      "Ġlá»ĵi": 3164,
      "Ġchat": 3165,
      "Ġkk": 3166,
      "Ġnao": 3167,
      "Ġset": 3168,
      "ĠbÃª": 3169,
      "Ġnge": 3170,
      "Ġpham": 3171,
      "ind": 3172,
      "Ġdá»¥c": 3173,
      "Ġdá»«ng": 3174,
      "Ġdá»įn": 3175,
      "Ġnghá»ģ": 3176,
      "kkk": 3177,
      "Ġshopee": 3178,
      "ĠphÃ´ng": 3179,
      "ĠDi": 3180,
      "ĠÄĳÃ¡m": 3181,
      "Ġfi": 3182,
      "Ġfps": 3183,
      "ala": 3184,
      "Ġvsmart": 3185,
      "hhhhhhhhhhhhhhhh": 3186,
      "fy": 3187,
      "pro": 3188,
      "qu": 3189,
      "Ġ[": 3190,
      "ĵi": 3191,
      "Ġtiá»ĩm": 3192,
      "ĠtÆ°á»Ľng": 3193,
      "ĠcáºŃn": 3194,
      "Ġmanh": 3195,
      "Ġnháº¥n": 3196,
      "Ġki": 3197,
      "Ġny": 3198,
      "Ġdong": 3199,
      "Ġdau": 3200,
      "ĠgiáºŃn": 3201,
      "Ġxáº¡c": 3202,
      "ĠTÃ³m": 3203,
      "ĠCS": 3204,
      "Ġá»Ĳ": 3205,
      "Ġá»©c": 3206,
      "Ġhá»©ng": 3207,
      "ĠLÃªn": 3208,
      "ĠNgu": 3209,
      "ĠNhanh": 3210,
      "ttel": 3211,
      "Ġtrá»±c": 3212,
      "ĠthÃ¡o": 3213,
      "Ġ48": 3214,
      "ĠRe": 3215,
      "iettel": 3216,
      "ĠÄĳá»ĭch": 3217,
      "giÃ¡": 3218,
      "Ġxá»ĭt": 3219,
      "ĠGiá»ĳng": 3220,
      "ĠNhá»¯ng": 3221,
      "Ġ=)))))": 3222,
      "Ġgood": 3223,
      "ĠBuá»ĵn": 3224,
      "CH": 3225,
      "ls": 3226,
      "ly": 3227,
      "Ġ***": 3228,
      "ĠtÃ¹ng": 3229,
      "Ġmáº½": 3230,
      "Ġheo": 3231,
      "ĠchiÃªn": 3232,
      "ĠcháºŃp": 3233,
      "Ġchá»ĳt": 3234,
      "ĠnÃłn": 3235,
      "ĠdÃµi": 3236,
      "ĠrÆ°á»¡i": 3237,
      "ĠngÃ¡o": 3238,
      "ĠTÃ¢m": 3239,
      "ĠCA": 3240,
      "ĠCoi": 3241,
      "Ġtá»Ľ": 3242,
      "Ġlá»£n": 3243,
      "Ġhoang": 3244,
      "á»ĭnh": 3245,
      "ahaha": 3246,
      "ĠbuÃ´n": 3247,
      "Ġgá»Ĺ": 3248,
      "Ġxá»©": 3249,
      "Ġcap": 3250,
      "Ġmess": 3251,
      "cu": 3252,
      "ky": 3253,
      "ms": 3254,
      "Ãļ": 3255,
      "Ġui": 3256,
      "áº¬": 3257,
      "Ġtan": 3258,
      "ĠÄĳÃ´": 3259,
      "Ġlen": 3260,
      "Ġchim": 3261,
      "Ġnma": 3262,
      "Ġbong": 3263,
      "ĠbáºŃy": 3264,
      "ĠthÃŃ": 3265,
      "Ġtrá»Ļm": 3266,
      "uan": 3267,
      "ĠphiÃªn": 3268,
      "Ġ17": 3269,
      "ĠÄĲÆ°á»Ŀng": 3270,
      "ĠÄĲiá»ĥm": 3271,
      "ĠPhi": 3272,
      "Ġ32": 3273,
      "rom": 3274,
      "Ġcháº£y": 3275,
      "ĠÄĳá»ĳt": 3276,
      "Ġxoay": 3277,
      "áº¤T": 3278,
      "ĠToÃłn": 3279,
      "Ġá»Ķn": 3280,
      "IN": 3281,
      "lv": 3282,
      "Ĺng": 3283,
      "Ġtam": 3284,
      "Ġcáº·c": 3285,
      "Ġcá»ĳc": 3286,
      "ĠÄĳáº¥u": 3287,
      "ĠÄĳÃ¹a": 3288,
      "ĠmÃ³c": 3289,
      "ĠnhÅ©ng": 3290,
      "Ġnáº¯m": 3291,
      "ĠsÃ´ng": 3292,
      "ĠtrÃ²n": 3293,
      "Ġmá»Ļ": 3294,
      "ĠMÅ©": 3295,
      "ĠcÃ¡t": 3296,
      "ĠnghiÃªm": 3297,
      "Ġgiá»įt": 3298,
      "ĠphÃ³": 3299,
      "ĠKáº¿t": 3300,
      "ĠNgÃły": 3301,
      "Ġká»·": 3302,
      "ĠthuÃª": 3303,
      "2021": 3304,
      "ĠPhÃ¹": 3305,
      "Ġsuáº¥t": 3306,
      "Ġandroid": 3307,
      "990": 3308,
      "dÃ¹ng": 3309,
      "lf": 3310,
      "nb": 3311,
      "rd": 3312,
      "shi": 3313,
      "ĠtÆ°á»Ŀng": 3314,
      "Ġcall": 3315,
      "ĠvÄĥng": 3316,
      "ĠkÃª": 3317,
      "Ġkáº¹o": 3318,
      "Ġni": 3319,
      "Ġsong": 3320,
      "Ġsáº¯m": 3321,
      "ĠbÃły": 3322,
      "Ġdáº¡": 3323,
      "ĠngÃłn": 3324,
      "Ġtruy": 3325,
      "ĠphÃłn": 3326,
      "ĠMÃły": 3327,
      "ĠNote": 3328,
      "Ġquáº¡t": 3329,
      "Ġhá»ķ": 3330,
      "ĠSai": 3331,
      "ĠHÆ°Æ¡ng": 3332,
      "ĠÄĲo": 3333,
      "ĠBiáº¿t": 3334,
      "ĠBá»įn": 3335,
      "ĠÄĳÃ¡i": 3336,
      "Ġtrá»©ng": 3337,
      "jdnd": 3338,
      "Ġkhoan": 3339,
      "Ġcor": 3340,
      "ĠghÃ©": 3341,
      "Ġ201": 3342,
      "ĠOke": 3343,
      "vvvv": 3344,
      "ĠkhÃ´n": 3345,
      "ĠtÃ¹y": 3346,
      "Ġmuá»Ļn": 3347,
      "date": 3348,
      "go": 3349,
      "vi": 3350,
      "Ġ/": 3351,
      "ĠtÃ¡n": 3352,
      "ĠcÃº": 3353,
      "ĠÄĳáº»": 3354,
      "ĠÄĳáº¡p": 3355,
      "ĠlÆ°á»£t": 3356,
      "ĠlÃ¡o": 3357,
      "Ġnhieu": 3358,
      "Ġvo": 3359,
      "Ġhieu": 3360,
      "ĠcháºŃt": 3361,
      "Ġnáº¥y": 3362,
      "Ġtháº¯c": 3363,
      "Ã¢t": 3364,
      "Ġxáº¯n": 3365,
      "ĠTáº§m": 3366,
      "ĠHÆ°ng": 3367,
      "Ġlá»į": 3368,
      "ĠLan": 3369,
      "ĠBÃłi": 3370,
      "ĠTrinh": 3371,
      "ĠTrÆ°á»Ŀng": 3372,
      "ĠQuÃ¢n": 3373,
      "ĠChÃ¢u": 3374,
      "ĠHoa": 3375,
      "ĠÄĳoÃłn": 3376,
      "................................": 3377,
      "ĠÆ¯ng": 3378,
      "ĠChÃŃnh": 3379,
      "jk": 3380,
      "ľI": 3381,
      "Ġcuá»ĳn": 3382,
      "ĠcÆ°á»Ľi": 3383,
      "ĠÄĳep": 3384,
      "Ġváº¿t": 3385,
      "ĠsÃ²": 3386,
      "ĠthÃł": 3387,
      "Ġdang": 3388,
      "Ġngá»Ļ": 3389,
      "ĠthÃ¢m": 3390,
      "ĠtrÃºng": 3391,
      "ĠlÃłng": 3392,
      "Ġxáº¿p": 3393,
      "ĠTÃ¢n": 3394,
      "Ġá»§a": 3395,
      "ĠÄĲáº·c": 3396,
      "ĠÄĲÃ©o": 3397,
      "ĠLe": 3398,
      "ĠNgÃ´": 3399,
      "ĠTrá»įng": 3400,
      "ĠRáº»": 3401,
      "Ġ99": 3402,
      "ĠThÃ¬": 3403,
      "Ġadmin": 3404,
      "Ġ.....": 3405,
      "pppppppppppp": 3406,
      "!!!!!!!!": 3407,
      "ĠHá»£p": 3408,
      "ĠnghÃ¬n": 3409,
      "Ġruá»Ļt": 3410,
      "Ġgoogle": 3411,
      "ĠYoutube": 3412,
      "ox": 3413,
      "shop": 3414,
      "ux": 3415,
      "vy": 3416,
      "Ãį": 3417,
      "Ġau": 3418,
      "ĠÄĳáºŃu": 3419,
      "Ġláº«n": 3420,
      "Ġváº©n": 3421,
      "Ġchay": 3422,
      "Ġkáº¹p": 3423,
      "Ġniá»ģm": 3424,
      "ĠsÆ°Æ¡ng": 3425,
      "ĠsÃºng": 3426,
      "Ġbung": 3427,
      "Ġtháº©m": 3428,
      "ĠMn": 3429,
      "Ġcá»ķng": 3430,
      "ĠSH": 3431,
      "ĠÄĲÃło": 3432,
      "Ġláº¯ng": 3433,
      "ĠAe": 3434,
      "Ġtoang": 3435,
      "nns": 3436,
      "á»ĭt": 3437,
      "ĠchuÃ´ng": 3438,
      "ieng": 3439,
      "uuu": 3440,
      "ĠkÃŃn": 3441,
      "ĠTá»±": 3442,
      "ĠKhuyÃªn": 3443,
      "jdjdjdjd": 3444,
      "ĠÄĳuá»ķi": 3445,
      "top": 3446,
      "Ġkkkk": 3447,
      "bile": 3448,
      "alaxy": 3449,
      "Nh": 3450,
      "gx": 3451,
      "Ġtáº¥u": 3452,
      "ĠlÃ´": 3453,
      "Ġláº»": 3454,
      "ĠsÃłn": 3455,
      "Ġthat": 3456,
      "ĠrÃ¡c": 3457,
      "Ã¬n": 3458,
      "Ġngáº§u": 3459,
      "ĠngÃ³n": 3460,
      "ĠtrÃ¡ng": 3461,
      "ĠTe": 3462,
      "ĠTho": 3463,
      "ĠTáº·ng": 3464,
      "ĠqÃ¡": 3465,
      "ĠCa": 3466,
      "ĠCáº£": 3467,
      "Ġmá»¥c": 3468,
      "Ġbá»©c": 3469,
      "ĠhÃº": 3470,
      "cháº¥t": 3471,
      "ĠÄĲc": 3472,
      "ĠÄĲá»įc": 3473,
      "Ġlá»ħ": 3474,
      "ĠVideo": 3475,
      "ĠtÃŃm": 3476,
      "ĠXe": 3477,
      "ggg": 3478,
      "ĠPhÃ¹ng": 3479,
      "Ġupdate": 3480,
      "Ġcorona": 3481,
      "Th": 3482,
      "dÄĳ": 3483,
      "gon": 3484,
      "kc": 3485,
      "Ġá»ĳng": 3486,
      "ĠnhÃ²": 3487,
      "Ġháº¥p": 3488,
      "Ġnáº¡p": 3489,
      "ĠsÆ¡n": 3490,
      "ĠgÃłng": 3491,
      "Ġpt": 3492,
      "ĠxÃ³m": 3493,
      "ĠTQ": 3494,
      "ĠTiáº¿n": 3495,
      "ĠTÆ°á»Łng": 3496,
      "ĠCÃĵ": 3497,
      "ina": 3498,
      "á»ĵm": 3499,
      "Ġdá»¥": 3500,
      "Ġokie": 3501,
      "ĠBÃłn": 3502,
      "ĠThi": 3503,
      "ĠNguyÃªn": 3504,
      "Ġhok": 3505,
      "tting": 3506,
      "ĠRa": 3507,
      "âĢĻ": 3508,
      "Ġ80": 3509,
      "ĠTá»§": 3510,
      "Ġchá»Ŀn": 3511,
      "Ġhehe": 3512,
      "ĠZalo": 3513,
      "ĠTrá»Ŀi": 3514,
      "TB": 3515,
      "náº¿u": 3516,
      "of": 3517,
      "§y": 3518,
      "Ġus": 3519,
      "Ġ\\\"": 3520,
      "ngÃły": 3521,
      "ĠtÃ´n": 3522,
      "Ġmh": 3523,
      "Ġmá»ĳt": 3524,
      "Ġláº¹": 3525,
      "Ġvao": 3526,
      "ĠvÃ¡y": 3527,
      "Ġvang": 3528,
      "ĠvÃµ": 3529,
      "Ġhet": 3530,
      "Ġnáº§y": 3531,
      "Ġthanks": 3532,
      "ĠtrÃ¹ng": 3533,
      "ĠÄĳá»¥": 3534,
      "ĠgiÃ¢y": 3535,
      "áº§ng": 3536,
      "Ġxung": 3537,
      "Ġvá»±c": 3538,
      "Ġphi": 3539,
      "Ġmá»ı": 3540,
      "ĠMÃ¡": 3541,
      "ĠMáº¡nh": 3542,
      "Ġkhui": 3543,
      "cher": 3544,
      "ĠHÃ£y": 3545,
      "anan": 3546,
      "kkd": 3547,
      "ĠBá»ĳ": 3548,
      "Ġloz": 3549,
      "ĠApp": 3550,
      "ĠNhi": 3551,
      "ĠMá»Ł": 3552,
      "Ġrep": 3553,
      "ĠIn": 3554,
      "ĠcÅ©g": 3555,
      "kfkf": 3556,
      "71": 3557,
      "sd": 3558,
      "tá»": 3559,
      "Æł": 3560,
      "Ġ%": 3561,
      "Ġtiá»ĥu": 3562,
      "ĠtÃ³m": 3563,
      "ĠÄĳÃłng": 3564,
      "ĠÄĳai": 3565,
      "ĠmÆ°á»£n": 3566,
      "ĠlÃ¡i": 3567,
      "ĠlÃµi": 3568,
      "ĠnhiÃªng": 3569,
      "Ġváº·t": 3570,
      "Ġhon": 3571,
      "ĠsáºŃp": 3572,
      "ĠthÆ°á»£ng": 3573,
      "Ġtháº£m": 3574,
      "Ġthá»ĳi": 3575,
      "ĠdÆ°Æ¡ng": 3576,
      "Ġpo": 3577,
      "ĠxÃ¬": 3578,
      "ĠTai": 3579,
      "ĠpháºŃn": 3580,
      "ĠnhÆ°g": 3581,
      "Ġhá»Ŀi": 3582,
      "ĠhÃ¢": 3583,
      "ĠSang": 3584,
      "ĠHN": 3585,
      "ĠÄĲáº¡t": 3586,
      "ĠVÃŃ": 3587,
      ".......": 3588,
      "ĠNgá»": 3589,
      "ĠAnd": 3590,
      "á»ĭn": 3591,
      "Ġsá»ĳc": 3592,
      "Ġkhá»Ľp": 3593,
      "ĠRam": 3594,
      "ĠxuÃ¢n": 3595,
      "jsks": 3596,
      "Ãµm": 3597,
      "Ġthuong": 3598,
      "ĠHoÃłi": 3599,
      "ĠPhÃºc": 3600,
      "ssssssss": 3601,
      "____": 3602,
      "ÃĮNH": 3603,
      "ĠphÃ³ng": 3604,
      "07": 3605,
      "65": 3606,
      "91": 3607,
      "bw": 3608,
      "eng": 3609,
      "Ľn": 3610,
      "ĠcÃ¹i": 3611,
      "ĠÄĳáº§m": 3612,
      "ĠmÃ¹": 3613,
      "ĠlÆ°á»¡ng": 3614,
      "Ġvu": 3615,
      "Ġchiáº¿u": 3616,
      "Ġná»ĳt": 3617,
      "Ġsáº¿p": 3618,
      "Ġbáº£ng": 3619,
      "Ġbth": 3620,
      "Ġdáº¹p": 3621,
      "Ġráº£nh": 3622,
      "ĠtrÆ°á»£t": 3623,
      "Ġxáº£y": 3624,
      "ĠTá»ĳi": 3625,
      "Ġphá»ĳi": 3626,
      "ĠMi": 3627,
      "ĠMo": 3628,
      "ĠNay": 3629,
      "Ġcá»Ļt": 3630,
      "Ġbá»Ŀ": 3631,
      "Ġkhá»ĳn": 3632,
      "ĠhÃ¹": 3633,
      "ĠHÃłn": 3634,
      "ĠHiá»ĩp": 3635,
      "ĠÄĲáº·ng": 3636,
      "ĠchÃ¬": 3637,
      "ĠViettel": 3638,
      "ĠÄĳÃ³n": 3639,
      "ĠLÆ°u": 3640,
      "ĠBÃł": 3641,
      "ĠBan": 3642,
      "ĠBá»ĭ": 3643,
      "nnd": 3644,
      "Ä©u": 3645,
      "ĠRá»ĵi": 3646,
      "ĠÄĲá»ģ": 3647,
      "ard": 3648,
      "ore": 3649,
      "ĠÃĶi": 3650,
      "eeeeeeeeeeeeeeee": 3651,
      "ĠShipper": 3652,
      "wwwwwwww": 3653,
      "ÃĤN": 3654,
      "ĠNghÄ©": 3655,
      "ĠNgoÃłi": 3656,
      "75": 3657,
      "AT": 3658,
      "bg": 3659,
      "cam": 3660,
      "mz": 3661,
      "ne": 3662,
      "ug": 3663,
      "vÃ¢n": 3664,
      "ver": 3665,
      "ĩn": 3666,
      "áº®": 3667,
      "ĠÄĳáº±ng": 3668,
      "Ġmixi": 3669,
      "hÃ¬nh": 3670,
      "Ġháº£i": 3671,
      "ĠnÃ´ng": 3672,
      "ĠdÆ°ng": 3673,
      "ĠdÃ¢m": 3674,
      "ĠtrÃ´i": 3675,
      "Ġtruyá»ĩn": 3676,
      "ĠlÃło": 3677,
      "ĠCáº§m": 3678,
      "Ġchá»£": 3679,
      "Ġbá»±": 3680,
      "Ġbá»Ļt": 3681,
      "Ġluon": 3682,
      "ĠLÃ¢u": 3683,
      "ĠLÆ°Æ¡ng": 3684,
      "ĠBÃ¹i": 3685,
      "ĠDe": 3686,
      "Ġfake": 3687,
      "Ġchá»©a": 3688,
      "ÄĳÃ³ng": 3689,
      "Ġ2020": 3690,
      "Ġhá»įp": 3691,
      "ĠÌ£": 3692,
      "ĠtÃ¹m": 3693,
      "ĠNhá»Ŀ": 3694,
      "ndndndnd": 3695,
      "ahahahah": 3696,
      "Ġtime": 3697,
      "rush": 3698,
      "24": 3699,
      ">>": 3700,
      "UY": 3701,
      "ey": 3702,
      "if": 3703,
      "sa": 3704,
      "tra": 3705,
      "ĠtáºŃt": 3706,
      "Ġtáº¯c": 3707,
      "ĠÄĳÃº": 3708,
      "Ġmac": 3709,
      "ĠmÃºa": 3710,
      "Ġnhai": 3711,
      "Ġváº£": 3712,
      "Ġhiá»ģn": 3713,
      "Ġnáº£n": 3714,
      "Ġnen": 3715,
      "Ġsay": 3716,
      "Ġsho": 3717,
      "ĠbáºŃn": 3718,
      "Ġbá»ĳc": 3719,
      "Ġngáº¯t": 3720,
      "ĠCá»ĳ": 3721,
      "ĠMa": 3722,
      "ĠHiá»ĩn": 3723,
      "Ġout": 3724,
      "ĠLÃ¢n": 3725,
      "Ġadd": 3726,
      "Ġye": 3727,
      "Ġ=))))))": 3728,
      "ĠPhÆ°á»Ľc": 3729,
      "oucher": 3730,
      "2020": 3731,
      "ĠtgdÄĳ": 3732,
      "jcjc": 3733,
      "ĠLá»Ĺi": 3734,
      "3333": 3735,
      ":)))": 3736,
      "ĠKhoa": 3737,
      "Ġá»Ĳp": 3738,
      "38": 3739,
      "UB": 3740,
      "_-": 3741,
      "by": 3742,
      "cá»": 3743,
      "dit": 3744,
      "ha": 3745,
      "hw": 3746,
      "ir": 3747,
      "md": 3748,
      "vÃł": 3749,
      "á»Ĺi": 3750,
      "Ġtik": 3751,
      "Ġck": 3752,
      "Ġcrush": 3753,
      "ĠmÃ´n": 3754,
      "ĠmÃ´ng": 3755,
      "Ġmáº»": 3756,
      "ĠlÃ£o": 3757,
      "Ġvd": 3758,
      "Ġview": 3759,
      "Ġsa": 3760,
      "ĠbÃ³": 3761,
      "ĠbÃ£": 3762,
      "ĠgÆ°Æ¡ng": 3763,
      "Ġreno": 3764,
      "Ġgiang": 3765,
      "Ġmá»±c": 3766,
      "Ġbá»ģ": 3767,
      "Ġkháº£o": 3768,
      "Ġkhuyáº¿t": 3769,
      "Ġkhach": 3770,
      "Ã²a": 3771,
      "ĠBáº£n": 3772,
      "ĠloÃłi": 3773,
      "nnn": 3774,
      "ĠXinh": 3775,
      "Ġká»ī": 3776,
      "Ġ-_-": 3777,
      "Ġ64": 3778,
      "Ġ70": 3779,
      "ĠId": 3780,
      "ĠIphone": 3781,
      "ĠThá»©": 3782,
      "ĠThá»±c": 3783,
      "Ġ????": 3784,
      "ĠChip": 3785,
      "áº¾T": 3786,
      "ĠhÃªn": 3787,
      "Ġptpppppppppppp": 3788,
      "55": 3789,
      "INH": 3790,
      "MÃ¡y": 3791,
      "OS": 3792,
      "na": 3793,
      "uong": 3794,
      "ĠtÃłn": 3795,
      "Ġcty": 3796,
      "ĠÄĳÃ³i": 3797,
      "ĠlÃ´i": 3798,
      "ĠbÃ´i": 3799,
      "ĠgÃ£y": 3800,
      "Ġdiá»ĩt": 3801,
      "Ġrau": 3802,
      "Ġngáº§m": 3803,
      "ĠquÃ©t": 3804,
      "Ġkhiá»ĥn": 3805,
      "ĠÄĲáº¿n": 3806,
      "Ã©n": 3807,
      "Ġ23": 3808,
      "ĠCháº£": 3809,
      "ĠLH": 3810,
      "áº«y": 3811,
      "ĠDa": 3812,
      "ĠDá»ĭch": 3813,
      "Ġ300": 3814,
      "ĠShopee": 3815,
      "ĠPham": 3816,
      "Ġis": 3817,
      "á»īnh": 3818,
      "Ġdien": 3819,
      "Ġsetting": 3820,
      "jaja": 3821,
      "ĠHuá»³nh": 3822,
      "ĠchÃ©n": 3823,
      "HÃłng": 3824,
      "OP": 3825,
      "mp": 3826,
      "nw": 3827,
      "nÃªn": 3828,
      "Łm": 3829,
      "ĠtÃº": 3830,
      "ĠcÆ¡n": 3831,
      "ĠÄĳam": 3832,
      "Ġmic": 3833,
      "ĠlÃ²i": 3834,
      "Ġlá»ĵng": 3835,
      "Ġnhi": 3836,
      "Ġchs": 3837,
      "Ġcháº£nh": 3838,
      "Ġninh": 3839,
      "Ġnil": 3840,
      "Ġbinh": 3841,
      "Ġgai": 3842,
      "ĠtrÃ¢n": 3843,
      "ĠTa": 3844,
      "ĠCÆ°á»Ŀi": 3845,
      "ĠMk": 3846,
      "ĠMáº¥t": 3847,
      "ĠMáº«u": 3848,
      "ĠSP": 3849,
      "ĠSá»ĳ": 3850,
      "ĠHáº±ng": 3851,
      "ĠHá»įc": 3852,
      "ĠÄĲáº§u": 3853,
      "Ġsá»ī": 3854,
      "ĠVi": 3855,
      "ĠViet": 3856,
      "Ġ22": 3857,
      "ĠChung": 3858,
      "Ġ35": 3859,
      "oom": 3860,
      "mmm": 3861,
      "iiiii": 3862,
      "bdb": 3863,
      "áºłI": 3864,
      "Ġgháº¿": 3865,
      "Ġsnap": 3866,
      "má»Ľi": 3867,
      "sáº£n": 3868,
      "tÃ´i": 3869,
      "uw": 3870,
      "Ġ~": 3871,
      "ĠÆ°á»Ľt": 3872,
      "ĠÆ¯": 3873,
      "ĠcÃły": 3874,
      "ĠmÃºn": 3875,
      "ĠlÃ²": 3876,
      "Ġvid": 3877,
      "ĠvÃ¡n": 3878,
      "Ġnx": 3879,
      "Ġsz": 3880,
      "ĠdÃ¬": 3881,
      "ĠtrÃ¬": 3882,
      "ĠÄĳá»¥ng": 3883,
      "ĠTá»Ļc": 3884,
      "ĠCÆ°á»Ŀng": 3885,
      "Ġmá»įc": 3886,
      "ini": 3887,
      "ĠcÃ¡n": 3888,
      "Ġ120": 3889,
      "ĠHáº¿t": 3890,
      "ĠHiá»ĩu": 3891,
      "ĠÄĲÄĥng": 3892,
      "ĠÄĲáº£ng": 3893,
      "ĠVÃło": 3894,
      "Ġ28": 3895,
      "Ġlum": 3896,
      "Ġná»Ł": 3897,
      "ĠLy": 3898,
      "ĠLá»Ļc": 3899,
      "ĠKiá»ģu": 3900,
      "ĠKá»ĩ": 3901,
      "nnx": 3902,
      "Ġtrá»ħ": 3903,
      "ĠhÃ£m": 3904,
      "ĠphÃ¡n": 3905,
      "Ġrá»«ng": 3906,
      "ĠHoang": 3907,
      "ĠFB": 3908,
      "bsb": 3909,
      "Ġokela": 3910,
      "zzz": 3911,
      "ĠUS": 3912,
      "ĠUy": 3913,
      "Ġvirus": 3914,
      "bdbdbdbd": 3915,
      "ĠhÃ²a": 3916,
      "Ġlaptop": 3917,
      "ĠPhÃ¡t": 3918,
      "ĠÄĲoÃłn": 3919,
      "ĠAndroid": 3920,
      ",...": 3921,
      "Ah": 3922,
      "mong": 3923,
      "ry": 3924,
      "vn": 3925,
      "vt": 3926,
      "Ġ>": 3927,
      "Ġam": 3928,
      "á»µ": 3929,
      "á»¹": 3930,
      "á»Ŀi": 3931,
      "Ġti": 3932,
      "Ġcáº¥n": 3933,
      "ĠÄĳÃŃch": 3934,
      "Ġmy": 3935,
      "ĠlÃ¡c": 3936,
      "Ġvuá»ĳt": 3937,
      "Ġsáº¥y": 3938,
      "Ġsoi": 3939,
      "Ġbanh": 3940,
      "Ġgáº¥u": 3941,
      "Ġgá»ĵm": 3942,
      "Ġnguyá»ħn": 3943,
      "ĠTiá»ĩp": 3944,
      "Ġphiá»ģn": 3945,
      "Ġmá»¡": 3946,
      "Ġmá»ĭ": 3947,
      "Ġchá»Ľ": 3948,
      "ĠMixi": 3949,
      "Ġá»§": 3950,
      "ĠVy": 3951,
      "ĠVinh": 3952,
      "Ġnhá»ĩn": 3953,
      "ĠThÆ°": 3954,
      "hhs": 3955,
      "kkkkkk": 3956,
      "Ġ=]]": 3957,
      "ĠÄĲá»Ĺ": 3958,
      "Ġcovid": 3959,
      "llo": 3960,
      "ĠChá»§": 3961,
      "Ġthich": 3962,
      "ĠLoáº¡i": 3963,
      "jxjx": 3964,
      "ĠJack": 3965,
      "ĠhÃ³ng": 3966,
      "box": 3967,
      "ĠCovid": 3968,
      "ctive": 3969,
      "ship": 3970,
      "UBG": 3971,
      "99": 3972,
      "KI": 3973,
      "Tu": 3974,
      "gf": 3975,
      "jo": 3976,
      "lÃºc": 3977,
      "set": 3978,
      "uv": 3979,
      "Ġáº§m": 3980,
      "Ġ........": 3981,
      "á»Ł": 3982,
      "ĠÄĳáº¯ng": 3983,
      "Ġml": 3984,
      "ĠmÆ°á»Ľt": 3985,
      "ĠmÃµm": 3986,
      "ĠlÄĥn": 3987,
      "ĠnhÄĥn": 3988,
      "Ġhan": 3989,
      "Ġhinh": 3990,
      "Ġchuyen": 3991,
      "Ġkb": 3992,
      "Ġbro": 3993,
      "ĠbÃ³p": 3994,
      "Ġbit": 3995,
      "Ġgui": 3996,
      "Ġgalaxy": 3997,
      "Ġthai": 3998,
      "Ġden": 3999,
      "Ġpr": 4000,
      "Ġgio": 4001,
      "ĠlÃłn": 4002,
      "ĠTP": 4003,
      "ĠTÃłu": 4004,
      "Ġvá»Ľ": 4005,
      "ĠMáº¹": 4006,
      "ĠNÃły": 4007,
      "ĠNÆ°á»Ľc": 4008,
      "Ġque": 4009,
      "Ġquá»·": 4010,
      "aming": 4011,
      "Ġtá»ĵn": 4012,
      "ĠSi": 4013,
      "ĠHáº¡nh": 4014,
      "Ġ:'": 4015,
      "emote": 4016,
      "ĠChiáº¿n": 4017,
      "ĠLÃ¢m": 4018,
      "ĠBáº±ng": 4019,
      "ĠNhÆ°á»£c": 4020,
      "ĠÄĳá»ĵn": 4021,
      "eee": 4022,
      "ĠÄĳá»ģn": 4023,
      "Ġtag": 4024,
      "ĠPháº§n": 4025,
      "ĠQuáº£ng": 4026,
      "fifi": 4027,
      "Ġ:))))))": 4028,
      "ĠÄĳoÃ¡n": 4029,
      "Ġtá»ķn": 4030,
      "Ġapple": 4031,
      "uuuuuuuuuuuuuuuu": 4032,
      "ĠLuÃ´n": 4033,
      "áº¦N": 4034,
      "Ġ4500": 4035,
      "br": 4036,
      "khi": 4037,
      "láº§n": 4038,
      "tjd": 4039,
      "±t": 4040,
      "Ãĥ": 4041,
      "Ġ_": 4042,
      "ĠtÃ´ng": 4043,
      "Ġtáº§ng": 4044,
      "ĠcÆ°": 4045,
      "ĠmÃ¡c": 4046,
      "Ġmáº·n": 4047,
      "ĠlÃ¹i": 4048,
      "Ġnhiu": 4049,
      "ĠvÃ¡": 4050,
      "Ġviet": 4051,
      "Ġhn": 4052,
      "Ġhs": 4053,
      "Ġhiáº¿n": 4054,
      "Ġhuyá»ģn": 4055,
      "Ġchang": 4056,
      "Ġkiáº¿p": 4057,
      "ĠnÃ¢u": 4058,
      "ĠnÃºi": 4059,
      "Ġsac": 4060,
      "Ġbik": 4061,
      "ĠbÃŃt": 4062,
      "Ġbáº¯p": 4063,
      "Ġgu": 4064,
      "ĠgÃµ": 4065,
      "Ġdoi": 4066,
      "Ġro": 4067,
      "Ġpe": 4068,
      "ĠxÄ©u": 4069,
      "ĠTÆ°": 4070,
      "ĠTÃŃnh": 4071,
      "Ġmá»Ŀi": 4072,
      "ĠMU": 4073,
      "Ġcá»©c": 4074,
      "ĠSiÃªu": 4075,
      "ĠHO": 4076,
      "ĠHáº¡t": 4077,
      "ĠÄĲinh": 4078,
      "ĠquÃ¡i": 4079,
      "ans": 4080,
      "ĠVin": 4081,
      "ĠGhÃ": 4082,
      "ĠCháº¡y": 4083,
      "ĠThua": 4084,
      "ĠKiá»ĥu": 4085,
      "ĠNgÃ¢n": 4086,
      "ĠTrÃ¢n": 4087,
      "Ġfla": 4088,
      "Ġsiu": 4089,
      "ĠRá»": 4090,
      "ĠPhong": 4091,
      "Ġngá»¯": 4092,
      "Ġjack": 4093,
      "2019": 4094,
      "ĠQuan": 4095,
      "ncnc": 4096,
      "Ġruá»ĵi": 4097,
      "ĠYouTu": 4098,
      "Ġwith": 4099,
      "Ġshare": 4100,
      "ĠnhÃ²e": 4101,
      "ĠIdol": 4102,
      "ĠYouTube": 4103,
      "Ok": 4104,
      "bj": 4105,
      "lon": 4106,
      "like": 4107,
      "phÃ": 4108,
      "xt": 4109,
      "ĠÆ°a": 4110,
      "Ġ................": 4111,
      "Ġ!!!!": 4112,
      "Ġtn": 4113,
      "Ġmen": 4114,
      "ĠlÆ°á»¡i": 4115,
      "Ġcháº·n": 4116,
      "ĠnÃł": 4117,
      "Ġbáº§u": 4118,
      "ĠbÆ¡m": 4119,
      "Ġbluetooth": 4120,
      "ĠdÃ´": 4121,
      "Ġduyá»ĩt": 4122,
      "Ġtro": 4123,
      "ĠTÃ¢y": 4124,
      "ĠTiáº¿c": 4125,
      "Ġvá»Ļi": 4126,
      "Ġphan": 4127,
      "ĠphÆ°á»Ŀng": 4128,
      "Ġpháº¥n": 4129,
      "ĠCl": 4130,
      "ĠCÃł": 4131,
      "ĠMÆ°á»£t": 4132,
      "ĠNÄĥm": 4133,
      "Ġcá»Ń": 4134,
      "ĠSA": 4135,
      "ĠSam": 4136,
      "ĠHÃ¹ng": 4137,
      "ĠHáºŃu": 4138,
      "Ġthá»Ł": 4139,
      "Ġthá»Ľt": 4140,
      "ĠÄĲÃ³": 4141,
      "Ġdá»ĥ": 4142,
      "ĠchÃ©p": 4143,
      "Ġoff": 4144,
      "Ġlá»Ńa": 4145,
      "ĠÄĳÃ£i": 4146,
      "ĠPUBG": 4147,
      "Ġloc": 4148,
      "jdbd": 4149,
      "jdkd": 4150,
      "mment": 4151,
      "Ġbuá»Ļc": 4152,
      "ĠÄĲá»ķi": 4153,
      "Ġrá»¥ng": 4154,
      "Ġnot": 4155,
      "jsjsjsjs": 4156,
      "jeje": 4157,
      "jgjg": 4158,
      "keke": 4159,
      "tion": 4160,
      "ĠKHÃĶNG": 4161,
      "Ġcmnr": 4162,
      "ĠÃĤm": 4163,
      "ĠApple": 4164,
      "15": 4165,
      "35": 4166,
      "80": 4167,
      "io": 4168,
      "mb": 4169,
      "á»Ĳ": 4170,
      "Ġtuyá»ĥn": 4171,
      "ĠmÃ²": 4172,
      "ĠláºŃt": 4173,
      "Ġchiáº¿m": 4174,
      "Ġbl": 4175,
      "Ġga": 4176,
      "Ġgáº¡t": 4177,
      "Ġthik": 4178,
      "Ġdth": 4179,
      "ĠrÃ¢u": 4180,
      "Ġriáº¿t": 4181,
      "ĠrÃ²i": 4182,
      "ĠthÃ¹": 4183,
      "Ġtrao": 4184,
      "ĠtrÃłn": 4185,
      "ĠtrÆ°ng": 4186,
      "ĠÄĳá»ĩm": 4187,
      "ĠkhÃ¢u": 4188,
      "Ġxui": 4189,
      "ĠCÃģ": 4190,
      "Ġbá»įt": 4191,
      "Ã¹n": 4192,
      "Ġkhiáº¿p": 4193,
      "ĠSan": 4194,
      "ĠchÃ¨": 4195,
      "ĠVui": 4196,
      "Ġnhá»Ł": 4197,
      "ĠBluetooth": 4198,
      "ĠTháº¯ng": 4199,
      "Ġhot": 4200,
      "Æ°á»Łi": 4201,
      "ĠQuÃ½": 4202,
      "ĠKhÃ³": 4203,
      "ĠÃĢ": 4204,
      "ĠÃļ": 4205,
      "cker": 4206,
      "Ġcafe": 4207,
      "ĠPhÃº": 4208,
      "ĠSá»£": 4209,
      "ĠSá»¯a": 4210,
      "ĠCHO": 4211,
      "ĠNhá»Ľ": 4212,
      "ĠHá»¯u": 4213,
      "ĠmuÃ´n": 4214,
      "áºµng": 4215,
      "ĠTRá»": 4216,
      "okokokokok": 4217,
      "ĠkhÃŃt": 4218,
      "Æ¯á»¢": 4219,
      "nnnnnnnnnnnnnnnnnnnnnnnnnnnnnnnn": 4220,
      "cccccccc": 4221,
      "ĠÄĳÄ©a": 4222,
      "\".": 4223,
      "40": 4224,
      "64": 4225,
      "ONG": 4226,
      "ara": 4227,
      "fh": 4228,
      "giá»": 4229,
      "ite": 4230,
      "nt": 4231,
      "ram": 4232,
      "¢t": 4233,
      "©o": 4234,
      "Ġao": 4235,
      "Ġtáº§n": 4236,
      "ĠÄĳáº¥m": 4237,
      "ĠmÃºt": 4238,
      "ĠláºŃn": 4239,
      "Ġváº¯t": 4240,
      "Ġvkl": 4241,
      "ĠhÆ°á»Ľc": 4242,
      "Ġkkkkk": 4243,
      "Ġkaka": 4244,
      "Ġnch": 4245,
      "Ġgáº¡ch": 4246,
      "Ġthem": 4247,
      "Ġdz": 4248,
      "Ġngá»Ļt": 4249,
      "ĠTÃ¬nh": 4250,
      "ĠTiá»ĩn": 4251,
      "Ġvá»©t": 4252,
      "amam": 4253,
      "ĠSu": 4254,
      "ĠSon": 4255,
      "ĠSÃ³ng": 4256,
      "ĠHa": 4257,
      "Ġsá»ķ": 4258,
      "Ġ21": 4259,
      "Ġnhá»ĭn": 4260,
      "Ġná»Ļ": 4261,
      "ĠBe": 4262,
      "ĠBÃ¡n": 4263,
      "ĠDm": 4264,
      "ĠGiáº¥y": 4265,
      "ĠTrÃºc": 4266,
      "Ġwed": 4267,
      "ndn": 4268,
      "Ġngá»Ĺng": 4269,
      "jjf": 4270,
      "Ġgá»Ľm": 4271,
      "ĠYÃªn": 4272,
      "Ġnhuá»Ļm": 4273,
      "ĠÄĳuÃ´i": 4274,
      "hfhf": 4275,
      "alalalal": 4276,
      "rrrrrrrr": 4277,
      "ĠGoogle": 4278,
      "100": 4279,
      "EN": 4280,
      "MX": 4281,
      "NÃ³i": 4282,
      "UI": 4283,
      "cn": 4284,
      "dy": 4285,
      "ding": 4286,
      "gv": 4287,
      "game": 4288,
      "ion": 4289,
      "sáº½": 4290,
      "va": 4291,
      "Ġ'": 4292,
      "Ġáº¿": 4293,
      "Ġá»ĳ": 4294,
      "Ġeo": 4295,
      "ģu": 4296,
      "áºº": 4297,
      "ngay": 4298,
      "Ġtáº¥c": 4299,
      "ĠÄĳÆ°Æ¡": 4300,
      "ĠÄĳÃ¢m": 4301,
      "ĠmiÃªu": 4302,
      "Ġlay": 4303,
      "Ġliá»ĩt": 4304,
      "Ġnhin": 4305,
      "Ġham": 4306,
      "Ġhuawei": 4307,
      "Ġna": 4308,
      "Ġnon": 4309,
      "Ġná»ĵng": 4310,
      "Ġnokia": 4311,
      "Ġsáº¯t": 4312,
      "Ġbac": 4313,
      "ĠthÆ°á»Łng": 4314,
      "ĠdÃ¨": 4315,
      "Ġxl": 4316,
      "ĠxÃ¡ch": 4317,
      "ĠTÃłi": 4318,
      "Ġphiáº¿u": 4319,
      "ĠCÃ¡t": 4320,
      "ĠCÃ¡ch": 4321,
      "Ġchá»ķ": 4322,
      "Ġchá»Ł": 4323,
      "ĠMÃ¨o": 4324,
      "ĠNo": 4325,
      "ĠNinh": 4326,
      "Ġtá»ĵi": 4327,
      "ĠHÃĢ": 4328,
      "ĠÄĲÃ´ng": 4329,
      "ail": 4330,
      "Ġokokok": 4331,
      "ĠnghiÃªng": 4332,
      "ĠVl": 4333,
      "ĠVÃ£i": 4334,
      "Ġ29": 4335,
      "Ġnhá»ĥ": 4336,
      "ĠLÃ½": 4337,
      "ĠLÆ°á»Ľt": 4338,
      "ĠThiÃªn": 4339,
      "ĠDuyÃªn": 4340,
      "ĠTrÃªn": 4341,
      "Ġ400": 4342,
      "ĠXá»ĭn": 4343,
      "idid": 4344,
      "ime": 4345,
      "Ġngá»«": 4346,
      "Ġngá»©a": 4347,
      "Ġcomment": 4348,
      "Ġrá»Ŀi": 4349,
      "Ġgá»¡": 4350,
      "ĠThÃº": 4351,
      "usan": 4352,
      "Ġhic": 4353,
      "yyy": 4354,
      "Ġ:((((": 4355,
      "áº±n": 4356,
      "Ġ09": 4357,
      "Ġnuoc": 4358,
      "Ġthá»§y": 4359,
      "ĠBá»ı": 4360,
      "hihihihi": 4361,
      "gggggggggggggggg": 4362,
      "ĠchÃ©m": 4363,
      "Ġauto": 4364,
      "ĠSHOP": 4365,
      "cáº¥u": 4366,
      "do": 4367,
      "gj": 4368,
      "hay": 4369,
      "jjs": 4370,
      "lw": 4371,
      "mo": 4372,
      "mah": 4373,
      "ÄĤ": 4374,
      "ĠÃ´n": 4375,
      "įp": 4376,
      "á»ķng": 4377,
      "Ġtc": 4378,
      "ĠcÄĥn": 4379,
      "ĠÄĳáº©y": 4380,
      "ĠnhÃ¡i": 4381,
      "ĠnhÃ³m": 4382,
      "Ġvote": 4383,
      "Ġháº§u": 4384,
      "Ġchan": 4385,
      "Ġsáº¥p": 4386,
      "Ġtháº£i": 4387,
      "Ġdáº¡i": 4388,
      "ĠdáºŃp": 4389,
      "Ġdá»ĳi": 4390,
      "ĠdÃ£n": 4391,
      "Ġtroi": 4392,
      "ĠTá»ĳc": 4393,
      "ĠCÆ¡": 4394,
      "ĠCÃ¹ng": 4395,
      "ĠCáº§u": 4396,
      "ĠhÃ¹ng": 4397,
      "chch": 4398,
      "ĠHÃ³ng": 4399,
      "ĠgiÃ¡m": 4400,
      "ĠkhÃ¡nh": 4401,
      "ĠKM": 4402,
      "ĠDÅ©ng": 4403,
      "Ġloi": 4404,
      "ena": 4405,
      "ĠhoÃł": 4406,
      "ery": 4407,
      "Ġphá»ıng": 4408,
      "ieie": 4409,
      "Ġsoáº¡n": 4410,
      "Ġit": 4411,
      "Ġbass": 4412,
      "Ġjoy": 4413,
      "Ġreset": 4414,
      "ĠKhÄĥn": 4415,
      "ort": 4416,
      "jdjdjd": 4417,
      "Ġ128": 4418,
      "ĠXuáº¥t": 4419,
      "ticker": 4420,
      "okokokokokokokok": 4421,
      "thÃ¡ng": 4422,
      "///": 4423,
      "Äĳá»ĥ": 4424,
      "bh": 4425,
      "bbd": 4426,
      "ge": 4427,
      "gy": 4428,
      "lx": 4429,
      "má»įi": 4430,
      "py": 4431,
      "Ãī": 4432,
      "ĠtÃło": 4433,
      "ĠÄĳÃł": 4434,
      "ĠÄĳinh": 4435,
      "Ġmá»ĳi": 4436,
      "Ġláº·ng": 4437,
      "Ġláº»o": 4438,
      "Ġvong": 4439,
      "Ġhá»ĳt": 4440,
      "ĠchÃłng": 4441,
      "Ġchet": 4442,
      "ĠniÃªm": 4443,
      "ĠbÃº": 4444,
      "ĠbÃŃ": 4445,
      "Ġbalo": 4446,
      "ĠgÃ¡nh": 4447,
      "Ġdáº§y": 4448,
      "ĠrÃŃt": 4449,
      "Ġpa": 4450,
      "Ġnguyá»ĩn": 4451,
      "Ġgiáº·c": 4452,
      "ĠxÆ°Æ¡ng": 4453,
      "Ġqa": 4454,
      "ĠCT": 4455,
      "Ġchá»Ŀi": 4456,
      "ĠMang": 4457,
      "ĠhÃ¢m": 4458,
      "cháº¯c": 4459,
      "Ġtá»Łm": 4460,
      "ĠSÃ¡ch": 4461,
      "áº·m": 4462,
      "ĠHuawei": 4463,
      "ĠÄĲÆ¡n": 4464,
      "Ġsá»¥t": 4465,
      "Ġnghiá»ĩn": 4466,
      "ĠVÃĢ": 4467,
      "Ġnhá»ĭ": 4468,
      "ĠLáº¯p": 4469,
      "ĠLike": 4470,
      "ĠThank": 4471,
      "ĠTrend": 4472,
      "ĠTrá»ĭnh": 4473,
      "Æ°á»Ŀn": 4474,
      "ragon": 4475,
      "Ġtrá»¯": 4476,
      "ĠXá»": 4477,
      "Ġngoan": 4478,
      "Ġwf": 4479,
      "ĠQuáº¡t": 4480,
      "Ġios": 4481,
      "ĠÄĲá»§": 4482,
      "Ġrá»§": 4483,
      "Ġ98": 4484,
      "Ġnow": 4485,
      "gian": 4486,
      "Ġself": 4487,
      "ĠLoan": 4488,
      "Ġvien": 4489,
      "ĠÃģnh": 4490,
      "Ġbest": 4491,
      "ĠHihi": 4492,
      "zzzzzzzz": 4493,
      "dddddddddddddddd": 4494,
      "ĠTIKI": 4495,
      "ĠHello": 4496,
      "Ġselfie": 4497,
      "23": 4498,
      ":((": 4499,
      "AR": 4500,
      "ET": 4501,
      "bv": 4502,
      "cs": 4503,
      "com": 4504,
      "did": 4505,
      "kr": 4506,
      "kt": 4507,
      "xin": 4508,
      "zg": 4509,
      "ÃĴ": 4510,
      "áº¨": 4511,
      "Ġtáº¡p": 4512,
      "ĠtÄ©nh": 4513,
      "Ġtiep": 4514,
      "Ġcáº£n": 4515,
      "ĠcÃłnh": 4516,
      "ĠÄĳung": 4517,
      "ĠmáºŃp": 4518,
      "ĠlÃ³": 4519,
      "ĠlÃ¬": 4520,
      "Ġlang": 4521,
      "Ġláº¡y": 4522,
      "Ġnhen": 4523,
      "Ġky": 4524,
      "ĠsÃ´i": 4525,
      "Ġbáº¡i": 4526,
      "Ġbon": 4527,
      "ĠbÃªnh": 4528,
      "Ġdá»ĳt": 4529,
      "ĠngÃ¢n": 4530,
      "ĠngÃłnh": 4531,
      "Ġngáº¡t": 4532,
      "ĠthÃª": 4533,
      "Ġxá»ĳp": 4534,
      "ĠCÃ¢u": 4535,
      "ĠCÃ¢y": 4536,
      "ĠMiáº¿ng": 4537,
      "ĠquÃ¨": 4538,
      "ĠquÄĥng": 4539,
      "Ġhá»ī": 4540,
      "Ġhá»¥t": 4541,
      "ĠHong": 4542,
      "ĠÄĲá»Ļng": 4543,
      "Ġsá»ĭn": 4544,
      "ĠVn": 4545,
      "ĠVu": 4546,
      "ĠVÃ´": 4547,
      "ĠVivo": 4548,
      "ĠBalo": 4549,
      "ĠphÃº": 4550,
      "ĠKÃŃnh": 4551,
      "ĠDat": 4552,
      "Ġactive": 4553,
      "ĠNhu": 4554,
      "ĠNháº¥t": 4555,
      "ĠtÃŃt": 4556,
      "ĠnhÃ©t": 4557,
      "ĠchÃºa": 4558,
      "Ġphá»©c": 4559,
      "ĠÆ¡iii": 4560,
      "ĠÆ¡iiii": 4561,
      "bdnd": 4562,
      "Ġmake": 4563,
      "ĠTá»ķ": 4564,
      "Ġ01": 4565,
      "Ġmot": 4566,
      "Ġmobile": 4567,
      "nsnsnsns": 4568,
      "ĠTrá»«": 4569,
      "bbbbbbbb": 4570,
      "mmmmmmmmmmmmmmmm": 4571,
      "Ġcombo": 4572,
      "ĠchÃ¹i": 4573,
      "ĠPhá»¥c": 4574,
      "ĠÆ¯u": 4575,
      "Pin": 4576,
      "bn": 4577,
      "cÃ¡c": 4578,
      "dj": 4579,
      "mg": 4580,
      "ys": 4581,
      "Ġtv": 4582,
      "Ġtiet": 4583,
      "Ġcau": 4584,
      "ĠcÃ¢m": 4585,
      "Ġmáº¿n": 4586,
      "ĠmÃ³ng": 4587,
      "Ġmini": 4588,
      "ĠlÃ¢n": 4589,
      "ĠnhÃ£n": 4590,
      "Ġvoucher": 4591,
      "ĠkÃ©p": 4592,
      "Ġsmart": 4593,
      "Ġbai": 4594,
      "Ġbang": 4595,
      "Ġgg": 4596,
      "Ġthg": 4597,
      "Ġdlv": 4598,
      "ĠrÃ¡ng": 4599,
      "ĠngÅ©": 4600,
      "Ġtrinh": 4601,
      "ĠxÄĥng": 4602,
      "ĠCÃ¡": 4603,
      "Ġchá»įc": 4604,
      "ĠNv": 4605,
      "ĠNokia": 4606,
      "ĠquáºŃn": 4607,
      "Ġbá»ī": 4608,
      "Ġkháº¯p": 4609,
      "ĠHaha": 4610,
      "Ġthá»Ŀ": 4611,
      "Ġsá»£i": 4612,
      "Ġ27": 4613,
      "ĠGá»įi": 4614,
      "ĠÄĳá»ĥu": 4615,
      "ĠBÃ¢y": 4616,
      "ĠDáº¡o": 4617,
      "ĠTráº£i": 4618,
      "ĠTrÆ°Æ¡ng": 4619,
      "Ġtuong": 4620,
      "ĠChÃ³": 4621,
      "ĠChÃ¢n": 4622,
      "ĠTá»©c": 4623,
      "bbx": 4624,
      "ĠChá»Ŀ": 4625,
      "Ġuá»ķng": 4626,
      "****": 4627,
      "ĠNhá»ı": 4628,
      "igh": 4629,
      "@@@@": 4630,
      "fund": 4631,
      "Ġlite": 4632,
      "ĠGood": 4633,
      "ĠGá»Ńi": 4634,
      "Ġfire": 4635,
      "quÃ¡": 4636,
      "Ġusb": 4637,
      "Ġshow": 4638,
      "ĠSize": 4639,
      "09": 4640,
      "LE": 4641,
      "LV": 4642,
      "mÃłu": 4643,
      "pu": 4644,
      "ue": 4645,
      "xi": 4646,
      "Ġáº©n": 4647,
      "áº¸": 4648,
      "ĠÄĳÃ¨": 4649,
      "ĠÄĳÃłnh": 4650,
      "ĠÄĳiá»ĩu": 4651,
      "ĠnhÆ°á»£c": 4652,
      "Ġháº±ng": 4653,
      "Ġcháº£o": 4654,
      "Ġgáº¯t": 4655,
      "Ġtháº£o": 4656,
      "Ġrong": 4657,
      "Ġráº½": 4658,
      "ĠrÃ¡t": 4659,
      "Ãªng": 4660,
      "ĠtrÃ³c": 4661,
      "Ġgiong": 4662,
      "ĠgiÆ°á»Ŀng": 4663,
      "ĠxÃ¡m": 4664,
      "ĠTáºŃp": 4665,
      "ĠTks": 4666,
      "ĠTá»Ļi": 4667,
      "Ġvá»¯ng": 4668,
      "Ġphá»ĳt": 4669,
      "Ġphone": 4670,
      "ĠMe": 4671,
      "ĠMoi": 4672,
      "ĠNV": 4673,
      "Ġá»«": 4674,
      "Ġcá»ı": 4675,
      "Ġbá»ĵn": 4676,
      "Ġhá»ķng": 4677,
      "Ġkhe": 4678,
      "ĠSale": 4679,
      "ĠHCM": 4680,
      "Ġlá»¥c": 4681,
      "Ġlá»ķi": 4682,
      "Ġ26": 4683,
      "ĠLa": 4684,
      "ĠLam": 4685,
      "ĠBÃ¡nh": 4686,
      "áº«m": 4687,
      "ĠThay": 4688,
      "ppy": 4689,
      "Ġnhaaaaa": 4690,
      "Ġtuc": 4691,
      "rab": 4692,
      "Ġkhá»±ng": 4693,
      "Ġchug": 4694,
      "Ġngá»±c": 4695,
      "ahaa": 4696,
      "ĠziÃªn": 4697,
      "Ġload": 4698,
      "Ġtuyáº¿n": 4699,
      "pháº£i": 4700,
      "Ġdell": 4701,
      "Ġ??????": 4702,
      "Ġinch": 4703,
      "Ġ03": 4704,
      "ffff": 4705,
      ",,,": 4706,
      "Ġmuon": 4707,
      "iá»ħu": 4708,
      "ĠChuá»Ļt": 4709,
      "Ġ198": 4710,
      "Ġdmx": 4711,
      "tttttttttttttttttttttttt": 4712,
      "ĠhÃ¨n": 4713,
      "ĠCuá»Ļc": 4714,
      "enger": 4715,
      "Ġflash": 4716,
      "ĠÄĳÆ°Æ¡c": 4717,
      "Ġokokoko": 4718,
      ".-": 4719,
      ":)": 4720,
      "=))": 4721,
      "Tr": 4722,
      "UNG": 4723,
      "coy": 4724,
      "db": 4725,
      "dragon": 4726,
      "jn": 4727,
      "ki": 4728,
      "nam": 4729,
      "sp": 4730,
      "sjs": 4731,
      "xem": 4732,
      "¹y": 4733,
      "ĠâĢ¦": 4734,
      "ĠtuyÃªn": 4735,
      "Ġcame": 4736,
      "Ġcáº¡o": 4737,
      "ĠÄĳg": 4738,
      "ĠÄĳáº¯n": 4739,
      "ĠvÃ©": 4740,
      "Ġchuyáº¿n": 4741,
      "Ġnáº¡": 4742,
      "ĠnÃłng": 4743,
      "Ġsticker": 4744,
      "ĠbÃ´": 4745,
      "Ġbáº¡o": 4746,
      "ĠthÄĥm": 4747,
      "ĠdÃ¢u": 4748,
      "ĠdÄĥm": 4749,
      "Ġtráº§m": 4750,
      "Ġtrog": 4751,
      "ĠÄĳá»¥c": 4752,
      "Ġxai": 4753,
      "ĠTÃ³c": 4754,
      "ĠmÃłi": 4755,
      "ĠquÃłi": 4756,
      "Ġquáº¥n": 4757,
      "Ġá»Ŀ": 4758,
      "Ġhá»©a": 4759,
      "Ġkhá»ĳi": 4760,
      "Ġkhac": 4761,
      "Ãºm": 4762,
      "ĠHá»ĵi": 4763,
      "ĠHá»į": 4764,
      "Ġthá»£": 4765,
      "Ġthá»ı": 4766,
      "ĠÄĲÃł": 4767,
      "ĠÄĲáº¡i": 4768,
      "ĠÄĲem": 4769,
      "ĠÄĲÃ´i": 4770,
      "ĠkhÃ¡m": 4771,
      "ĠVote": 4772,
      "Ġná»¥": 4773,
      "ĠGÃ²n": 4774,
      "ĠThe": 4775,
      "ĠTháº¯m": 4776,
      "ĠNga": 4777,
      "Ġnhah": 4778,
      "Ġnhaaa": 4779,
      "Ġfix": 4780,
      "Ġkhoa": 4781,
      "ĠchÃ¡t": 4782,
      "Ġ720": 4783,
      "Ġzai": 4784,
      "ĠThÃ´ng": 4785,
      "ĠThÃªm": 4786,
      "ĠThÃ¹y": 4787,
      "kdnd": 4788,
      "ĠFrom": 4789,
      "Ġvlog": 4790,
      "ĠTá»ķng": 4791,
      "gigi": 4792,
      "iÃªt": 4793,
      "ĠKháº©u": 4794,
      "ĠTHá»": 4795,
      "ĠBá»¯a": 4796,
      "Æ¯á»ļ": 4797,
      "Æ¯á»ľI": 4798,
      "Ġhuynh": 4799,
      "chÃ¡n": 4800,
      "tern": 4801,
      "ĠTest": 4802,
      "ĠUSB": 4803,
      "ĠMUA": 4804,
      "CC": 4805,
      "PT": 4806,
      "bá»": 4807,
      "cv": 4808,
      "hÃłng": 4809,
      "jjd": 4810,
      "op": 4811,
      "~~": 4812,
      "ÃĻ": 4813,
      "Ġáº»": 4814,
      "áº¶": 4815,
      "ĠtÃºc": 4816,
      "ĠÄĳe": 4817,
      "ĠÄĳáº¯c": 4818,
      "ĠÄĳag": 4819,
      "ĠmÃ¢y": 4820,
      "Ġmáº£nh": 4821,
      "ĠmÄ©": 4822,
      "ĠlÃ£i": 4823,
      "ĠlÄ©nh": 4824,
      "ĠnhÃ¡y": 4825,
      "Ġnháº½": 4826,
      "ĠnháºŃu": 4827,
      "ĠvÃ²i": 4828,
      "Ġhahaha": 4829,
      "Ġnáº¿t": 4830,
      "Ġser": 4831,
      "Ġbáº¡": 4832,
      "ĠbÃło": 4833,
      "Ġgan": 4834,
      "Ġghe": 4835,
      "ĠrÃ¢t": 4836,
      "ĠthÃ¢": 4837,
      "Ġtrá»ĳng": 4838,
      "ĠkhÃ©o": 4839,
      "ĠTB": 4840,
      "ĠTin": 4841,
      "ĠTáº¥n": 4842,
      "ĠCO": 4843,
      "ĠMI": 4844,
      "ĠMáº¡ng": 4845,
      "Ġquáº¥t": 4846,
      "Ġquá»³": 4847,
      "Ġcá»«": 4848,
      "ĠhÃ¡ng": 4849,
      "ĠÄĲá»ĭt": 4850,
      "Ġlá»Ŀ": 4851,
      "Äĥc": 4852,
      "ĠkhÃ¡ng": 4853,
      "ĠGá»ĳi": 4854,
      "Ġquai": 4855,
      "Ġalo": 4856,
      "ĠGiáº£m": 4857,
      "ĠÄĳcm": 4858,
      "Ġlogo": 4859,
      "Ġhome": 4860,
      "ĠNháº¡c": 4861,
      "Ġtuá»³": 4862,
      "Ġfrom": 4863,
      "Ġsá»ĳp": 4864,
      "Ġsá»ĳt": 4865,
      "jsjd": 4866,
      "ood": 4867,
      "Ġbuá»ĵi": 4868,
      "ĠÄĲá»£t": 4869,
      "Ġji": 4870,
      "ĠzÃ´": 4871,
      "ĠChÃ¡": 4872,
      "Ġdiem": 4873,
      "Ġ1000": 4874,
      "ĠThá»Ń": 4875,
      "Ġdeal": 4876,
      "tttttttttttt": 4877,
      "Ġ150": 4878,
      "ĠThá»ĭnh": 4879,
      "jgx": 4880,
      "ksksks": 4881,
      "ase": 4882,
      "Ġboss": 4883,
      "chá»©": 4884,
      "jzjz": 4885,
      "Ġtruoc": 4886,
      "iiiiiiiiiiiiiiiiiiiiiiiiiiiiiiii": 4887,
      "ĠNgoáº¡i": 4888,
      "ĠKhá»ķ": 4889,
      "Ġnilon": 4890,
      "ĠUyÃªn": 4891,
      ":))))": 4892,
      "EO": 4893,
      "TM": 4894,
      "ci": 4895,
      "da": 4896,
      "dm": 4897,
      "iz": 4898,
      "may": 4899,
      "rm": 4900,
      "so": 4901,
      "sks": 4902,
      "xÃłi": 4903,
      "Ġik": 4904,
      "ĭt": 4905,
      "ļI": 4906,
      "á»ĥ": 4907,
      "Ġtp": 4908,
      "ĠtÃ¢n": 4909,
      "Ġcáº¥t": 4910,
      "nhÃ¬n": 4911,
      "Ġlá»ĵ": 4912,
      "ĠnháºŃy": 4913,
      "Ġnháº£m": 4914,
      "ĠvÃ£": 4915,
      "ĠvÃ¢ng": 4916,
      "Ġháº¡ng": 4917,
      "Ġchá»ĳi": 4918,
      "Ġnet": 4919,
      "ĠsÃ³t": 4920,
      "Ġsusan": 4921,
      "ĠgÃª": 4922,
      "ĠgÃ²n": 4923,
      "Ġthank": 4924,
      "Ġdáº¯t": 4925,
      "ĠrÃ¬": 4926,
      "Ġremote": 4927,
      "ĠthÃ³": 4928,
      "ĠthÃºc": 4929,
      "ĠgiÃ¹m": 4930,
      "ĠTV": 4931,
      "ĠTÃ¡o": 4932,
      "Ġphu": 4933,
      "Ġphun": 4934,
      "ĠCm": 4935,
      "ĠCáº©m": 4936,
      "ĠMic": 4937,
      "ĠMÃĮNH": 4938,
      "Ġkhinh": 4939,
      "chi": 4940,
      "Ġtá»©": 4941,
      "ĠSe": 4942,
      "ĠSÃ¡ng": 4943,
      "ĠÄĲáºŃu": 4944,
      "ĠÄĲá»ĭnh": 4945,
      "Ġoan": 4946,
      "ÃŃn": 4947,
      "ĠVI": 4948,
      "ĠVá»ĭ": 4949,
      "Ġná»Ĺ": 4950,
      "ĠChiá»ģu": 4951,
      "ĠLáº¥y": 4952,
      "ĠLÃ£nh": 4953,
      "ĠKem": 4954,
      "ĠKinh": 4955,
      "ĠDate": 4956,
      "Ġall": 4957,
      "ĠPubg": 4958,
      "Ġ38": 4959,
      "Ġ3000": 4960,
      "ĠNgá»ĵi": 4961,
      "Ġnhaa": 4962,
      "ĠTrÃł": 4963,
      "ĠtuÃ½": 4964,
      "Ġkhá»±a": 4965,
      "Ġex": 4966,
      "Ġtá»±a": 4967,
      "ksn": 4968,
      "tel": 4969,
      "trong": 4970,
      "Å©a": 4971,
      "Ġthuá»·": 4972,
      "iiiiiii": 4973,
      "Ġ75": 4974,
      "Ġjo": 4975,
      "Ġzui": 4976,
      "Ġ2022": 4977,
      "lear": 4978,
      "ice": 4979,
      "Ġnhá»Ŀn": 4980,
      "ĠNHA": 4981,
      "ĠWi": 4982,
      "ĠTuÃ¢n": 4983,
      "hdhdhd": 4984,
      "Ġbox": 4985,
      "Ġandroi": 4986,
      "ĠNGÆ¯á»ľI": 4987,
      "hehehehe": 4988,
      "ĠLÃĢM": 4989,
      "rder": 4990,
      "NhÆ°ng": 4991,
      "Ġpost": 4992,
      "Ġ:'(": 4993,
      "ĠThÃºy": 4994,
      "CS": 4995,
      "NN": 4996,
      "TT": 4997,
      "ble": 4998,
      "du": 4999,
      "ft": 5000,
      "ffi": 5001,
      "jb": 5002,
      "kb": 5003,
      "mc": 5004,
      "pq": 5005,
      "sn": 5006,
      "sau": 5007,
      "stream": 5008,
      "tv": 5009,
      "vx": 5010,
      "vÃ¬": 5011,
      "vÅ©": 5012,
      "Ġáº©u": 5013,
      "Ġáº¤": 5014,
      "á»Ń": 5015,
      "Ġtk": 5016,
      "ĠtÃ©": 5017,
      "ĠtÃ¡i": 5018,
      "Ġtks": 5019,
      "Ġcá»ĳng": 5020,
      "ĠÄĳÃ¡y": 5021,
      "ĠÄĳÃ¹ng": 5022,
      "ĠmÃ¹ng": 5023,
      "Ġmieng": 5024,
      "ĠlÃ²n": 5025,
      "Ġlá»ĳi": 5026,
      "ĠlÃ£ng": 5027,
      "Ġvua": 5028,
      "ĠvÃ¢y": 5029,
      "Ġvá»ĳn": 5030,
      "ĠhÃłm": 5031,
      "Ġkiá»ģu": 5032,
      "ĠnÃ©": 5033,
      "Ġniá»ĩm": 5034,
      "ĠthÆ°a": 5035,
      "Ġpk": 5036,
      "Ġpháº§m": 5037,
      "ĠCom": 5038,
      "ĠCON": 5039,
      "ĠMC": 5040,
      "Ġbá»ĵ": 5041,
      "inow": 5042,
      "ĠnÃ³n": 5043,
      "ĠSS": 5044,
      "ĠSn": 5045,
      "ĠÄĲiá»ģu": 5046,
      "Ġdá»Ĺi": 5047,
      "Ġor": 5048,
      "Ġnghiá»ĩt": 5049,
      "ĠVáºŃn": 5050,
      "ĠChat": 5051,
      "ĠBÃ¡t": 5052,
      "ĠBÃºt": 5053,
      "ĠTháº§n": 5054,
      "Ġat": 5055,
      "ĠPIN": 5056,
      "ĠGiÃłu": 5057,
      "Ġ37": 5058,
      "Ġloan": 5059,
      "Ġlock": 5060,
      "ĠÄĳá»Ļt": 5061,
      "Ġhoáº¡i": 5062,
      "Ġtuá»Ļc": 5063,
      "0000": 5064,
      "Ġfai": 5065,
      "Ġkhá»ī": 5066,
      "Ġkhá»Ń": 5067,
      "jdn": 5068,
      "ĠngoÃ¡i": 5069,
      "ooo": 5070,
      "Äĳang": 5071,
      ".........": 5072,
      "ĠÄĲá»£i": 5073,
      "ĠzáºŃy": 5074,
      "Ġcuoi": 5075,
      "Ġrá»ĩt": 5076,
      "jjc": 5077,
      "ĠFu": 5078,
      "ĠTá»¥i": 5079,
      "Ġun": 5080,
      "kgx": 5081,
      "ĠUá»ĳng": 5082,
      "hxhx": 5083,
      "xxxx": 5084,
      "jjjjjjjj": 5085,
      "Ġ;))": 5086,
      "ĠhÃŃt": 5087,
      "ĠchÃ¹a": 5088,
      "----------------": 5089,
      "ĠGIÃģ": 5090,
      "qqqq": 5091,
      "Æ¯á»¢C": 5092,
      "ternet": 5093,
      "'s": 5094,
      "32": 5095,
      "68": 5096,
      "ANG": 5097,
      "VN": 5098,
      "ick": 5099,
      "line": 5100,
      "mAh": 5101,
      "no": 5102,
      "ny": 5103,
      "nÃ³": 5104,
      "pt": 5105,
      "tok": 5106,
      "ul": 5107,
      "váºŃy": 5108,
      "vá»Ľi": 5109,
      "Ġáº¹p": 5110,
      "á»«a": 5111,
      "nghe": 5112,
      "ĠtÃª": 5113,
      "Ġtgian": 5114,
      "ĠcÃºt": 5115,
      "Ġcáº·n": 5116,
      "Ġcáº¯p": 5117,
      "Ġcáº©u": 5118,
      "Ġmáº¡ch": 5119,
      "Ġláº©u": 5120,
      "Ġlien": 5121,
      "ĠnhÃ£": 5122,
      "ĠnhÆ°á»Ŀng": 5123,
      "Ġvv": 5124,
      "Ġvinh": 5125,
      "ĠvÃ¡c": 5126,
      "Ġhuyá»ĩn": 5127,
      "Ġkiá»ģm": 5128,
      "Ġnd": 5129,
      "Ġsk": 5130,
      "Ġsáº¡t": 5131,
      "ĠbÃ£i": 5132,
      "Ġbom": 5133,
      "ĠbÃºn": 5134,
      "Ġgo": 5135,
      "Ġgá»Ļi": 5136,
      "Ġgym": 5137,
      "Ġtháº¥u": 5138,
      "ĠtháºŃm": 5139,
      "Ġdon": 5140,
      "Ġdinh": 5141,
      "ĠrÆ°á»£": 5142,
      "Ġrui": 5143,
      "ĠrÃ£i": 5144,
      "Ġplay": 5145,
      "ĠngÃ¢m": 5146,
      "Ġtrá»įn": 5147,
      "Ġgioi": 5148,
      "áºŃc": 5149,
      "ĠTiá»ĥu": 5150,
      "Ġvá»Ł": 5151,
      "ĠphÆ¡i": 5152,
      "ĠCai": 5153,
      "ĠCáºŃp": 5154,
      "ĠCuá»ĳi": 5155,
      "ĠMV": 5156,
      "Ġhá»§y": 5157,
      "chu": 5158,
      "chÆ°a": 5159,
      "ĠSG": 5160,
      "ĠSh": 5161,
      "ĠHáº¡": 5162,
      "ĠHÆ¡n": 5163,
      "ĠHÃ²a": 5164,
      "Ġsá»«ng": 5165,
      "ĠCháº¿t": 5166,
      "ĠCháºŃm": 5167,
      "ĠLink": 5168,
      "Ġgiá»±t": 5169,
      "ĠThÆ¡m": 5170,
      "ĠDt": 5171,
      "ĠDanh": 5172,
      "ĠDÃ²ng": 5173,
      "ĠDLV": 5174,
      "ĠPro": 5175,
      "Ġ34": 5176,
      "Ġ36": 5177,
      "Ġfa": 5178,
      "ĠRiÃªng": 5179,
      "jdhd": 5180,
      "Ġchup": 5181,
      "Ġwh": 5182,
      "Ġedit": 5183,
      "Ġ-.-": 5184,
      "ĠkhÃ³i": 5185,
      "Ġthun": 5186,
      "Ġ65": 5187,
      "Ġdat": 5188,
      "Ġzin": 5189,
      "Ġcug": 5190,
      "jje": 5191,
      "llll": 5192,
      "kdk": 5193,
      "ĠGiÃ¡o": 5194,
      "ĠFb": 5195,
      "ĠFor": 5196,
      "Ġdich": 5197,
      "gioi": 5198,
      "Ġsub": 5199,
      "Ġ......": 5200,
      "ĠÌī": 5201,
      "jsjsjs": 5202,
      "Ġxog": 5203,
      "ĠThuáºŃn": 5204,
      "ĠÆ°ii": 5205,
      "ĠkemvÅ©": 5206,
      "jfjfjfjf": 5207,
      "kzkz": 5208,
      "aaaaaaaaaaaaaaaaaaaaaaaaaaaaaaaa": 5209,
      "Iá»ĨT": 5210,
      "ĠPhim": 5211,
      "tjdtjd": 5212,
      "á»ĲC": 5213,
      "Ġná»Ļp": 5214,
      "\",": 5215,
      "++": 5216,
      "17": 5217,
      "31": 5218,
      "Anh": 5219,
      "BF": 5220,
      "Iáº¾": 5221,
      "OI": 5222,
      "Sáº£n": 5223,
      "cÃ¡i": 5224,
      "df": 5225,
      "dg": 5226,
      "fps": 5227,
      "gkx": 5228,
      "hÆ¡i": 5229,
      "jck": 5230,
      "kn": 5231,
      "rs": 5232,
      "rou": 5233,
      "tf": 5234,
      "tuy": 5235,
      "vj": 5236,
      "ĠÃ¢u": 5237,
      "á»£": 5238,
      "á»ĥn": 5239,
      "Ġtang": 5240,
      "Ġtau": 5241,
      "Ġtiá»ĩp": 5242,
      "Ġcang": 5243,
      "Ġcáº¡n": 5244,
      "nhá»": 5245,
      "ĠÄĳáº£": 5246,
      "ĠÄĳÃ¹i": 5247,
      "Ġlg": 5248,
      "ĠlÆ°á»£c": 5249,
      "ĠlÄĥng": 5250,
      "ĠlÃ¡t": 5251,
      "Ġluyá»ĩn": 5252,
      "Ġnháº«n": 5253,
      "Ġnhuyá»ħn": 5254,
      "ĠnhÃ¡m": 5255,
      "Ġnhma": 5256,
      "Ġváº¥t": 5257,
      "Ġvin": 5258,
      "ĠvÆ¡i": 5259,
      "ĠvÆ°Æ¡ng": 5260,
      "ĠvÄĳ": 5261,
      "ĠhÅ©": 5262,
      "Ġchanh": 5263,
      "Ġchuá»ĳi": 5264,
      "Ġkm": 5265,
      "Ġkey": 5266,
      "Ġnai": 5267,
      "ĠnÃ©m": 5268,
      "Ġsx": 5269,
      "ĠbÆ¡": 5270,
      "ĠbÆ¡i": 5271,
      "ĠbÃ¹i": 5272,
      "Ġbáº¡ch": 5273,
      "ĠthÄĥng": 5274,
      "Ġdj": 5275,
      "ĠdÃª": 5276,
      "ĠdiÃªn": 5277,
      "Ġdáº»": 5278,
      "Ġdeo": 5279,
      "ĠdÃ¡i": 5280,
      "ĠrÃ´i": 5281,
      "Ġngáº¯m": 5282,
      "Ġtráº¡i": 5283,
      "ĠtrÃło": 5284,
      "Ġtren": 5285,
      "ĠÄĳá»ĩ": 5286,
      "ĠkhÃŃch": 5287,
      "Ġxao": 5288,
      "ĠxÃ³t": 5289,
      "ĠTÃªn": 5290,
      "ĠTÃ´": 5291,
      "ĠTien": 5292,
      "ĠpháºŃt": 5293,
      "ĠCáº¢": 5294,
      "Ġchá»Ľp": 5295,
      "ĠMin": 5296,
      "ĠMÃ£i": 5297,
      "ĠMar": 5298,
      "ĠMÃĢ": 5299,
      "Ġcá»į": 5300,
      "Ġkhg": 5301,
      "Ġkhuy": 5302,
      "ĠHd": 5303,
      "ĠHiá»ģn": 5304,
      "Ġthá»¥": 5305,
      "ĠÄĲMX": 5306,
      "Ġorder": 5307,
      "Ġlá»įt": 5308,
      "Ġbá»ĭt": 5309,
      "ĠnghiÃªn": 5310,
      "ĠVÃ¢ng": 5311,
      "ĠGáº¡o": 5312,
      "ĠLQ": 5313,
      "ĠLÃło": 5314,
      "ĠLÅ©": 5315,
      "ĠBÄĥng": 5316,
      "ĠBÃŃch": 5317,
      "Ġgiá»ı": 5318,
      "ĠKiÃªn": 5319,
      "ĠDV": 5320,
      "ĠDan": 5321,
      "Ġac": 5322,
      "Ġal": 5323,
      "Ġacc": 5324,
      "Ġahihi": 5325,
      "ĠNghi": 5326,
      "ĠNgoc": 5327,
      "ppp": 5328,
      "Ġhoc": 5329,
      "ĠAD": 5330,
      "ĠAK": 5331,
      "ĠtuÃ¢n": 5332,
      "ikokokokokok": 5333,
      "Ġthoai": 5334,
      "ĠsoÃ¡t": 5335,
      "tre": 5336,
      "ÄĳÃ¡ng": 5337,
      "Ġngá»Ńi": 5338,
      "Ġ600": 5339,
      "ĠÄĲá»¥": 5340,
      "Ġrá»±c": 5341,
      "Ġgá»Łi": 5342,
      "kdjd": 5343,
      "ĠxÃŃch": 5344,
      "Ġkhuáº©n": 5345,
      "Ġtrading": 5346,
      "áº¢N": 5347,
      "ĠQuay": 5348,
      "sms": 5349,
      "ĠGiá»Ľi": 5350,
      "oyd": 5351,
      "cmcm": 5352,
      "nfnf": 5353,
      "ĠNGH": 5354,
      "ĠToang": 5355,
      "ĠtÃ´t": 5356,
      "âĢ¦âĢ¦âĢ¦âĢ¦âĢ¦âĢ¦âĢ¦âĢ¦âĢ¦âĢ¦âĢ¦âĢ¦âĢ¦âĢ¦âĢ¦âĢ¦": 5357,
      "inda": 5358,
      "Ġfile": 5359,
      "Ġmessenger": 5360,
      "áº¬T": 5361,
      "ĠhÃ¢hh": 5362,
      "giá»Ŀ": 5363,
      "didong": 5364,
      "gioididong": 5365,
      "ikokokokokokOk": 5366,
      "06": 5367,
      "14": 5368,
      "28": 5369,
      "34": 5370,
      "52": 5371,
      "67": 5372,
      "?!": 5373,
      "AI": 5374,
      "HCM": 5375,
      "MÃ¬nh": 5376,
      "Ng": 5377,
      "NhÃ": 5378,
      "PS": 5379,
      "bt": 5380,
      "dr": 5381,
      "hm": 5382,
      "kak": 5383,
      "máº·c": 5384,
      "sc": 5385,
      "ĠÃ¢n": 5386,
      "ģnh": 5387,
      "Ġtt": 5388,
      "ĠtÃ¡ch": 5389,
      "Ġct": 5390,
      "Ġcbi": 5391,
      "Ġcard": 5392,
      "nhiá»ģu": 5393,
      "ĠmÃŃ": 5394,
      "Ġmix": 5395,
      "Ġliáº¿m": 5396,
      "Ġnhg": 5397,
      "Ġhack": 5398,
      "Ġhahah": 5399,
      "ĠchÆ°": 5400,
      "ĠchÄĥn": 5401,
      "Ġke": 5402,
      "ĠkÃ©": 5403,
      "ĠkiÃªn": 5404,
      "Ġkáº¹t": 5405,
      "ĠnÃ´": 5406,
      "Ġbb": 5407,
      "ĠbÃºa": 5408,
      "Ġgay": 5409,
      "Ġdr": 5410,
      "Ġdam": 5411,
      "Ġdjd": 5412,
      "Ġdnd": 5413,
      "ĠngÃ¡n": 5414,
      "ĠtrÃªu": 5415,
      "Ġtráº¥n": 5416,
      "ĠtrÃ£i": 5417,
      "Ġgiáº£ng": 5418,
      "ĠTi": 5419,
      "ĠTáº¡": 5420,
      "ĠCÃłi": 5421,
      "ĠCá»Ļng": 5422,
      "Ġmá»ģn": 5423,
      "ĠMÃ¹a": 5424,
      "Ġá»įp": 5425,
      "Ġkha": 5426,
      "Ġkhay": 5427,
      "ĠhÃ¢n": 5428,
      "ĠHang": 5429,
      "ĠHá»ĳi": 5430,
      "Ġthá»¥t": 5431,
      "ĠÄĲÃ¢u": 5432,
      "ĠÄĲeo": 5433,
      "Ġdá»Ĺ": 5434,
      "ĠchÃ¢m": 5435,
      "Ġoh": 5436,
      "ana": 5437,
      "ĠVÃ¡y": 5438,
      "ĠViÃªn": 5439,
      "Ġná»©ng": 5440,
      "Ġná»©t": 5441,
      "ĠGáº§n": 5442,
      "ĠChai": 5443,
      "ĠChuyÃªn": 5444,
      "ĠCháº³ng": 5445,
      "ĠBÃª": 5446,
      "ĠThiáº¿u": 5447,
      "ĠDáº§u": 5448,
      "ĠDiá»ĩu": 5449,
      "Ġ31": 5450,
      "Ġhoan": 5451,
      "Ġhoac": 5452,
      "tton": 5453,
      "hhe": 5454,
      "Ġtrá»¥c": 5455,
      "ali": 5456,
      "Ġthoa": 5457,
      "ĠXanh": 5458,
      "ĠXong": 5459,
      "ĠRáº¤T": 5460,
      "Ġngoai": 5461,
      "Ġtat": 5462,
      "Ġkhoai": 5463,
      "ĠchÃŃn": 5464,
      "ÄĳÃ£": 5465,
      "ĠchÃ³p": 5466,
      "bdhd": 5467,
      "Ġzip": 5468,
      "aaaaa": 5469,
      "ĠThÃ¡": 5470,
      "Ġ2021": 5471,
      "Ġtuyet": 5472,
      "ĠmÃ£n": 5473,
      "Ġsela": 5474,
      "ĠThá»§y": 5475,
      "Ġvá»ĭt": 5476,
      "hsjs": 5477,
      "Ġshiper": 5478,
      "Ġhaizz": 5479,
      "Ġhá»Ĺn": 5480,
      "ĠKhÃ¡ch": 5481,
      "ĠLá»Ŀi": 5482,
      "hhhhhhhhh": 5483,
      "ĠNHÆ¯": 5484,
      "ĠÄĳmx": 5485,
      "Ġlivestream": 5486,
      "ĠHuynh": 5487,
      "Ġnghá»ĭch": 5488,
      "Ġmiui": 5489,
      "tttttttttttttttttttttttttttttttt": 5490,
      "tyle": 5491,
      "ĠhÃªt": 5492,
      "ĠPhá»¥": 5493,
      "Cháº¥t": 5494,
      "vyvy": 5495,
      "________": 5496,
      "ĠÃļc": 5497,
      "Ġhá»īu": 5498,
      "Æ¯á»ļC": 5499,
      "ĠrÆ°á»£u": 5500,
      "ikokokokokokOkikokokokokokOk": 5501,
      "*.": 5502,
      "88": 5503,
      "<<": 5504,
      "ER": 5505,
      "KH": 5506,
      "Kh": 5507,
      "QC": 5508,
      "SD": 5509,
      "fj": 5510,
      "gdd": 5511,
      "hb": 5512,
      "hj": 5513,
      "hn": 5514,
      "hii": 5515,
      "jns": 5516,
      "lq": 5517,
      "lÃłm": 5518,
      "ltra": 5519,
      "máº¥y": 5520,
      "mÆ°á»£t": 5521,
      "ri": 5522,
      "rn": 5523,
      "shs": 5524,
      "vc": 5525,
      "yw": 5526,
      "¥y": 5527,
      "ĭnh": 5528,
      "Ġtl": 5529,
      "ĠtÃ¡t": 5530,
      "Ġcf": 5531,
      "Ġcáº¡p": 5532,
      "ĠÄĳÃ©t": 5533,
      "ĠÄĳÃºt": 5534,
      "Ġmáº£": 5535,
      "Ġmá»ĳc": 5536,
      "Ġmáº¯m": 5537,
      "ĠmÆ°u": 5538,
      "ĠmÃ©p": 5539,
      "Ġmjh": 5540,
      "ĠlÃª": 5541,
      "Ġleo": 5542,
      "ĠlÃ¢m": 5543,
      "Ġlá»ĳp": 5544,
      "hÃ´ng": 5545,
      "Ġnháº·t": 5546,
      "ĠchÃł": 5547,
      "Ġchao": 5548,
      "Ġchinh": 5549,
      "Ġnuá»ĳt": 5550,
      "Ġbk": 5551,
      "Ġbiá»ĩn": 5552,
      "Ġthong": 5553,
      "Ġdá»ĵi": 5554,
      "Ġráº¯n": 5555,
      "Ġrá»ĳi": 5556,
      "Ġrá»ĳt": 5557,
      "Ġráº¡p": 5558,
      "ĠngáºŃp": 5559,
      "ĠthÃ²": 5560,
      "Ġtre": 5561,
      "Ġtrá»Ļn": 5562,
      "Ġgiáº¥c": 5563,
      "Ġxiu": 5564,
      "ĠTay": 5565,
      "ĠTam": 5566,
      "ĠTáº£i": 5567,
      "ĠTÄĥng": 5568,
      "Ġmá»ķ": 5569,
      "Ġmá»Ľ": 5570,
      "Ġchá»«a": 5571,
      "ĠquÃŃ": 5572,
      "Ġbá»ĵi": 5573,
      "áº¹c": 5574,
      "ĠhÃ¬": 5575,
      "ĠSa": 5576,
      "ĠHá»ĩ": 5577,
      "ĠÄĲu": 5578,
      "ĠÄĲáº§y": 5579,
      "ĠÄĲÆ¯á»¢C": 5580,
      "Ġoto": 5581,
      "Ġsá»įc": 5582,
      "Ġokay": 5583,
      "ĠVÃ²ng": 5584,
      "Ġnhá»©c": 5585,
      "ĠCháº¿": 5586,
      "ĠChuyá»ĩn": 5587,
      "ĠLá»ĩ": 5588,
      "ĠThuy": 5589,
      "ĠThiá»ĩn": 5590,
      "ĠKÃŃch": 5591,
      "Ġyeu": 5592,
      "ĠATM": 5593,
      "ĠTrc": 5594,
      "ĠTrad": 5595,
      "Ġthoii": 5596,
      "Ġphá»ķ": 5597,
      "Ġkhá»ķng": 5598,
      "ĠRed": 5599,
      "Ġ=((": 5600,
      "Ġwe": 5601,
      "Ġwin": 5602,
      "ĠyÃªuc": 5603,
      "ĠÃłh": 5604,
      "ĠchÃ³i": 5605,
      "Ġcode": 5606,
      "nnnnn": 5607,
      "nnnnnn": 5608,
      "ĠFi": 5609,
      "Ġdis": 5610,
      "atch": 5611,
      "Ġhihihi": 5612,
      "Ġ:))))))))": 5613,
      "jfj": 5614,
      "led": 5615,
      "Ġtuyáº¿t": 5616,
      "ĠÄĳá»ĳc": 5617,
      "ĠThá»§": 5618,
      "ĠKháº¯c": 5619,
      "Ġ07": 5620,
      "Ġvir": 5621,
      "olsa": 5622,
      "ĠÄĳuoc": 5623,
      "ĠTuá»ķi": 5624,
      "Ġbeat": 5625,
      "hdhdhdhd": 5626,
      "Ġ191": 5627,
      "Ġ1800": 5628,
      "Ġghiá»ģn": 5629,
      "nznz": 5630,
      "bcbc": 5631,
      "Ġfreeship": 5632,
      "yyyyyyyy": 5633,
      "Ġnew": 5634,
      "ĠRefund": 5635,
      "ĠThoáº¡i": 5636,
      "ssssssssssssssss": 5637,
      "UYá»": 5638,
      "ĠHÃĢNG": 5639,
      "ight": 5640,
      "ĠMIUI": 5641,
      "ĠFull": 5642,
      "ĠForm": 5643,
      "39": 5644,
      "=)))": 5645,
      "EL": 5646,
      "PP": 5647,
      "ae": 5648,
      "ew": 5649,
      "fa": 5650,
      "fg": 5651,
      "ga": 5652,
      "hiá»ĩu": 5653,
      "lh": 5654,
      "oa": 5655,
      "¤NG": 5656,
      "¨C": 5657,
      "´n": 5658,
      "Ġone": 5659,
      "ĢN": 5660,
      "Ńm": 5661,
      "Ġcmm": 5662,
      "ĠcÄĳ": 5663,
      "ĠÄĥ": 5664,
      "ĠÄĳuá»ĳi": 5665,
      "Ġmp": 5666,
      "ĠlÃŃt": 5667,
      "ĠlÆ°á»Ľi": 5668,
      "ĠvÄ©": 5669,
      "ĠhÆ¡": 5670,
      "Ġhuyáº¿t": 5671,
      "Ġhiáº¿p": 5672,
      "Ġhjh": 5673,
      "Ġhqua": 5674,
      "Ġhahaa": 5675,
      "Ġka": 5676,
      "Ġsl": 5677,
      "Ġsáº¥u": 5678,
      "Ġsáº·c": 5679,
      "ĠbÃ¹ng": 5680,
      "Ġbáº»": 5681,
      "Ġthiá»ĩp": 5682,
      "Ġdn": 5683,
      "Ġranh": 5684,
      "Ġrang": 5685,
      "ĠngÆ°": 5686,
      "ĠngÃ´i": 5687,
      "ĠngÆ°á»¡ng": 5688,
      "Ġtran": 5689,
      "Ġgiai": 5690,
      "Ġgiáº§y": 5691,
      "ĠkhÃ©t": 5692,
      "Ġxi": 5693,
      "ĠxÃ´": 5694,
      "ĠxÃ¢m": 5695,
      "Ġxac": 5696,
      "Ġxáº»o": 5697,
      "ĠTT": 5698,
      "ĠTÆ°á»Ŀng": 5699,
      "Ġvá»īa": 5700,
      "ĠqÃºa": 5701,
      "ĠCay": 5702,
      "ĠCor": 5703,
      "ĠNs": 5704,
      "ĠNÃºt": 5705,
      "ĠNÃĢ": 5706,
      "Ġbá»Ļi": 5707,
      "Ġhá»įng": 5708,
      "ĠhÃ©t": 5709,
      "iá»ģng": 5710,
      "ĠSinh": 5711,
      "ĠHieu": 5712,
      "Ã©c": 5713,
      "Ġdá»«a": 5714,
      "ĠÄĳáº¹pHÃłng": 5715,
      "Ġ,,,": 5716,
      "Ġnghen": 5717,
      "Ġluu": 5718,
      "Ġná»ĥ": 5719,
      "ĠLO": 5720,
      "ĠBA": 5721,
      "ĠThuyáº¿t": 5722,
      "ĠThuá»ĳc": 5723,
      "ĠDÃ¡n": 5724,
      "Ġaba": 5725,
      "ĠGiáº£i": 5726,
      "Ġyáº¿n": 5727,
      "Ġhom": 5728,
      "Ġnhaaaa": 5729,
      "ĠTrÃ´ng": 5730,
      "ĠNha": 5731,
      "ĠtÃŃp": 5732,
      "ers": 5733,
      "Ġkhá»©": 5734,
      "ĠXÃ£": 5735,
      "ĠMá»Ŀi": 5736,
      "iec": 5737,
      "ĠkhoÃ¡i": 5738,
      "Äĳt": 5739,
      "Äĳáº¹p": 5740,
      "ace": 5741,
      "iiiiii": 5742,
      "Ġrá»Ĺ": 5743,
      "Ġ85": 5744,
      "Ġanti": 5745,
      "thang": 5746,
      "tháºŃt": 5747,
      "jjj": 5748,
      "ĠHoÃłn": 5749,
      "iver": 5750,
      "ĠCá»©ng": 5751,
      "bbb": 5752,
      "Ġnhug": 5753,
      "isa": 5754,
      "lab": 5755,
      "ĠJoy": 5756,
      "jej": 5757,
      "bdbdb": 5758,
      "Ġcá»¥m": 5759,
      "Ġthegioididong": 5760,
      "ĠbÃ¬a": 5761,
      "iger": 5762,
      "áºłN": 5763,
      "Ġká»ĭch": 5764,
      "Iá»Ĥ": 5765,
      "vsvs": 5766,
      "ĠHuhu": 5767,
      "Ġmih": 5768,
      "hzhz": 5769,
      "ĠÄĳáº¿m": 5770,
      "bzbz": 5771,
      "jtd": 5772,
      "nxnxnxnx": 5773,
      "Ġ:>>": 5774,
      "oooooooo": 5775,
      "comm": 5776,
      "ĠÃªi": 5777,
      "ĠPhÃ¡p": 5778,
      "smsmsmsm": 5779,
      "áº¬N": 5780,
      "Ġnick": 5781,
      "ĠNghÄ©a": 5782,
      "Ġtiktok": 5783,
      "Ġngá»«oi": 5784,
      "Ġsmartphone": 5785,
      "ĠthÃ¢y": 5786,
      "roup": 5787,
      "Ġkhuya": 5788,
      "ĠTrading": 5789,
      "490": 5790,
      "85": 5791,
      "Cáº£m": 5792,
      "Giao": 5793,
      "Hz": 5794,
      "IM": 5795,
      "TP": 5796,
      "báº¯t": 5797,
      "cj": 5798,
      "dkd": 5799,
      "hg": 5800,
      "jq": 5801,
      "lÃªn": 5802,
      "lan": 5803,
      "pw": 5804,
      "vz": 5805,
      "xb": 5806,
      "¦A": 5807,
      "Ġjd": 5808,
      "Ġjs": 5809,
      "Ġuu": 5810,
      "Ġ).": 5811,
      "Ġtanh": 5812,
      "Ġtáº¥n": 5813,
      "ĠcÃ£": 5814,
      "Ġcáº©m": 5815,
      "nhÆ°": 5816,
      "ĠÄĳb": 5817,
      "ĠÄĳanh": 5818,
      "ĠÄĳÃ¹": 5819,
      "ĠÄĳÃ²n": 5820,
      "ĠÄĳiá»ĥn": 5821,
      "ĠmÆ°á»Ŀi": 5822,
      "ĠmÃ²n": 5823,
      "Ġmeo": 5824,
      "Ġmuá»ĳi": 5825,
      "ĠlÄĥm": 5826,
      "ĠliÃªm": 5827,
      "Ġnhá»ĵi": 5828,
      "Ġvery": 5829,
      "ĠchÆ°á»Łng": 5830,
      "Ġkp": 5831,
      "Ġkar": 5832,
      "ĠnÃªu": 5833,
      "Ġnap": 5834,
      "Ġbia": 5835,
      "ĠbÃ£o": 5836,
      "Ġblu": 5837,
      "Ġgd": 5838,
      "Ġgam": 5839,
      "ĠgáºŃy": 5840,
      "Ġgáº·m": 5841,
      "Ġtháº¯m": 5842,
      "Ġdua": 5843,
      "ĠdÄ©": 5844,
      "ĠngÃłi": 5845,
      "ĠtrÃºc": 5846,
      "ĠtrÃ¹m": 5847,
      "ĠÄĳá»Ŀ": 5848,
      "Ġgiau": 5849,
      "Ġxáº¡": 5850,
      "ĠxiÃªn": 5851,
      "ĠTC": 5852,
      "ĠTuan": 5853,
      "Ġvá»Ŀ": 5854,
      "Ġpháº³ng": 5855,
      "Ġqq": 5856,
      "ĠCM": 5857,
      "ĠCÃłng": 5858,
      "ĠCÃ¢n": 5859,
      "ĠCáº·p": 5860,
      "ĠNoi": 5861,
      "ĠNáºµng": 5862,
      "Ġhá»ı": 5863,
      "ĠST": 5864,
      "ĠSáº¢N": 5865,
      "ĠHanh": 5866,
      "ĠHÃºt": 5867,
      "Ġthá»į": 5868,
      "ĠÄĲI": 5869,
      "Ġdá»įc": 5870,
      "Ġdá»±a": 5871,
      "ĠchÃ¢t": 5872,
      "ĠgiÃ¡n": 5873,
      "Ġ,,": 5874,
      "ÃŃu": 5875,
      "Ġlá»Ļc": 5876,
      "Ġnghiep": 5877,
      "ĠVÆ°Æ¡ng": 5878,
      "Ġnhá»£t": 5879,
      "Ġná»ĩm": 5880,
      "ĠChá»ĳng": 5881,
      "ĠChiáº¿c": 5882,
      "ĠLU": 5883,
      "ĠBo": 5884,
      "ĠBÃ³ng": 5885,
      "Ġrap": 5886,
      "ĠTham": 5887,
      "ĠTháº£m": 5888,
      "ĠKeo": 5889,
      "Ġ39": 5890,
      "Ġgames": 5891,
      "ĠAN": 5892,
      "Ġfee": 5893,
      "ĠthÃ¡ch": 5894,
      "jdks": 5895,
      "Ġ=>": 5896,
      "Ġsoan": 5897,
      "ĠphÃ¡i": 5898,
      "Ġngá»Ńa": 5899,
      "Ġngá»±a": 5900,
      "ahs": 5901,
      "Ġdata": 5902,
      "Ġzoom": 5903,
      "Ġmade": 5904,
      "kkkkkkkkkkkk": 5905,
      "Ġ2019": 5906,
      "ĠdiÃªng": 5907,
      "Ġquyá»ĥn": 5908,
      "bsns": 5909,
      "ĠCá»¦A": 5910,
      "Ġbá»ĳn": 5911,
      "hsh": 5912,
      "ttttttttt": 5913,
      "icm": 5914,
      "ĠLove": 5915,
      "Ġ.......": 5916,
      "áº±g": 5917,
      "ĠSá»±": 5918,
      "ÃĢN": 5919,
      "jsjsj": 5920,
      "ress": 5921,
      "ÃĶN": 5922,
      "ĠbÃ¹n": 5923,
      "ĠthÃºi": 5924,
      "khÃ¡": 5925,
      "ska": 5926,
      "ĠKhoáº£ng": 5927,
      "jrjr": 5928,
      "thÃ¬": 5929,
      "akakakak": 5930,
      "pppppppppppppppppppppppppppppppp": 5931,
      "Ġstar": 5932,
      "Iá»ĨN": 5933,
      "ĠReal": 5934,
      "ĠCAO": 5935,
      "ATM": 5936,
      "ĠMax": 5937,
      "Ġnchung": 5938,
      "Ġpass": 5939,
      "ĠXá»©ng": 5940,
      "áº¨M": 5941,
      "áº¸P": 5942,
      "ÃĻNG": 5943,
      "Ġáº»m": 5944,
      "ĠthÃ³i": 5945,
      "ĠCmt": 5946,
      "ĠMicro": 5947,
      "ĠSnap": 5948,
      "ĠCorona": 5949,
      "!?": 5950,
      "25": 5951,
      "66": 5952,
      "72": 5953,
      "ChÃ": 5954,
      "CAR": 5955,
      "MP": 5956,
      "Qu": 5957,
      "dt": 5958,
      "ec": 5959,
      "fc": 5960,
      "fii": 5961,
      "free": 5962,
      "gt": 5963,
      "gjx": 5964,
      "kq": 5965,
      "land": 5966,
      "má»Ł": 5967,
      "play": 5968,
      "press": 5969,
      "rl": 5970,
      "sb": 5971,
      "tui": 5972,
      "vo": 5973,
      "vá»«a": 5974,
      "Ġ^": 5975,
      "ĠÃ³i": 5976,
      "Ġ................................": 5977,
      "ĺI": 5978,
      "ngÆ°á»Ŀi": 5979,
      "Ġtáº¹o": 5980,
      "Ġcg": 5981,
      "ĠcáºŃy": 5982,
      "Ġcat": 5983,
      "ĠÄĳÃŃnh": 5984,
      "Ġmv": 5985,
      "Ġmiáº¿t": 5986,
      "ĠmÃ¨": 5987,
      "Ġmall": 5988,
      "ĠmAh": 5989,
      "ĠnhÃŃ": 5990,
      "ĠvÃ³n": 5991,
      "Ġchj": 5992,
      "Ġchac": 5993,
      "Ġnang": 5994,
      "Ġnta": 5995,
      "Ġncl": 5996,
      "Ġsg": 5997,
      "Ġsáº¡n": 5998,
      "ĠbÄĥn": 5999,
      "ĠbÃ¨o": 6000,
      "Ġback": 6001,
      "Ġgaming": 6002,
      "Ġthiá»ĥu": 6003,
      "Ġri": 6004,
      "ĠrÆ°á»Ľc": 6005,
      "Ġngáº«u": 6006,
      "Ġnguyen": 6007,
      "Ġtrá»ĵng": 6008,
      "ĠÄĳá»ī": 6009,
      "ĠxÃ´i": 6010,
      "ĠTK": 6011,
      "ĠTiáº¿ng": 6012,
      "ĠphÃł": 6013,
      "ĠphÆ°á»Ľc": 6014,
      "ĠCÆ¡m": 6015,
      "ĠCáº¯m": 6016,
      "ĠCase": 6017,
      "Ġchá»§ng": 6018,
      "ĠMÃ¬": 6019,
      "ĠMÃ£": 6020,
      "ĠMiá»ģn": 6021,
      "ĠNÃĬN": 6022,
      "Ġá»ĵ": 6023,
      "Ġcá»įc": 6024,
      "Ġhá»§": 6025,
      "ĠSáº¿p": 6026,
      "ĠHÆ°á»Ľng": 6027,
      "ĠÄĲT": 6028,
      "ĠÄĲÃĥ": 6029,
      "ĠÄĲáº¸P": 6030,
      "Äĥt": 6031,
      "Ġná»ĭnh": 6032,
      "ĠGáº·p": 6033,
      "ĠBÃ¡": 6034,
      "ĠBin": 6035,
      "ĠBáº¯n": 6036,
      "ĠBá»Ļt": 6037,
      "ĠBáº¿p": 6038,
      "ĠBáºłN": 6039,
      "Ġgiá»Ŀi": 6040,
      "ĠphÃ©t": 6041,
      "ĠKO": 6042,
      "ĠKiá»ĩt": 6043,
      "ĠKá»³": 6044,
      "ĠDang": 6045,
      "Ġare": 6046,
      "Ġavt": 6047,
      "Ġ:)).": 6048,
      "Ġyt": 6049,
      "Ġ33": 6050,
      "Ã½t": 6051,
      "Ġloai": 6052,
      "ene": 6053,
      "Ġhoáº¡ch": 6054,
      "Ġnhat": 6055,
      "Ġtoan": 6056,
      "ĠTráº£": 6057,
      "Ġ55": 6058,
      "Ã¨m": 6059,
      "Ġff": 6060,
      "Ġfl": 6061,
      "ĠRong": 6062,
      "ĠÆ¡ii": 6063,
      "Ġbar": 6064,
      "aaaaaaa": 6065,
      "Ġrá»¡": 6066,
      "jjg": 6067,
      "Ġ96": 6068,
      "ĠThÃ¢n": 6069,
      "ĠHoan": 6070,
      "Ġ:)))))))": 6071,
      "ivi": 6072,
      "jff": 6073,
      "ckck": 6074,
      "ccc": 6075,
      "ĠThá»ģ": 6076,
      "ĠKhu": 6077,
      "ĠKhanh": 6078,
      "Ġcach": 6079,
      "Ġhaiz": 6080,
      "Ġinbox": 6081,
      "ĠLock": 6082,
      "ity": 6083,
      "ĠTHU": 6084,
      "vvv": 6085,
      "ÃĢI": 6086,
      "Ġmod": 6087,
      "áº¢I": 6088,
      "ĠDá»¤NG": 6089,
      "ĠÄĳun": 6090,
      "ĠNHá»": 6091,
      "ksksksks": 6092,
      "ada": 6093,
      "ÃĶI": 6094,
      "fup": 6095,
      "bfbf": 6096,
      "Ġipad": 6097,
      "anda": 6098,
      "Ġtá»ıa": 6099,
      "Ġtype": 6100,
      "gsgs": 6101,
      "ÃĤY": 6102,
      "upg": 6103,
      "ĠTÃºm": 6104,
      "áº¦U": 6105,
      "Ġcacao": 6106,
      "ĠÃĤu": 6107,
      "ÆłN": 6108,
      "ĠhÃ¹m": 6109,
      "Ġmacro": 6110,
      "cá»©": 6111,
      "ĠGhÃª": 6112,
      "ÄĤNG": 6113,
      "Ġnhá»ĭp": 6114,
      "Ġbá»īm": 6115,
      "tttttttttttttt": 6116,
      "ĠRedmi": 6117,
      "##": 6118,
      "08": 6119,
      "47": 6120,
      "77": 6121,
      "::": 6122,
      "AB": 6123,
      "CÃ³": 6124,
      "ICM": 6125,
      "Ki": 6126,
      "KhÃ´ng": 6127,
      "MI": 6128,
      "PH": 6129,
      "book": 6130,
      "cg": 6131,
      "dá»": 6132,
      "der": 6133,
      "djd": 6134,
      "fal": 6135,
      "ib": 6136,
      "kj": 6137,
      "ker": 6138,
      "lÃ¢u": 6139,
      "mn": 6140,
      "nos": 6141,
      "oe": 6142,
      "oh": 6143,
      "per": 6144,
      "rp": 6145,
      "si": 6146,
      "sy": 6147,
      "sus": 6148,
      "tiáº¿ng": 6149,
      "we": 6150,
      "wn": 6151,
      "xh": 6152,
      "zy": 6153,
      "¤C": 6154,
      "±u": 6155,
      "ÃĿ": 6156,
      "ĦN": 6157,
      "á»§ng": 6158,
      "ĠtÃ¡": 6159,
      "Ġtua": 6160,
      "ĠtÆ¡i": 6161,
      "ĠtÃ£": 6162,
      "ĠtÃ¨": 6163,
      "ĠcÃ²": 6164,
      "ĠcÆ°Æ¡ng": 6165,
      "Ġcá»ĳi": 6166,
      "Ġcar": 6167,
      "Ġcuá»ĳc": 6168,
      "Ġcare": 6169,
      "ĠÄĳáº¡n": 6170,
      "Ġmáº¡": 6171,
      "Ġmon": 6172,
      "ĠlÃ¡ch": 6173,
      "ĠlÃŃnh": 6174,
      "Ġled": 6175,
      "hÃ¨o": 6176,
      "ĠnhÃ´m": 6177,
      "ĠvÄ©nh": 6178,
      "Ġháº¯n": 6179,
      "Ġhiáº¿m": 6180,
      "Ġchá»ĳn": 6181,
      "Ġchina": 6182,
      "Ġkiá»ĩt": 6183,
      "Ġkieu": 6184,
      "ĠnÃ´n": 6185,
      "ĠnÃŃt": 6186,
      "ĠnÃºp": 6187,
      "ĠsÃłng": 6188,
      "Ġsanh": 6189,
      "Ġsat": 6190,
      "Ġsml": 6191,
      "ĠbáºŃc": 6192,
      "ĠgÄĳ": 6193,
      "Ġgáº¯m": 6194,
      "ĠrÆ°á»£t": 6195,
      "ĠrÃłnh": 6196,
      "Ġpáº£i": 6197,
      "ĠtráºŃt": 6198,
      "Ġgiam": 6199,
      "ĠxÃł": 6200,
      "ĠxÃ©": 6201,
      "ĠxÄĥm": 6202,
      "ĠTáº¯t": 6203,
      "ĠTuyáº¿t": 6204,
      "ĠTÃ¬m": 6205,
      "ĠTáº¥c": 6206,
      "Ġphá»ĵng": 6207,
      "Ġphuc": 6208,
      "Ġqc": 6209,
      "ĠCÆ°ng": 6210,
      "Ġmá»³": 6211,
      "Ġchá»Ľt": 6212,
      "ĠMau": 6213,
      "ĠMik": 6214,
      "ĠMINH": 6215,
      "ĠNa": 6216,
      "ĠNáº¥u": 6217,
      "ĠNÃĵ": 6218,
      "Ġbá»£": 6219,
      "Ġbá»į": 6220,
      "ĠhÃ©": 6221,
      "ĠSáº¯p": 6222,
      "Ġthá»ķi": 6223,
      "ĠÄĲa": 6224,
      "ĠÄĲáº¥t": 6225,
      "Ġdá»Ŀi": 6226,
      "hoho": 6227,
      "ĠVs": 6228,
      "ĠVÃłi": 6229,
      "ĠVÄ©nh": 6230,
      "ĠChia": 6231,
      "ĠChá»įn": 6232,
      "kkf": 6233,
      "ĠLive": 6234,
      "ĠBH": 6235,
      "ĠBI": 6236,
      "ĠBi": 6237,
      "ĠBui": 6238,
      "ĠBáº£ng": 6239,
      "ĠphÃ²": 6240,
      "ĠTháº»": 6241,
      "ĠDao": 6242,
      "Ġap": 6243,
      "ĠPage": 6244,
      "ĠGiÃł": 6245,
      "ĠTrÃ¢u": 6246,
      "ĠTrÃ¢m": 6247,
      "ĠTrÆ°á»Łng": 6248,
      "ĠNhin": 6249,
      "ttt": 6250,
      "Ġfr": 6251,
      "Ġfil": 6252,
      "ere": 6253,
      "ĠXL": 6254,
      "Ġchuc": 6255,
      "Ġchuoi": 6256,
      "Ġngoc": 6257,
      "Ġwatch": 6258,
      "ĠchiÃªu": 6259,
      "Ġkhoang": 6260,
      "ĠkhoÄĥn": 6261,
      "ksk": 6262,
      "ksns": 6263,
      "tech": 6264,
      "ĠQuÃł": 6265,
      "trieu": 6266,
      "Äĳi": 6267,
      "Äĳáº·c": 6268,
      "Ġthuáº§n": 6269,
      "Ġ660": 6270,
      "Ġ700": 6271,
      "ĠÄĲá»ĺ": 6272,
      "Ġcopy": 6273,
      "Ġzay": 6274,
      "Ġzing": 6275,
      "Ġcuá»ĵng": 6276,
      "Ġcuá»Ļn": 6277,
      "ĠVá»ļI": 6278,
      "Ġ800": 6279,
      "ark": 6280,
      "Ġgá»¥c": 6281,
      "hhhhh": 6282,
      "ust": 6283,
      "ĠFree": 6284,
      "Ġreac": 6285,
      "Ġhix": 6286,
      "ĠCá»§a": 6287,
      "akaka": 6288,
      "Ġdelay": 6289,
      "tutu": 6290,
      "ĠPhÃ²ng": 6291,
      "icic": 6292,
      "laska": 6293,
      "ĠUi": 6294,
      "Ġdá»±t": 6295,
      "ĠJB": 6296,
      "osa": 6297,
      "Æ¯A": 6298,
      "ĠGiá»įng": 6299,
      "lock": 6300,
      "ĠBá»ĩnh": 6301,
      "ĠÆ°iii": 6302,
      "ĠNHáº¬N": 6303,
      "jgz": 6304,
      "hdhdhhd": 6305,
      "xynos": 6306,
      "kwkw": 6307,
      "ĠTop": 6308,
      "Æ¯á»ľ": 6309,
      "eueu": 6310,
      "ĠPHáº¨M": 6311,
      "ĠnhoÃ¨": 6312,
      "ĠQUÃģ": 6313,
      "ĠLuáºŃt": 6314,
      "ÃįNH": 6315,
      "ĠThoi": 6316,
      "ĠCafe": 6317,
      "oft": 6318,
      "ĠMobile": 6319,
      "ĠhÃ¹a": 6320,
      "Ġ><": 6321,
      "Ġmá»ĭa": 6322,
      "Ġá»§i": 6323,
      "Ġblut": 6324,
      "ĠchÃ¨n": 6325,
      "ntnt": 6326,
      "098": 6327,
      "NhÃ¢n": 6328,
      "ĠRealme": 6329,
      ".@": 6330,
      "48": 6331,
      "690": 6332,
      ":(": 6333,
      "AC": 6334,
      "AL": 6335,
      "CN": 6336,
      "Gi": 6337,
      "ID": 6338,
      "ND": 6339,
      "RE": 6340,
      "SCAR": 6341,
      "Uá»": 6342,
      "bl": 6343,
      "cáº§m": 6344,
      "cjc": 6345,
      "ds": 6346,
      "dung": 6347,
      "há»": 6348,
      "hee": 6349,
      "jhd": 6350,
      "li": 6351,
      "lz": 6352,
      "lÆ°á»Ľt": 6353,
      "mk": 6354,
      "mang": 6355,
      "oq": 6356,
      "oon": 6357,
      "rand": 6358,
      "sÃ³ng": 6359,
      "soft": 6360,
      "tx": 6361,
      "vá»ģ": 6362,
      "wifi": 6363,
      "¥a": 6364,
      "°C": 6365,
      "Ġ))": 6366,
      "Ġáº¥u": 6367,
      "ĤÌ": 6368,
      "ĮI": 6369,
      "ım": 6370,
      "ĶI": 6371,
      "á»Ŀ": 6372,
      "Ġtia": 6373,
      "ĠtáºŃu": 6374,
      "ĠtiÃªm": 6375,
      "Ġcv": 6376,
      "ĠcÃło": 6377,
      "ĠcÃºng": 6378,
      "ĠÄĳáºŃy": 6379,
      "Ġmui": 6380,
      "Ġlz": 6381,
      "Ġliá»ģu": 6382,
      "Ġláº§u": 6383,
      "ĠlÃºa": 6384,
      "ĠlÃ¬n": 6385,
      "ĠlÃ¹n": 6386,
      "Æ°Æ¡n": 6387,
      "ĠnhÃ¡nh": 6388,
      "ĠvÆ¡": 6389,
      "Ġvch": 6390,
      "Ġvll": 6391,
      "Ġvcc": 6392,
      "ĠvÃªnh": 6393,
      "Ġhá»ĳ": 6394,
      "Ġhen": 6395,
      "Ġkn": 6396,
      "Ġkáº»o": 6397,
      "ĠnÆ°a": 6398,
      "Ġsc": 6399,
      "Ġsen": 6400,
      "Ġsad": 6401,
      "Ġsena": 6402,
      "Ġstre": 6403,
      "Ġbáº¿t": 6404,
      "ĠbÆ°ng": 6405,
      "Ġbáº£y": 6406,
      "Ġgem": 6407,
      "Ġgrab": 6408,
      "Ġthuyá»ģn": 6409,
      "Ġdem": 6410,
      "Ġrom": 6411,
      "ĠrÃ£nh": 6412,
      "ĠngÆ¡": 6413,
      "ĠthÃ©p": 6414,
      "ĠtrÃ¡": 6415,
      "Ġtráº·c": 6416,
      "ĠgiÃłnh": 6417,
      "Ġgiáº¥u": 6418,
      "Ġgirl": 6419,
      "Ã¢p": 6420,
      "Ġxh": 6421,
      "ĠxÃ¡": 6422,
      "ĠTp": 6423,
      "Ġpháº¿": 6424,
      "Ġphat": 6425,
      "Ġpháº«u": 6426,
      "ĠCÃĶNG": 6427,
      "Ġchá»£t": 6428,
      "ĠMH": 6429,
      "ĠMO": 6430,
      "ĠMiá»ħn": 6431,
      "ĠMiá»ĩng": 6432,
      "ĠNÃło": 6433,
      "ĠNÃ³ng": 6434,
      "ĠNcl": 6435,
      "ĠNow": 6436,
      "ĠNAM": 6437,
      "ĠquÃ£ng": 6438,
      "Ġá»Ľt": 6439,
      "Ġbá»ıng": 6440,
      "Ġhá»ĩt": 6441,
      "ĠcÃ¡u": 6442,
      "Ġkhiáº¿u": 6443,
      "Ġtá»ıi": 6444,
      "ĠSt": 6445,
      "ĠSen": 6446,
      "ĠHK": 6447,
      "ĠHÃ£ng": 6448,
      "Ġthá»§ng": 6449,
      "ĠÄĲH": 6450,
      "ĠÄĲÃ¨n": 6451,
      "ĠgiÃ¡p": 6452,
      "Ġ:\"": 6453,
      "ÃŃa": 6454,
      "Ġlá»§ng": 6455,
      "Ġlá»ĩnh": 6456,
      "Ġokee": 6457,
      "Ġokkkkkkk": 6458,
      "Æ°á»Ľm": 6459,
      "ĠVIá»ĨT": 6460,
      "Ġluc": 6461,
      "ĠluÃ´ng": 6462,
      "ĠChui": 6463,
      "Ġshopp": 6464,
      "ĠBh": 6465,
      "ĠBÃ´ng": 6466,
      "ĠKáº¹p": 6467,
      "ĠDK": 6468,
      "ĠDÃłnh": 6469,
      "Ġass": 6470,
      "Ġace": 6471,
      "ĠNgay": 6472,
      "ĠANH": 6473,
      "ĠTriá»ĩu": 6474,
      "ĠNháº¹": 6475,
      "ĠnhÃłm": 6476,
      "Ġsil": 6477,
      "Ġdcm": 6478,
      "ĠPhuong": 6479,
      "ool": 6480,
      "ÄĳÃºng": 6481,
      "..........": 6482,
      "...........": 6483,
      "ĠphÃ¡o": 6484,
      "Ġngá»¡": 6485,
      "Ġbat": 6486,
      "Ġmag": 6487,
      "Ġmak": 6488,
      "Ġrá»ı": 6489,
      "nsjs": 6490,
      "tháº¥y": 6491,
      "Ġ95": 6492,
      "Ġ97": 6493,
      "Ġnova": 6494,
      "ĠTá»ĩ": 6495,
      "Ġxá»ı": 6496,
      "ĠkÃ¨o": 6497,
      "ĠIP": 6498,
      "ĠIt": 6499,
      "Ġthis": 6500,
      "Ġum": 6501,
      "mera": 6502,
      "nxn": 6503,
      "ĠPhÃ¢n": 6504,
      "uuuuu": 6505,
      "ĠKhÃ¡c": 6506,
      "107": 6507,
      "Ġ02": 6508,
      "ĠTHÃĮ": 6509,
      "ubik": 6510,
      "ĠviÃªm": 6511,
      "old": 6512,
      "reen": 6513,
      "ĠNhá»±a": 6514,
      ",,,,": 6515,
      "ĠThuá»·": 6516,
      "ĠDá»±": 6517,
      "ĠhÃ¡n": 6518,
      "ĠBá»Ľt": 6519,
      "ĠBá»Łi": 6520,
      "Ġ),": 6521,
      "nsnsns": 6522,
      "ĠâĢĿ": 6523,
      "áº¤Y": 6524,
      "ĠSoan": 6525,
      "yyyyttttttttt": 6526,
      "ĠQUá»ĲC": 6527,
      "baba": 6528,
      "Ġoffi": 6529,
      "ĠGIA": 6530,
      "ĠQuynh": 6531,
      "hhhhhhhhhhhhhhhhhhhhhhhhhhhhhhhh": 6532,
      "Ġkiem": 6533,
      "ÃļC": 6534,
      "ĠthÃŃnh": 6535,
      "ĠNgá»§": 6536,
      "wwwwwwwwwwwwwwww": 6537,
      "mzmz": 6538,
      "ĠDell": 6539,
      "Ġtikinow": 6540,
      "Ġnilong": 6541,
      "Ġsnapdragon": 6542,
      "Ġhnay": 6543,
      "ĠClip": 6544,
      "ĠCÃģC": 6545,
      "rrrrrrrrrrrrrrrr": 6546,
      "Ġá»ĳm": 6547,
      "bbxbxbx": 6548,
      "ĠtuÃ½p": 6549,
      "pqpq": 6550,
      "Ġvirut": 6551,
      "Ġhjhj": 6552,
      "commend": 6553,
      "ĠMicrosoft": 6554,
      "ttttttttttttttyyyyttttttttt": 6555,
      "SCARAB": 6556,
      ",.": 6557,
      ",..": 6558,
      "16": 6559,
      "45": 6560,
      "89": 6561,
      "Be": 6562,
      "Con": 6563,
      "Camera": 6564,
      "Fi": 6565,
      "MB": 6566,
      "MM": 6567,
      "MS": 6568,
      "MÃłn": 6569,
      "Ná»Ļi": 6570,
      "OO": 6571,
      "OU": 6572,
      "bu": 6573,
      "báº¡n": 6574,
      "bá»ĭ": 6575,
      "ber": 6576,
      "dnd": 6577,
      "dhd": 6578,
      "iyd": 6579,
      "ji": 6580,
      "lhx": 6581,
      "mf": 6582,
      "mw": 6583,
      "nay": 6584,
      "rá»ĵi": 6585,
      "sj": 6586,
      "sw": 6587,
      "tg": 6588,
      "táº¥t": 6589,
      "tiá»ģn": 6590,
      "thi": 6591,
      "uo": 6592,
      "znz": 6593,
      "£m": 6594,
      "§i": 6595,
      "Ġ@": 6596,
      "ĠÃ³": 6597,
      "ĠÃºp": 6598,
      "ĲNG": 6599,
      "ĴI": 6600,
      "Ľc": 6601,
      "á»«": 6602,
      "Ġtáº£n": 6603,
      "ĠtÄĥn": 6604,
      "Ġtiá»ĩc": 6605,
      "Ġtone": 6606,
      "Ġtáº¹t": 6607,
      "ĠcÃ´n": 6608,
      "Ġcáº¡ch": 6609,
      "nhung": 6610,
      "ĠÄĳx": 6611,
      "ĠÄĳao": 6612,
      "ĠÄĳua": 6613,
      "ĠÄĳong": 6614,
      "ĠÄĳiá»ĩp": 6615,
      "ĠÄĳáº¯p": 6616,
      "ĠmÃ³": 6617,
      "ĠmÃ©": 6618,
      "Ġmáº§m": 6619,
      "ĠmÃºi": 6620,
      "Ġmáº¯ng": 6621,
      "Ġln": 6622,
      "Ġlá»ĳ": 6623,
      "Ġlanh": 6624,
      "ĠlÃºn": 6625,
      "Ġliá»ģm": 6626,
      "Ġvk": 6627,
      "Ġhp": 6628,
      "ĠchÆ°á»Łi": 6629,
      "Ġku": 6630,
      "Ġkiu": 6631,
      "Ġnk": 6632,
      "Ġnong": 6633,
      "ĠnÃ¡ch": 6634,
      "Ġnáº¥c": 6635,
      "ĠsÃ¡": 6636,
      "Ġstt": 6637,
      "ĠbiÃªn": 6638,
      "ĠbÆ°u": 6639,
      "ĠgÃ³t": 6640,
      "Ġthiet": 6641,
      "ĠdÃ²": 6642,
      "Ġráº¯c": 6643,
      "Ġrá»ī": 6644,
      "Ġrá»ĵng": 6645,
      "ĠngÃ³": 6646,
      "Ġtriá»ģu": 6647,
      "Ġtrá»Ļi": 6648,
      "Ġtrym": 6649,
      "ĠgiÆ¡": 6650,
      "..!": 6651,
      "ĠTO": 6652,
      "ĠTy": 6653,
      "ĠTinh": 6654,
      "ĠTiáº¿t": 6655,
      "ĠTik": 6656,
      "ĠTiáº¿p": 6657,
      "ĠTgdd": 6658,
      "Ġphe": 6659,
      "Ġmá»ĩnh": 6660,
      "Ġmá»Ļc": 6661,
      "ĠcÃ³c": 6662,
      "ĠMs": 6663,
      "ĠMng": 6664,
      "ĠMÃ´": 6665,
      "ĠMac": 6666,
      "ĠNc": 6667,
      "ĠNáº£n": 6668,
      "ĠNAY": 6669,
      "Ġá»ī": 6670,
      "Ġá»ľ": 6671,
      "int": 6672,
      "chá»ĭ": 6673,
      "ont": 6674,
      "onic": 6675,
      "ĠSE": 6676,
      "ĠSim": 6677,
      "ĠSing": 6678,
      "ĠHic": 6679,
      "ĠHhhhhhhhhh": 6680,
      "ĠÄĲÃłi": 6681,
      "ĠÄĲau": 6682,
      "ĠÄĲáºŃp": 6683,
      "ĠÄĲá»īnh": 6684,
      "Ġdá»Ļi": 6685,
      "Ġsá»¹": 6686,
      "Ġlá»©a": 6687,
      "Ġlá»ģu": 6688,
      "ĠVÃłng": 6689,
      "ĠViáº¿t": 6690,
      "Ġ250": 6691,
      "Ġnhá»¡": 6692,
      "ĠGÃł": 6693,
      "ĠGá»įn": 6694,
      "ĠGalaxy": 6695,
      "ĠÄĳiÃªu": 6696,
      "ĠChuyá»ĥn": 6697,
      "ĠLÃ²ng": 6698,
      "ĠBáº£": 6699,
      "ĠBáº¥t": 6700,
      "ĠBÆ°á»Ľc": 6701,
      "ĠBá»įc": 6702,
      "ĠBÃ¡o": 6703,
      "ĠKb": 6704,
      "ĠKkk": 6705,
      "ĠKá»ĥ": 6706,
      "ĠDc": 6707,
      "ĠDiá»ĩn": 6708,
      "ĠDiá»ĩp": 6709,
      "ĠDiá»ħm": 6710,
      "ĠDÃĤN": 6711,
      "ĠGiáº·t": 6712,
      "ĠGiÃºp": 6713,
      "Ġhá»Ļt": 6714,
      "Ġhop": 6715,
      "ĠAI": 6716,
      "Ġtoáº£": 6717,
      "ĠTri": 6718,
      "ĠTranh": 6719,
      "ĠTráº»": 6720,
      "ĠTroi": 6721,
      "hha": 6722,
      "nnc": 6723,
      "ĠthÃ¡g": 6724,
      "ĠQuyá»ģn": 6725,
      "Ġthoáº£": 6726,
      "ĠRemote": 6727,
      "ĠOng": 6728,
      "ĠOPP": 6729,
      "Ġ=))))))))))": 6730,
      "Ġtá»±Ná»Ļi": 6731,
      "ÄĳÆ°á»£c": 6732,
      "Ġ76": 6733,
      "ĠÄĲá»Ŀi": 6734,
      "ĠÄĲá»±ng": 6735,
      "ĠÃĵ": 6736,
      "ĠbÃ©n": 6737,
      "Ġcut": 6738,
      "ĠVá»£": 6739,
      "ĠVá»Ģ": 6740,
      "Ġrá»ķ": 6741,
      "tháº¥t": 6742,
      "thua": 6743,
      "thiáº¿t": 6744,
      "our": 6745,
      "hhhhhh": 6746,
      "llow": 6747,
      "ĠchÃªnh": 6748,
      "kdkf": 6749,
      "ĠHot": 6750,
      "rome": 6751,
      "Ġduty": 6752,
      "ĠTá»Ľi": 6753,
      "Ġ:))))))))))))": 6754,
      "jfnf": 6755,
      "ĠCá»¥c": 6756,
      "gitech": 6757,
      "Ġuh": 6758,
      "Ġdel": 6759,
      "ord": 6760,
      "icon": 6761,
      "Ġsuc": 6762,
      "isfree": 6763,
      "ĠTHÃĶNG": 6764,
      "ĠÌĥ": 6765,
      "ÃĢNH": 6766,
      "jxj": 6767,
      "áº¢O": 6768,
      "Ġclm": 6769,
      "ĠLá»¡": 6770,
      "^^^^": 6771,
      "ĠNHÃĢ": 6772,
      "tobe": 6773,
      "ĠTRUNG": 6774,
      "ĠmÃ¬n": 6775,
      "ĠvÃŃa": 6776,
      "ĠQUY": 6777,
      "akakk": 6778,
      "ĠNghá»ī": 6779,
      "kvkv": 6780,
      "ĠCHá»Ī": 6781,
      "ĠCHá»Ĭ": 6782,
      "ump": 6783,
      "kkkkkkkkkkkkkkkkkkkkkkkkkkkkkkkkkkkkkkkkkkkkkkkkkkkkkkkkkkkkkkkk": 6784,
      "vvvvvvvv": 6785,
      "!!!!!!!!!!!!": 6786,
      "tá»«": 6787,
      "ĠMobi": 6788,
      "ĠchÃ¬a": 6789,
      "ĠÄĳÃºg": 6790,
      "33333333": 6791,
      "nnnnnnnnnnnnnnnnnnnnnnnnnnnnnnnnnnnnnnnnnnnnnnnnnnnnnnnnnnnnnnnn": 6792,
      "ÃĴNG": 6793,
      "Ġthá»ıa": 6794,
      "Ġdonate": 6795,
      "ĠMinn": 6796,
      "Ġdriver": 6797,
      "ĠTiKi": 6798,
      "Ġdislike": 6799,
      "lablab": 6800,
      "Ġblue": 6801,
      "Æ¯á»ľNG": 6802,
      "GiÃ¡": 6803,
      ".!": 6804,
      "200": 6805,
      "Cam": 6806,
      "Do": 6807,
      "TC": 6808,
      "TH": 6809,
      "_^": 6810,
      "ca": 6811,
      "cr": 6812,
      "cÅ©ng": 6813,
      "dh": 6814,
      "di": 6815,
      "gn": 6816,
      "jai": 6817,
      "jks": 6818,
      "kin": 6819,
      "lÃł": 6820,
      "láº¡i": 6821,
      "lá»Ĺi": 6822,
      "máº¥t": 6823,
      "man": 6824,
      "nk": 6825,
      "tj": 6826,
      "táº§m": 6827,
      "tá»ĳt": 6828,
      "vb": 6829,
      "vf": 6830,
      "vw": 6831,
      "váº«n": 6832,
      "wa": 6833,
      "®A": 6834,
      "ĠÃºc": 6835,
      "Ġáºł": 6836,
      "ĲT": 6837,
      "Ġtáº¡": 6838,
      "Ġtiá»ĩt": 6839,
      "ĠtÃ¡m": 6840,
      "ĠtÃ©p": 6841,
      "ĠtÃ²a": 6842,
      "Ġtivi": 6843,
      "Ġce": 6844,
      "ĠcÃºc": 6845,
      "Ġcá»ĳt": 6846,
      "ĠÄĳÅ©a": 6847,
      "ĠmÃ³i": 6848,
      "ĠlÆ¡": 6849,
      "Ġláº¡m": 6850,
      "Ġláº¥p": 6851,
      "ĠlÃ©m": 6852,
      "Ġnháº¥p": 6853,
      "Ġnhá»ĳt": 6854,
      "Ġnháº¯m": 6855,
      "Ġnhiá»ħu": 6856,
      "ĠvÃª": 6857,
      "Ġváº¥p": 6858,
      "Ġváº¯ng": 6859,
      "ĠvÆ°á»Ŀn": 6860,
      "Ġhem": 6861,
      "Ġhung": 6862,
      "ĠhÆ°ng": 6863,
      "ĠhÆ¡m": 6864,
      "Ġchau": 6865,
      "ĠchÆ°á»Ľc": 6866,
      "Ġnan": 6867,
      "ĠsÃ¬": 6868,
      "Ġsua": 6869,
      "ĠsÃ©t": 6870,
      "ĠsÃºp": 6871,
      "Ġslo": 6872,
      "Ġstyle": 6873,
      "Ġbam": 6874,
      "Ġbáº§n": 6875,
      "Ġbla": 6876,
      "ĠgÃłi": 6877,
      "Ġgáº§y": 6878,
      "ĠgáºŃp": 6879,
      "Ġgat": 6880,
      "Ġtháº§m": 6881,
      "Ġtháº§u": 6882,
      "ĠdÆ°á»£c": 6883,
      "ĠdÃłn": 6884,
      "ĠrÃ²": 6885,
      "Ġpupg": 6886,
      "Ġnga": 6887,
      "ĠngÃ´": 6888,
      "ĠngÃ¢y": 6889,
      "Ġngáº¡c": 6890,
      "ĠngÃµ": 6891,
      "ĠngáºŃm": 6892,
      "ĠtrÄĥng": 6893,
      "ĠÄĳá»į": 6894,
      "ĠÄĳá»±c": 6895,
      "ĠÄĳá»Ľp": 6896,
      "ĠxÃ¹": 6897,
      "Ġxau": 6898,
      "ĠxÃ´ng": 6899,
      "ĠTA": 6900,
      "ĠTÃ¡c": 6901,
      "ĠTuyá»ģn": 6902,
      "ĠTÃŃn": 6903,
      "Ġpho": 6904,
      "ĠCung": 6905,
      "ĠCÆ°Æ¡ng": 6906,
      "Ġmá»ī": 6907,
      "Ġmá»Ļng": 6908,
      "ĠMu": 6909,
      "ĠMáºł": 6910,
      "ĠNO": 6911,
      "ĠNho": 6912,
      "ĠNá»ĩ": 6913,
      "ĠNáº¡p": 6914,
      "ĠquáºŃt": 6915,
      "Ġquoc": 6916,
      "Ġá»¨": 6917,
      "Ġcá»Ľ": 6918,
      "Ã¹y": 6919,
      "chung": 6920,
      "ĠSMS": 6921,
      "ĠHÃłnh": 6922,
      "ĠHiá»ĥu": 6923,
      "ĠHá»Ļi": 6924,
      "ĠÄĲáº¥y": 6925,
      "ĠÄĲÆ°a": 6926,
      "ĠÄĲÃªm": 6927,
      "Ġtá»ĳng": 6928,
      "Ġdá»¡": 6929,
      "Ġ:-": 6930,
      "Ġsá»į": 6931,
      "ant": 6932,
      "Ġokk": 6933,
      "Ġokeeee": 6934,
      "Ġokkkkkkkkkkkkkkkkk": 6935,
      "ĠVan": 6936,
      "ĠVoucher": 6937,
      "ĠVOS": 6938,
      "Ġ2000": 6939,
      "Ġná»¡": 6940,
      "ĠGo": 6941,
      "ĠGu": 6942,
      "ĠGhi": 6943,
      "ĠChe": 6944,
      "ĠChá»ĳt": 6945,
      "kke": 6946,
      "ĠLai": 6947,
      "ĠLÆ°á»£ng": 6948,
      "ĠLGB": 6949,
      "ĠLÃĬN": 6950,
      "Ġshoppe": 6951,
      "ĠBáºŃt": 6952,
      "ĠBáº¥m": 6953,
      "ĠBit": 6954,
      "ĠDáº¡": 6955,
      "Ġ365": 6956,
      "ĠNghÃ¨o": 6957,
      "ĠAdd": 6958,
      "Ġtoc": 6959,
      "Ġtoáº¹t": 6960,
      "ĠTrÃŃ": 6961,
      "ĠTruyá»ĩn": 6962,
      "nnf": 6963,
      "ĠQC": 6964,
      "Ġ44": 6965,
      "Ġ47": 6966,
      "ĠXÃłm": 6967,
      "ĠRÃµ": 6968,
      "jdjs": 6969,
      "ies": 6970,
      "ĠwÃ¡": 6971,
      "Ġwep": 6972,
      "ĠOffi": 6973,
      "Ġexynos": 6974,
      "ĠPháºŃt": 6975,
      "ĠiOS": 6976,
      "Ġ1080": 6977,
      "ĠÃĬ": 6978,
      "ĠÃįt": 6979,
      "ĠdÃ¹g": 6980,
      "Ġzi": 6981,
      "Ġzá»ĭ": 6982,
      "aaaaaa": 6983,
      "Ġrá»§a": 6984,
      "ĠEo": 6985,
      "theo": 6986,
      "jjz": 6987,
      "Ġ900": 6988,
      "use": 6989,
      "ĠquyÃªn": 6990,
      "bsjs": 6991,
      "bsite": 6992,
      "Ġduong": 6993,
      "Ġhiu": 6994,
      "Ġhigh": 6995,
      "2022": 6996,
      "âĢ¦..": 6997,
      "ĠCá»§": 6998,
      "bbf": 6999,
      "ckh": 7000,
      "---": 7001,
      "ĠKhong": 7002,
      "ĠKhai": 7003,
      "ĠKhang": 7004,
      "jdjdnd": 7005,
      "ggggggg": 7006,
      "Ġinternet": 7007,
      "ish": 7008,
      "Ġ08": 7009,
      "ĠTHI": 7010,
      "ĠSá»Ŀ": 7011,
      "Ġghim": 7012,
      "ĠHá»ıi": 7013,
      "ĠThuá»³": 7014,
      "ĠÆ°iiii": 7015,
      "ĠNHáº¤T": 7016,
      "Ġ199": 7017,
      "ĠNGAY": 7018,
      "áº¤P": 7019,
      "Ġrun": 7020,
      "ĠKHI": 7021,
      "ĠKHá»": 7022,
      "Ġghen": 7023,
      "jvjv": 7024,
      "ĠKhoÃ¡": 7025,
      "ÃĤU": 7026,
      "urur": 7027,
      "Ġ!!!!!": 7028,
      "Ġokila": 7029,
      "Ġ;)))": 7030,
      "Ġvailon": 7031,
      "hvhv": 7032,
      "kksks": 7033,
      "ĠCSKH": 7034,
      "Ġ2018": 7035,
      "ĠInDo": 7036,
      "tá»±": 7037,
      "ÆłI": 7038,
      "ĠhÃ¢y": 7039,
      "ĠchÃ¬m": 7040,
      "eeeeeeeeeeeeeeeeeeeeeeeeeeeeeeee": 7041,
      "ndndndndndndndnd": 7042,
      "Ġ=)))))))": 7043,
      "Ġmlem": 7044,
      "Ġprime": 7045,
      "phÃ¹": 7046,
      "ĠCÃģI": 7047,
      "cccccccccccccccc": 7048,
      "amamamam": 7049,
      "dddddddddddddddddddddddddddddddd": 7050,
      "@@@@@@@@": 7051,
      "tttttttttttttttttttttttttt": 7052,
      "áº¶NG": 7053,
      "Ġnháº½o": 7054,
      "Ġcá»«i": 7055,
      "cial": 7056,
      "Ġáº¤n": 7057,
      "Ġatm": 7058,
      "KhÄĥn": 7059,
      "Ġkarao": 7060,
      "Ġhá»ıa": 7061,
      "Ġfilm": 7062,
      "Ġreaction": 7063,
      "ĠJBL": 7064,
      "ĠOPPO": 7065,
      "ĠLGBT": 7066,
      ",....": 7067,
      ".,": 7068,
      "500": 7069,
      "69": 7070,
      "74": 7071,
      "92": 7072,
      "97": 7073,
      "HD": 7074,
      "II": 7075,
      "Shop": 7076,
      "XH": 7077,
      "agi": 7078,
      "bank": 7079,
      "duc": 7080,
      "fl": 7081,
      "gr": 7082,
      "gu": 7083,
      "gw": 7084,
      "gkd": 7085,
      "hjj": 7086,
      "iok": 7087,
      "jnh": 7088,
      "kho": 7089,
      "khx": 7090,
      "lá»": 7091,
      "msms": 7092,
      "ple": 7093,
      "sf": 7094,
      "sl": 7095,
      "tc": 7096,
      "tw": 7097,
      "tay": 7098,
      "uoc": 7099,
      "yr": 7100,
      "yx": 7101,
      "zada": 7102,
      "¨n": 7103,
      "´m": 7104,
      "Å¨": 7105,
      "ĢU": 7106,
      "ĤN": 7107,
      "ĮN": 7108,
      "Ńng": 7109,
      "ĠtÃł": 7110,
      "ĠtÃ©m": 7111,
      "Ġtiger": 7112,
      "Ġcj": 7113,
      "Ġcn": 7114,
      "ĠcÆ°a": 7115,
      "Ġcuu": 7116,
      "ĠcÃºp": 7117,
      "Ġccc": 7118,
      "Ġmem": 7119,
      "Ġmáº¡c": 7120,
      "Ġmáº§u": 7121,
      "ĠlÃ¹ng": 7122,
      "Ġlem": 7123,
      "ĠlÃ´n": 7124,
      "ĠlÆ°á»Ŀng": 7125,
      "Ġláº§y": 7126,
      "ĠlÃ¨": 7127,
      "ĠlÃ¡ng": 7128,
      "Ġláº¥m": 7129,
      "Ġlá»ĳc": 7130,
      "Ġlone": 7131,
      "ĠnhÃ³": 7132,
      "Ġnham": 7133,
      "ĠnhÃ¢y": 7134,
      "ĠnhÃŃch": 7135,
      "Ġváº¯c": 7136,
      "ĠvÃ¨o": 7137,
      "Ġhg": 7138,
      "Ġht": 7139,
      "Ġháº¯c": 7140,
      "Ġhiá»ĩp": 7141,
      "Ġhcm": 7142,
      "Ġks": 7143,
      "ĠkiÃªng": 7144,
      "Ġksao": 7145,
      "ĠnÃ´i": 7146,
      "ĠnÃ£y": 7147,
      "Ġsv": 7148,
      "ĠsÃłm": 7149,
      "Ġbj": 7150,
      "Ġbáº¿": 7151,
      "ĠbÃ³n": 7152,
      "Ġbel": 7153,
      "Ġbook": 7154,
      "Ġbjo": 7155,
      "ĠbÆ°á»Ľm": 7156,
      "Ġgb": 7157,
      "ĠgÃ¡c": 7158,
      "Ġgel": 7159,
      "ĠtháºŃp": 7160,
      "Ġdd": 7161,
      "Ġdáº¡n": 7162,
      "Ġdiá»ĩu": 7163,
      "Ġdbd": 7164,
      "Ġduyen": 7165,
      "Ġráº§n": 7166,
      "ĠrÃ¹a": 7167,
      "Ġrieng": 7168,
      "áº¿m": 7169,
      "Ġpack": 7170,
      "Ġngt": 7171,
      "Ġngáº¥t": 7172,
      "ĠngÃło": 7173,
      "ĠngÆ°ng": 7174,
      "Ġtráº©u": 7175,
      "ĠÄĳá»Ľn": 7176,
      "ĠgiÃ£": 7177,
      "Ġxáº¿": 7178,
      "Ġxua": 7179,
      "ĠTáº¥m": 7180,
      "ĠTáºłI": 7181,
      "ĠTáº¶NG": 7182,
      "Ġphanh": 7183,
      "ĠCáº¥p": 7184,
      "ĠCEO": 7185,
      "ĠClear": 7186,
      "Ġchá»«": 7187,
      "Ġchá»Ńa": 7188,
      "ĠMáº¯t": 7189,
      "Ġquáº¡o": 7190,
      "Ġquáº©y": 7191,
      "Ġá»Ľn": 7192,
      "Ġcá»ĵng": 7193,
      "Ġbá»Ľi": 7194,
      "Ġbá»±a": 7195,
      "Ġbá»ĩt": 7196,
      "ins": 7197,
      "chÆ°á»Łng": 7198,
      "Ġtá»ĭt": 7199,
      "ĠSB": 7200,
      "ĠSD": 7201,
      "ĠSÆ°": 7202,
      "ĠHÃ³a": 7203,
      "ĠHÃĮNH": 7204,
      "ĠHSD": 7205,
      "ĠÄĲM": 7206,
      "ĠÄĲá»ĳ": 7207,
      "ĠÄĲá»ĳi": 7208,
      "Ġdá»ım": 7209,
      "Ġom": 7210,
      "Ġoy": 7211,
      "Ġ:/": 7212,
      "Ġtá»ĳtCháº¥t": 7213,
      "Ġkout": 7214,
      "Ġsá»¥c": 7215,
      "Ġsá»¥p": 7216,
      "Ġsá»©t": 7217,
      "Ġlá»ķ": 7218,
      "Ġlá»Ļt": 7219,
      "ĠVo": 7220,
      "amer": 7221,
      "Ġnhá»ķ": 7222,
      "Ġná»ģ": 7223,
      "ĠGD": 7224,
      "ĠGh": 7225,
      "ĠGÃ¬": 7226,
      "aula": 7227,
      "ĠChau": 7228,
      "ĠChÆ°Æ¡ng": 7229,
      "kkz": 7230,
      "ĠLon": 7231,
      "ĠLau": 7232,
      "ĠLag": 7233,
      "ĠLáºłI": 7234,
      "ĠLinda": 7235,
      "ĠgÃ¬n": 7236,
      "ĠBáº£nh": 7237,
      "ĠBÃģ": 7238,
      "ĠluÃ´nn": 7239,
      "ĠluÃ´nnn": 7240,
      "ĠThÃł": 7241,
      "ĠThÆ¡": 7242,
      "ĠThao": 7243,
      "ĠThÆ°á»Ŀng": 7244,
      "ĠKÃ¬": 7245,
      "ĠDong": 7246,
      "ĠDá»ĭ": 7247,
      "ĠPho": 7248,
      "ĠPaula": 7249,
      "Ġyen": 7250,
      "ĠNguyá»ĩt": 7251,
      "ĠNgta": 7252,
      "iie": 7253,
      "Ġhoy": 7254,
      "ĠAE": 7255,
      "ĠAM": 7256,
      "ĠTrump": 7257,
      "Ġtuá»ĩ": 7258,
      "Ġ43": 7259,
      "ĠXo": 7260,
      "ĠXáº¡o": 7261,
      "ĠRA": 7262,
      "ĠReno": 7263,
      "ĠMá»ıng": 7264,
      "Ġchuá»Ĺi": 7265,
      "ĠOkkkkkkkkkkkkkkkk": 7266,
      "Ġdoc": 7267,
      "jsns": 7268,
      "jsis": 7269,
      "ĠPháº£n": 7270,
      "ĠPháº©m": 7271,
      "Ġvá»¥n": 7272,
      "ĠQuoc": 7273,
      "trá»«": 7274,
      "Äĳáº¿n": 7275,
      "............": 7276,
      "..............": 7277,
      "ndns": 7278,
      "Ġ665": 7279,
      "ĠÄĲá»Ĵ": 7280,
      "ĠÄĲá»©ng": 7281,
      "ĠÄĲá»ĶI": 7282,
      "Ġcoa": 7283,
      "Ġcome": 7284,
      "Ġcover": 7285,
      "Ġcotton": 7286,
      "Ġdag": 7287,
      "Ġcuoc": 7288,
      "ĠVá»¥": 7289,
      "ĠVá»ı": 7290,
      "jja": 7291,
      "jjn": 7292,
      "jjx": 7293,
      "outer": 7294,
      "Ġgá»Ŀ": 7295,
      "Ġ93": 7296,
      "ĠThÃ¹ng": 7297,
      "Ġ2023": 7298,
      "ĠFM": 7299,
      "Ġrecommend": 7300,
      "bsks": 7301,
      "ĠTá»ª": 7302,
      "Ġhih": 7303,
      "Ġhit": 7304,
      "ster": 7305,
      "jfz": 7306,
      "bbc": 7307,
      "ĠIp": 7308,
      "eback": 7309,
      "ĠmÃ£nh": 7310,
      "Ġultra": 7311,
      "ĠKhung": 7312,
      "Ġcase": 7313,
      "nxx": 7314,
      "Ġhaizzz": 7315,
      "gggggg": 7316,
      "ĠÄĳoan": 7317,
      "ica": 7318,
      "ĠsuÃ½t": 7319,
      "agen": 7320,
      "itch": 7321,
      "ĠTHP": 7322,
      "ĠÌĤÌ": 7323,
      "ĠCHI": 7324,
      "Ġviu": 7325,
      "Ġyoutobe": 7326,
      "iiiiiiiii": 7327,
      "áº¢M": 7328,
      "ĠkhÃ´g": 7329,
      "Ġhahh": 7330,
      "jcj": 7331,
      "ĠLá»«a": 7332,
      "ĠLá»Ľp": 7333,
      "Ġmuot": 7334,
      "ĠBá»Ĭ": 7335,
      "ĠNHÃī": 7336,
      "kxk": 7337,
      "ÃģY": 7338,
      "ÃģNG": 7339,
      "jaj": 7340,
      "ĠTRONG": 7341,
      "ashi": 7342,
      "jwjw": 7343,
      "Ġbody": 7344,
      "ful": 7345,
      "Ġhead": 7346,
      "ÃĵNG": 7347,
      "ĠhÃłg": 7348,
      "Iá»ĢN": 7349,
      "Iá»ĦN": 7350,
      "Ġ180": 7351,
      "ĠmÃ¬h": 7352,
      "udud": 7353,
      "cece": 7354,
      "ĠPHÃį": 7355,
      "ĠSoáº¡n": 7356,
      "Ġnek": 7357,
      "ĠchÃ©o": 7358,
      "ĠNghiá»ĩp": 7359,
      "ĠLuáºŃn": 7360,
      "Ġcomb": 7361,
      "ĠhÃ²m": 7362,
      "ĠchÃ¹m": 7363,
      "ĠKhá»Łi": 7364,
      "Ġnyc": 7365,
      "ÃļNG": 7366,
      "ĠthÃŃm": 7367,
      "Ġ2017": 7368,
      "ĠcÃºm": 7369,
      "Ġauth": 7370,
      "nnsnsns": 7371,
      "ĠInternet": 7372,
      "ĠvuÃ´ng": 7373,
      "UYÃĬN": 7374,
      "Ġyeah": 7375,
      "ĠtÃºm": 7376,
      "ĠHOT": 7377,
      "phÃºt": 7378,
      "ĠSAO": 7379,
      "jgjgjgjg": 7380,
      "okokokokokokokokokokokokokokokok": 7381,
      "bbbbbbbbbbbbbbbb": 7382,
      "ĠChÃ¡u": 7383,
      "Ġjob": 7384,
      "qqqqqqqq": 7385,
      "ĠShin": 7386,
      "Iáº¾U": 7387,
      "Ġhahahaha": 7388,
      "ĠThÃ¡nh": 7389,
      "ĠFire": 7390,
      "ĠNÃĢO": 7391,
      "ĠSnapdragon": 7392,
      "fiififi": 7393,
      "Ġytb": 7394,
      "rpod": 7395,
      "ĠNÃĵI": 7396,
      "Ġsilicon": 7397,
      "ĠÃĵc": 7398,
      "ĠNá»ĩm": 7399,
      "Ġkaraoke": 7400,
      "&&": 7401,
      "01": 7402,
      "03": 7403,
      "58": 7404,
      "Ai": 7405,
      "ANH": 7406,
      "CÃ²n": 7407,
      "Em": 7408,
      "Fone": 7409,
      "Gb": 7410,
      "ING": 7411,
      "KM": 7412,
      "PU": 7413,
      "Ráº¥t": 7414,
      "TV": 7415,
      "VE": 7416,
      "ass": 7417,
      "bao": 7418,
      "cb": 7419,
      "cáº§n": 7420,
      "dÃ¹": 7421,
      "es": 7422,
      "fb": 7423,
      "foy": 7424,
      "gc": 7425,
      "hai": 7426,
      "haha": 7427,
      "ian": 7428,
      "jkd": 7429,
      "kÄĳ": 7430,
      "ler": 7431,
      "lol": 7432,
      "má»": 7433,
      "mÃły": 7434,
      "noi": 7435,
      "ov": 7436,
      "ohx": 7437,
      "oxy": 7438,
      "puf": 7439,
      "ráº»": 7440,
      "sz": 7441,
      "sÃłi": 7442,
      "tkd": 7443,
      "uz": 7444,
      "uro": 7445,
      "ure": 7446,
      "vui": 7447,
      "wr": 7448,
      "ws": 7449,
      "xv": 7450,
      "xit": 7451,
      "yid": 7452,
      "ªnh": 7453,
      "®NG": 7454,
      "ÃĪ": 7455,
      "Ġ#": 7456,
      "Ġáº£": 7457,
      "ĠÃło": 7458,
      "ĮC": 7459,
      "Ńu": 7460,
      "á»ķ": 7461,
      "ĠtÃłng": 7462,
      "ĠtÃły": 7463,
      "Ġton": 7464,
      "ĠtÃ¡p": 7465,
      "Ġcb": 7466,
      "Ġcart": 7467,
      "Ġclear": 7468,
      "nhÃł": 7469,
      "nháº¥t": 7470,
      "nháºŃn": 7471,
      "ĠÄĳÃªn": 7472,
      "Ġmáº£ng": 7473,
      "Ġlh": 7474,
      "ĠlÆ°á»£": 7475,
      "ĠlÃº": 7476,
      "ĠlÃªu": 7477,
      "Ġláº¥n": 7478,
      "Ġluyáº¿n": 7479,
      "Ġlinda": 7480,
      "hÃ´m": 7481,
      "Ġnháº±ng": 7482,
      "Ġnháº±m": 7483,
      "Ġváº¡i": 7484,
      "Ġváº§n": 7485,
      "Ġvat": 7486,
      "Ġviettel": 7487,
      "Ġhau": 7488,
      "ĠhÆ°á»Ŀng": 7489,
      "Ġhuá»ĳng": 7490,
      "Ġchon": 7491,
      "Ġchong": 7492,
      "Ġcháº£i": 7493,
      "ĠchÆ°ng": 7494,
      "ĠchÄĥc": 7495,
      "ĠkÃ©n": 7496,
      "Ġnn": 7497,
      "Ġnáº¿n": 7498,
      "Ġnáº£y": 7499,
      "Ġsm": 7500,
      "Ġsáº¡o": 7501,
      "Ġsns": 7502,
      "ĠsÆ°u": 7503,
      "Ġsrm": 7504,
      "Ġby": 7505,
      "Ġbee": 7506,
      "ĠbÃ©t": 7507,
      "Ġgr": 7508,
      "ĠgÃ²": 7509,
      "Ġgroup": 7510,
      "Ġtháº¯t": 7511,
      "Ġthá»ĳn": 7512,
      "ĠdÃº": 7513,
      "ĠdÆ°a": 7514,
      "Ġdáº·m": 7515,
      "Ġrv": 7516,
      "Ġngáº«m": 7517,
      "ĠtrÃ¡n": 7518,
      "Ġtrá»įc": 7519,
      "ĠÄĳá»Ĺi": 7520,
      "ĠlÃły": 7521,
      "Ġxam": 7522,
      "Ġxáº¹p": 7523,
      "Ġxáº»": 7524,
      "ĠxÆ°á»Łng": 7525,
      "ĠTD": 7526,
      "ĠTáº©y": 7527,
      "ĠTá»īnh": 7528,
      "ĠTUYá»": 7529,
      "ĠTIá»ĢN": 7530,
      "Ġphao": 7531,
      "Ġpháº«n": 7532,
      "Ġpháº£m": 7533,
      "Ġphá»Ļng": 7534,
      "ĠCÃĴ": 7535,
      "ĠthÃ¬a": 7536,
      "ĠNy": 7537,
      "ĠquÃ©": 7538,
      "Ġá»ĭ": 7539,
      "Ġcá»Łi": 7540,
      "Ġcá»ĵn": 7541,
      "Ġbá»«a": 7542,
      "ĠnÃ³c": 7543,
      "ĠSX": 7544,
      "ĠHP": 7545,
      "ĠHÆ°": 7546,
      "ĠHáº¡n": 7547,
      "Ġnhanhhhh": 7548,
      "Ġthá»±": 7549,
      "ĠÄĲáº¿": 7550,
      "ĠÄĲÃ¹": 7551,
      "ĠÄĲai": 7552,
      "ĠÄĲen": 7553,
      "ĠÄĲá»Ļi": 7554,
      "ĠÄĲá»ĭa": 7555,
      "ĠÄĲáº¦U": 7556,
      "ĠchÃ´n": 7557,
      "Ġoce": 7558,
      "ĠquÃ¡t": 7559,
      "Ġsá»¯": 7560,
      "Ġlá»§": 7561,
      "Ġlá»Ļi": 7562,
      "Ġokla": 7563,
      "ĠkhÃ¡t": 7564,
      "ĠViá»ĩc": 7565,
      "ĠVÃĮ": 7566,
      "Ġluá»Ļc": 7567,
      "Ġnhá»Ļt": 7568,
      "ĠGB": 7569,
      "ĠGIá»": 7570,
      "ĠGAM": 7571,
      "ĠChua": 7572,
      "ĠLÆ°á»Ŀi": 7573,
      "ĠLáº¡c": 7574,
      "ĠBinh": 7575,
      "ĠBáº¯p": 7576,
      "ĠBÃºn": 7577,
      "ĠphÃ¢m": 7578,
      "ĠKáº»": 7579,
      "ĠKiáº¿m": 7580,
      "ĠDN": 7581,
      "ĠDMX": 7582,
      "ĠPlus": 7583,
      "Ġyáº¿t": 7584,
      "ĠNgá»Ļ": 7585,
      "Ġloáº¡t": 7586,
      "ĠÄĳá»Ļn": 7587,
      "Ġemail": 7588,
      "ens": 7589,
      "ĠbÃ¡i": 7590,
      "Ġhoáº£": 7591,
      "ĠAlo": 7592,
      "Ġtoo": 7593,
      "Ġtottttttttttttttyyyyttttttttt": 7594,
      "ĠTrai": 7595,
      "ĠTrÃ¡nh": 7596,
      "ĠNháº«n": 7597,
      "ĠNhá»ĭ": 7598,
      "hhf": 7599,
      "Ġfim": 7600,
      "Ġfpt": 7601,
      "ĠQuyáº¿t": 7602,
      "Ġmá»įt": 7603,
      "!!!!!": 7604,
      "ĠÄĳá»ĵi": 7605,
      "ĠRi": 7606,
      "ĠMá»ĩt": 7607,
      "Ġchuá»ĵng": 7608,
      "ĠOkkkkkkkkkkkkkkkkkkkkkkkkkkkkkkkk": 7609,
      "Ġchiu": 7610,
      "Ġkhoáº£nh": 7611,
      "Ġeat": 7612,
      "jshs": 7613,
      "ĠPhÆ°á»£ng": 7614,
      "oos": 7615,
      "mmz": 7616,
      "Äĳn": 7617,
      "Äĳá»Ļ": 7618,
      "ĠKhÃºc": 7619,
      "ndbd": 7620,
      "Ġthuc": 7621,
      "Ġngá»¥c": 7622,
      "Ġbut": 7623,
      "Ġburn": 7624,
      "ĠchÃ¡o": 7625,
      "Ġje": 7626,
      "Ġdap": 7627,
      "Ġzá»Ŀi": 7628,
      "ppppp": 7629,
      "Ġmain": 7630,
      "Ġcuc": 7631,
      "ĠVá»ĩ": 7632,
      "Ġspam": 7633,
      "Ġrá»Ĺi": 7634,
      "Ġ855": 7635,
      "ĠEM": 7636,
      "Ġantutu": 7637,
      "tháº¿": 7638,
      "than": 7639,
      "ther": 7640,
      "hdh": 7641,
      "hdbd": 7642,
      "kdn": 7643,
      "ĠHoÃł": 7644,
      "ĠHoáº·c": 7645,
      "ĠFPT": 7646,
      "bsvs": 7647,
      "Ġvlon": 7648,
      "Ġduoi": 7649,
      "Ġnhá»īnh": 7650,
      "ĠTá»°": 7651,
      "jfjjf": 7652,
      "âĢ¦.": 7653,
      "ĠChá»Ĺ": 7654,
      "iÃªp": 7655,
      "ĠnhuáºŃn": 7656,
      "Ġthien": 7657,
      "phut": 7658,
      "phcm": 7659,
      "jdjdjdj": 7660,
      "Ġ?????": 7661,
      "ĠPhÃŃ": 7662,
      "ĠPhÃŃa": 7663,
      "Ġinf": 7664,
      "uuuuuu": 7665,
      "Ġsuper": 7666,
      "ĠLoáº¡n": 7667,
      "ĠLogitech": 7668,
      "ism": 7669,
      "lass": 7670,
      "Ġ05": 7671,
      "Ġ090": 7672,
      "jxx": 7673,
      "iiiiiiiiiiiiiii": 7674,
      "Ġmobi": 7675,
      "mmmmm": 7676,
      "ose": 7677,
      "osos": 7678,
      "Ġclg": 7679,
      "Ġmail": 7680,
      "ĠhÃ³c": 7681,
      "ĠLá»±c": 7682,
      "uts": 7683,
      "Ġmed": 7684,
      "Ġhuh": 7685,
      "333": 7686,
      "Ġproduc": 7687,
      "Ġ)(": 7688,
      "ĠÃ´k": 7689,
      "Ġbenh": 7690,
      "Ġfun": 7691,
      "Ġsdt": 7692,
      "max": 7693,
      "fuo": 7694,
      "ĠNGO": 7695,
      "ÃĬM": 7696,
      "ÃĬU": 7697,
      "Ġtym": 7698,
      "ĠÄĳkm": 7699,
      "ĠHDMI": 7700,
      "thÃŃch": 7701,
      "Ġ:>>>": 7702,
      "ĠCute": 7703,
      "ĠTIN": 7704,
      "Ġcomp": 7705,
      "Ġcomeback": 7706,
      "ĠthÃ´n": 7707,
      "ĠÆłn": 7708,
      "kksksks": 7709,
      "mxmx": 7710,
      "ĠHehe": 7711,
      "ĠCSVN": 7712,
      "ĠNguoi": 7713,
      "Ġmáº½o": 7714,
      "ĠhÃºp": 7715,
      "anananan": 7716,
      "Ġ=))))))))": 7717,
      "cá»±c": 7718,
      "jajajaja": 7719,
      "ĠUSD": 7720,
      "ĠTRá»ľI": 7721,
      "Ġkkkkkk": 7722,
      "alalalalalalalal": 7723,
      "hihihihihihihihi": 7724,
      "zzzzzzzzzzzzzzzz": 7725,
      "ĠData": 7726,
      "LED": 7727,
      "dback": 7728,
      "~~~~": 7729,
      "ĠWiFi": 7730,
      "Ġwebsite": 7731,
      "Ġmeow": 7732,
      "ĠLUÃĶN": 7733,
      "ĠNHá»®NG": 7734,
      "dá»ħ": 7735,
      "ĠMobiFone": 7736,
      "aging": 7737,
      "Ġbelike": 7738,
      "(_": 7739,
      "->": 7740,
      ".(": 7741,
      "18": 7742,
      "360": 7743,
      "62": 7744,
      "=))))": 7745,
      "CK": 7746,
      "DA": 7747,
      "HA": 7748,
      "HÃ¬nh": 7749,
      "IE": 7750,
      "Mb": 7751,
      "Ngon": 7752,
      "OLED": 7753,
      "Sáº½": 7754,
      "VID": 7755,
      "ab": 7756,
      "cw": 7757,
      "cat": 7758,
      "dc": 7759,
      "dn": 7760,
      "dbd": 7761,
      "fx": 7762,
      "fkf": 7763,
      "fort": 7764,
      "ghh": 7765,
      "gá»įi": 7766,
      "gks": 7767,
      "ham": 7768,
      "hÆ¡n": 7769,
      "jeb": 7770,
      "kong": 7771,
      "ktd": 7772,
      "lk": 7773,
      "lin": 7774,
      "long": 7775,
      "lal": 7776,
      "minh": 7777,
      "msk": 7778,
      "má»Ĺi": 7779,
      "nq": 7780,
      "ob": 7781,
      "okk": 7782,
      "oled": 7783,
      "ollow": 7784,
      "pi": 7785,
      "pm": 7786,
      "pr": 7787,
      "sai": 7788,
      "sá»Ń": 7789,
      "tp": 7790,
      "tai": 7791,
      "vg": 7792,
      "vh": 7793,
      "vice": 7794,
      "wj": 7795,
      "wksn": 7796,
      "xr": 7797,
      "yu": 7798,
      "zalo": 7799,
      "¥m": 7800,
      "Ġ|": 7801,
      "Ġay": 7802,
      "Ġáº¹": 7803,
      "ĠÆ°Æ¡ng": 7804,
      "Ġáº¥p": 7805,
      "Ġáº³ng": 7806,
      "įi": 7807,
      "á»ı": 7808,
      "áº¼": 7809,
      "ngo": 7810,
      "Ġtq": 7811,
      "Ġts": 7812,
      "ĠtÆ°ng": 7813,
      "ĠtÃ¡nh": 7814,
      "Ġtieu": 7815,
      "ĠcÃłn": 7816,
      "nhanh": 7817,
      "nhÆ°á»£c": 7818,
      "ĠÄĳay": 7819,
      "ĠÄĳmm": 7820,
      "ĠÄĳiáº¿c": 7821,
      "ĠmÆ¡i": 7822,
      "Ġmáº§n": 7823,
      "Ġmáº¡n": 7824,
      "Ġmiá»ĩt": 7825,
      "Ġmiáº¿n": 7826,
      "Ġmáº©u": 7827,
      "ĠlÃ£": 7828,
      "Ġláº·p": 7829,
      "ĠlÆ°á»£n": 7830,
      "Ġnhay": 7831,
      "ĠnhÃ³c": 7832,
      "ĠvÃ¹": 7833,
      "Ġvac": 7834,
      "Ġváº©y": 7835,
      "Ġváº«y": 7836,
      "Ġhc": 7837,
      "Ġhh": 7838,
      "Ġhanh": 7839,
      "ĠhÃłu": 7840,
      "Ġhard": 7841,
      "Ġkid": 7842,
      "Ġkiep": 7843,
      "Ġktra": 7844,
      "ĠnÄĥn": 7845,
      "Ġnáº¡t": 7846,
      "Ġnáº·n": 7847,
      "Ġneu": 7848,
      "Ġsáº§u": 7849,
      "ĠsÃºt": 7850,
      "Ġsáº£y": 7851,
      "Ġsky": 7852,
      "Ġben": 7853,
      "Ġbáº§y": 7854,
      "Ġbáº¿n": 7855,
      "Ġbáº©y": 7856,
      "Ġbolsa": 7857,
      "Ġgon": 7858,
      "ĠgáºŃt": 7859,
      "ĠgÃło": 7860,
      "Ġgáº§m": 7861,
      "Ġgen": 7862,
      "Ġgá»ī": 7863,
      "Ġgá»ĵng": 7864,
      "Ġdb": 7865,
      "Ġdh": 7866,
      "Ġdx": 7867,
      "ĠdÅ©ng": 7868,
      "Ġráº£": 7869,
      "Ġrem": 7870,
      "Ġran": 7871,
      "Ġráº§u": 7872,
      "Ġrá»įi": 7873,
      "Ġráº¡ch": 7874,
      "ĠrÃ¡o": 7875,
      "Ġrouter": 7876,
      "Ãªt": 7877,
      "Ġpv": 7878,
      "Ġpas": 7879,
      "Ġngan": 7880,
      "Ġngá»ĳc": 7881,
      "Ġnguyá»ģn": 7882,
      "Ġtrg": 7883,
      "Ġtrá»į": 7884,
      "ĠgiÃ´ng": 7885,
      "ĠgiÃ£y": 7886,
      "Ã¢c": 7887,
      "ĠkhÃŃa": 7888,
      "Ġxs": 7889,
      "Ġxáº¯c": 7890,
      "Ġxáº£o": 7891,
      "ĠTF": 7892,
      "ĠTáº¥u": 7893,
      "ĠTáº¡o": 7894,
      "ĠTom": 7895,
      "ĠTeam": 7896,
      "Ġpháº©n": 7897,
      "ĠCáº¯t": 7898,
      "ĠCáº£nh": 7899,
      "Ġmá»£": 7900,
      "Ġmá»ģnh": 7901,
      "Ġchá»ķi": 7902,
      "Ġchá»įi": 7903,
      "ĠMv": 7904,
      "ĠMÃª": 7905,
      "ĠMao": 7906,
      "ĠMáº¯c": 7907,
      "ĠMat": 7908,
      "ĠMom": 7909,
      "ĠMIá»ĦN": 7910,
      "ĠNT": 7911,
      "ĠNe": 7912,
      "Ġá»ª": 7913,
      "Ġá»Ļ": 7914,
      "Ġá»©a": 7915,
      "Ġcá»įng": 7916,
      "Ġcá»įp": 7917,
      "Ġbá»ķng": 7918,
      "Ġkháº³ng": 7919,
      "che": 7920,
      "cháº¡y": 7921,
      "chiáº¿n": 7922,
      "Ġtá»ĭ": 7923,
      "ĠSáº¼": 7924,
      "ĠHs": 7925,
      "ĠHÃ¡": 7926,
      "ĠHan": 7927,
      "ĠHÃŃt": 7928,
      "ĠHar": 7929,
      "ĠHahaha": 7930,
      "ĠÄĲan": 7931,
      "ĠÄĲÃłn": 7932,
      "Ġog": 7933,
      "aiw": 7934,
      "Ġsá»©": 7935,
      "Ġokkkkk": 7936,
      "Ġokokokokokok": 7937,
      "Ġbá»ĭa": 7938,
      "Ġlui": 7939,
      "ĠluÃ¢n": 7940,
      "Ġná»ī": 7941,
      "ĠCháº¥p": 7942,
      "ĠÄĳÃ³m": 7943,
      "ĠLA": 7944,
      "ĠLS": 7945,
      "ĠLi": 7946,
      "ĠLÃŃ": 7947,
      "ĠLáº®": 7948,
      "ĠLisa": 7949,
      "ĠBT": 7950,
      "ĠBl": 7951,
      "ĠBÃ¹": 7952,
      "ĠBon": 7953,
      "ĠBiÃªn": 7954,
      "ĠphÃ¬": 7955,
      "ĠThang": 7956,
      "ĠThÆ°á»£ng": 7957,
      "ĠThiá»ĩt": 7958,
      "ĠThÄĥng": 7959,
      "ĠThá»īnh": 7960,
      "ĠKg": 7961,
      "ĠKkkk": 7962,
      "ĠDM": 7963,
      "ĠDÃ¬": 7964,
      "ĠDÄĥm": 7965,
      "ĠDkm": 7966,
      "Ġab": 7967,
      "Ġar": 7968,
      "Ġav": 7969,
      "ĠPC": 7970,
      "ĠPR": 7971,
      "ĠPanda": 7972,
      "ĠGiáºŃt": 7973,
      "...!": 7974,
      "enen": 7975,
      "Ġhoáº¡n": 7976,
      "Ġnhaaaaaaaaa": 7977,
      "Ġtotttttttttttttttttttttttttt": 7978,
      "ĠTruy": 7979,
      "ĠTráº¯ng": 7980,
      "ĠNhiá»ĩt": 7981,
      "Ġ59": 7982,
      "hhx": 7983,
      "Ġfom": 7984,
      "Ġchá»ĭch": 7985,
      "ĠthÃ¡p": 7986,
      "Ġ42": 7987,
      "uis": 7988,
      "eed": 7989,
      "ĠXH": 7990,
      "ĠRÄĥng": 7991,
      "ĠRubik": 7992,
      "ĠMá»ģm": 7993,
      "ĠÆ¡iiiii": 7994,
      "Ġsop": 7995,
      "Ġwow": 7996,
      "ĠOn": 7997,
      "Ġtab": 7998,
      "Ġtap": 7999,
      "Ġei": 8000,
      "Ġey": 8001,
      "ggd": 8002,
      "Ġxuong": 8003,
      "Ġ-))": 8004,
      "ĠPhÆ°á»Ŀng": 8005,
      "ooc": 8006,
      "oow": 8007,
      "Ãµng": 8008,
      "ĠQuáº£n": 8009,
      "ĠQuáºŃt": 8010,
      "ĠQuá»¹": 8011,
      "Äĳem": 8012,
      "ĠÃłk": 8013,
      "Ġicon": 8014,
      "ĠKhÃ´": 8015,
      ".............": 8016,
      "...............": 8017,
      "ndb": 8018,
      "ndj": 8019,
      "ndnx": 8020,
      "Ġthuoc": 8021,
      "Ġngá»«ng": 8022,
      "fire": 8023,
      "Ġ66": 8024,
      "Ġ730": 8025,
      "ĠÄĲá»Ĥ": 8026,
      "ĠÄĲá»ĩm": 8027,
      "ĠÃī": 8028,
      "Ġja": 8029,
      "Ġza": 8030,
      "oke": 8031,
      "ĠVá»Ľ": 8032,
      "Ġspen": 8033,
      "Ġrá»£": 8034,
      "Ġrá»©a": 8035,
      "nsn": 8036,
      "Ġ84": 8037,
      "Ġ88": 8038,
      "arch": 8039,
      "ĠkÃ¬m": 8040,
      "Ġ?!": 8041,
      "tháº±ng": 8042,
      "Ġ92": 8043,
      "llagen": 8044,
      "Ġrefund": 8045,
      "bshs": 8046,
      "Ġduc": 8047,
      "star": 8048,
      "jfs": 8049,
      "ĠCá»Ńa": 8050,
      "bbz": 8051,
      "gio": 8052,
      "ĠInn": 8053,
      "Ġokey": 8054,
      "akaa": 8055,
      "Ġsales": 8056,
      "Ġsearch": 8057,
      "ĠThá»©c": 8058,
      "ĠKháº£": 8059,
      "ork": 8060,
      "jdjdj": 8061,
      "ggggg": 8062,
      "tuáº§n": 8063,
      "ĠChá»ĭu": 8064,
      "1091": 8065,
      "ĠTHAY": 8066,
      "ĠTHáºº": 8067,
      "ĠTHPT": 8068,
      "ĠTHáº¤Y": 8069,
      "kgd": 8070,
      "ĠUáº§y": 8071,
      "ĠSá»¬": 8072,
      "jxnx": 8073,
      "jsjsjsj": 8074,
      "Ġyour": 8075,
      "iend": 8076,
      "ĠxoÃłi": 8077,
      "Ġxoáº¯n": 8078,
      "ĠLá»Ľn": 8079,
      "ĠtrÃŃch": 8080,
      "ĠNhá»¥c": 8081,
      "rry": 8082,
      "hhhhhhhhhhh": 8083,
      "Ġhuáº¥n": 8084,
      "own": 8085,
      "ĠThá»ĭt": 8086,
      "ahahaha": 8087,
      "ÃģCH": 8088,
      "ĠTuáº§n": 8089,
      "Ġbede": 8090,
      "igaming": 8091,
      "ĠNhÆ°g": 8092,
      "áºłP": 8093,
      "ĠNGá»": 8094,
      "ĠNGON": 8095,
      "kwi": 8096,
      "ily": 8097,
      "jzbz": 8098,
      "ĠHuong": 8099,
      "128": 8100,
      "ĠAdmin": 8101,
      "khuyÃªn": 8102,
      "hcn": 8103,
      "Ġdkm": 8104,
      "fect": 8105,
      "Ġcsgt": 8106,
      "ĠCuong": 8107,
      "ĠTINH": 8108,
      "Ġhdsd": 8109,
      "chÃŃ": 8110,
      "chÃºc": 8111,
      "kksksksks": 8112,
      "hshshshs": 8113,
      "Iá»ĨU": 8114,
      "Ġlens": 8115,
      "Ġ2016": 8116,
      "Ġ999": 8117,
      "Thanks": 8118,
      "ofou": 8119,
      "kkdkdkd": 8120,
      "ahahahahahahahah": 8121,
      "Ġyear": 8122,
      "Ġmicro": 8123,
      "Ġ3500": 8124,
      "Ġ~~": 8125,
      "Ġamoled": 8126,
      "Ġ=]]]": 8127,
      "Ġvietnam": 8128,
      "Ġpew": 8129,
      "Ġ!!!!!!": 8130,
      "ĠSALE": 8131,
      "Ġoffline": 8132,
      "kekekeke": 8133,
      "ĠKhÃ³c": 8134,
      "Æ¯á»¢NG": 8135,
      "Ġ''": 8136,
      "ÄĤM": 8137,
      "ÃīO": 8138,
      "krkr": 8139,
      "Ġ0175": 8140,
      "Ġseri": 8141,
      "ĠCOVID": 8142,
      "ĠChÃ¡nh": 8143,
      "Ġexpress": 8144,
      "ĠNHANH": 8145,
      "NNNN": 8146,
      "Ġskin": 8147,
      "ikokokokokokOkikokokokokokOkikokokokokokOkikokokokokokOk": 8148,
      "Ġ18001091": 8149,
      "fast": 8150,
      "Ġhomie": 8151,
      "Iá»ĤM": 8152,
      "ChÃºc": 8153,
      "ĠTKC": 8154,
      "Ġassmin": 8155,
      "ĠTikinow": 8156,
      "ashion": 8157,
      "ĠCÃĴN": 8158,
      "04": 8159,
      "57": 8160,
      "61": 8161,
      "78": 8162,
      ":\"": 8163,
      ":&": 8164,
      "==": 8165,
      "AS": 8166,
      "Cho": 8167,
      "DD": 8168,
      "ED": 8169,
      "EI": 8170,
      "GT": 8171,
      "IP": 8172,
      "Mua": 8173,
      "NQ": 8174,
      "NV": 8175,
      "OM": 8176,
      "OR": 8177,
      "Pay": 8178,
      "Tá»ĳt": 8179,
      "az": 8180,
      "beo": 8181,
      "báº£o": 8182,
      "bhx": 8183,
      "bum": 8184,
      "cÃ´": 8185,
      "cai": 8186,
      "ciy": 8187,
      "dio": 8188,
      "ex": 8189,
      "hy": 8190,
      "hÃłi": 8191,
      "jgg": 8192,
      "jbs": 8193,
      "jis": 8194,
      "kns": 8195,
      "kyd": 8196,
      "kakak": 8197,
      "lip": 8198,
      "lsk": 8199,
      "mh": 8200,
      "moi": 8201,
      "máº¡ng": 8202,
      "msm": 8203,
      "ment": 8204,
      "nr": 8205,
      "nan": 8206,
      "nbs": 8207,
      "ning": 8208,
      "oao": 8209,
      "ofi": 8210,
      "ohc": 8211,
      "pig": 8212,
      "rh": 8213,
      "sns": 8214,
      "tz": 8215,
      "tao": 8216,
      "tid": 8217,
      "tieng": 8218,
      "uh": 8219,
      "udd": 8220,
      "ufu": 8221,
      "vÃło": 8222,
      "ven": 8223,
      "wk": 8224,
      "witch": 8225,
      "xe": 8226,
      "xoy": 8227,
      "xiy": 8228,
      "yt": 8229,
      "zf": 8230,
      "zkz": 8231,
      "ªNG": 8232,
      "¬I": 8233,
      "ĠÃº": 8234,
      "Ġáº¯t": 8235,
      "ĨT": 8236,
      "İI": 8237,
      "Ĺn": 8238,
      "á»¥": 8239,
      "áºª": 8240,
      "ngon": 8241,
      "Ġtong": 8242,
      "ĠtÃ©t": 8243,
      "ĠtÃłm": 8244,
      "ĠcÃºi": 8245,
      "Ġcre": 8246,
      "ĠcÃºn": 8247,
      "Ġcsk": 8248,
      "ĠÄĳÆ°": 8249,
      "ĠÄĳan": 8250,
      "ĠÄĳáº½": 8251,
      "ĠÄĳÃ©c": 8252,
      "Ġmc": 8253,
      "ĠmÆ°": 8254,
      "Ġmáº£i": 8255,
      "Ġmáº¡t": 8256,
      "Ġmien": 8257,
      "ĠmÃµi": 8258,
      "Ġlua": 8259,
      "ĠlÃ³i": 8260,
      "Ġláº·t": 8261,
      "ĠláºŃy": 8262,
      "Ġláº¡ng": 8263,
      "ĠlÃ¨o": 8264,
      "ĠlÃ¹m": 8265,
      "ĠnhÃ´": 8266,
      "ĠnhÃ¨": 8267,
      "Ġvy": 8268,
      "Ġvung": 8269,
      "Ġven": 8270,
      "ĠvÆ°á»Ľng": 8271,
      "Ġviá»ħn": 8272,
      "Ġvol": 8273,
      "Ġvos": 8274,
      "Ġvina": 8275,
      "Ġvtv": 8276,
      "Ġháº¥t": 8277,
      "Ġháº«": 8278,
      "Ġháº¯t": 8279,
      "Ġhsd": 8280,
      "Ġcham": 8281,
      "Ġchiáº¿t": 8282,
      "Ġchen": 8283,
      "Ġchuyá»ģn": 8284,
      "Ġchplay": 8285,
      "ĠkÃ´": 8286,
      "Ġken": 8287,
      "Ġking": 8288,
      "Ġklq": 8289,
      "ĠnÃłi": 8290,
      "Ġnáº¿p": 8291,
      "ĠnÃ£n": 8292,
      "ĠnÃºm": 8293,
      "ĠnÃŃn": 8294,
      "Ġsin": 8295,
      "ĠsÆ°á»Ľc": 8296,
      "ĠsÆ°ng": 8297,
      "Ġsach": 8298,
      "ĠsÆ°á»Ŀn": 8299,
      "ĠsÄĳt": 8300,
      "Ġbáº§m": 8301,
      "Ġboi": 8302,
      "Ġbim": 8303,
      "Ġbáº¡t": 8304,
      "Ġboy": 8305,
      "ĠbiÃªt": 8306,
      "Ġbrand": 8307,
      "Ġgáº¡": 8308,
      "Ġgoc": 8309,
      "Ġgap": 8310,
      "Ġgáº«y": 8311,
      "Ġgold": 8312,
      "Ġtháº·c": 8313,
      "Ġtháº¡ch": 8314,
      "Ġtháº±g": 8315,
      "Ġdg": 8316,
      "Ġdv": 8317,
      "Ġdkd": 8318,
      "Ġdram": 8319,
      "Ġddr": 8320,
      "Ġrá»ĵ": 8321,
      "Ġráº£i": 8322,
      "Ġren": 8323,
      "ĠriÃªu": 8324,
      "Ġroom": 8325,
      "Ġpet": 8326,
      "Ġngáº£": 8327,
      "ĠngÃ³ng": 8328,
      "ĠngÃ²i": 8329,
      "ĠthÃ¢t": 8330,
      "Ġtrá»ĵ": 8331,
      "Ġtrau": 8332,
      "Ġtráº½": 8333,
      "ĠtrÆ°Æ¡ng": 8334,
      "ĠÄĳá»įng": 8335,
      "Ġgiup": 8336,
      "Ġgiun": 8337,
      "ĠkhÃ¨": 8338,
      "ĠxÃło": 8339,
      "ĠxÆ°ng": 8340,
      "ĠxÃ©o": 8341,
      "ĠxÃ³c": 8342,
      "Ġxhcn": 8343,
      "ĠTang": 8344,
      "ĠTÃ´n": 8345,
      "ĠToi": 8346,
      "ĠTuyá»ĥn": 8347,
      "Ġvá»Ĺ": 8348,
      "Ġvá»įc": 8349,
      "Ġphut": 8350,
      "Ġqt": 8351,
      "ĠCan": 8352,
      "ĠCáºŃu": 8353,
      "ĠCre": 8354,
      "ĠCÃ¡p": 8355,
      "ĠCall": 8356,
      "ĠCAM": 8357,
      "Ġmá»«": 8358,
      "Ġchá»¥y": 8359,
      "ĠMN": 8360,
      "ĠMÆ°a": 8361,
      "ĠMÃ¡t": 8362,
      "ĠMá»Ļc": 8363,
      "ĠMÃ£nh": 8364,
      "ĠMed": 8365,
      "ĠMod": 8366,
      "ĠNu": 8367,
      "ĠNÃ³n": 8368,
      "ĠNÆ¯á»ļC": 8369,
      "ĠNew": 8370,
      "ĠNchung": 8371,
      "ĠNáºłP": 8372,
      "ĠquÆ¡": 8373,
      "Ġá»©": 8374,
      "Ġá»Ľi": 8375,
      "Ġcá»Ł": 8376,
      "Ġbá»ĩ": 8377,
      "Ġbá»ĥn": 8378,
      "Ġbá»¥c": 8379,
      "Ġhá»ķi": 8380,
      "Ġhá»Ńi": 8381,
      "Ġhá»ĭn": 8382,
      "inch": 8383,
      "Ġkhá»ĳng": 8384,
      "ama": 8385,
      "amin": 8386,
      "cha": 8387,
      "chc": 8388,
      "ĠvÃłnh": 8389,
      "ĠSuy": 8390,
      "ĠSÃ´ng": 8391,
      "ĠSÃºng": 8392,
      "ĠSet": 8393,
      "ĠSup": 8394,
      "ĠSusan": 8395,
      "ĠStyle": 8396,
      "ĠHA": 8397,
      "ĠHÃªn": 8398,
      "ĠHÃŃ": 8399,
      "ĠHÃ¢n": 8400,
      "ĠHÃĶ": 8401,
      "ĠHÆłN": 8402,
      "ĠHIáº¾U": 8403,
      "Ġthá»ķ": 8404,
      "ĠÄĲÃ¡": 8405,
      "ĠÄĲÄ©": 8406,
      "ĠÄĲáº¡o": 8407,
      "ĠÄĲÃ¹a": 8408,
      "ĠÄĲcm": 8409,
      "Ġdá»©a": 8410,
      "ĠÄĳáº¹pKhÄĥn": 8411,
      "Ġop": 8412,
      "Ġoanh": 8413,
      "Ġoder": 8414,
      "how": 8415,
      "Ġsá»įt": 8416,
      "Ġlá»ģ": 8417,
      "Ġlá»©t": 8418,
      "Ġlá»Łm": 8419,
      "Ġlá»¥a": 8420,
      "anas": 8421,
      "Ġbá»ĭnh": 8422,
      "Ġcá»§i": 8423,
      "ĠVÆ°á»£ng": 8424,
      "ĠViá»ģn": 8425,
      "ĠVáº¥n": 8426,
      "ĠVcl": 8427,
      "amen": 8428,
      "Ġnhá»įn": 8429,
      "ĠChang": 8430,
      "ĠChinh": 8431,
      "kkx": 8432,
      "ĠLÃłng": 8433,
      "ĠLáº¡y": 8434,
      "ĠLá»ĭch": 8435,
      "ĠBÃ²": 8436,
      "ĠBai": 8437,
      "ĠBáº¿n": 8438,
      "ĠBáº¡ch": 8439,
      "ĠBá»ģn": 8440,
      "ĠBá»ĭch": 8441,
      "ĠphÃ´": 8442,
      "ĠphÃ¨o": 8443,
      "Ġláº¯mm": 8444,
      "ĠThai": 8445,
      "ĠKá»": 8446,
      "ĠKÃŃ": 8447,
      "ĠKÃ©o": 8448,
      "ĠDO": 8449,
      "ĠDÆ¡": 8450,
      "ĠDon": 8451,
      "ĠDÆ°á»¡ng": 8452,
      "Ġas": 8453,
      "Ġalaska": 8454,
      "ĠÄĳÃ£ng": 8455,
      "ĠPo": 8456,
      "ĠGil": 8457,
      "ĠGiáº£": 8458,
      "Ġ350": 8459,
      "Ġlozz": 8460,
      "Ġnhac": 8461,
      "ĠActive": 8462,
      "Ġáº¡h": 8463,
      "Ġtok": 8464,
      "ĠTruong": 8465,
      "ĠNhan": 8466,
      "ĠNhiÃªn": 8467,
      "ĠNháºŃp": 8468,
      "ĠNhat": 8469,
      "Ġ53": 8470,
      "Ġ56": 8471,
      "hhb": 8472,
      "hhee": 8473,
      "Ġtuáº¥n": 8474,
      "ĠnhÃłu": 8475,
      "hip": 8476,
      "Ġfont": 8477,
      "ĠQR": 8478,
      "ĠQuyÃªn": 8479,
      "Ġ46": 8480,
      "erry": 8481,
      "Ġthoy": 8482,
      "ĠXU": 8483,
      "ĠXl": 8484,
      "ĠXao": 8485,
      "ĠXÆ°a": 8486,
      "ĠXáº¡c": 8487,
      "ĠRF": 8488,
      "ĠRAM": 8489,
      "jdbx": 8490,
      "jdndnd": 8491,
      "Ġchun": 8492,
      "Ġchuá»µ": 8493,
      "Ġká»ģnh": 8494,
      "iel": 8495,
      "Ġsorry": 8496,
      "?????": 8497,
      "Ġdoáº¡": 8498,
      "Ġdown": 8499,
      "ĠkhoÃ¡c": 8500,
      "Ġez": 8501,
      "Ġ-----------------": 8502,
      "jsi": 8503,
      "jsn": 8504,
      "oot": 8505,
      "ĠQuáºŃn": 8506,
      "mmx": 8507,
      "triá»ĩu": 8508,
      "Äĳm": 8509,
      "Äĳiá»ĥm": 8510,
      "ÄĳÃ¡nh": 8511,
      "ddd": 8512,
      "ndjd": 8513,
      "Å©y": 8514,
      "Ġngá»£m": 8515,
      "ahaaa": 8516,
      "Ġ63": 8517,
      "Ġ68": 8518,
      "ĠbuÃ´ng": 8519,
      "ĠchÃ¡c": 8520,
      "ĠchÃ¡nh": 8521,
      "Ġ710": 8522,
      "ĠÄĲá»¡": 8523,
      "ĠÄĲá»©a": 8524,
      "ĠNhÃŃm": 8525,
      "Ġcod": 8526,
      "Ġcol": 8527,
      "Ġcov": 8528,
      "bey": 8529,
      "Ġtá»ĩp": 8530,
      "nnnnnnn": 8531,
      "Ġrá»Ĺng": 8532,
      "nsbs": 8533,
      "Ġank": 8534,
      "jjcc": 8535,
      "hdb": 8536,
      "hdjd": 8537,
      "hdhs": 8538,
      "kkkkkkkkk": 8539,
      "oud": 8540,
      "Ġgá»£i": 8541,
      "hhhhhhh": 8542,
      "ĠThÃ¡ng": 8543,
      "lla": 8544,
      "lly": 8545,
      "ĠFake": 8546,
      "Ġdit": 8547,
      "Ġ\"\"": 8548,
      "ĠTá»¥t": 8549,
      "Ġhien": 8550,
      "Ġthá»ĭnh": 8551,
      "jfjd": 8552,
      "ĠCá»¥": 8553,
      "Ġcamara": 8554,
      "ĠtuyÃªt": 8555,
      "ĠIb": 8556,
      "ĠIu": 8557,
      "cci": 8558,
      "eeeee": 8559,
      "eeeeee": 8560,
      "pháº£n": 8561,
      "phai": 8562,
      "ĠKháº£i": 8563,
      "ĠOki": 8564,
      "ĠLol": 8565,
      "Ġtes": 8566,
      "Ġkhum": 8567,
      "Ġband": 8568,
      "Ġ06": 8569,
      "ĠTHáº¾": 8570,
      "ĠUltra": 8571,
      "jxkx": 8572,
      "ĠCHÃĵ": 8573,
      "ĠCHáº¤T": 8574,
      "ĠCHÆ¯A": 8575,
      "ĠCHÃįNH": 8576,
      "Ġyoutu": 8577,
      "Ġmom": 8578,
      "Ġmoáº¹": 8579,
      "Ġchá»¯i": 8580,
      "ixel": 8581,
      "Ġhave": 8582,
      "ÄĲT": 8583,
      "ÄĲÆ°á»Ŀng": 8584,
      "Ġxoa": 8585,
      "ĠhÃ³i": 8586,
      "ĠLá»¥c": 8587,
      "ĠLá»ģu": 8588,
      "bdbdbd": 8589,
      "bdbdbdb": 8590,
      "load": 8591,
      "huhu": 8592,
      "oycoy": 8593,
      "Ġhuá»·": 8594,
      "ĠHá»ķ": 8595,
      "ĠHá»Ĺ": 8596,
      "ĠHá»ĺ": 8597,
      "ĠDá»Ĭ": 8598,
      "ĠÄĳuá»¹": 8599,
      "ows": 8600,
      "ĠBá»ķ": 8601,
      "ĠBá»ĺ": 8602,
      "ĠÆ°iiiii": 8603,
      "Ġ5020": 8604,
      "kek": 8605,
      "iá»ħng": 8606,
      "ĠTRáº¦N": 8607,
      "Ġbot": 8608,
      "áºłO": 8609,
      "áº¤U": 8610,
      "Ġhello": 8611,
      "Ġbá»ķn": 8612,
      "Ġhangg": 8613,
      "xxx": 8614,
      "ĠKHO": 8615,
      "Ġgháº»": 8616,
      "áº¾U": 8617,
      "Ġfreefire": 8618,
      "ĠKhoe": 8619,
      "ĠPHáº¢I": 8620,
      "Ġcmnl": 8621,
      "ĠChÃŃp": 8622,
      "khong": 8623,
      "jtjd": 8624,
      "Ġá»Ķng": 8625,
      "????????": 8626,
      "bsbsbs": 8627,
      "Ġlqmb": 8628,
      "ĠÆłI": 8629,
      "áº¦Y": 8630,
      "))))))))))": 8631,
      "Äĳá»£i": 8632,
      "Chá»ī": 8633,
      "mxn": 8634,
      "ĠNá»¯": 8635,
      "ĠNá»ķ": 8636,
      "hrm": 8637,
      "ĠÄĳÃłoNgon": 8638,
      "Ġsting": 8639,
      "ĠKhá»ıi": 8640,
      "Ġsetup": 8641,
      "lyf": 8642,
      "cuoc": 8643,
      "ĠuiTá»ĳt": 8644,
      "ĠthÃŃt": 8645,
      "lvl": 8646,
      "Ġ2015": 8647,
      "uxux": 8648,
      "ĠTefal": 8649,
      "Ġusd": 8650,
      "ĠViettelPay": 8651,
      "áº®C": 8652,
      "ĠVirus": 8653,
      "ĠVietnam": 8654,
      "bdbdbdbdbdbdb": 8655,
      "ĠMixiG": 8656,
      "ĠTPHCM": 8657,
      "Ġhsau": 8658,
      "ĠHOA": 8659,
      "ĠRá»ĴI": 8660,
      "ĠClm": 8661,
      "ĠSAU": 8662,
      "jejeje": 8663,
      "ĠTRá»Ĭ": 8664,
      "lwlw": 8665,
      "gygy": 8666,
      "mmmmmmmmmmmmmmmmmmmmmmmmmmmmmmmm": 8667,
      "********": 8668,
      "ĠLazada": 8669,
      "ĠTHá»¨": 8670,
      "bá»Łi": 8671,
      ":)))))": 8672,
      "ĠVIET": 8673,
      "ĠCombo": 8674,
      "xxxxxxxx": 8675,
      "jjjjjjjjjjjjjjjj": 8676,
      "nhá»¯ng": 8677,
      "ĠMÃĢU": 8678,
      "oydoyd": 8679,
      "ĠchÆ°i": 8680,
      "________________": 8681,
      "Ġfeedback": 8682,
      "ĠnhÃŃm": 8683,
      "Ġmodem": 8684,
      "Ġblutooth": 8685,
      "ĠSenka": 8686,
      "Ġoffice": 8687,
      "Ġpackaging": 8688,
      "ĠAMOLED": 8689,
      "IEU": 8690,
      "ĠTFT": 8691,
      "Ġháº«ng": 8692,
      "anasonic": 8693,
      "!.": 8694,
      "%...": 8695,
      "+.": 8696,
      ".\"": 8697,
      ".:": 8698,
      ".=": 8699,
      ".:))": 8700,
      "02": 8701,
      "05": 8702,
      "13": 8703,
      "26": 8704,
      "290": 8705,
      "41": 8706,
      "63": 8707,
      "790": 8708,
      "95": 8709,
      "900": 8710,
      ";_": 8711,
      "=>": 8712,
      "CD": 8713,
      "CT": 8714,
      "EM": 8715,
      "IF": 8716,
      "JPH": 8717,
      "KY": 8718,
      "Ko": 8719,
      "Kong": 8720,
      "ahh": 8721,
      "ban": 8722,
      "biáº¿t": 8723,
      "bbs": 8724,
      "bhs": 8725,
      "coi": 8726,
      "djg": 8727,
      "ess": 8728,
      "est": 8729,
      "fd": 8730,
      "fs": 8731,
      "gk": 8732,
      "gjd": 8733,
      "gid": 8734,
      "gjs": 8735,
      "gia": 8736,
      "gram": 8737,
      "hl": 8738,
      "hbd": 8739,
      "hahaha": 8740,
      "jp": 8741,
      "jy": 8742,
      "jnd": 8743,
      "jbd": 8744,
      "kan": 8745,
      "knxnx": 8746,
      "kvd": 8747,
      "mv": 8748,
      "muá»ĳn": 8749,
      "nng": 8750,
      "nao": 8751,
      "ner": 8752,
      "nÄĥm": 8753,
      "nksks": 8754,
      "oz": 8755,
      "px": 8756,
      "rx": 8757,
      "ron": 8758,
      "sang": 8759,
      "táº¡i": 8760,
      "tho": 8761,
      "toi": 8762,
      "tal": 8763,
      "tuyá»ĩt": 8764,
      "táº¡m": 8765,
      "tks": 8766,
      "tor": 8767,
      "uss": 8768,
      "uld": 8769,
      "vu": 8770,
      "van": 8771,
      "xl": 8772,
      "yld": 8773,
      "ycy": 8774,
      "Ä¨": 8775,
      "Ìģ": 8776,
      "Ġang": 8777,
      "ĠÃªu": 8778,
      "Ġen": 8779,
      "Ġáº¾": 8780,
      "ħu": 8781,
      "įa": 8782,
      "ĴN": 8783,
      "á»¥c": 8784,
      "á»©c": 8785,
      "á»Ľc": 8786,
      "áº°": 8787,
      "ngu": 8788,
      "ĠtÃ²": 8789,
      "Ġtáº¡c": 8790,
      "Ġteo": 8791,
      "ĠtÃłnh": 8792,
      "ĠtÃ¡ng": 8793,
      "Ġtáº£ng": 8794,
      "ĠtÃ¨o": 8795,
      "ĠtÃ¢ng": 8796,
      "ĠtÄ©u": 8797,
      "Ġtphcm": 8798,
      "Ġtggd": 8799,
      "Ġcr": 8800,
      "Ġcáº¡": 8801,
      "ĠcÄĥm": 8802,
      "ĠcÃ²i": 8803,
      "Ġcta": 8804,
      "Ġcpu": 8805,
      "Ġcdm": 8806,
      "Ġcool": 8807,
      "nháº¹": 8808,
      "nhan": 8809,
      "nhou": 8810,
      "nhieu": 8811,
      "ĠÄĤN": 8812,
      "ĠÄĳh": 8813,
      "ĠÄĳn": 8814,
      "ĠÄĳÃºc": 8815,
      "Ġmd": 8816,
      "ĠmÆ°á»£c": 8817,
      "ĠmÃ¢u": 8818,
      "ĠmÄĥ": 8819,
      "Ġmáº§y": 8820,
      "ĠmÃ©t": 8821,
      "Ġmah": 8822,
      "Ġmore": 8823,
      "Ġlin": 8824,
      "ĠlÆ¡i": 8825,
      "ĠlÃ¡y": 8826,
      "ĠlÃ©": 8827,
      "ĠlÃ©o": 8828,
      "Ġláº·n": 8829,
      "ĠlÃ¡m": 8830,
      "Ġliu": 8831,
      "ĠlÃ©n": 8832,
      "Ġliá»ħu": 8833,
      "ĠnhÆ¡": 8834,
      "Ġnhem": 8835,
      "Ġnhang": 8836,
      "ĠnhÃło": 8837,
      "ĠnhÃ¡t": 8838,
      "Ġvp": 8839,
      "ĠvÃ³": 8840,
      "Ġváº¡": 8841,
      "Ġváº¡n": 8842,
      "Ġváº¡y": 8843,
      "ĠvÃ©t": 8844,
      "ĠviÃª": 8845,
      "ĠvÃ£n": 8846,
      "Ġvali": 8847,
      "Ġhj": 8848,
      "Ġhq": 8849,
      "Ġhx": 8850,
      "Ġháº¹p": 8851,
      "ĠhiÃªn": 8852,
      "Ġháº§m": 8853,
      "Ġhii": 8854,
      "Ġháº§y": 8855,
      "Ġháº¡ch": 8856,
      "Ġcháº¯t": 8857,
      "Ġcháº¥n": 8858,
      "Ġcháº¡p": 8859,
      "Ġkt": 8860,
      "Ġkit": 8861,
      "Ġkicm": 8862,
      "Ġnin": 8863,
      "Ġneo": 8864,
      "Ġnka": 8865,
      "Ġnáºµng": 8866,
      "Ġsáº£": 8867,
      "Ġsáº£o": 8868,
      "Ġsee": 8869,
      "Ġsáº¥m": 8870,
      "Ġshs": 8871,
      "Ġsap": 8872,
      "Ġbd": 8873,
      "Ġbx": 8874,
      "Ġbáº¥y": 8875,
      "Ġbui": 8876,
      "ĠbÃµ": 8877,
      "ĠbÆ°á»Ľng": 8878,
      "ĠbiÃª": 8879,
      "Ġbiáº¿ng": 8880,
      "Ġbáº«y": 8881,
      "Ġboom": 8882,
      "Ġbáº±g": 8883,
      "Ġgj": 8884,
      "ĠgÃ¹": 8885,
      "Ġgra": 8886,
      "Ġthk": 8887,
      "Ġthiá»ĩc": 8888,
      "ĠthiÃªu": 8889,
      "Ġdmm": 8890,
      "ĠrÃ´": 8891,
      "Ġrinh": 8892,
      "ĠráºŃt": 8893,
      "ĠrÆ¡m": 8894,
      "ĠrÃ¡n": 8895,
      "ĠrÃ¨n": 8896,
      "Ġpc": 8897,
      "Ġpu": 8898,
      "ĠpÃł": 8899,
      "Ġpua": 8900,
      "Ġpit": 8901,
      "Ġpol": 8902,
      "Ġpanda": 8903,
      "Ã¬a": 8904,
      "ĠngÆ¡i": 8905,
      "Ġngoi": 8906,
      "ĠthÃ©t": 8907,
      "ĠtrÆ¡": 8908,
      "Ġtriáº¿t": 8909,
      "Ġtráº¯c": 8910,
      "Ġtriá»ĩt": 8911,
      "ĠtrÃ¨o": 8912,
      "Ġtrieu": 8913,
      "Ġgil": 8914,
      "Ġgiu": 8915,
      "ĠgiÃ³ng": 8916,
      "ĠkhÃ´i": 8917,
      "ĠkhÃ¢m": 8918,
      "ual": 8919,
      "ĠxÆ¡": 8920,
      "Ġxxx": 8921,
      "ĠTS": 8922,
      "ĠTÃły": 8923,
      "ĠTÆ°Æ¡ng": 8924,
      "ĠTuyÃªn": 8925,
      "ĠTim": 8926,
      "ĠTieu": 8927,
      "ĠTÄ©nh": 8928,
      "ĠTá»ĭch": 8929,
      "Ġvá»į": 8930,
      "Ġpháº£": 8931,
      "Ġphin": 8932,
      "ĠphiÃªu": 8933,
      "Ġphom": 8934,
      "ĠCc": 8935,
      "ĠCanh": 8936,
      "ĠCang": 8937,
      "ĠCac": 8938,
      "ĠCty": 8939,
      "ĠMP": 8940,
      "ĠMÃ©": 8941,
      "ĠMá»ĵm": 8942,
      "ĠMÃĥ": 8943,
      "ĠMÃģY": 8944,
      "ĠNd": 8945,
      "ĠNai": 8946,
      "ĠNáº¿n": 8947,
      "ĠNáº±m": 8948,
      "ĠNeu": 8949,
      "Ġqui": 8950,
      "Ġá»į": 8951,
      "Ġá»Ľ": 8952,
      "Ġá»Ĺn": 8953,
      "Ġcá»±u": 8954,
      "Ġbá»Ł": 8955,
      "Ġbá»ĵng": 8956,
      "Ġbá»Ĺng": 8957,
      "Ġhá»Ŀ": 8958,
      "Ġhá»Ľt": 8959,
      "Ġhá»¡i": 8960,
      "Ġhá»¥i": 8961,
      "ĠkhÃł": 8962,
      "Ġkhau": 8963,
      "Ġkhoi": 8964,
      "ĠkháºŃp": 8965,
      "chd": 8966,
      "chl": 8967,
      "chs": 8968,
      "chia": 8969,
      "chip": 8970,
      "Ġ160": 8971,
      "ĠSU": 8972,
      "ĠSs": 8973,
      "ĠSung": 8974,
      "ĠSer": 8975,
      "ĠSáº¯m": 8976,
      "ĠSena": 8977,
      "Ãºy": 8978,
      "ĠHao": 8979,
      "ĠHÃ¡n": 8980,
      "ĠHÃ¨n": 8981,
      "ĠHAY": 8982,
      "ĠHáº¾T": 8983,
      "ĠHigh": 8984,
      "Ġnhanhh": 8985,
      "ĠÄĲN": 8986,
      "ĠÄĲÃ´": 8987,
      "ĠÄĲáº§n": 8988,
      "ĠÄĲÃº": 8989,
      "ĠÄĲiá»ĩp": 8990,
      "ĠÄĲkm": 8991,
      "ĠÄĲÄĤNG": 8992,
      "Ġdá»Ļ": 8993,
      "Ġdá»Ń": 8994,
      "Ġdá»įng": 8995,
      "Ġdá»©t": 8996,
      "ĠchÃ¹ng": 8997,
      "ĠgiÃ¡ng": 8998,
      "emon": 8999,
      "ĠquÃ¡nh": 9000,
      "Ġlá»«": 9001,
      "Ġlá»Ļng": 9002,
      "Ġokkk": 9003,
      "Ġbá»ĭp": 9004,
      "Äĥg": 9005,
      "ĠkhÃ¡n": 9006,
      "Æ°á»Ľn": 9007,
      "ĠVa": 9008,
      "ĠVd": 9009,
      "ĠVÃĶ": 9010,
      "ĠVina": 9011,
      "Ġluot": 9012,
      "Ġnhá»¯": 9013,
      "Ġnhá»į": 9014,
      "Ġná»±c": 9015,
      "ĠGA": 9016,
      "ĠGoi": 9017,
      "ĠGÃ¡i": 9018,
      "ĠGÃ³c": 9019,
      "ĠGÃĮ": 9020,
      "ĠGrab": 9021,
      "ĠCha": 9022,
      "ĠChao": 9023,
      "ĠChÃłng": 9024,
      "ĠChan": 9025,
      "ĠChÄĥm": 9026,
      "ĠChim": 9027,
      "ĠCháº¥m": 9028,
      "ĠChrome": 9029,
      "ĠLao": 9030,
      "ĠLee": 9031,
      "ĠLuu": 9032,
      "ĠLáº¯m": 9033,
      "ĠLÃ³t": 9034,
      "ĠLuc": 9035,
      "ĠLÃĿ": 9036,
      "ĠLÆ¯á»¢NG": 9037,
      "ĠBs": 9038,
      "ĠBay": 9039,
      "ĠBÃ©o": 9040,
      "ĠBÆ¡m": 9041,
      "Ġgiá»ĳ": 9042,
      "áº»m": 9043,
      "ĠKÃªu": 9044,
      "ĠKICM": 9045,
      "iá»ĥng": 9046,
      "Ġquad": 9047,
      "ĠDÃły": 9048,
      "ĠDay": 9049,
      "ĠDiÃªn": 9050,
      "ĠDiá»ĩt": 9051,
      "ĠDáº¡ng": 9052,
      "ĠDit": 9053,
      "ĠDuc": 9054,
      "ĠDep": 9055,
      "ĠDAT": 9056,
      "ĠPr": 9057,
      "ĠPlay": 9058,
      "ĠPark": 9059,
      "ĠPass": 9060,
      "Ġchá»īn": 9061,
      "ĠGiáºŃn": 9062,
      "ĠGian": 9063,
      "ĠÄĳÃ¡ch": 9064,
      "ĠnháºŃndkd": 9065,
      "Ġ360": 9066,
      "ĠNge": 9067,
      "ĠNgÅ©": 9068,
      "iis": 9069,
      "Ġloang": 9070,
      "pport": 9071,
      "Ġhoay": 9072,
      "ĠhoÃłnh": 9073,
      "eoeo": 9074,
      "ĠAh": 9075,
      "ĠAk": 9076,
      "ĠAr": 9077,
      "ĠAhihi": 9078,
      "ĠAlaska": 9079,
      "ĠABe": 9080,
      "Ġtom": 9081,
      "ĠtoÃł": 9082,
      "ĠtoÃ©t": 9083,
      "ĠTre": 9084,
      "ĠTrÆ°": 9085,
      "ĠTreo": 9086,
      "ĠTrÃ¡i": 9087,
      "ĠTrÄĥm": 9088,
      "ĠTrÃ£i": 9089,
      "tte": 9090,
      "tter": 9091,
      "Ġ54": 9092,
      "oid": 9093,
      "oisw": 9094,
      "hhc": 9095,
      "Ġtum": 9096,
      "Ġtuii": 9097,
      "ral": 9098,
      "Ġfail": 9099,
      "Ġtrá»«ng": 9100,
      "ĠÄĳÃ¢uu": 9101,
      "alth": 9102,
      "Ġ450": 9103,
      "Ġ4990": 9104,
      "Ġairpod": 9105,
      "ĠÃ¡k": 9106,
      "Ġphá»ĩ": 9107,
      "Ġsing": 9108,
      "ĠXO": 9109,
      "ĠXa": 9110,
      "ĠRE": 9111,
      "ĠMá»ĮI": 9112,
      "Ġ=.=": 9113,
      "idnd": 9114,
      "Ġchuá»Ļng": 9115,
      "ĠOanh": 9116,
      "Ġdoub": 9117,
      "Ġtaxi": 9118,
      "Ġchien": 9119,
      "Ġchill": 9120,
      "ĠxuÃ´i": 9121,
      "Ġ->": 9122,
      "jsbs": 9123,
      "ksjs": 9124,
      "ĠQuÃ©t": 9125,
      "trÆ°á»Ľc": 9126,
      "Äĳj": 9127,
      "ÄĳÃ³": 9128,
      "Äĳáº·t": 9129,
      "Äĳá»ķi": 9130,
      "Äĳá»ĵng": 9131,
      "Ġthue": 9132,
      "Ġngá»Ľ": 9133,
      "Ġngá»£i": 9134,
      "ĠnghÄ©nh": 9135,
      "fif": 9136,
      "Ġ74": 9137,
      "Ġ79": 9138,
      "Ġbas": 9139,
      "ĠÄĲá»¨C": 9140,
      "ĠÄĲá»ªNG": 9141,
      "ĠÃĤn": 9142,
      "Ġcollagen": 9143,
      "Ġxinhh": 9144,
      "Ġ:))).": 9145,
      "Ġzo": 9146,
      "pppppp": 9147,
      "Ġmar": 9148,
      "Ġcust": 9149,
      "ĠVá»¹": 9150,
      "ĠVá»Ĭ": 9151,
      "sss": 9152,
      "Ġspa": 9153,
      "nson": 9154,
      "nsms": 9155,
      "arena": 9156,
      "ĠER": 9157,
      "ĠEx": 9158,
      "Ġanker": 9159,
      "thu": 9160,
      "thÆ°á»Ŀng": 9161,
      "out": 9162,
      "Ġ990": 9163,
      "ĠchÃªt": 9164,
      "kdj": 9165,
      "ata": 9166,
      "ĠTá»Ľ": 9167,
      "ĠTá»Ń": 9168,
      "ĠTá»ĺI": 9169,
      "ĠTá»ĲT": 9170,
      "ĠYen": 9171,
      "jfkf": 9172,
      "ĠCá»°C": 9173,
      "bbbv": 9174,
      "cky": 9175,
      "gig": 9176,
      "Ġcammera": 9177,
      "Ġ1000000": 9178,
      "ĠIM": 9179,
      "ĠIQ": 9180,
      "ĠIOS": 9181,
      "Ġ..!": 9182,
      "Ġuiii": 9183,
      "Ġsel": 9184,
      "orld": 9185,
      "ĠVNA": 9186,
      "ĠPhÃª": 9187,
      "ĠPhÃŃm": 9188,
      "ĠÄĳoÃ¡": 9189,
      "ĠÄĳoáº¡t": 9190,
      "Ġinox": 9191,
      "ĠChá»īnh": 9192,
      "Ġsupport": 9193,
      "ĠkhuÃ¢n": 9194,
      "isk": 9195,
      "its": 9196,
      "itamin": 9197,
      "Ġbank": 9198,
      "1070": 9199,
      "ĠTHEO": 9200,
      "kgkg": 9201,
      "ĠUV": 9202,
      "ĠSá»ķ": 9203,
      "ĠSá»©c": 9204,
      "ÃĢY": 9205,
      "ĠCHU": 9206,
      "ĠmoÃ¡": 9207,
      "Ġmode": 9208,
      "ĠÃŃu": 9209,
      "mmmmmm": 9210,
      "bxb": 9211,
      "bxnx": 9212,
      "ĠJJ": 9213,
      "ĠJs": 9214,
      "ĠJoh": 9215,
      "*****": 9216,
      "fff": 9217,
      "tain": 9218,
      "ĠnuÃ´n": 9219,
      "Ġclone": 9220,
      "ixix": 9221,
      "Ġhappy": 9222,
      "ÄĲÃ£": 9223,
      "ĠGiá»¯": 9224,
      "ĠxoÃ¡y": 9225,
      "ĠhÃ³t": 9226,
      "ĠLá»Ĺ": 9227,
      "rea": 9228,
      "loz": 9229,
      "ĠNhá»±t": 9230,
      "ndndnd": 9231,
      "clh": 9232,
      "Ġmes": 9233,
      ",,,,,": 9234,
      "Ġhum": 9235,
      "ĠThuong": 9236,
      "ĠDá»«a": 9237,
      "ĠhÃ¡ch": 9238,
      "ĠÃģi": 9239,
      "ĠÃģp": 9240,
      "ĠÄĳuá»£": 9241,
      "ĠÃ´g": 9242,
      "ĠWeb": 9243,
      "ĠWow": 9244,
      "toÃłn": 9245,
      "kxkx": 9246,
      "ÃģI": 9247,
      "ÃģT": 9248,
      "Ġvnch": 9249,
      "apore": 9250,
      "bib": 9251,
      "ĠâĢĺ": 9252,
      "nfbf": 9253,
      "eeeeeeeee": 9254,
      "áºłC": 9255,
      "áºłM": 9256,
      "ÃĵC": 9257,
      "ĠCamara": 9258,
      "tify": 9259,
      "Ġchuan": 9260,
      "Iá»ĢU": 9261,
      "ĠDoanh": 9262,
      "ĠÄĳáº¿ch": 9263,
      "ĠPHá»": 9264,
      "khá»": 9265,
      "ĠQUAN": 9266,
      "ÃĤM": 9267,
      "thÃªm": 9268,
      "Ġtá»§i": 9269,
      "jjjjj": 9270,
      "Ġ256": 9271,
      "iiiiiiiiiiiiiiiiiiiiiiii": 9272,
      "ĠNgoan": 9273,
      "ooooo": 9274,
      "jdjjd": 9275,
      "ĠhÃ²n": 9276,
      "Ġwiffi": 9277,
      "Ġlquan": 9278,
      "Ġleg": 9279,
      "quay": 9280,
      "Chá»": 9281,
      "ChÆ¡i": 9282,
      "ĠNá»ĥ": 9283,
      "ĠHead": 9284,
      "Ġstand": 9285,
      "Ġstore": 9286,
      "ĠHaizzz": 9287,
      "ĠGá»ĮI": 9288,
      "ĠDuong": 9289,
      "indle": 9290,
      "indows": 9291,
      "Ġá»Ĳc": 9292,
      "Ġ480": 9293,
      "lsls": 9294,
      "Ġmessage": 9295,
      "ÃļT": 9296,
      "áº¬P": 9297,
      "ĠÄĲoáº¡n": 9298,
      "Ġ2013": 9299,
      "ĠLevi": 9300,
      "ÃįCH": 9301,
      "nnsnsnsnsns": 9302,
      "ĠvÃµng": 9303,
      "kfkfkfkf": 9304,
      "tá»©c": 9305,
      "Ġpop": 9306,
      "Ġbthg": 9307,
      "ĠMoon": 9308,
      "áº®T": 9309,
      "Ġshock": 9310,
      "hwhw": 9311,
      "mdmd": 9312,
      "nnxnxnxnxnx": 9313,
      "uuuuuuuuuuuuuuuuuuuuuuuu": 9314,
      "brh": 9315,
      "ĠroÃłi": 9316,
      "ĠGhÃ©t": 9317,
      "ĠGhÃ©p": 9318,
      "Ġtnao": 9319,
      "Ġtroll": 9320,
      "Ġblack": 9321,
      "giá»ĳng": 9322,
      "ĠSony": 9323,
      "ĠBest": 9324,
      "Ġngá»«i": 9325,
      "Ġ:((((((": 9326,
      "ieieie": 9327,
      "Ġrá»§i": 9328,
      "ktx": 9329,
      "ĠNhuá»ĩ": 9330,
      "coycoy": 9331,
      "áº¶T": 9332,
      "Ġghet": 9333,
      "sksoisw": 9334,
      "ĠrÃ¬a": 9335,
      "ĠWith": 9336,
      "hdhdhdhhd": 9337,
      "ĠComfort": 9338,
      "Ġunbox": 9339,
      "Ġndns": 9340,
      "chuáº©n": 9341,
      "tjdtjdtjdtjd": 9342,
      "ĠCáº¢M": 9343,
      "Ġalbum": 9344,
      "ĠNGHá»": 9345,
      "btc": 9346,
      "rist": 9347,
      "Ġhihihihi": 9348,
      "ĠhÆ¡p": 9349,
      "ĠngÆ°Æ¡i": 9350,
      "ĠdÄ©a": 9351,
      "ĠCMND": 9352,
      "QuÃ¢n": 9353,
      "jjgjgjgjgjg": 9354,
      "ĠTHUá»ĲC": 9355,
      "fupfup": 9356,
      "Ġscreen": 9357,
      "Ġstress": 9358,
      "Ġstreamer": 9359,
      "bbxbxbxbxbx": 9360,
      "ĠsÃ¡u": 9361,
      "Ġgato": 9362,
      "ĠMáºłNG": 9363,
      "Ġ:-)": 9364,
      "ĠBitis": 9365,
      "ĠOfficial": 9366,
      "flix": 9367,
      "ĠSBTC": 9368,
      "ĠOkkkkkkkkkkkkkkkkkkkkkk": 9369,
      "ÃĪO": 9370,
      "á»ķn": 9371,
      "Ġcarton": 9372,
      "Mbps": 9373,
      "Ġpastel": 9374,
      "ĠLáº®M": 9375,
      "ĠBlack": 9376,
      "ĠInnisfree": 9377,
      "NQJPH": 9378,
      "oaoknxnx": 9379,
      "Ġcskh": 9380,
      "ĠHÃĶM": 9381,
      "jjccjcjc": 9382,
      "nhouse": 9383,
      "ĠnháºŃndkdsksoisw": 9384,
      "Ġdouble": 9385,
      "Ġcustom": 9386,
      "107030": 9387,
      "ĠÄĳuá»£c": 9388,
      "ĠnháºŃndkdsksoiswoaoknxnx": 9389,
      "#.": 9390,
      "&/": 9391,
      "*,": 9392,
      ",................": 9393,
      ".?": 9394,
      "27": 9395,
      "300": 9396,
      "400": 9397,
      "79": 9398,
      "82": 9399,
      "86": 9400,
      "?...": 9401,
      "FC": 9402,
      "FF": 9403,
      "GD": 9404,
      "HH": 9405,
      "Ho": 9406,
      "Jz": 9407,
      "LL": 9408,
      "Má»Ľi": 9409,
      "Nam": 9410,
      "OC": 9411,
      "OW": 9412,
      "ST": 9413,
      "TE": 9414,
      "TR": 9415,
      "TEL": 9416,
      "aja": 9417,
      "bk": 9418,
      "bon": 9419,
      "báºŃt": 9420,
      "bÃ¢y": 9421,
      "bns": 9422,
      "bit": 9423,
      "band": 9424,
      "cp": 9425,
      "cao": 9426,
      "cÃłi": 9427,
      "cÃ´ng": 9428,
      "ev": 9429,
      "for": 9430,
      "gz": 9431,
      "ghz": 9432,
      "good": 9433,
      "hiá»ĩn": 9434,
      "hÄĳ": 9435,
      "hat": 9436,
      "hbb": 9437,
      "ij": 9438,
      "ist": 9439,
      "jak": 9440,
      "kam": 9441,
      "kinh": 9442,
      "lm": 9443,
      "lam": 9444,
      "liÃªn": 9445,
      "máº·t": 9446,
      "máº«u": 9447,
      "nÆ°á»Ľc": 9448,
      "nisfree": 9449,
      "oj": 9450,
      "oáº¡n": 9451,
      "po": 9452,
      "put": 9453,
      "pyd": 9454,
      "pop": 9455,
      "rt": 9456,
      "riÃªng": 9457,
      "ris": 9458,
      "rjr": 9459,
      "sr": 9460,
      "su": 9461,
      "sv": 9462,
      "sá»ĳ": 9463,
      "sÃ¡ng": 9464,
      "sig": 9465,
      "sá»£": 9466,
      "tÆ°": 9467,
      "tÃłi": 9468,
      "tin": 9469,
      "tinh": 9470,
      "táº¯t": 9471,
      "táº·ng": 9472,
      "tiáº¿c": 9473,
      "uk": 9474,
      "uch": 9475,
      "und": 9476,
      "uhd": 9477,
      "uko": 9478,
      "vk": 9479,
      "video": 9480,
      "vbi": 9481,
      "wjf": 9482,
      "wbw": 9483,
      "word": 9484,
      "xa": 9485,
      "xd": 9486,
      "xs": 9487,
      "xkdjd": 9488,
      "ya": 9489,
      "yo": 9490,
      "yod": 9491,
      "za": 9492,
      "zer": 9493,
      "zve": 9494,
      "¡t": 9495,
      "¢P": 9496,
      "¢y": 9497,
      "¨T": 9498,
      "©n": 9499,
      "«g": 9500,
      "°A": 9501,
      "ºng": 9502,
      "Ã¼": 9503,
      "ÌĨ": 9504,
      "Ġ$": 9505,
      "ĠÃ¬": 9506,
      "ĠÃ¢": 9507,
      "ĠÃ²": 9508,
      "ĠÃ¢y": 9509,
      "Ġii": 9510,
      "ĠÃ¹i": 9511,
      "Ġá»ĳi": 9512,
      "Ġjsjd": 9513,
      "ĲC": 9514,
      "ĺT": 9515,
      "á»§": 9516,
      "á»±c": 9517,
      "nghi": 9518,
      "Ġtáº©m": 9519,
      "ĠtÆ°Æ¡": 9520,
      "ĠtÃºng": 9521,
      "Ġtiá»ģm": 9522,
      "Ġtieng": 9523,
      "ĠcÃ¹": 9524,
      "Ġcra": 9525,
      "Ġcui": 9526,
      "Ġcáº±m": 9527,
      "ĠcÆ°á»¡ng": 9528,
      "ĠcÃ¢p": 9529,
      "nha": 9530,
      "ĠÄĳÆ¡i": 9531,
      "ĠÄĳáº§n": 9532,
      "ĠÄĳoi": 9533,
      "ĠÄĳÆ¡m": 9534,
      "ĠÄĳth": 9535,
      "ĠÄĳhs": 9536,
[...]
