{
  "version": "1.0",
  "truncation": null,
  "padding": null,
  "added_tokens": [
    {
      "id": 0,
      "content": "<pad>",
      "single_word": false,
      "lstrip": false,
      "rstrip": false,
      "normalized": false,
      "special": true
    },
    {
      "id": 1,
      "content": "<s>",
      "single_word": false,
      "lstrip": false,
      "rstrip": false,
      "normalized": false,
      "special": true
    },
    {
      "id": 2,
      "content": "</s>",
      "single_word": false,
      "lstrip": false,
      "rstrip": false,
      "normalized": false,
      "special": true
    },
    {
      "id": 3,
      "content": "<unk>",
      "single_word": false,
      "lstrip": false,
      "rstrip": false,
      "normalized": false,
      "special": true
    }
  ],
  "normalizer": {
    "type": "NFC"
  },
  "pre_tokenizer": {
    "type": "ByteLevel",
    "add_prefix_space": true,
    "trim_offsets": true,
    "use_regex": true
  },
  "post_processor": {
    "type": "TemplateProcessing",
    "single": [
      {
        "SpecialToken": {
          "id": "<s>",
          "type_id": 0
        }
      },
      {
        "Sequence": {
          "id": "A",
          "type_id": 0
        }
      },
      {
        "SpecialToken": {
          "id": "</s>",
          "type_id": 0
        }
      }
    ],
    "pair": [
      {
        "SpecialToken": {
          "id": "<s>",
          "type_id": 0
        }
      },
      {
        "Sequence": {
          "id": "A",
          "type_id": 0
        }
      },
      {
        "SpecialToken": {
          "id": "</s>",
          "type_id": 0
        }
      },
      {
        "SpecialToken": {
          "id": "</s>",
          "type_id": 0
        }
      },
      {
        "Sequence": {
          "id": "B",
          "type_id": 0
        }
      },
      {
        "SpecialToken": {
          "id": "</s>",
          "type_id": 0
        }
      }
    ],
    "special_tokens": {
      "</s>": {
        "id": "</s>",
        "ids": [
          2
        ],
        "tokens": [
          "</s>"
        ]
      },
      "<s>": {
        "id": "<s>",
        "ids": [
          1
        ],
        "tokens": [
          "<s>"
        ]
      }
    }
  },
  "decoder": {
    "type": "ByteLevel",
    "add_prefix_space": true,
    "trim_offsets": true,
    "use_regex": true
  },
  "model": {
    "type": "BPE",
    "dropout": null,
    "unk_token": "<unk>",
    "continuing_subword_prefix": null,
    "end_of_word_suffix": null,
    "fuse_unk": false,
    "byte_fallback": false,
    "ignore_merges": false,
    "vocab": {
      "<pad>": 0,
      "<s>": 1,
      "</s>": 2,
      "<unk>": 3,
      "!": 4,
      "\"": 5,
      "#": 6,
      "$": 7,
      "%": 8,
      "&": 9,
      "'": 10,
      "(": 11,
      ")": 12,
      "*": 13,
      "+": 14,
      ",": 15,
      "-": 16,
      ".": 17,
      "/": 18,
      "0": 19,
      "1": 20,
      "2": 21,
      "3": 22,
      "4": 23,
      "5": 24,
      "6": 25,
      "7": 26,
      "8": 27,
      "9": 28,
      ":": 29,
      ";": 30,
      "<": 31,
      "=": 32,
      ">": 33,
      "?": 34,
      "@": 35,
      "A": 36,
      "B": 37,
      "C": 38,
      "D": 39,
      "E": 40,
      "F": 41,
      "G": 42,
      "H": 43,
      "I": 44,
      "J": 45,
      "K": 46,
      "L": 47,
      "M": 48,
      "N": 49,
      "O": 50,
      "P": 51,
      "Q": 52,
      "R": 53,
      "S": 54,
      "T": 55,
      "U": 56,
      "V": 57,
      "W": 58,
      "X": 59,
      "Y": 60,
      "Z": 61,
      "[": 62,
      "\\": 63,
      "]": 64,
      "^": 65,
      "_": 66,
      "`": 67,
      "a": 68,
      "b": 69,
      "c": 70,
      "d": 71,
      "e": 72,
      "f": 73,
      "g": 74,
      "h": 75,
      "i": 76,
      "j": 77,
      "k": 78,
      "l": 79,
      "m": 80,
      "n": 81,
      "o": 82,
      "p": 83,
      "q": 84,
      "r": 85,
      "s": 86,
      "t": 87,
      "u": 88,
      "v": 89,
      "w": 90,
      "x": 91,
      "y": 92,
      "z": 93,
      "{": 94,
      "|": 95,
      "}": 96,
      "~": 97,
      "¡": 98,
      "¢": 99,
      "£": 100,
      "¤": 101,
      "¥": 102,
      "¦": 103,
      "§": 104,
      "¨": 105,
      "©": 106,
      "ª": 107,
      "«": 108,
      "¬": 109,
      "®": 110,
      "¯": 111,
      "°": 112,
      "±": 113,
      "²": 114,
      "³": 115,
      "´": 116,
      "µ": 117,
      "¶": 118,
      "·": 119,
      "¸": 120,
      "¹": 121,
      "º": 122,
      "»": 123,
      "¼": 124,
      "½": 125,
      "¾": 126,
      "¿": 127,
      "À": 128,
      "Á": 129,
      "Â": 130,
      "Ã": 131,
      "Ä": 132,
      "Å": 133,
      "Æ": 134,
      "Ç": 135,
      "È": 136,
      "É": 137,
      "Ê": 138,
      "Ë": 139,
      "Ì": 140,
      "Í": 141,
      "Î": 142,
      "Ï": 143,
      "Ð": 144,
      "Ñ": 145,
      "Ò": 146,
      "Ó": 147,
      "Ô": 148,
      "Õ": 149,
      "Ö": 150,
      "×": 151,
      "Ø": 152,
      "Ù": 153,
      "Ú": 154,
      "Û": 155,
      "Ü": 156,
      "Ý": 157,
      "Þ": 158,
      "ß": 159,
      "à": 160,
      "á": 161,
      "â": 162,
      "ã": 163,
      "ä": 164,
      "å": 165,
      "æ": 166,
      "ç": 167,
      "è": 168,
      "é": 169,
      "ê": 170,
      "ë": 171,
      "ì": 172,
      "í": 173,
      "î": 174,
      "ï": 175,
      "ð": 176,
      "ñ": 177,
      "ò": 178,
      "ó": 179,
      "ô": 180,
      "õ": 181,
      "ö": 182,
      "÷": 183,
      "ø": 184,
      "ù": 185,
      "ú": 186,
      "û": 187,
      "ü": 188,
      "ý": 189,
      "þ": 190,
      "ÿ": 191,
      "Ā": 192,
      "ā": 193,
      "Ă": 194,
      "ă": 195,
      "Ą": 196,
      "ą": 197,
      "Ć": 198,
      "ć": 199,
      "Ĉ": 200,
      "ĉ": 201,
      "Ċ": 202,
      "ċ": 203,
      "Č": 204,
      "č": 205,
      "Ď": 206,
      "ď": 207,
      "Đ": 208,
      "đ": 209,
      "Ē": 210,
      "ē": 211,
      "Ĕ": 212,
      "ĕ": 213,
      "Ė": 214,
      "ė": 215,
      "Ę": 216,
      "ę": 217,
      "Ě": 218,
      "ě": 219,
      "Ĝ": 220,
      "ĝ": 221,
      "Ğ": 222,
      "ğ": 223,
      "Ġ": 224,
      "ġ": 225,
      "Ģ": 226,
      "ģ": 227,
      "Ĥ": 228,
      "ĥ": 229,
      "Ħ": 230,
      "ħ": 231,
      "Ĩ": 232,
      "ĩ": 233,
      "Ī": 234,
      "ī": 235,
      "Ĭ": 236,
      "ĭ": 237,
      "Į": 238,
      "į": 239,
      "İ": 240,
      "ı": 241,
      "Ĳ": 242,
      "ĳ": 243,
      "Ĵ": 244,
      "ĵ": 245,
      "Ķ": 246,
      "ķ": 247,
      "ĸ": 248,
      "Ĺ": 249,
      "ĺ": 250,
      "Ļ": 251,
      "ļ": 252,
      "Ľ": 253,
      "ľ": 254,
      "Ŀ": 255,
      "ŀ": 256,
      "Ł": 257,
      "ł": 258,
      "Ń": 259,
      "á»": 260,
      "Ġt": 261,
      "ng": 262,
      "áº": 263,
      "Ġc": 264,
      "Ġth": 265,
      "Ġa": 266,
      "ĠÄ": 267,
      "ĠÄĳ": 268,
      "nh": 269,
      "Ãł": 270,
      "er": 271,
      "Ġs": 272,
      "Ġh": 273,
      "Ġb": 274,
      "in": 275,
      "Ġl": 276,
      "on": 277,
      "Ġthe": 278,
      "Ġv": 279,
      "Ġm": 280,
      "Æ°": 281,
      "Ã¡": 282,
      "Ġp": 283,
      "an": 284,
      "ed": 285,
      "or": 286,
      "en": 287,
      "Ġd": 288,
      "Ġch": 289,
      "es": 290,
      "ĠT": 291,
      "at": 292,
      "Ġn": 293,
      "iá»": 294,
      "Ġtr": 295,
      "Ġw": 296,
      "Ġk": 297,
      "Ġo": 298,
      "ar": 299,
      "is": 300,
      "Æ°á»": 301,
      "al": 302,
      "it": 303,
      "Ġg": 304,
      "nd": 305,
      "Ġnh": 306,
      "Ġof": 307,
      "Ġr": 308,
      "Ġin": 309,
      "Ġf": 310,
      "áº¿": 311,
      "ĠC": 312,
      "áº¡": 313,
      "Ã´": 314,
      "as": 315,
      "ch": 316,
      "á»Ļ": 317,
      "Ãª": 318,
      "Ġand": 319,
      "ing": 320,
      "Ġkh": 321,
      "áº£": 322,
      "Ã³": 323,
      "ĠS": 324,
      "Ġng": 325,
      "ion": 326,
      "Ġ1": 327,
      "Ġto": 328,
      "ro": 329,
      "ic": 330,
      "Ġph": 331,
      "á»ĳ": 332,
      "ĠN": 333,
      "áº¥": 334,
      "ĠA": 335,
      "ĠH": 336,
      "iá»ĩ": 337,
      "am": 338,
      "Ã¢": 339,
      "ĠM": 340,
      "el": 341,
      "ĠB": 342,
      "ĠTh": 343,
      "Ãªn": 344,
      "ou": 345,
      "il": 346,
      "á»§": 347,
      "Ã´ng": 348,
      "ĠvÃł": 349,
      "re": 350,
      "qu": 351,
      "Ġvá»": 352,
      "Ġ2": 353,
      "ent": 354,
      "ĠÄĳá»": 355,
      "ĠP": 356,
      "áºŃ": 357,
      "Ã¬": 358,
      "ĠlÃł": 359,
      "Æ¡": 360,
      "Ġqu": 361,
      "ay": 362,
      "ĠL": 363,
      "ol": 364,
      "ec": 365,
      "om": 366,
      "áº§": 367,
      "Ġgi": 368,
      "Ã¡c": 369,
      "et": 370,
      "Ġ\"": 371,
      "ong": 372,
      "Ġtá»": 373,
      "Æ°á»£": 374,
      "st": 375,
      "Æ°á»Ŀ": 376,
      "iáº¿": 377,
      "Ġthá»": 378,
      "ÃŃ": 379,
      "Äĥ": 380,
      "Ġ(": 381,
      "Ġcá»§": 382,
      "Ľi": 383,
      "Ġcá»§a": 384,
      "em": 385,
      "ĠI": 386,
      "th": 387,
      "ur": 388,
      "ĠD": 389,
      "Ġx": 390,
      "ad": 391,
      "uy": 392,
      "Ġwas": 393,
      "Ġhá»": 394,
      "áº¡i": 395,
      "ĠcÃ³": 396,
      "áº¥t": 397,
      "Ã£": 398,
      "ĠG": 399,
      "id": 400,
      "ĠV": 401,
      "im": 402,
      "Ġ20": 403,
      "ĠThe": 404,
      "ir": 405,
      "le": 406,
      "ac": 407,
      "Ã¢n": 408,
      "ĠR": 409,
      "Æ°á»£c": 410,
      "á»Ļt": 411,
      "iv": 412,
      "us": 413,
      "ation": 414,
      "Ġfor": 415,
      "Ġon": 416,
      "ig": 417,
      "ter": 418,
      "ĠÄĳÆ°á»£c": 419,
      "ĠK": 420,
      "ly": 421,
      "Ġ19": 422,
      "á»ĭ": 423,
      "Ãº": 424,
      "Ġis": 425,
      "Ã¬nh": 426,
      "á»±": 427,
      "ĠF": 428,
      "Ġmá»Ļt": 429,
      "Ãły": 430,
      "ĠcÃ¡c": 431,
      "iá»ģ": 432,
      "ang": 433,
      "áº¯": 434,
      "ĠÄĲ": 435,
      "Ġtrong": 436,
      "Ġe": 437,
      "ow": 438,
      "á»Ł": 439,
      "á»¯": 440,
      "hi": 441,
      "Ġas": 442,
      "ith": 443,
      "á»©": 444,
      "ers": 445,
      "ot": 446,
      "ut": 447,
      "ĠW": 448,
      "âĢ": 449,
      "Ġcho": 450,
      "iÃªn": 451,
      "ul": 452,
      "un": 453,
      "ĠCh": 454,
      "Ġcon": 455,
      "Ġst": 456,
      "á»¥": 457,
      "iá»ĩn": 458,
      "Ã²": 459,
      "ĠE": 460,
      "Æ°á»Ŀi": 461,
      "inh": 462,
      "Ġwith": 463,
      "Æ°á»Ľ": 464,
      "ist": 465,
      "and": 466,
      "Ġvá»Ľi": 467,
      "Ã¹": 468,
      "ĠJ": 469,
      "ag": 470,
      "Ãłnh": 471,
      "os": 472,
      "ĠkhÃ´ng": 473,
      "Ãłi": 474,
      "ia": 475,
      "um": 476,
      "áº§n": 477,
      "Ġan": 478,
      "ĠngÆ°á»Ŀi": 479,
      "áº·": 480,
      "ĠnÄĥ": 481,
      "Ġby": 482,
      "est": 483,
      "iá»ģu": 484,
      "Ġbe": 485,
      "Æ°Æ¡": 486,
      "iá»ĥ": 487,
      "ce": 488,
      "ĠÄĳÃ£": 489,
      "Æ°á»Ŀng": 490,
      "ĠO": 491,
      "Ġal": 492,
      "ao": 493,
      "áº§u": 494,
      "Æ°Æ¡ng": 495,
      "áº£i": 496,
      "Ġat": 497,
      "00": 498,
      "'s": 499,
      "ere": 500,
      "Ġre": 501,
      "ai": 502,
      "rom": 503,
      "ain": 504,
      "ver": 505,
      "Ġhá»į": 506,
      "au": 507,
      "á»¯ng": 508,
      "á»ĩ": 509,
      "op": 510,
      "ĠÄĳá»Ļ": 511,
      "ung": 512,
      "Æ°á»Ľc": 513,
      "ĠTr": 514,
      "oc": 515,
      "ĠIn": 516,
      "ĠU": 517,
      "Ġ201": 518,
      "áº£n": 519,
      "á»į": 520,
      "av": 521,
      "Ġngh": 522,
      "Ġthat": 523,
      "áº¿n": 524,
      "ĠnhÆ°": 525,
      "Ãłn": 526,
      "áºŃn": 527,
      "Ġwh": 528,
      "Ã¢y": 529,
      "ap": 530,
      "Ġnhá»¯ng": 531,
      "anh": 532,
      "ĠnÄĥm": 533,
      "Ġho": 534,
      "ĠnÃły": 535,
      "Ãłng": 536,
      "á»ķ": 537,
      "ect": 538,
      "ct": 539,
      "Å©": 540,
      "ess": 541,
      "á»ĵ": 542,
      "od": 543,
      "ri": 544,
      "Ġfrom": 545,
      "áº¡n": 546,
      "áºŃt": 547,
      "ÃŃnh": 548,
      "Ã¡ch": 549,
      "uá»ĳ": 550,
      "ab": 551,
      "Ġhe": 552,
      "if": 553,
      "Ġpro": 554,
      "up": 555,
      "ity": 556,
      "ber": 557,
      "Ġcom": 558,
      "art": 559,
      "Ġy": 560,
      "ĠÄĳá»ĥ": 561,
      "Ŀi": 562,
      "ill": 563,
      "ĠNg": 564,
      "áº¿t": 565,
      "Ġit": 566,
      "ew": 567,
      "ate": 568,
      "Ã¹ng": 569,
      "Ġsá»ĳ": 570,
      "Ġ3": 571,
      "ies": 572,
      "á»Ń": 573,
      "Ã´i": 574,
      "Ġtá»«": 575,
      "..": 576,
      "Ã©": 577,
      "Ġá»Ł": 578,
      "ak": 579,
      "ear": 580,
      "ud": 581,
      "iáº¿n": 582,
      "all": 583,
      "Ġra": 584,
      "Ġhis": 585,
      "ĠcÃ´ng": 586,
      "Ġthá»ĥ": 587,
      "iáº¿t": 588,
      "Ã¡t": 589,
      "Ã¡ng": 590,
      "Ã½": 591,
      "Ã¡n": 592,
      "ard": 593,
      "ĠPh": 594,
      "iá»ĩt": 595,
      "ian": 596,
      "ĠQ": 597,
      "Æ¡n": 598,
      "ĠÄĳáº¿n": 599,
      "Ġkhi": 600,
      "Ġde": 601,
      "á»©c": 602,
      "Ġlo": 603,
      "á»Ļi": 604,
      "ĠÄĳÃ³": 605,
      "igh": 606,
      "ub": 607,
      "Ġgiá»": 608,
      "ĠSt": 609,
      "ish": 610,
      "ĠvÃło": 611,
      "ort": 612,
      "Ġlá»": 613,
      "áº½": 614,
      "áº±": 615,
      "á»ĳi": 616,
      "Ġthu": 617,
      "Å©ng": 618,
      "Ġor": 619,
      "Ġvá»ģ": 620,
      "Ġtáº¡i": 621,
      "á»ī": 622,
      "ated": 623,
      "he": 624,
      "ov": 625,
      "ĠÄĳáº§u": 626,
      "ant": 627,
      "ĠâĢ": 628,
      "Ã¡o": 629,
      "áº©": 630,
      "áºŃp": 631,
      "ĠNh": 632,
      "Ã¡i": 633,
      "ĠÄĳá»ĭ": 634,
      "end": 635,
      "Ġpl": 636,
      "ell": 637,
      "á»ģ": 638,
      "Ġare": 639,
      "ld": 640,
      "our": 641,
      "ary": 642,
      "ĠtrÃªn": 643,
      "Ġcáº£": 644,
      "Ġhá»įc": 645,
      "ĠcÅ©ng": 646,
      "Ġ-": 647,
      "se": 648,
      "ive": 649,
      "Ãªu": 650,
      "ial": 651,
      "á»Ļc": 652,
      "ep": 653,
      "Ġex": 654,
      "Ġnhiá»ģu": 655,
      "ĠlÃłm": 656,
      "±c": 657,
      "ame": 658,
      "Ġsáº½": 659,
      "Ġmá»": 660,
      "ĠthÃłnh": 661,
      "Ġwere": 662,
      "Ġbá»ĭ": 663,
      "iá»ĩc": 664,
      "iá»ĩu": 665,
      "ine": 666,
      "Ġdo": 667,
      "ĠÄĳá»ĵ": 668,
      "ĠHe": 669,
      "ast": 670,
      "Ġsá»±": 671,
      "Ġse": 672,
      "ore": 673,
      "ther": 674,
      "áº«": 675,
      "Ġhiá»ĩn": 676,
      "ĠnhÃł": 677,
      "gh": 678,
      "Ġ200": 679,
      "Ġláº¡i": 680,
      "Ä©": 681,
      "áº¥y": 682,
      "og": 683,
      "ĠngÃły": 684,
      "pp": 685,
      "Ġ4": 686,
      "und": 687,
      "Äĥn": 688,
      "Ġdá»¥": 689,
      "ĠÄĳá»Ļng": 690,
      "hich": 691,
      "oun": 692,
      "Ġviá»ĩc": 693,
      "áº±ng": 694,
      "ust": 695,
      "ment": 696,
      "Äĥng": 697,
      "Ġwhich": 698,
      "ord": 699,
      "uc": 700,
      "Ġkho": 701,
      "Æ°á»£ng": 702,
      "Ġchá»ī": 703,
      "Ã²ng": 704,
      "ack": 705,
      "Ġ18": 706,
      "áº£o": 707,
      "ÃŃch": 708,
      "Ġ5": 709,
      "ĠmÃł": 710,
      "),": 711,
      "áº¥p": 712,
      "Ã¢m": 713,
      "ĠnÆ°á»Ľc": 714,
      "Ġsp": 715,
      "so": 716,
      "ge": 717,
      "Ã¡p": 718,
      ").": 719,
      "Ãło": 720,
      "áº¯c": 721,
      "Ġle": 722,
      "ĠhÃłng": 723,
      "Ã²n": 724,
      "ra": 725,
      "á»±c": 726,
      "Ġquy": 727,
      "Ã¡nh": 728,
      "ue": 729,
      "ions": 730,
      "áº·c": 731,
      "áº¡t": 732,
      "amp": 733,
      "\",": 734,
      "áº¡o": 735,
      "ical": 736,
      "Ġnháº¥t": 737,
      "ach": 738,
      "ĠÄĳá»ĵng": 739,
      "ork": 740,
      "Ġbáº¡n": 741,
      "ĠY": 742,
      "Ġpháº£i": 743,
      "ok": 744,
      "iá»ĥm": 745,
      "Ãºng": 746,
      "Ã¢u": 747,
      "uyÃªn": 748,
      "pl": 749,
      "ĠnÃ³": 750,
      "á»ģn": 751,
      "ĠchÃŃnh": 752,
      "áº£ng": 753,
      "Ġtiáº¿": 754,
      "ĠNam": 755,
      "ight": 756,
      "ost": 757,
      "á»ĳc": 758,
      "Ġgia": 759,
      "á»ĥ": 760,
      "áº¥n": 761,
      "mer": 762,
      "á»ı": 763,
      "Ġpr": 764,
      "Ġquan": 765,
      "cl": 766,
      "Ãºc": 767,
      "áº·t": 768,
      "20": 769,
      "Ġhad": 770,
      "Ġsh": 771,
      "ĠÄĳá»ĭnh": 772,
      "ĠIt": 773,
      "irst": 774,
      "Ã´n": 775,
      "áº»": 776,
      "Æ°a": 777,
      "ĠnhÃ¢n": 778,
      "ff": 779,
      "ĠhÆ¡n": 780,
      "ħn": 781,
      "ie": 782,
      "Ġalso": 783,
      "age": 784,
      "ry": 785,
      "uyá»ĩ": 786,
      "Ġthá»±c": 787,
      "Ġdá»¥ng": 788,
      "áº«n": 789,
      "\".": 790,
      "ide": 791,
      "Ġthá»Ŀi": 792,
      "ĠgiÃ¡": 793,
      "ous": 794,
      "Ġun": 795,
      "£p": 796,
      "iá»ĥn": 797,
      "áº¯t": 798,
      "á»ĳng": 799,
      "ans": 800,
      "Ġsau": 801,
      "ure": 802,
      "á»¥c": 803,
      "ign": 804,
      "á»ĭch": 805,
      "iz": 806,
      "ĠtrÆ°á»Ŀng": 807,
      "áº¹": 808,
      "Ġcl": 809,
      "Ġrec": 810,
      "Ġ6": 811,
      "ath": 812,
      "ĠUn": 813,
      "ĠViá»ĩt": 814,
      "Ġhas": 815,
      "Ġdá»±": 816,
      "ave": 817,
      "ĠÄĳá»ģ": 818,
      "Æ°á»Ł": 819,
      "Ġthá»©": 820,
      "oll": 821,
      "ĠthÃ¬": 822,
      "Ġhá»£p": 823,
      "ond": 824,
      "erv": 825,
      "Ġfirst": 826,
      "ric": 827,
      "fter": 828,
      "Ġsinh": 829,
      "ĠcÃ²n": 830,
      "Æ°á»Łng": 831,
      "Ġnot": 832,
      "ass": 833,
      "uáº¥t": 834,
      "ĠÃ´ng": 835,
      "ens": 836,
      "ip": 837,
      "Ġtheo": 838,
      "Ãªm": 839,
      "Ġar": 840,
      "te": 841,
      "ĠcÆ¡": 842,
      "Ġnghiá»ĩ": 843,
      "ome": 844,
      "Ġres": 845,
      "Æ¡i": 846,
      "rit": 847,
      "ĠAl": 848,
      "ember": 849,
      "iá»ģn": 850,
      "own": 851,
      "ice": 852,
      "ĠthÃ¡ng": 853,
      "ition": 854,
      "per": 855,
      "oÃłi": 856,
      "ĠÄĳi": 857,
      "ĠKh": 858,
      "á»ķi": 859,
      "Ġcomp": 860,
      "ace": 861,
      "Ġcont": 862,
      "ound": 863,
      "Ġsáº£n": 864,
      "ĠX": 865,
      "ater": 866,
      "ĠdÃ¢n": 867,
      "ĠhÃłnh": 868,
      "Ġtháº¿": 869,
      "Ġcao": 870,
      "ĠphÃ¡t": 871,
      "wo": 872,
      "man": 873,
      "ĠÄĳiá»ģu": 874,
      "ĠhÃ¬nh": 875,
      "ĠcÃ¹ng": 876,
      "ĠthÃ´ng": 877,
      "ount": 878,
      "Ġsá»Ń": 879,
      "iÃªu": 880,
      "Ġus": 881,
      "ory": 882,
      "á»©ng": 883,
      "ult": 884,
      "uá»ĳc": 885,
      "ĠviÃªn": 886,
      "Ġmá»Ľi": 887,
      "Ġad": 888,
      "Ġtheir": 889,
      "ĠnhÆ°ng": 890,
      "ĠtÃ´i": 891,
      "ey": 892,
      "ru": 893,
      "ĠmÃ¬nh": 894,
      "ĠQu": 895,
      "Ġpart": 896,
      "Ġits": 897,
      "act": 898,
      "uyá»ĩn": 899,
      "ĠAr": 900,
      "...": 901,
      "ence": 902,
      "port": 903,
      "Ġher": 904,
      "ĠÃ": 905,
      "ational": 906,
      "iá»ĥu": 907,
      "Ġráº¥t": 908,
      "áº¡nh": 909,
      "âĢĿ": 910,
      "ĠâĢľ": 911,
      "Ġ199": 912,
      "ations": 913,
      "Ġ7": 914,
      "áº¡ng": 915,
      "ime": 916,
      "ib": 917,
      "to": 918,
      "áº¥u": 919,
      "Ġbu": 920,
      "Ġj": 921,
      "pr": 922,
      "ĠcÃ¡ch": 923,
      "ĠnÃªn": 924,
      "orn": 925,
      "ark": 926,
      "Ġte": 927,
      "âĢĵ": 928,
      "Ġdi": 929,
      "Ã¡y": 930,
      "á»¹": 931,
      "ev": 932,
      "Ġvá»¥": 933,
      "ĠÄĳang": 934,
      "áº©m": 935,
      "Ġrel": 936,
      "clud": 937,
      "Ġem": 938,
      "ĠnháºŃn": 939,
      "Ġlá»Ľ": 940,
      "Ġwho": 941,
      "áº¿u": 942,
      "ĠkhÃ¡c": 943,
      "ree": 944,
      "Ġbiáº¿t": 945,
      "Ġplay": 946,
      "ĠtrÃ¬nh": 947,
      "Ġbá»Ļ": 948,
      "Ġbut": 949,
      "out": 950,
      "tern": 951,
      "Ġqua": 952,
      "Ġyear": 953,
      "Ġapp": 954,
      "aw": 955,
      "Ġlu": 956,
      "ĠlÃ½": 957,
      "Ġ10": 958,
      "Ġac": 959,
      "Ġone": 960,
      "Ġxuáº¥t": 961,
      "Ġ8": 962,
      "ik": 963,
      "19": 964,
      "pt": 965,
      "Ġso": 966,
      "Ġab": 967,
      "ould": 968,
      "hip": 969,
      "fer": 970,
      "land": 971,
      "ĠtrÆ°á»Ľc": 972,
      "Ġbo": 973,
      "are": 974,
      "ĠlÃªn": 975,
      "Ġhá»Ļi": 976,
      "ents": 977,
      "Ġtáº¿": 978,
      "Ġag": 979,
      "over": 980,
      "Ġxe": 981,
      "ĠlÆ°á»£ng": 982,
      "Ġtu": 983,
      "Ġtá»ķ": 984,
      "eb": 985,
      "ĠOn": 986,
      "á»£": 987,
      "ĠAn": 988,
      "ally": 989,
      "ool": 990,
      "Ġtin": 991,
      "á»«": 992,
      "Ġper": 993,
      "ran": 994,
      "á»ĩnh": 995,
      "Ġinclud": 996,
      "Ġcáº¥p": 997,
      "oin": 998,
      "Ġtwo": 999,
      "Ġhave": 1000,
      "eg": 1001,
      "uring": 1002,
      "ua": 1003,
      "Ġbec": 1004,
      "Ġthá»ĭ": 1005,
      "ĠÄĳiá»ĥm": 1006,
      "ates": 1007,
      "ade": 1008,
      "000": 1009,
      "Ġ9": 1010,
      "á»ĵng": 1011,
      "ĠGi": 1012,
      "ĠMar": 1013,
      "ĠÄĳá»ĳi": 1014,
      "ail": 1015,
      "ild": 1016,
      "ile": 1017,
      "Ġtiáº¿p": 1018,
      "any": 1019,
      "old": 1020,
      "Ġnghiá»ĩp": 1021,
      "ob": 1022,
      "ite": 1023,
      "Ġthis": 1024,
      "wn": 1025,
      "Ġkáº¿t": 1026,
      "Ġchá»©c": 1027,
      "ubl": 1028,
      "Ġel": 1029,
      "ĠnÄĥng": 1030,
      "ely": 1031,
      "Ã³a": 1032,
      "ĠvÃ¬": 1033,
      "for": 1034,
      "áº£m": 1035,
      "rong": 1036,
      "ĠâĢĵ": 1037,
      "á»³": 1038,
      "iss": 1039,
      "ĠÄĳÃ¢y": 1040,
      "ĠAs": 1041,
      "Ġbeen": 1042,
      "Ġtá»ĳ": 1043,
      "Ġtá»±": 1044,
      "Ġall": 1045,
      "ĠÄĳo": 1046,
      "ited": 1047,
      "Ã³ng": 1048,
      "Ġwork": 1049,
      "ĠQuá»ĳc": 1050,
      "one": 1051,
      "iá»ħn": 1052,
      "uch": 1053,
      "eas": 1054,
      "áº£nh": 1055,
      "uá»Ļc": 1056,
      "Ġhai": 1057,
      "Ġvá»ĭ": 1058,
      "Ġchá»§": 1059,
      "ug": 1060,
      "ĠchÃºng": 1061,
      "á»įi": 1062,
      "áº¡c": 1063,
      "ors": 1064,
      "Ġgiá»Ľi": 1065,
      "urn": 1066,
      "Ġafter": 1067,
      "Ġkhu": 1068,
      "ae": 1069,
      "á»ĥn": 1070,
      "Ġanh": 1071,
      "ĠNew": 1072,
      "Ġcáº§u": 1073,
      "ind": 1074,
      "Æ°á»Ľng": 1075,
      "ĠHo": 1076,
      "ĠÄĳÆ°á»Ŀng": 1077,
      "ĠtÃ¡c": 1078,
      "Ġgiáº£i": 1079,
      "Ġim": 1080,
      "Ġcomm": 1081,
      "ĠkhÃ¡ch": 1082,
      "ĠtÆ°": 1083,
      "Ġbáº±ng": 1084,
      "Ġ198": 1085,
      "á»ĵi": 1086,
      "enc": 1087,
      "á»Ļng": 1088,
      "ts": 1089,
      "oy": 1090,
      "Ġlá»Ľn": 1091,
      "Ġbáº£n": 1092,
      "ĠloÃłi": 1093,
      "uyá»ĥn": 1094,
      "ĠnÃ³i": 1095,
      "ĠtoÃłn": 1096,
      "ons": 1097,
      "ĠTrung": 1098,
      "we": 1099,
      "Ġtáº¡o": 1100,
      "ĠphÃŃ": 1101,
      "ĠtÃ¬nh": 1102,
      "eld": 1103,
      "Ġgian": 1104,
      "ivers": 1105,
      "áº¡ch": 1106,
      "Ġsc": 1107,
      "ock": 1108,
      "áº¯ng": 1109,
      "ĠtiÃªn": 1110,
      "Ġtá»ī": 1111,
      "ĠtÃ¢m": 1112,
      "ward": 1113,
      "Ã¨": 1114,
      "Ġdes": 1115,
      "áº¯n": 1116,
      "Ġtá»Ľi": 1117,
      "Ġpháº§n": 1118,
      "Ġgiá»¯": 1119,
      "ĠtÄĥng": 1120,
      "Ġup": 1121,
      "ĠnhiÃªn": 1122,
      "chool": 1123,
      "ĠmÃ¡y": 1124,
      "ĠtÃŃnh": 1125,
      "Äĥm": 1126,
      "Ġmáº·t": 1127,
      "Ġná»¯": 1128,
      "Ġtháº¥y": 1129,
      "Ġty": 1130,
      "Ġhay": 1131,
      "outh": 1132,
      "Ġkinh": 1133,
      "Ġdis": 1134,
      "Ġcuá»Ļc": 1135,
      "Ġover": 1136,
      "Ġta": 1137,
      "ph": 1138,
      "ĠLe": 1139,
      "ĠváºŃt": 1140,
      "les": 1141,
      "Ġpháº©m": 1142,
      "io": 1143,
      "ĠthÆ°á»Ŀng": 1144,
      "ah": 1145,
      "Ġbáº£o": 1146,
      "Ġquá»ĳc": 1147,
      "ton": 1148,
      "Ġthá»§": 1149,
      "Ġnay": 1150,
      "ĠÄĳáº¡i": 1151,
      "Ãºt": 1152,
      "Ġout": 1153,
      "Ġcháº¥t": 1154,
      "ĠCom": 1155,
      "áº¡m": 1156,
      "Ġoff": 1157,
      "ich": 1158,
      "ĠSh": 1159,
      "ction": 1160,
      "á»Łi": 1161,
      "Ġráº±ng": 1162,
      "Ġother": 1163,
      "Ġváº«n": 1164,
      "Ġserv": 1165,
      "á»įn": 1166,
      "Ġcáº§n": 1167,
      "Ġthey": 1168,
      "ft": 1169,
      "Ġcan": 1170,
      "Ġloáº¡i": 1171,
      "Ġhá»ĩ": 1172,
      "inal": 1173,
      "ough": 1174,
      "Ġnew": 1175,
      "á»Ĺ": 1176,
      "ance": 1177,
      "ings": 1178,
      "gan": 1179,
      "able": 1180,
      "Ġchiáº¿": 1181,
      "ĠCÃ´ng": 1182,
      "oh": 1183,
      "Ġcá»©": 1184,
      "Ġsá»ĳng": 1185,
      "ĠnÃło": 1186,
      "Ġ197": 1187,
      "Ġthuá»Ļc": 1188,
      "Ġshe": 1189,
      "Ġev": 1190,
      "ĠxÃ£": 1191,
      "uyá»ģn": 1192,
      "Ġund": 1193,
      "ugh": 1194,
      "Ġthá»ĳng": 1195,
      "Ġ12": 1196,
      "ement": 1197,
      "áºŃy": 1198,
      "Ġlá»±c": 1199,
      "Ġform": 1200,
      "Ġthiáº¿t": 1201,
      "Ġinto": 1202,
      "ood": 1203,
      "ilm": 1204,
      "orld": 1205,
      "Ġco": 1206,
      "ĠTrong": 1207,
      "Ġtrá»Ł": 1208,
      "Ġhiá»ĩu": 1209,
      "Ġtriá»ĥn": 1210,
      "ĠZ": 1211,
      "Ġloc": 1212,
      "á»įng": 1213,
      "ĠphÃ²ng": 1214,
      "Ġvi": 1215,
      "Ãºp": 1216,
      "ied": 1217,
      "ĠÃ¡n": 1218,
      "ick": 1219,
      "ĠÃ½": 1220,
      "eth": 1221,
      "Ġáº£nh": 1222,
      "iá»ĩm": 1223,
      "Æ°u": 1224,
      "Ġatt": 1225,
      "ason": 1226,
      "Ġhoáº·c": 1227,
      "Ġquáº£": 1228,
      "meric": 1229,
      "Ġ15": 1230,
      "Ġgro": 1231,
      "Ġthá»©c": 1232,
      "Ġtiá»ģn": 1233,
      "á»Ńa": 1234,
      "ĠcÃ´": 1235,
      "ĠHÃł": 1236,
      "Ġtime": 1237,
      "ex": 1238,
      "ĠbÃ¡o": 1239,
      "Ġtá»īnh": 1240,
      "Ġdá»ĭch": 1241,
      "Ġbá»ĩnh": 1242,
      "Ġpre": 1243,
      "Ġsec": 1244,
      "orth": 1245,
      "ake": 1246,
      "ral": 1247,
      "Ġláº§n": 1248,
      "way": 1249,
      "Ġtrá»ĭ": 1250,
      "ose": 1251,
      "ire": 1252,
      "ĠÄĳiá»ĩn": 1253,
      "Ġunder": 1254,
      "á»Ŀ": 1255,
      "Ġkhoa": 1256,
      "rough": 1257,
      "ÄĲ": 1258,
      "ĠtáºŃp": 1259,
      "ener": 1260,
      "ram": 1261,
      "az": 1262,
      "ĠphÃ¡p": 1263,
      "Ġthi": 1264,
      "ĠÄĳá»ķ": 1265,
      "ily": 1266,
      "pe": 1267,
      "áº³": 1268,
      "ted": 1269,
      "ics": 1270,
      "vel": 1271,
      "ished": 1272,
      "Ġnam": 1273,
      "Ġkn": 1274,
      "ĠÄĥ": 1275,
      "ĠliÃªn": 1276,
      "áº©n": 1277,
      "ont": 1278,
      "Ġ17": 1279,
      "ĠÄĥn": 1280,
      "áºŃu": 1281,
      "ĠÄĳá»ĭa": 1282,
      "ĠhÃ³a": 1283,
      "Ġbet": 1284,
      "Ġcons": 1285,
      "Æ°ng": 1286,
      "ious": 1287,
      "Ġdoanh": 1288,
      "Ġreg": 1289,
      "Ġ11": 1290,
      "ĠbÃ¡n": 1291,
      "ever": 1292,
      "ank": 1293,
      "iet": 1294,
      "Ã¡m": 1295,
      "Ġ196": 1296,
      "ĠPr": 1297,
      "áº§m": 1298,
      "Ġteam": 1299,
      "Ġhim": 1300,
      "eat": 1301,
      "ee": 1302,
      "ection": 1303,
      "«a": 1304,
      "ĠAnh": 1305,
      "ollow": 1306,
      "Ãµ": 1307,
      "uá»ĳn": 1308,
      "Ġtrung": 1309,
      "Ġtá»¥": 1310,
      "Ġtá»ĳt": 1311,
      "cess": 1312,
      "Ġhá»ĵ": 1313,
      "Ġtrá»įng": 1314,
      "Ġwould": 1315,
      "ĠAmeric": 1316,
      "ix": 1317,
      "ĠgiÃºp": 1318,
      "Ġdiá»ħn": 1319,
      "ife": 1320,
      "du": 1321,
      "ĠtÃłi": 1322,
      "ĠquÃ¢n": 1323,
      "Ã¬m": 1324,
      "ĠdÃ¹ng": 1325,
      "ann": 1326,
      "The": 1327,
      "ĠphÆ°Æ¡ng": 1328,
      "ĠyÃªu": 1329,
      "ĠquÃ¡": 1330,
      "Ġyears": 1331,
      "Ġwhen": 1332,
      "Ã²a": 1333,
      "Ġact": 1334,
      "Ġmore": 1335,
      "Ġwhere": 1336,
      "ĠÄĳáº¥t": 1337,
      "Ġhoáº¡t": 1338,
      "á»ĵn": 1339,
      "Ġagain": 1340,
      "Ġpubl": 1341,
      "olog": 1342,
      "Ġbiá»ĩt": 1343,
      "ĠtiÃªu": 1344,
      "ince": 1345,
      "ĠMá»¹": 1346,
      "ween": 1347,
      "ĠtÃŃch": 1348,
      "ĠthÆ°Æ¡ng": 1349,
      "Ġchiáº¿n": 1350,
      "Ġ16": 1351,
      "201": 1352,
      "ision": 1353,
      "arly": 1354,
      "ual": 1355,
      "ident": 1356,
      "ĠInd": 1357,
      "form": 1358,
      "Ġkáº¿": 1359,
      "anc": 1360,
      "Ġret": 1361,
      "Ġgiao": 1362,
      "Ġduring": 1363,
      "Æ°á»Ľi": 1364,
      "red": 1365,
      "Ġvá»±c": 1366,
      "Ġcent": 1367,
      "son": 1368,
      "ren": 1369,
      "Ġcáº£m": 1370,
      "ier": 1371,
      "Ġsub": 1372,
      "Ġstud": 1373,
      "Ġ0": 1374,
      "Ġind": 1375,
      "áº³ng": 1376,
      "Ã©t": 1377,
      "ĠBá»Ļ": 1378,
      "oáº¡i": 1379,
      "ĠCl": 1380,
      "ĠÄĳá»Ļi": 1381,
      "Ġtrang": 1382,
      "ict": 1383,
      "Ġfilm": 1384,
      "ters": 1385,
      "Ġtham": 1386,
      "áº¹p": 1387,
      "aj": 1388,
      "iversity": 1389,
      "Ġmang": 1390,
      "á»Ŀi": 1391,
      "Ġ194": 1392,
      "ĠPro": 1393,
      "Ġsup": 1394,
      "áº±m": 1395,
      "Ġca": 1396,
      ".\"": 1397,
      "ĠchÆ°a": 1398,
      "ouse": 1399,
      "Ġtiáº¿ng": 1400,
      "ative": 1401,
      "ĠThis": 1402,
      "oot": 1403,
      "á»įc": 1404,
      "á»Ľ": 1405,
      "rib": 1406,
      "ĠÄĳá»ģu": 1407,
      "Ġseason": 1408,
      "Ġass": 1409,
      "Ġchá»ĭ": 1410,
      "Ġphá»ĳ": 1411,
      "ve": 1412,
      "á»ħn": 1413,
      "air": 1414,
      "Ġfound": 1415,
      "uyá»ħn": 1416,
      "Ġnhau": 1417,
      "ĠTheo": 1418,
      "ĠsÄ©": 1419,
      "Ġdec": 1420,
      "Ġpol": 1421,
      "Ġbao": 1422,
      "ĠCÃ¡c": 1423,
      "ĠShe": 1424,
      "Ġbetween": 1425,
      "Ġfl": 1426,
      "Ġnghi": 1427,
      "ina": 1428,
      "Ġbáº¯t": 1429,
      "Ġbas": 1430,
      "Ġonly": 1431,
      "ĠnghÄ©": 1432,
      "use": 1433,
      "Ġmost": 1434,
      "ese": 1435,
      "ĠláºŃp": 1436,
      "Ġtuá»ķi": 1437,
      "Ġquyáº¿t": 1438,
      "ected": 1439,
      "ĠtrÃŃ": 1440,
      "Ġbáº¥t": 1441,
      "overn": 1442,
      "ĠWh": 1443,
      "ĠÄĳáº¡o": 1444,
      "Ġchuyá»ĥn": 1445,
      "Ġgr": 1446,
      "Ġfam": 1447,
      "Ġbá»ĳ": 1448,
      "ĠÄĳÆ¡n": 1449,
      "Ġtriá»ĩu": 1450,
      "ating": 1451,
      "ered": 1452,
      "Ã©p": 1453,
      "erm": 1454,
      "ĠNguyá»ħn": 1455,
      "ĠtÃ¬m": 1456,
      "ĠCol": 1457,
      "Ġthree": 1458,
      "ĠUnited": 1459,
      "ĠtÃªn": 1460,
      "ĠÄĳá»ķi": 1461,
      "Ġchu": 1462,
      "Ġspec": 1463,
      "Ġpe": 1464,
      "Ġtá»¥c": 1465,
      "uá»ĳng": 1466,
      "ĠváºŃy": 1467,
      "ities": 1468,
      "ash": 1469,
      "Ġfollow": 1470,
      "inn": 1471,
      "Ġtra": 1472,
      "arl": 1473,
      "ept": 1474,
      "Ġcháº¿": 1475,
      "bum": 1476,
      "ĠgÃ¬": 1477,
      "Ġkhoáº£ng": 1478,
      "ĠngoÃłi": 1479,
      "Ġsá»Ł": 1480,
      "Ġhigh": 1481,
      "ĠvÄĥn": 1482,
      "Ġmade": 1483,
      "Ġpres": 1484,
      "Ġrem": 1485,
      "Ġinter": 1486,
      "ĠsÃ¡ng": 1487,
      "Ġquyá»ģn": 1488,
      "uá»ĳi": 1489,
      "21": 1490,
      "enn": 1491,
      "ĠhoÃłn": 1492,
      "Ġmay": 1493,
      "Ġsy": 1494,
      "aph": 1495,
      "Ġká»³": 1496,
      "ĠkhÃ³": 1497,
      "ĠÄĳÆ°a": 1498,
      "ĠÄĳÃ¡nh": 1499,
      "Ġ195": 1500,
      "Ġtay": 1501,
      "Ġthrough": 1502,
      "fore": 1503,
      "Ġthere": 1504,
      "ific": 1505,
      "Ġlater": 1506,
      "ĠNá»Ļi": 1507,
      "Ġthen": 1508,
      "Ġman": 1509,
      "ĠCon": 1510,
      "Ġgáº§n": 1511,
      "Ġmua": 1512,
      "Ġreleas": 1513,
      "ĠbÃªn": 1514,
      "ĠÄĳáº·c": 1515,
      "als": 1516,
      "Ġthem": 1517,
      "ball": 1518,
      "á»ķng": 1519,
      "ĠUS": 1520,
      "ague": 1521,
      "Ġtáº£": 1522,
      "round": 1523,
      "Ġgiá»Ŀ": 1524,
      "ery": 1525,
      "duc": 1526,
      "Ġchá»įn": 1527,
      "emb": 1528,
      "Ġend": 1529,
      "Ġdá»±ng": 1530,
      "Ġgiáº£m": 1531,
      "Ġdiá»ĩn": 1532,
      "ĠthÃªm": 1533,
      "Ġpop": 1534,
      "Ġmov": 1535,
      "Ġnum": 1536,
      "uyáº¿n": 1537,
      "Ġmáº¡nh": 1538,
      "Ġsecond": 1539,
      "ived": 1540,
      "Ġthan": 1541,
      "Ġváº¥n": 1542,
      "ober": 1543,
      "ĠBr": 1544,
      "cc": 1545,
      "Ġabout": 1546,
      "10": 1547,
      "ale": 1548,
      "ern": 1549,
      "Ġused": 1550,
      "iáº¿u": 1551,
      "Ġam": 1552,
      "ĠSau": 1553,
      "Ĺi": 1554,
      "Ġmuá»ĳn": 1555,
      "Ġhoa": 1556,
      "Ġdist": 1557,
      "Ġnghá»ĩ": 1558,
      "ĠgiÃ¡o": 1559,
      "Ġchi": 1560,
      "ĠthÃ¢n": 1561,
      "ĠÄĳáº¹p": 1562,
      "Ġ14": 1563,
      "Ġ13": 1564,
      "arg": 1565,
      "ĠphÃ¢n": 1566,
      "ĠÄĳÃ¬nh": 1567,
      "Ġbecame": 1568,
      "Ġtráº»": 1569,
      "Ġdáº«n": 1570,
      "áº§y": 1571,
      "ĠSp": 1572,
      "ury": 1573,
      "Ġbá»Łi": 1574,
      "ĠUniversity": 1575,
      "Ġá»©ng": 1576,
      "Ġsuch": 1577,
      "ĠJoh": 1578,
      "ĠSc": 1579,
      "ros": 1580,
      "ĠFor": 1581,
      "Ãłu": 1582,
      "ĠAt": 1583,
      "eries": 1584,
      "Ġsong": 1585,
      "ular": 1586,
      "Ġvá»«a": 1587,
      "Ġkhiáº¿n": 1588,
      "att": 1589,
      "ames": 1590,
      "22": 1591,
      "Ġknown": 1592,
      "ull": 1593,
      "ĠIs": 1594,
      "Ġme": 1595,
      "ĠbÃ¬nh": 1596,
      "ĠnÆ¡i": 1597,
      "ett": 1598,
      "Ġhá»Ļ": 1599,
      "Ġ&": 1600,
      "Ġinv": 1601,
      "Ġcá»©u": 1602,
      "Ġchiáº¿c": 1603,
      "Ġ'": 1604,
      "pen": 1605,
      "ounc": 1606,
      "áº¥m": 1607,
      "áº·p": 1608,
      "ĠxÃ¢y": 1609,
      "Ã³c": 1610,
      "Ġalbum": 1611,
      "oss": 1612,
      "Ġdef": 1613,
      "ople": 1614,
      "áº£y": 1615,
      "usic": 1616,
      "ĠlÃ£": 1617,
      "Ġprov": 1618,
      "ĠTuy": 1619,
      "ĠmÃ´": 1620,
      "Ġinc": 1621,
      "Ġent": 1622,
      "Ġtruyá»ģn": 1623,
      "ars": 1624,
      "Ġsome": 1625,
      "ĠAmerican": 1626,
      "Ġliá»ĩu": 1627,
      "ley": 1628,
      "ĠgÃ¢y": 1629,
      "ĠÄĳáº¥u": 1630,
      "Ġ30": 1631,
      "ten": 1632,
      "ĠsÃ¡ch": 1633,
      "iver": 1634,
      "Ġschool": 1635,
      "Ġkhá»ı": 1636,
      "Ġtrans": 1637,
      "ional": 1638,
      "ĠWorld": 1639,
      "ĠVÄĥn": 1640,
      "ase": 1641,
      "Ġphá»¥c": 1642,
      "Ġfour": 1643,
      "ĠtÆ°á»£ng": 1644,
      "ower": 1645,
      "ĠcÃ¡i": 1646,
      "ĠtrÆ°á»Łng": 1647,
      "£i": 1648,
      "une": 1649,
      "Ġbiáº¿n": 1650,
      "Ġban": 1651,
      "ĠcÃ¡": 1652,
      "Ġbeing": 1653,
      "urch": 1654,
      "til": 1655,
      "Ġkiáº¿n": 1656,
      "iam": 1657,
      "Ġgiá»¯a": 1658,
      "Ġrecord": 1659,
      "ins": 1660,
      "Ġlá»ĭch": 1661,
      "ven": 1662,
      "Ġed": 1663,
      "rict": 1664,
      "Ġsá»©c": 1665,
      "idae": 1666,
      "Ġtá»Ń": 1667,
      "Ġbl": 1668,
      "Ġthay": 1669,
      "Ġcall": 1670,
      "Ã¬n": 1671,
      "Ġwell": 1672,
      "ĠJohn": 1673,
      "atch": 1674,
      "ress": 1675,
      "á»«ng": 1676,
      "áº¯m": 1677,
      "ĠBl": 1678,
      "Ġmon": 1679,
      "ĠMay": 1680,
      "ĠsÃ¡t": 1681,
      "ĠchuyÃªn": 1682,
      "Ġtá»«ng": 1683,
      "istory": 1684,
      "Ġphá»¥": 1685,
      "ĠPl": 1686,
      "ĠEl": 1687,
      "Ġen": 1688,
      "ĠFran": 1689,
      "Ġincluding": 1690,
      "ays": 1691,
      "ĠbÃłi": 1692,
      "ĠLoÃłi": 1693,
      "ĠAfter": 1694,
      "Ġtá»·": 1695,
      "ĠvÃ¹ng": 1696,
      "Ġ193": 1697,
      "áº·ng": 1698,
      "ĠthuáºŃt": 1699,
      "á»ĵm": 1700,
      "uro": 1701,
      "ĠEng": 1702,
      "Ġnhá»ı": 1703,
      "Ġart": 1704,
      "its": 1705,
      "Ġcáº£nh": 1706,
      "Ġ2018": 1707,
      "Ġrá»ĵi": 1708,
      "ĠphÃŃa": 1709,
      "Ġcre": 1710,
      "áº¯p": 1711,
      "Ġagainst": 1712,
      "Ġbay": 1713,
      "Ġnhiá»ĩm": 1714,
      "yl": 1715,
      "ĠbÃł": 1716,
      "ather": 1717,
      "ron": 1718,
      "Ġ,": 1719,
      "ĠnguyÃªn": 1720,
      "ty": 1721,
      "arri": 1722,
      "ield": 1723,
      "Ġnáº¿u": 1724,
      "ĠÄĳáº·t": 1725,
      "Ġacc": 1726,
      "ism": 1727,
      "ĠÄĲáº¡i": 1728,
      "Ġdu": 1729,
      "ĠhÆ°á»Ľng": 1730,
      "Ġkhai": 1731,
      "Ġmá»©c": 1732,
      "áº«u": 1733,
      "Ã¹a": 1734,
      "ĠdÃłi": 1735,
      "ĠchÃŃ": 1736,
      "Ġdire": 1737,
      "der": 1738,
      "areer": 1739,
      "Ġsao": 1740,
      "ĠÄĳoÃłn": 1741,
      "áº¡y": 1742,
      "á»ħ": 1743,
      "Ġtrá»£": 1744,
      "ike": 1745,
      "ject": 1746,
      "ĠJan": 1747,
      "Ġlead": 1748,
      "ines": 1749,
      "ÃŃt": 1750,
      "ef": 1751,
      "ĠMá»Ļt": 1752,
      "ium": 1753,
      "Ġsing": 1754,
      "ĠnháºŃp": 1755,
      "ained": 1756,
      "raph": 1757,
      "ĠAd": 1758,
      "Ġno": 1759,
      "Ġgá»įi": 1760,
      "Ġbá»ı": 1761,
      "ures": 1762,
      "pos": 1763,
      "ise": 1764,
      "other": 1765,
      "ets": 1766,
      "Ġcount": 1767,
      "Ġbefore": 1768,
      "led": 1769,
      "ĠTP": 1770,
      "erson": 1771,
      "ists": 1772,
      "Ġhuyá»ĩn": 1773,
      "Ġháº¿t": 1774,
      "Ġlá»Ŀi": 1775,
      "Ġshow": 1776,
      "Ġgá»ĵm": 1777,
      "ĠComm": 1778,
      "ĠGe": 1779,
      "ĠlÃºc": 1780,
      "Ġvá»ĩ": 1781,
      "Ġwhile": 1782,
      "á»Ľi": 1783,
      "stit": 1784,
      "Ġadd": 1785,
      "Ã³m": 1786,
      "Ġmá»įi": 1787,
      "Ġtiáº¿n": 1788,
      "ĠbÃłn": 1789,
      "Ä©nh": 1790,
      "ert": 1791,
      "Ġ.": 1792,
      "owever": 1793,
      "ĠthÃŃch": 1794,
      "Ġchá»©ng": 1795,
      "Ġsign": 1796,
      "Ġtranh": 1797,
      "ĠAust": 1798,
      "ıi": 1799,
      "Ġmed": 1800,
      "Ġphim": 1801,
      "uss": 1802,
      "ural": 1803,
      "ys": 1804,
      "Ġgroup": 1805,
      "Ġest": 1806,
      "stem": 1807,
      "overnment": 1808,
      "Ġsur": 1809,
      "Ġxem": 1810,
      "aid": 1811,
      "uá»ĵn": 1812,
      "ĠJu": 1813,
      "18": 1814,
      "Ġmany": 1815,
      "erman": 1816,
      "Ġuntil": 1817,
      "Ġmáº¹": 1818,
      "ĠmÃłu": 1819,
      "Ã´m": 1820,
      "velop": 1821,
      "ole": 1822,
      "els": 1823,
      "ĠÄĳá»©": 1824,
      "á»ĳn": 1825,
      "ĠCan": 1826,
      "ĠhÃ£": 1827,
      "Ġ2017": 1828,
      "ne": 1829,
      "ĠBÃ¬nh": 1830,
      "Ġcap": 1831,
      "Ġbro": 1832,
      "Ġ25": 1833,
      "Ġmáº¯t": 1834,
      "ĠvÃ´": 1835,
      "Ġgame": 1836,
      "Ġmod": 1837,
      "ĠtráºŃn": 1838,
      "Ġcung": 1839,
      "Ġkiá»ĩn": 1840,
      "Ġchung": 1841,
      "Ġmain": 1842,
      "Ġdevelop": 1843,
      "Ġmin": 1844,
      "ĠchÆ¡i": 1845,
      "Ġown": 1846,
      "reat": 1847,
      "ĠStates": 1848,
      "ĠNational": 1849,
      "Ġboth": 1850,
      "Ġtiáº¿t": 1851,
      "Ġná»Ļi": 1852,
      "Ġfamily": 1853,
      "Ġcol": 1854,
      "Ġpeople": 1855,
      "Ġwrit": 1856,
      "ĠÃĶ": 1857,
      "fl": 1858,
      "bo": 1859,
      "Ġ2016": 1860,
      "Ġoper": 1861,
      "ĠÄĳáº¡t": 1862,
      "Ġgo": 1863,
      "11": 1864,
      "Ġngay": 1865,
      "ized": 1866,
      "Ġplayed": 1867,
      "ution": 1868,
      "Ġappear": 1869,
      "elf": 1870,
      "Ġfin": 1871,
      "Ġmá»Ĺi": 1872,
      "ired": 1873,
      "ently": 1874,
      "Ġbiá»ĥn": 1875,
      "Ġdirect": 1876,
      "uk": 1877,
      "Ġlá»£i": 1878,
      "Ġcá»ķ": 1879,
      "ax": 1880,
      "ĠluÃ´n": 1881,
      "Ġnumber": 1882,
      "ĠxÃ¡c": 1883,
      "res": 1884,
      "ograph": 1885,
      "ĠbÃ³ng": 1886,
      "Ġsm": 1887,
      "Ġname": 1888,
      "ĠÄĲá»©c": 1889,
      "ĠSouth": 1890,
      "Ġmáº¡ng": 1891,
      "Ġint": 1892,
      "ĠdÆ°á»Ľi": 1893,
      "ĠNov": 1894,
      "ĠWar": 1895,
      "Ġlong": 1896,
      "Ãªng": 1897,
      "12": 1898,
      "Ġ2010": 1899,
      "ĠÄĳá»Ŀi": 1900,
      "ĠOr": 1901,
      "Ġphá»§": 1902,
      "ĠcÃ¡o": 1903,
      "ootball": 1904,
      "Ġquáº£n": 1905,
      "Ã¡u": 1906,
      "Ġkiá»ĥm": 1907,
      "ces": 1908,
      "ampions": 1909,
      "Ġtinh": 1910,
      "Ġmá»¥c": 1911,
      "ved": 1912,
      "Ġdanh": 1913,
      "ĠCount": 1914,
      "Ġreleased": 1915,
      "ternational": 1916,
      "á»·": 1917,
      "ĠMinh": 1918,
      "Ġseries": 1919,
      "ks": 1920,
      "Ġwon": 1921,
      "Ġthanh": 1922,
      "rol": 1923,
      "á»¯a": 1924,
      "ird": 1925,
      "Ġrece": 1926,
      "Ġorig": 1927,
      "uary": 1928,
      "Ġbuild": 1929,
      "ĠkhÃŃ": 1930,
      "ugust": 1931,
      "Ġná»ķi": 1932,
      "Ġann": 1933,
      "Ġ2015": 1934,
      "Ġgiáº£": 1935,
      "Ġchia": 1936,
      "á»±a": 1937,
      "Ġstart": 1938,
      "ĠAm": 1939,
      "Æ°á»£t": 1940,
      "Ġnghiá»ĩm": 1941,
      "ulation": 1942,
      "Ġ24": 1943,
      "by": 1944,
      "Ġcuá»ĳi": 1945,
      "ister": 1946,
      "ĠÄĳá»§": 1947,
      "ĠchÆ°Æ¡ng": 1948,
      "Æ°á»¡": 1949,
      "ĠGr": 1950,
      "Ġlife": 1951,
      "ĠBrit": 1952,
      "Ġarea": 1953,
      "Ġtá»ķng": 1954,
      "por": 1955,
      "ĠThanh": 1956,
      "Ġdif": 1957,
      "Ġnhanh": 1958,
      "ange": 1959,
      "ĠluáºŃt": 1960,
      "ĠAugust": 1961,
      "arm": 1962,
      "uyáº¿t": 1963,
      "ĠDec": 1964,
      "ĠÃĶng": 1965,
      "ĠYork": 1966,
      "ĠtÆ°Æ¡ng": 1967,
      "Ġgener": 1968,
      "Ġ[": 1969,
      "Ġbiá»ĥu": 1970,
      "oad": 1971,
      "Ġáº": 1972,
      "Ġoffic": 1973,
      "Ġchuyá»ĩn": 1974,
      "Ġsever": 1975,
      "Ġviá»ĩn": 1976,
      "Ġsang": 1977,
      "imes": 1978,
      "Ġ2014": 1979,
      "omen": 1980,
      "ĠMarch": 1981,
      "vi": 1982,
      "Ġback": 1983,
      "Ġdesign": 1984,
      "Ġda": 1985,
      "Ġmáº¥t": 1986,
      "Ġ2011": 1987,
      "Ġ100": 1988,
      "ĠSchool": 1989,
      "ĠChÃŃnh": 1990,
      "ĠHoa": 1991,
      "eptember": 1992,
      "Ġbr": 1993,
      "ĠII": 1994,
      "ĠMan": 1995,
      "Ġná»¯a": 1996,
      "Ġchar": 1997,
      "Ġkháº£": 1998,
      "ually": 1999,
      "ital": 2000,
      "urr": 2001,
      "arn": 2002,
      "Ġgáº·p": 2003,
      "Ġháº¡n": 2004,
      "fess": 2005,
      "Ġsim": 2006,
      "Ġchá»ĳng": 2007,
      "ior": 2008,
      "Ġrun": 2009,
      "ĠRe": 2010,
      "Ġvar": 2011,
      "ĠOct": 2012,
      "Ġcá»ĳ": 2013,
      "ute": 2014,
      "ĠNhÃł": 2015,
      "ÃŃn": 2016,
      "ĠBo": 2017,
      "my": 2018,
      "ĠEuro": 2019,
      "ata": 2020,
      "ĠÄĳÃ¡": 2021,
      "Ġext": 2022,
      "ĠBáº¯c": 2023,
      "ains": 2024,
      "ĠJanuary": 2025,
      "Ġcareer": 2026,
      "âĢĻ": 2027,
      "Ġtrá»±c": 2028,
      "ĠnghÄ©a": 2029,
      "abl": 2030,
      "ĠTá»ķng": 2031,
      "ĠSeptember": 2032,
      "Ġcalled": 2033,
      "oci": 2034,
      "ĠNhá»¯ng": 2035,
      "Ġphong": 2036,
      "Ġmá»Ł": 2037,
      "Ġchuáº©n": 2038,
      "inc": 2039,
      "Ġne": 2040,
      "sp": 2041,
      "ĠCent": 2042,
      "Ġfollowing": 2043,
      "Ġsame": 2044,
      "ĠcÃ¢u": 2045,
      "Ġnguá»ĵn": 2046,
      "ĠbÃ©": 2047,
      "Ġyáº¿u": 2048,
      "Ġob": 2049,
      "¯u": 2050,
      "Ġtáº¥t": 2051,
      "Ġprog": 2052,
      "ĠKhi": 2053,
      "Ġseveral": 2054,
      "Ġopen": 2055,
      "Ġsystem": 2056,
      "Ġcá»Ńa": 2057,
      "ĠdÃ¹": 2058,
      "ĠJune": 2059,
      "ĠÄĲÃ´ng": 2060,
      "ission": 2061,
      "Ġsáº¯c": 2062,
      "ĠHis": 2063,
      "ĠCity": 2064,
      "ĠOctober": 2065,
      "Ġ2013": 2066,
      "ĠhÆ°á»Łng": 2067,
      "Ã³n": 2068,
      "ĠkÃ½": 2069,
      "Ġreturn": 2070,
      "áº©u": 2071,
      "Ã£i": 2072,
      "Ġba": 2073,
      "uth": 2074,
      "Ġ2012": 2075,
      "ĠBe": 2076,
      "Ġpublic": 2077,
      "ui": 2078,
      "amb": 2079,
      "ĠJuly": 2080,
      "Ġcity": 2081,
      "Ġminh": 2082,
      "ajor": 2083,
      "rist": 2084,
      "Ġsuc": 2085,
      "Ġfeat": 2086,
      "ĠEm": 2087,
      "ially": 2088,
      "ives": 2089,
      "Ġcontin": 2090,
      "ĠngÃłnh": 2091,
      "ĠAll": 2092,
      "Ġearly": 2093,
      "ĠLeague": 2094,
      "iÃªng": 2095,
      "ology": 2096,
      "com": 2097,
      "pril": 2098,
      "ĠváºŃn": 2099,
      "Ġmusic": 2100,
      "ross": 2101,
      "ĠGerman": 2102,
      "Ġdá»ħ": 2103,
      "ruct": 2104,
      "Ġdá»¥c": 2105,
      "aking": 2106,
      "icip": 2107,
      "ient": 2108,
      "ĠchÃ¢n": 2109,
      "Ġcompl": 2110,
      "Ġhá»¯u": 2111,
      "áºŃm": 2112,
      "ants": 2113,
      "Ġpháº¡m": 2114,
      "Ġwill": 2115,
      "Ġnear": 2116,
      "Æ°á»¡ng": 2117,
      "Ġstate": 2118,
      "Ġcoll": 2119,
      "Äĳ": 2120,
      "Ġbegan": 2121,
      "50": 2122,
      "ĠtÃłu": 2123,
      "ĠÃŃt": 2124,
      "Ġhá»Ĺ": 2125,
      "Ġprodu": 2126,
      "Ġorgan": 2127,
      "thern": 2128,
      "ĠAustral": 2129,
      "ĠThá»§": 2130,
      "ĠApril": 2131,
      "ĠcÃ¢y": 2132,
      "oman": 2133,
      "ised": 2134,
      "ĠPol": 2135,
      "Ġxá»Ń": 2136,
      "Ġwe": 2137,
      "lege": 2138,
      "ĠTÃ¢y": 2139,
      "ink": 2140,
      "Ġrá»Ļng": 2141,
      "ilt": 2142,
      "Ġformer": 2143,
      "cept": 2144,
      "ĠrÃµ": 2145,
      "Ġnháº¡c": 2146,
      "ula": 2147,
      "ĠNovember": 2148,
      "ĠThÃłnh": 2149,
      "ĠNorth": 2150,
      "Ġláº¥y": 2151,
      "\":": 2152,
      "Ġdesc": 2153,
      "ued": 2154,
      "itt": 2155,
      "ĠThey": 2156,
      "Ġá»": 2157,
      "ĠNháºŃt": 2158,
      "ĠÃ¡p": 2159,
      "ured": 2160,
      "Ġnghá»ĭ": 2161,
      "Ġgovernment": 2162,
      "ott": 2163,
      "vent": 2164,
      "ful": 2165,
      "Ġ21": 2166,
      "ided": 2167,
      "Ġáº¥y": 2168,
      "Ġjoin": 2169,
      "23": 2170,
      "ĠCar": 2171,
      "iá»ĩp": 2172,
      "Ġbel": 2173,
      "Ġchild": 2174,
      "ĠÄĳáº£m": 2175,
      "ĠNáº¿u": 2176,
      "Ġthese": 2177,
      "ĠthÆ°": 2178,
      "ret": 2179,
      "oph": 2180,
      "Ġká»ĥ": 2181,
      "earch": 2182,
      "ĠSy": 2183,
      "af": 2184,
      "Ġsince": 2185,
      "Ġmáº«u": 2186,
      "ĠkÃ©": 2187,
      "ĠDecember": 2188,
      "ĠgÃ³": 2189,
      "ĠWill": 2190,
      "ĠÃ¢m": 2191,
      "ible": 2192,
      "Ġpar": 2193,
      "ampionship": 2194,
      "ended": 2195,
      "ĠAss": 2196,
      "wards": 2197,
      "ĠtháºŃt": 2198,
      "Ġresp": 2199,
      "ĠNÄĥm": 2200,
      "ility": 2201,
      "ĠlÆ°u": 2202,
      "Ġnáº±m": 2203,
      "áº¿p": 2204,
      "ĠnhÃ³m": 2205,
      "ues": 2206,
      "ĠnhÃ¬n": 2207,
      "Ġhead": 2208,
      "iáº¿m": 2209,
      "ĠlÃ²ng": 2210,
      "ĠBar": 2211,
      "ĠPhÃ¡p": 2212,
      "Ġinst": 2213,
      "ĠÄĳá»Ļc": 2214,
      "ĠcÄĥn": 2215,
      "Ġtho": 2216,
      "Ġtá»ĭ": 2217,
      "Ġdisc": 2218,
      "ĠsÃ¢n": 2219,
      "Ġtown": 2220,
      "Ġsupport": 2221,
      "Ġcáº¡nh": 2222,
      "ĠCounty": 2223,
      "ĠAnd": 2224,
      "Ġany": 2225,
      "ĠPar": 2226,
      "ND": 2227,
      "ĠgÃ¡i": 2228,
      "sh": 2229,
      "ada": 2230,
      "ĠCal": 2231,
      "ĠHáº£i": 2232,
      "aced": 2233,
      "ales": 2234,
      "pres": 2235,
      "ene": 2236,
      "Ġprom": 2237,
      "ĠÄĳÃ´": 2238,
      "Ġ2020": 2239,
      "ris": 2240,
      "Ġheld": 2241,
      "Ġdep": 2242,
      "Ġmet": 2243,
      "aining": 2244,
      "ĠHoÃłng": 2245,
      "Ġ(\"": 2246,
      "Ġland": 2247,
      "Ġcá»±c": 2248,
      "ĠFl": 2249,
      "Ġtháº§n": 2250,
      "įng": 2251,
      "Ġcompet": 2252,
      "min": 2253,
      "ĠEx": 2254,
      "Ġxuá»ĳng": 2255,
      "Ġeff": 2256,
      "ĠháºŃu": 2257,
      "ĠCo": 2258,
      "Ġalong": 2259,
      "Ġhoáº¡ch": 2260,
      "Ġ2019": 2261,
      "ony": 2262,
      "Ġcommun": 2263,
      "Ġai": 2264,
      "ices": 2265,
      "Ġclub": 2266,
      "Ġtá»ĳi": 2267,
      "Ġresult": 2268,
      "ĠThere": 2269,
      "Ġ23": 2270,
      "Ġair": 2271,
      "the": 2272,
      "ĠGu": 2273,
      "Ġtráº£": 2274,
      "ĠÄĳoáº¡n": 2275,
      "Ġvill": 2276,
      "ĠLan": 2277,
      "Ġ22": 2278,
      "chn": 2279,
      "ĠThÃ¡i": 2280,
      "ĠEd": 2281,
      "embers": 2282,
      "ĠÄĳÃªm": 2283,
      "Ġuse": 2284,
      "ebru": 2285,
      "Ġlocated": 2286,
      "Ġdid": 2287,
      "ause": 2288,
      "ĠKá»³": 2289,
      "ebruary": 2290,
      "orm": 2291,
      "Ġká»¹": 2292,
      "Ġtit": 2293,
      "uyá»ĩt": 2294,
      "ages": 2295,
      "ically": 2296,
      "Ġviáº¿t": 2297,
      "ĠBan": 2298,
      "Ġpolit": 2299,
      "ĠÃģ": 2300,
      "ĠVá»Ľi": 2301,
      "Ġbook": 2302,
      "Ġhá»ıi": 2303,
      "Ġgu": 2304,
      "ĠChi": 2305,
      "ĠHá»Ļi": 2306,
      "ĠtÆ°á»Ľng": 2307,
      "ĠLong": 2308,
      "ĠState": 2309,
      "ator": 2310,
      "ideo": 2311,
      "ĠCÃ³": 2312,
      "ĠBro": 2313,
      "Ġstation": 2314,
      "Ġocc": 2315,
      "17": 2316,
      "ĠAb": 2317,
      "Ġ$": 2318,
      "Ġhiá»ĥu": 2319,
      "co": 2320,
      "ract": 2321,
      "Ġtook": 2322,
      "Ġkháº©u": 2323,
      "ĠEurope": 2324,
      "Ġpoin": 2325,
      "lex": 2326,
      "ĠDo": 2327,
      "ĠcÃłng": 2328,
      "Ġplace": 2329,
      "Ġnamed": 2330,
      "ĠÄĳáº§y": 2331,
      "rop": 2332,
      "ĠNgÃły": 2333,
      "ĠFebruary": 2334,
      "Ġlocal": 2335,
      "áº¡p": 2336,
      "Ġproduc": 2337,
      "ĠNgÆ°á»Ŀi": 2338,
      "ĠchÃº": 2339,
      "ĠÄĳÃ³ng": 2340,
      "Ġdr": 2341,
      "Ġserved": 2342,
      "Ġmember": 2343,
      "ĠvÃ²ng": 2344,
      "ana": 2345,
      "Ġcá»¥": 2346,
      "ival": 2347,
      "ĠÄĳÃºng": 2348,
      "ĠkhÃ¡": 2349,
      "Ã¢ng": 2350,
      "augh": 2351,
      "Ġtá»ĭch": 2352,
      "Ġexp": 2353,
      "ke": 2354,
      "ĠÄĳa": 2355,
      "Ġ2009": 2356,
      "ĠquÃ½": 2357,
      "Ġyou": 2358,
      "ĠLu": 2359,
      "ĠBritish": 2360,
      "ĠvÃłng": 2361,
      "Ġlá»ĩ": 2362,
      "line": 2363,
      "aving": 2364,
      "Ġsmall": 2365,
      "lin": 2366,
      "Ãºi": 2367,
      "Ġprogram": 2368,
      "ĠChá»§": 2369,
      "ĠÄĳÃ¡ng": 2370,
      "Ġnhu": 2371,
      "Ġpopulation": 2372,
      "CM": 2373,
      "Ġeach": 2374,
      "ĠHar": 2375,
      "erg": 2376,
      "ĠKhÃ´ng": 2377,
      "200": 2378,
      "ĠTe": 2379,
      "ĠAir": 2380,
      "ald": 2381,
      "ĠtrÃ²": 2382,
      "Ġpos": 2383,
      "ĠLa": 2384,
      "Ġvá»ĳn": 2385,
      "oth": 2386,
      "Ġband": 2387,
      "yn": 2388,
      "ĠAf": 2389,
      "ĠphÃ©p": 2390,
      "Ġtráº¡ng": 2391,
      "Ġnorth": 2392,
      "Ġhouse": 2393,
      "ĠÄĲÃ¢y": 2394,
      "Ġdiffer": 2395,
      "ĠDÆ°Æ¡ng": 2396,
      "ĠThá»ĭ": 2397,
      "ĠMin": 2398,
      "tr": 2399,
      "ĠcÆ°": 2400,
      "ats": 2401,
      "ĠNgh": 2402,
      "ĠÄĳÄĥng": 2403,
      "30": 2404,
      "Ġborn": 2405,
      "Ġfinal": 2406,
      "Ġ2008": 2407,
      "ĠriÃªng": 2408,
      "Ġchá»©": 2409,
      "Ġmajor": 2410,
      "ĠÄĳÃ´ng": 2411,
      "istor": 2412,
      "Ch": 2413,
      "Ġhome": 2414,
      "elp": 2415,
      "iving": 2416,
      "urg": 2417,
      "ides": 2418,
      "ether": 2419,
      "ĠCup": 2420,
      "ilit": 2421,
      "Ġcompany": 2422,
      "Ġvá»£": 2423,
      "Ġestabl": 2424,
      "ĠmÃ¹a": 2425,
      "ĠÄĳáº£o": 2426,
      "Ġarr": 2427,
      "ĠHowever": 2428,
      "Ġcould": 2429,
      "15": 2430,
      "Ġdung": 2431,
      "ĠhÃ²a": 2432,
      "Ġevent": 2433,
      "Ġghi": 2434,
      "ĠSÆ¡n": 2435,
      "Ġreceived": 2436,
      "ĳng": 2437,
      "ĠWest": 2438,
      "Ġlá»Ľp": 2439,
      "Ġfootball": 2440,
      "ane": 2441,
      "ĠRep": 2442,
      "illion": 2443,
      "Ġmembers": 2444,
      "Ġthuá»ĳc": 2445,
      "ĠtÆ°á»Łng": 2446,
      "ington": 2447,
      "ipp": 2448,
      "Ġsl": 2449,
      "press": 2450,
      "Ġcá»Ļng": 2451,
      "pro": 2452,
      "Ġsuccess": 2453,
      "Ġclass": 2454,
      "áºµ": 2455,
      "Ġ190": 2456,
      "ĠlÃ£nh": 2457,
      "era": 2458,
      "atic": 2459,
      "med": 2460,
      "ublic": 2461,
      "ored": 2462,
      "ĠGeor": 2463,
      "eter": 2464,
      "ĠDe": 2465,
      "ĠMc": 2466,
      "ased": 2467,
      "ivision": 2468,
      "Ġ50": 2469,
      "Ġcar": 2470,
      "16": 2471,
      "Ġ26": 2472,
      "Ġrepres": 2473,
      "Ġnational": 2474,
      "ĠPark": 2475,
      "ĠluáºŃn": 2476,
      "rem": 2477,
      "ille": 2478,
      "ĠKing": 2479,
      "reen": 2480,
      "arge": 2481,
      "Ġaround": 2482,
      "Ġchá»ĵng": 2483,
      "Ġelect": 2484,
      "ode": 2485,
      "Ġcomplet": 2486,
      "Ġ27": 2487,
      "ians": 2488,
      "ĠnghiÃªn": 2489,
      "Ġsu": 2490,
      "ience": 2491,
      "Ġtáº¥n": 2492,
      "Ġ28": 2493,
      "ĠHer": 2494,
      "Ġworld": 2495,
      "Ġsouth": 2496,
      "side": 2497,
      "ĠDist": 2498,
      "Ġtuyá»ĥn": 2499,
      "ky": 2500,
      "Ġtop": 2501,
      "Ġlist": 2502,
      "ĠLiÃªn": 2503,
      "Ġbus": 2504,
      "Ġdown": 2505,
      "ĠxÃ©t": 2506,
      "Ġrefer": 2507,
      "ĠChrist": 2508,
      "Ġsoc": 2509,
      "onom": 2510,
      "Ġcháº¿t": 2511,
      "Ġleg": 2512,
      "Ġtháº¯ng": 2513,
      "ording": 2514,
      "Ġline": 2515,
      "iness": 2516,
      "Ġsingle": 2517,
      "Ġ2007": 2518,
      "ency": 2519,
      "ĠquáºŃn": 2520,
      "ĠSw": 2521,
      "ows": 2522,
      "que": 2523,
      "view": 2524,
      "Ġá»§": 2525,
      "ately": 2526,
      "ham": 2527,
      "ĠTá»«": 2528,
      "Ġkm": 2529,
      "Ġterm": 2530,
      "ĠPhil": 2531,
      "born": 2532,
      "ĠcÃ¡nh": 2533,
      "Ġever": 2534,
      "Ġage": 2535,
      "Ġreport": 2536,
      "Ġxáº£y": 2537,
      "ara": 2538,
      "Ġdue": 2539,
      "Ġ2021": 2540,
      "uÃ¢n": 2541,
      "14": 2542,
      "ĠBáº£n": 2543,
      "ze": 2544,
      "alth": 2545,
      "Ġsáº»": 2546,
      "Ġeng": 2547,
      "Ġlaw": 2548,
      "aster": 2549,
      "ĠNgoÃłi": 2550,
      "ĠDuring": 2551,
      "âĢĿ.": 2552,
      "ĠmÃ´i": 2553,
      "itions": 2554,
      "ourt": 2555,
      "\")": 2556,
      "Ãłm": 2557,
      "Ġbuilt": 2558,
      "Ġdeb": 2559,
      "Ġthoáº¡i": 2560,
      "ĠHigh": 2561,
      "rew": 2562,
      "Th": 2563,
      "ality": 2564,
      "iety": 2565,
      "á»Ĺi": 2566,
      "ĠHistory": 2567,
      "Ġcentury": 2568,
      "Ġkhá»ıi": 2569,
      "ĠdÃłnh": 2570,
      "Ġcharac": 2571,
      "Ġold": 2572,
      "ified": 2573,
      "Ġchá»ĭu": 2574,
      "Ġprofess": 2575,
      "Ġnon": 2576,
      "Ġconst": 2577,
      "Ġ2006": 2578,
      "ences": 2579,
      "Ġleft": 2580,
      "Ġsaid": 2581,
      "iod": 2582,
      "Ġtáº£i": 2583,
      "ĠNhÆ°ng": 2584,
      "Ġtuáº§n": 2585,
      "Ġrest": 2586,
      "aint": 2587,
      "Ġla": 2588,
      "row": 2589,
      "Ġgiá»ĳng": 2590,
      "Ġmark": 2591,
      "apan": 2592,
      "Ġsix": 2593,
      "Ġká»·": 2594,
      "ĠdÃ²ng": 2595,
      "Ġlast": 2596,
      "Ġtiá»ĩn": 2597,
      "Ġbased": 2598,
      "Ġset": 2599,
      "Ġspecies": 2600,
      "arried": 2601,
      "Ġconc": 2602,
      "ĠWilliam": 2603,
      "Ġtá»©": 2604,
      "mp": 2605,
      "Ġngoáº¡i": 2606,
      "Ġmen": 2607,
      "ĠSch": 2608,
      "uÃ´i": 2609,
      "ones": 2610,
      "ĠNga": 2611,
      "ights": 2612,
      "Ġinclude": 2613,
      "ĠphÃ¡": 2614,
      "Ġpháº£n": 2615,
      "rid": 2616,
      "aim": 2617,
      "Ġcháº¡y": 2618,
      "áº©y": 2619,
      "ature": 2620,
      "Ġappro": 2621,
      "Ġcamp": 2622,
      "Ġhá»ĵi": 2623,
      "ĠReg": 2624,
      "ĠchÃ¢u": 2625,
      "ĠHá»ĵ": 2626,
      "Ġdeath": 2627,
      "app": 2628,
      "Ġ189": 2629,
      "ĠTrÆ°á»Ŀng": 2630,
      "Ġday": 2631,
      "ling": 2632,
      "Ġpublished": 2633,
      "Ġnháº±m": 2634,
      "Ġnhiá»ĩt": 2635,
      "24": 2636,
      "Ġrepresent": 2637,
      "ĠÄĳÃłn": 2638,
      "ĠUSD": 2639,
      "ox": 2640,
      "ĠÄĳÃ´i": 2641,
      "Ġfive": 2642,
      "Ġred": 2643,
      "omin": 2644,
      "Ġvai": 2645,
      "á»ĭp": 2646,
      "Ġwithin": 2647,
      "Ġnow": 2648,
      "ĠtoÃ¡n": 2649,
      "Ġmatch": 2650,
      "Ġdied": 2651,
      "ĠphÃ¹": 2652,
      "Ġnáº¡n": 2653,
      "ĠEn": 2654,
      "ĠlÃ¢u": 2655,
      "ĠThu": 2656,
      "ner": 2657,
      "Ġchiá»ģu": 2658,
      "though": 2659,
      "Ġincluded": 2660,
      "Ġdescrib": 2661,
      "eder": 2662,
      "Ġpost": 2663,
      "á»Ńi": 2664,
      "Ġlá»±a": 2665,
      "vers": 2666,
      "ĠSe": 2667,
      "Ġtuyáº¿n": 2668,
      "ĠhÃ¡t": 2669,
      "Ġpass": 2670,
      "ĠÄĲá»ĵng": 2671,
      "rench": 2672,
      "ler": 2673,
      "ĠPart": 2674,
      "Ġlao": 2675,
      "ĠMal": 2676,
      "Ġ29": 2677,
      "Ġtrai": 2678,
      "xt": 2679,
      "Ġvis": 2680,
      "Ġbecause": 2681,
      "reet": 2682,
      "ĠTÃ´i": 2683,
      "eph": 2684,
      "Ġpresent": 2685,
      "ove": 2686,
      "Ġdáº¡ng": 2687,
      "Ġbuilding": 2688,
      "Ġvers": 2689,
      "ouncil": 2690,
      "ourn": 2691,
      "estern": 2692,
      "aul": 2693,
      "ford": 2694,
      "oa": 2695,
      "ĠSan": 2696,
      "Ġvillage": 2697,
      "ively": 2698,
      "ards": 2699,
      "Ġson": 2700,
      "ĠTháº¿": 2701,
      "Ġthird": 2702,
      "Ġconsid": 2703,
      "ĠtrÃ¡i": 2704,
      "Ġdet": 2705,
      "raft": 2706,
      "ush": 2707,
      "Ġlarge": 2708,
      "Ġnghe": 2709,
      "Ġxa": 2710,
      "ization": 2711,
      "13": 2712,
      "ĠmÃ´n": 2713,
      "sc": 2714,
      "ĠJapan": 2715,
      "Ġvui": 2716,
      "Ġrequ": 2717,
      "ĠNor": 2718,
      "ĠDav": 2719,
      "ĠRes": 2720,
      "artment": 2721,
      "ĠnÃ¢ng": 2722,
      "ĠTráº§n": 2723,
      "ĠAng": 2724,
      "ondon": 2725,
      "Ã£o": 2726,
      "ĠvÃłi": 2727,
      "ĠLÃª": 2728,
      "ĠComp": 2729,
      "Ġlá»Ļ": 2730,
      "kh": 2731,
      "Ġhuy": 2732,
      "Ġadv": 2733,
      "ki": 2734,
      "ration": 2735,
      "ĠÃ´": 2736,
      "Ġthiáº¿u": 2737,
      "ĠGia": 2738,
      "angu": 2739,
      "ĠMich": 2740,
      "Ġannounc": 2741,
      "25": 2742,
      "ched": 2743,
      "Ġlá»ħ": 2744,
      "Ġprot": 2745,
      "ani": 2746,
      "ĠkÃŃch": 2747,
      "ĠMed": 2748,
      "ĠkhÄĥn": 2749,
      "ĠCor": 2750,
      "Ġkhá»ıe": 2751,
      "ĠCollege": 2752,
      "ison": 2753,
      "Ġtháº¥t": 2754,
      "ĠChampionship": 2755,
      "Ġweb": 2756,
      "used": 2757,
      "Ġmanag": 2758,
      "lish": 2759,
      "Ġeduc": 2760,
      "ĠÄĲiá»ģu": 2761,
      "ĠÄĳá»©ng": 2762,
      "Ġgh": 2763,
      "Ġdel": 2764,
      "ĠMe": 2765,
      "ĠTo": 2766,
      "ĠtÃŃn": 2767,
      "Ġcr": 2768,
      "vious": 2769,
      "Ġlarg": 2770,
      "ĠhÃ´m": 2771,
      "ĠmiÃªu": 2772,
      "ĠRec": 2773,
      "umb": 2774,
      "adem": 2775,
      "Ġná»ģn": 2776,
      "day": 2777,
      "iá»ħ": 2778,
      "Ġled": 2779,
      "Ġcá»Ń": 2780,
      "Ġsuáº¥t": 2781,
      "ĠgÃ³p": 2782,
      "ĠFrench": 2783,
      "Ġcurr": 2784,
      "ĠsÆ¡": 2785,
      "ĠBy": 2786,
      "ĠRuss": 2787,
      "int": 2788,
      "Ġdem": 2789,
      "ĠphiÃªn": 2790,
      "Ġauth": 2791,
      "ps": 2792,
      "ĠngÃ´i": 2793,
      "Ġphá»ĳi": 2794,
      "Ġhy": 2795,
      "Ġperson": 2796,
      "ĠSec": 2797,
      "ĠAc": 2798,
      "Ġshort": 2799,
      "ves": 2800,
      "Ġcor": 2801,
      "ĠLondon": 2802,
      "bl": 2803,
      "Ġvideo": 2804,
      "Ġjust": 2805,
      "ĠtrÃ¡ch": 2806,
      "Ġopp": 2807,
      "Ġfr": 2808,
      "urs": 2809,
      "ica": 2810,
      "Ġperiod": 2811,
      "ama": 2812,
      "ĠsÆ°": 2813,
      "Ġmoved": 2814,
      "Ġtháº¥p": 2815,
      "á»ĳt": 2816,
      "Ġxin": 2817,
      "Ġmiá»ģn": 2818,
      "ĠTáº¡i": 2819,
      "akes": 2820,
      "Ġchildren": 2821,
      "idd": 2822,
      "Ġ40": 2823,
      "ĠInternational": 2824,
      "work": 2825,
      "osed": 2826,
      "Ã£n": 2827,
      "Ġincre": 2828,
      "ĠRiver": 2829,
      "Ġlike": 2830,
      "ĠItal": 2831,
      "Ġep": 2832,
      "ĠbÆ°á»Ľc": 2833,
      "ĠngÃ¢n": 2834,
      "ext": 2835,
      "Ġvá»įng": 2836,
      "ĠGl": 2837,
      "Ġtiá»ĥu": 2838,
      "yle": 2839,
      "Ġthiá»ĩn": 2840,
      "Ġcrit": 2841,
      "oor": 2842,
      "Ġhelp": 2843,
      "Ġdifferent": 2844,
      "ĠHy": 2845,
      "ography": 2846,
      "ĠÄĳá»ĳc": 2847,
      "Ġi": 2848,
      "inning": 2849,
      "Ġwomen": 2850,
      "Ġtá»©c": 2851,
      "gt": 2852,
      "Ġstand": 2853,
      "Ġ2000": 2854,
      "Ġthose": 2855,
      "ĠDistrict": 2856,
      "Ġtel": 2857,
      "Ġrepl": 2858,
      "ody": 2859,
      "ĠAfric": 2860,
      "ĠNÃ³": 2861,
      "ĠSup": 2862,
      "ĠEnglish": 2863,
      "áº§ng": 2864,
      "thers": 2865,
      "ested": 2866,
      "Ġstill": 2867,
      "ico": 2868,
      "rel": 2869,
      "ote": 2870,
      "ĠAg": 2871,
      "ĠPres": 2872,
      "Ġhistory": 2873,
      "alk": 2874,
      "Ġaddition": 2875,
      "omet": 2876,
      "let": 2877,
      "TV": 2878,
      "aces": 2879,
      "Ġ188": 2880,
      "ĠÃ¡o": 2881,
      "¢nh": 2882,
      "ĠTu": 2883,
      "ize": 2884,
      "ĠKim": 2885,
      "ĠSoc": 2886,
      "ĠDes": 2887,
      "Ġgá»Ńi": 2888,
      "ements": 2889,
      "ared": 2890,
      "Ġbá»ķ": 2891,
      "ĠÃĤ": 2892,
      "Ġmillion": 2893,
      "Ġwar": 2894,
      "ĠdÆ°á»¡ng": 2895,
      "Ã¹i": 2896,
      "Ġru": 2897,
      "Ġperform": 2898,
      "Ġanother": 2899,
      "Ġwater": 2900,
      "Ġiss": 2901,
      "ka": 2902,
      "ĠHu": 2903,
      "oon": 2904,
      "tal": 2905,
      "ering": 2906,
      "ĠTrÆ°á»Ľc": 2907,
      "isc": 2908,
      "Ġwin": 2909,
      "Ġmáº¡i": 2910,
      "Ġduy": 2911,
      "Ġ2005": 2912,
      "alf": 2913,
      "ius": 2914,
      "Ġif": 2915,
      "iá»ģm": 2916,
      "ript": 2917,
      "Ġnguy": 2918,
      "ops": 2919,
      "Ġservice": 2920,
      "ilitary": 2921,
      "ĠgiÃ¡m": 2922,
      "uck": 2923,
      "Ġpower": 2924,
      "Ġcháº¯c": 2925,
      "ĠAcc": 2926,
      "ĠHouse": 2927,
      "ino": 2928,
      "ĠkÃ©o": 2929,
      "Ġexper": 2930,
      "ĠChÃºng": 2931,
      "Ġtrad": 2932,
      "ĠthuáºŃn": 2933,
      "ĠVÃ¬": 2934,
      "Ġtá»ı": 2935,
      "Ġro": 2936,
      "ĠlÄ©nh": 2937,
      "Ġháº¡i": 2938,
      "Ġdistrict": 2939,
      "riend": 2940,
      "adu": 2941,
      "Ã¼": 2942,
      "nam": 2943,
      "Ġvery": 2944,
      "ĠBáº¡n": 2945,
      "ĠsÃ´ng": 2946,
      "ĠHiá»ĩn": 2947,
      "ĠhÃºt": 2948,
      "Ġannounced": 2949,
      "ĠPer": 2950,
      "Ġgames": 2951,
      "Ġmonth": 2952,
      "Ġbest": 2953,
      "Ġec": 2954,
      "Ġelection": 2955,
      "Ġwee": 2956,
      "ĠphÃºt": 2957,
      "Ġmake": 2958,
      "omb": 2959,
      "ĠHÃłn": 2960,
      "ĠsÃ¢u": 2961,
      "Ġside": 2962,
      "Ġ|": 2963,
      "reg": 2964,
      "Ġcountry": 2965,
      "Ġequ": 2966,
      "á»¡": 2967,
      "Ã¨n": 2968,
      "ape": 2969,
      "ĠnÃ´ng": 2970,
      "gr": 2971,
      "ced": 2972,
      "ĠNgá»įc": 2973,
      "ĠbÃ¡c": 2974,
      "ĠniÃªn": 2975,
      "lt": 2976,
      "Ġhand": 2977,
      "ĠOne": 2978,
      "Ġamong": 2979,
      "read": 2980,
      "Ġcáº£i": 2981,
      "Ġsol": 2982,
      "Ġstat": 2983,
      "Ġkhoáº£n": 2984,
      "ined": 2985,
      "ument": 2986,
      "ĠPhÃ³": 2987,
      "ruction": 2988,
      "ĠÄĳau": 2989,
      "Ġrad": 2990,
      "Ġcam": 2991,
      "na": 2992,
      "Ġuá»ĳng": 2993,
      "Ġláº¡c": 2994,
      "Ġreach": 2995,
      "Ġoften": 2996,
      "apt": 2997,
      "Ġkiáº¿m": 2998,
      "Ġtáº§ng": 2999,
      "ense": 3000,
      "Ġgen": 3001,
      "ummer": 3002,
      "Ġthough": 3003,
      "Ġimport": 3004,
      "ĠDr": 3005,
      "Ġlate": 3006,
      "ments": 3007,
      "eal": 3008,
      "oyal": 3009,
      "ĠhÃ£ng": 3010,
      "Ġport": 3011,
      "Ġlevel": 3012,
      "ĠChÃ¢u": 3013,
      "Ġcháº¥p": 3014,
      "ĠGro": 3015,
      "Ġfather": 3016,
      "Ġnáº·ng": 3017,
      "Ġarch": 3018,
      "uted": 3019,
      "Ph": 3020,
      "Ġproject": 3021,
      "ĠMon": 3022,
      "Ġav": 3023,
      "ĠÄĲá»ĥ": 3024,
      "Ġoriginal": 3025,
      "ump": 3026,
      "Ġsold": 3027,
      "Ġprevious": 3028,
      "iter": 3029,
      "Ãºa": 3030,
      "Ġbeg": 3031,
      "Ġháº¡": 3032,
      "Ġ2004": 3033,
      "Ġbuá»ķi": 3034,
      "ĠWhen": 3035,
      "Ġtitle": 3036,
      "ĠSam": 3037,
      "ries": 3038,
      "iÃªm": 3039,
      "uman": 3040,
      "Ġref": 3041,
      "iber": 3042,
      "Ġfe": 3043,
      "aff": 3044,
      "Ġfact": 3045,
      "ĠÄĳÃło": 3046,
      "Ġxanh": 3047,
      "Ġháº¡ng": 3048,
      "Ġstarted": 3049,
      "Ġly": 3050,
      "Ġthá»§y": 3051,
      "epend": 3052,
      "Ġhiá»ĥm": 3053,
      "Ġ2022": 3054,
      "Ġorder": 3055,
      "60": 3056,
      "Ġtrá»Ŀi": 3057,
      "ours": 3058,
      "ĠÆ°u": 3059,
      "Ġrole": 3060,
      "ests": 3061,
      "Ġquay": 3062,
      "Ġattack": 3063,
      "ĠViet": 3064,
      "Ġsett": 3065,
      "of": 3066,
      "ĠvÆ°á»£t": 3067,
      "gy": 3068,
      "Ġcame": 3069,
      "Ġestablished": 3070,
      "Ġtráº¯ng": 3071,
      "ket": 3072,
      "Ġeven": 3073,
      "tt": 3074,
      "ĠAustralia": 3075,
      "ĠMor": 3076,
      "ĠCanada": 3077,
      "ma": 3078,
      "err": 3079,
      "Ã¨o": 3080,
      "ĠxÃºc": 3081,
      "Ġchurch": 3082,
      "ords": 3083,
      "ploy": 3084,
      "Ġbusiness": 3085,
      "ĠYou": 3086,
      "itch": 3087,
      "ĠNo": 3088,
      "eneral": 3089,
      "Ġappoin": 3090,
      "evision": 3091,
      "ĠÄĳÃ¢u": 3092,
      "ociation": 3093,
      "Ġwent": 3094,
      "rote": 3095,
      "ĠkÃª": 3096,
      "atter": 3097,
      "Ġtai": 3098,
      "eo": 3099,
      "Ġallow": 3100,
      "ĠthÃºc": 3101,
      "Ġcontrol": 3102,
      "ĠmÃ³n": 3103,
      "ĠQuáº£ng": 3104,
      "Ġdáº§u": 3105,
      "Ġaff": 3106,
      "ness": 3107,
      "HCM": 3108,
      "Ġ31": 3109,
      "ĠUB": 3110,
      "ĠSm": 3111,
      "ena": 3112,
      "ĠthÃ¡i": 3113,
      "Ġcult": 3114,
      "ĠPe": 3115,
      "urther": 3116,
      "ari": 3117,
      "Ġposs": 3118,
      "Ġkill": 3119,
      "Ġval": 3120,
      "Ġjoined": 3121,
      "Ġes": 3122,
      "ĠDep": 3123,
      "Ġaward": 3124,
      "ament": 3125,
      "Ġpat": 3126,
      "Ġinvol": 3127,
      "uá»ĳt": 3128,
      "Ġround": 3129,
      "ĠPal": 3130,
      "ĠÄĲáº£ng": 3131,
      "ĠBa": 3132,
      "Ġá»ķ": 3133,
      "ĠChar": 3134,
      "ple": 3135,
      "Ġformula": 3136,
      "Ġinit": 3137,
      "Ġcharacter": 3138,
      "Ġtrack": 3139,
      "Ġtháº£o": 3140,
      "ĠthÆ°á»Łng": 3141,
      "ĠKinh": 3142,
      "Ġactiv": 3143,
      "ring": 3144,
      "Ġquanh": 3145,
      "Ġchá»¯a": 3146,
      "Ġngá»Ŀ": 3147,
      "Ġtá»ĳc": 3148,
      "ĠChurch": 3149,
      "Ġkhá»Łi": 3150,
      "Ġturn": 3151,
      "ĠHÃ²a": 3152,
      "ects": 3153,
      "lymp": 3154,
      "ĠthiÃªn": 3155,
      "Ġ187": 3156,
      "Ġwhat": 3157,
      "ĠTÃ¢n": 3158,
      "Ġexpl": 3159,
      "Ġfac": 3160,
      "Ġnhá»Ľ": 3161,
      "ĠIndian": 3162,
      "Ġresearch": 3163,
      "Ġcá»©ng": 3164,
      "iforn": 3165,
      "40": 3166,
      "á»ĭnh": 3167,
      "Ġtotal": 3168,
      "Ġtem": 3169,
      "ĠEast": 3170,
      "Ġchang": 3171,
      "ander": 3172,
      "Ġchiáº¿m": 3173,
      "field": 3174,
      "Ġworked": 3175,
      "á»Ľm": 3176,
      "ĠArt": 3177,
      "Ġfield": 3178,
      "Ġmag": 3179,
      "....": 3180,
      "ĠNguyÃªn": 3181,
      "ĠÄĳáº©y": 3182,
      "ream": 3183,
      "ĠvÅ©": 3184,
      "Ġevery": 3185,
      "Ġyoung": 3186,
      "ĠmÃłn": 3187,
      "Ġcháº³ng": 3188,
      "ĠhÃ£y": 3189,
      "ead": 3190,
      "Ġcover": 3191,
      "Ġmuch": 3192,
      "Ġhistor": 3193,
      "ning": 3194,
      "Ġdoc": 3195,
      "ĠGiang": 3196,
      "attle": 3197,
      "acy": 3198,
      "ĠSing": 3199,
      "uel": 3200,
      "abor": 3201,
      "iá»ħm": 3202,
      "ĠOlymp": 3203,
      "Ġmong": 3204,
      "Ġorigin": 3205,
      "Ġauthor": 3206,
      "á»£i": 3207,
      "duct": 3208,
      "Ġáº¢nh": 3209,
      "empt": 3210,
      "Ġmáº·c": 3211,
      "off": 3212,
      "Ġtechn": 3213,
      "ifornia": 3214,
      "minist": 3215,
      "Ġvarious": 3216,
      "ĠTH": 3217,
      "28": 3218,
      "Ġthá»Ń": 3219,
      "forman": 3220,
      "ĠEngland": 3221,
      "áº·n": 3222,
      "ney": 3223,
      "Ġváº»": 3224,
      "ĠÄĳÃ¡p": 3225,
      "Ġtá»Ļi": 3226,
      "Ġlangu": 3227,
      "ĠmáºŃt": 3228,
      "ĠDem": 3229,
      "Ġdescribed": 3230,
      "Ġcommon": 3231,
      "ria": 3232,
      "BC": 3233,
      "Ġbang": 3234,
      "ĠThom": 3235,
      "cent": 3236,
      "Ġfre": 3237,
      "ĠBel": 3238,
      "ĠJames": 3239,
      "Ġtw": 3240,
      "ti": 3241,
      "Ġbecome": 3242,
      "ĠWith": 3243,
      "ivil": 3244,
      "Ġmarried": 3245,
      "Ġconf": 3246,
      "ĠXuÃ¢n": 3247,
      "ĠtuyÃªn": 3248,
      "Ġgeneral": 3249,
      "Ġtá»Ļc": 3250,
      "Ġxáº¿p": 3251,
      "Ġbre": 3252,
      "Ġgl": 3253,
      "Æ°Æ¡i": 3254,
      "Ġnghá»ī": 3255,
      "ya": 3256,
      "ĠxuyÃªn": 3257,
      "ĠPort": 3258,
      "ĠVal": 3259,
      "ĠgiÃ¡c": 3260,
      "27": 3261,
      "Ġ/": 3262,
      "Ġhaving": 3263,
      "irc": 3264,
      "osp": 3265,
      "ches": 3266,
      "ivid": 3267,
      "ĠAct": 3268,
      "raw": 3269,
      "ĠtÃ¹": 3270,
      "ĠnuÃ´i": 3271,
      "Ġnext": 3272,
      "«ng": 3273,
      "avy": 3274,
      "ĠlÃłng": 3275,
      "Ġprocess": 3276,
      "ĠCalifornia": 3277,
      "ĠMy": 3278,
      "Ġreturned": 3279,
      "26": 3280,
      "Ġnghá»ģ": 3281,
      "ĠÃŃch": 3282,
      "Ġclaim": 3283,
      "Ġdevelopment": 3284,
      "Ġrail": 3285,
      "Ġchá»Ĺ": 3286,
      "Ġwrote": 3287,
      "Ġchá»īnh": 3288,
      "Ġinfl": 3289,
      "ĠUBND": 3290,
      "Ġgiven": 3291,
      "ĠthuÃª": 3292,
      "Ġsá»Ľm": 3293,
      "ĠRober": 3294,
      "ĠIsland": 3295,
      "ĠThese": 3296,
      "Ġfew": 3297,
      "ĠPhÃº": 3298,
      "ĠÄĳá»ı": 3299,
      "ĠthÆ¡": 3300,
      "ĠcáºŃp": 3301,
      "Ġcommunity": 3302,
      "Ġtuyá»ĩt": 3303,
      "ĠSá»Ł": 3304,
      "erb": 3305,
      "ĠthÃŃ": 3306,
      "ope": 3307,
      "ories": 3308,
      "Ġgiáº¥y": 3309,
      "Ġná»ĳi": 3310,
      "Ġbáº§u": 3311,
      "ĠGiÃ¡o": 3312,
      "Ġgiai": 3313,
      "âĢĿ,": 3314,
      "Ã¶": 3315,
      "Ġship": 3316,
      "Ġtrao": 3317,
      "ĠFrom": 3318,
      "Ġplayer": 3319,
      "Ġthao": 3320,
      "ĠThÃ´ng": 3321,
      "Ġfem": 3322,
      "29": 3323,
      "ĠcÆ°á»Ŀng": 3324,
      "Ġ1990": 3325,
      "ĠEuropean": 3326,
      "ades": 3327,
      "Ġcreated": 3328,
      "âĢĶ": 3329,
      "ĠtrÃ¡nh": 3330,
      "Ġbá»©c": 3331,
      "Ġ...": 3332,
      "ĠsoÃ¡t": 3333,
      "cast": 3334,
      "Ġproduced": 3335,
      "ĠGeorge": 3336,
      "ogn": 3337,
      "ĠSen": 3338,
      "ĠnÃ³ng": 3339,
      "Ġkháº£o": 3340,
      "Ġ186": 3341,
      "Ġsent": 3342,
      "Ġdáº¥u": 3343,
      "ilar": 3344,
      "oub": 3345,
      "ĠStreet": 3346,
      "ĠsiÃªu": 3347,
      "Ġbeh": 3348,
      "Ġusing": 3349,
      "eh": 3350,
      "ym": 3351,
      "Ġcoach": 3352,
      "ĠRepublic": 3353,
      "ĠParty": 3354,
      "Ġpolitical": 3355,
      "vn": 3356,
      "Ġthuáº¿": 3357,
      "Ġinternational": 3358,
      "Ġsai": 3359,
      "Ġnhá»Ŀ": 3360,
      "alt": 3361,
      "Ġnháº¹": 3362,
      "ĠCouncil": 3363,
      "Ġprim": 3364,
      "Ġngá»¯": 3365,
      "Ġ()": 3366,
      "ĠcÅ©": 3367,
      "ĠtrÃ¬": 3368,
      "Ġposition": 3369,
      "Ġgiáº£n": 3370,
      "urb": 3371,
      "Ġhost": 3372,
      "Ġspecial": 3373,
      "ĠPhÆ°Æ¡ng": 3374,
      "NG": 3375,
      "ĠRoman": 3376,
      "TT": 3377,
      "Ġmáº¯c": 3378,
      "Ġsá»Ńa": 3379,
      "Ġngá»§": 3380,
      "ems": 3381,
      "unicip": 3382,
      "ĠchÃ³ng": 3383,
      "hire": 3384,
      "ĠDÃ¢n": 3385,
      "Ġ2003": 3386,
      "ĠDivision": 3387,
      "sequ": 3388,
      "ĠAccording": 3389,
      "Ġfun": 3390,
      "Ġquáº§n": 3391,
      "Ġsit": 3392,
      "outhern": 3393,
      "ĠMad": 3394,
      "Ġphá»ķ": 3395,
      "mit": 3396,
      "ention": 3397,
      "ona": 3398,
      "ster": 3399,
      "ĠRich": 3400,
      "ael": 3401,
      "ania": 3402,
      "Ġbáº£ng": 3403,
      "ĠÄĳá»į": 3404,
      "ĠcÃ¢n": 3405,
      "ĠBu": 3406,
      "ĠApp": 3407,
      "ĠmÃ¡u": 3408,
      "ha": 3409,
      "Ġtake": 3410,
      "iment": 3411,
      "Ġfull": 3412,
      "Ġgá»ĳc": 3413,
      "ĠÂ": 3414,
      "ĠbiÃªn": 3415,
      "Ġcontinued": 3416,
      "ying": 3417,
      "Ã£y": 3418,
      "hold": 3419,
      "ocr": 3420,
      "ĠIndia": 3421,
      "Ġway": 3422,
      "ĠVÅ©": 3423,
      "ĠArmy": 3424,
      "Ġlá»Ńa": 3425,
      "itor": 3426,
      "Ġpresident": 3427,
      "hib": 3428,
      "berg": 3429,
      "ĠÃĤu": 3430,
      "ĠLou": 3431,
      "eck": 3432,
      "á»ģm": 3433,
      "iron": 3434,
      "aken": 3435,
      "ĠQue": 3436,
      "Ġwritten": 3437,
      "ĠVÃło": 3438,
      "Ġpopular": 3439,
      "uation": 3440,
      "ĠHá»ĵng": 3441,
      "ĠÃ¡nh": 3442,
      "Ġ:": 3443,
      "Ġsite": 3444,
      "och": 3445,
      "Ġhowever": 3446,
      "ĠFrance": 3447,
      "ĠcÃ¡n": 3448,
      "ĠPaul": 3449,
      "ief": 3450,
      "ĠBáº£o": 3451,
      "Ġluyá»ĩn": 3452,
      "Ġroad": 3453,
      "TC": 3454,
      "II": 3455,
      "Ġháº¡t": 3456,
      "Ġproduction": 3457,
      "Ġtráº£i": 3458,
      "ĠphÃ³ng": 3459,
      "Ġtá»ĵ": 3460,
      "Ġstudents": 3461,
      "ĠChÃŃ": 3462,
      "ĠVÃł": 3463,
      "Ġperforman": 3464,
      "bor": 3465,
      "ngth": 3466,
      "Ġworks": 3467,
      "Ãµi": 3468,
      "oute": 3469,
      "rain": 3470,
      "ĠmÃ£": 3471,
      "useum": 3472,
      "ĠGeneral": 3473,
      "Ġniá»ĩm": 3474,
      "Ġgreat": 3475,
      "Ġbinh": 3476,
      "Ġ2002": 3477,
      "Ġregion": 3478,
      "itte": 3479,
      "Ġdebut": 3480,
      "ĠDavid": 3481,
      "ĠthÃº": 3482,
      "ĠnghiÃªm": 3483,
      "Ġkháº¯c": 3484,
      "ĠChá»ī": 3485,
      "Ġ2001": 3486,
      "de": 3487,
      "Ġsw": 3488,
      "ĠHol": 3489,
      "ota": 3490,
      "Ġparticip": 3491,
      "ĠkhÃ¡m": 3492,
      "Ġmá»ģm": 3493,
      "ecut": 3494,
      "Ġsk": 3495,
      "Ġ60": 3496,
      "ĠÄĳá»įc": 3497,
      "Ġexamp": 3498,
      "Ġmá»ĳi": 3499,
      "stitute": 3500,
      "ances": 3501,
      "ĠQuang": 3502,
      "ĠNhÃ¢n": 3503,
      "Ġmilitary": 3504,
      "Ġneed": 3505,
      "ĠsÃ³ng": 3506,
      "Ġáº¤": 3507,
      "Ġnhiá»ħm": 3508,
      "ĠViá»ĩc": 3509,
      "Ġpartic": 3510,
      "formation": 3511,
      "ividual": 3512,
      "Ġtimes": 3513,
      "ĠGiáº£i": 3514,
      "ending": 3515,
      "rug": 3516,
      "Ġcha": 3517,
      "Ġtháº©m": 3518,
      "etwork": 3519,
      "ville": 3520,
      "ĠchÄĥm": 3521,
      "oe": 3522,
      "ĠSá»±": 3523,
      "Ġcapt": 3524,
      "Ġlim": 3525,
      "Ġofficial": 3526,
      "ĠtÃ´": 3527,
      "ĠhoÃłng": 3528,
      "áºµn": 3529,
      "Ġsqu": 3530,
      "iáº¿ng": 3531,
      "ĠNinh": 3532,
      "ĠPresident": 3533,
      "ots": 3534,
      "ago": 3535,
      "Ġpri": 3536,
      "Ġepis": 3537,
      "Ġaver": 3538,
      "ination": 3539,
      "ĠÄĲá»Ļ": 3540,
      "Ġview": 3541,
      "Ġchá»©a": 3542,
      "Ġintro": 3543,
      "ĠkÃŃnh": 3544,
      "ĠTV": 3545,
      "Ġwithout": 3546,
      "'t": 3547,
      "text": 3548,
      "ĠJos": 3549,
      "ĠBer": 3550,
      "Ġpract": 3551,
      "Ġtim": 3552,
      "ĠnÃºi": 3553,
      "ĠCamp": 3554,
      "ĠClub": 3555,
      "Ġdays": 3556,
      "ĠlÃ¡": 3557,
      "Ġlost": 3558,
      "&#": 3559,
      "Ġattempt": 3560,
      "Ġcáº¥u": 3561,
      "ĠthÄĥm": 3562,
      "raz": 3563,
      "Ġsuy": 3564,
      "Ġparty": 3565,
      "be": 3566,
      "ĠÄĲÃł": 3567,
      "ta": 3568,
      "Ġsocial": 3569,
      "olution": 3570,
      "Ġáº¥n": 3571,
      "ĠhÃ´n": 3572,
      "ij": 3573,
      "ĠThiÃªn": 3574,
      "Ġbuá»Ļc": 3575,
      "á»«a": 3576,
      "men": 3577,
      "ĠmÆ°a": 3578,
      "Ġappointed": 3579,
      "Ġprofessional": 3580,
      "ĠBlack": 3581,
      "ĠCÃ´": 3582,
      "Ġelected": 3583,
      "ĠWash": 3584,
      "ĠMart": 3585,
      "ological": 3586,
      "Ġcoi": 3587,
      "Ġ1980": 3588,
      ",\"": 3589,
      "Ġmult": 3590,
      "aged": 3591,
      "ĠtáºŃn": 3592,
      "ĠPhÃ²ng": 3593,
      "ĠGroup": 3594,
      "ĠHen": 3595,
      "Ġopened": 3596,
      "Ġláº¡nh": 3597,
      "reek": 3598,
      "idge": 3599,
      "Ġtelevision": 3600,
      "199": 3601,
      "ĠkhÃ³a": 3602,
      "CA": 3603,
      "Ġfurther": 3604,
      "Ġsigned": 3605,
      "Ġren": 3606,
      "Ġdáº¡y": 3607,
      "Ã²i": 3608,
      "ĠSl": 3609,
      "ference": 3610,
      "Ġkháº³ng": 3611,
      "Ġá»ķn": 3612,
      "Ġversion": 3613,
      "ership": 3614,
      "Ġident": 3615,
      "Ġsel": 3616,
      "year": 3617,
      "á»įt": 3618,
      "Ġfounded": 3619,
      "oan": 3620,
      "Ġconn": 3621,
      "Ġconsidered": 3622,
      "St": 3623,
      "Ġháº¥p": 3624,
      "ĠXÃ£": 3625,
      "iáº¿p": 3626,
      "ĠquÃ¡n": 3627,
      "ĠLÃ½": 3628,
      "aign": 3629,
      "Ġeducation": 3630,
      "Ġ1999": 3631,
      "Ġvol": 3632,
      "ĠPhi": 3633,
      "ĠRed": 3634,
      "ĠDon": 3635,
      "07": 3636,
      "ID": 3637,
      "Ġengine": 3638,
      "ĠBay": 3639,
      "Ġbroad": 3640,
      "ĠgiÃłnh": 3641,
      "ola": 3642,
      "Ġfriend": 3643,
      "Ġhalf": 3644,
      "ising": 3645,
      "Ġcomb": 3646,
      "mar": 3647,
      "Ġkiá»ĥu": 3648,
      "ĠWe": 3649,
      "08": 3650,
      "Ġhon": 3651,
      "oi": 3652,
      "Ġindust": 3653,
      "ĠBÃł": 3654,
      "Ġright": 3655,
      "Ġinvest": 3656,
      "Ġrecorded": 3657,
      "ĠhÆ¡i": 3658,
      "ĠUnion": 3659,
      "Ġchuyáº¿n": 3660,
      "ittle": 3661,
      "position": 3662,
      "Ġá»ŀ": 3663,
      "Ġchá»¯": 3664,
      "orts": 3665,
      "ĠbÃ¡nh": 3666,
      "Ġngá»ĵi": 3667,
      "wood": 3668,
      "ĠHall": 3669,
      "aur": 3670,
      "ĠAmerica": 3671,
      "Ġinflu": 3672,
      "ĠdÃłng": 3673,
      "Ġpoint": 3674,
      "Ġdaugh": 3675,
      "ĠJe": 3676,
      "ĠphÃª": 3677,
      "dom": 3678,
      "ĠDu": 3679,
      "odes": 3680,
      "ala": 3681,
      "ugg": 3682,
      "ĠNhiá»ģu": 3683,
      "Ġsee": 3684,
      "ĠÄĳen": 3685,
      "Ġsimilar": 3686,
      "ella": 3687,
      "ĠdÆ°Æ¡ng": 3688,
      "ĠÄĳem": 3689,
      "Ġsung": 3690,
      "ĠÄĲáº¿n": 3691,
      "oo": 3692,
      "ases": 3693,
      "ida": 3694,
      "Ġproper": 3695,
      "aceae": 3696,
      "09": 3697,
      "br": 3698,
      "ĠWashington": 3699,
      "ĠÆ°á»Ľc": 3700,
      "ĠEarly": 3701,
      "ournal": 3702,
      "Ġkhá»ĳi": 3703,
      "ĠdÃ¢y": 3704,
      "Ġinf": 3705,
      "oted": 3706,
      "leg": 3707,
      "ĠRoyal": 3708,
      "Ä©a": 3709,
      "Ġráº»": 3710,
      "Ġstory": 3711,
      "Ġtog": 3712,
      "ensus": 3713,
      "á»¥p": 3714,
      "ĠMex": 3715,
      "ving": 3716,
      "Ġimportant": 3717,
      "ĠBÃªn": 3718,
      "ĠAlex": 3719,
      "ĠAssociation": 3720,
      "Ġten": 3721,
      "ells": 3722,
      "Ġeconom": 3723,
      "ensive": 3724,
      "Ġfind": 3725,
      "Ġappeared": 3726,
      "Ġlinh": 3727,
      "03": 3728,
      "Ġindividual": 3729,
      "Ġstruct": 3730,
      "Ġmiá»ħn": 3731,
      "ĠbÃły": 3732,
      "ıa": 3733,
      "Ġtogether": 3734,
      "ishing": 3735,
      "Ġtá»ĵn": 3736,
      "Ġgradu": 3737,
      "ĠTiÃªn": 3738,
      "Ġreal": 3739,
      "ĠQuÃ¢n": 3740,
      "Ġsuá»ĳt": 3741,
      "Ġmid": 3742,
      "Ġins": 3743,
      "Ġthuyáº¿t": 3744,
      "Ġsáºµn": 3745,
      "Ġcháº¯n": 3746,
      "burg": 3747,
      "ĠSal": 3748,
      "Ġláº½": 3749,
      "ĠRoad": 3750,
      "ective": 3751,
      "Ġbi": 3752,
      "á»Ļn": 3753,
      "ĠMary": 3754,
      "Ġstr": 3755,
      "ĠDi": 3756,
      "ston": 3757,
      "ĠkhÃºc": 3758,
      "Ġteams": 3759,
      "eting": 3760,
      "Ġpo": 3761,
      "PT": 3762,
      "ĠRev": 3763,
      "Ġkim": 3764,
      "Ġbá»¥": 3765,
      "site": 3766,
      "Ġrock": 3767,
      "Ġthá»ĭt": 3768,
      "Ġformed": 3769,
      "ĠLinh": 3770,
      "Ġeast": 3771,
      "Ġreview": 3772,
      "Ġloáº¡t": 3773,
      "ĠNe": 3774,
      "Ġhold": 3775,
      "idence": 3776,
      "ĠPat": 3777,
      "iles": 3778,
      "ĠHai": 3779,
      "la": 3780,
      "Ġareas": 3781,
      "ĠCá»Ļng": 3782,
      "ills": 3783,
      "Ġtáº·ng": 3784,
      "ĠtÃ²a": 3785,
      "Ġtháº³ng": 3786,
      "Ġgrow": 3787,
      "ili": 3788,
      "Ġspe": 3789,
      "ini": 3790,
      "Ġsurv": 3791,
      "aper": 3792,
      "ĠGiÃ¡m": 3793,
      "Ġrelations": 3794,
      "ĠcáºŃn": 3795,
      "anish": 3796,
      "Ġ1970": 3797,
      "Ġz": 3798,
      "ĠJack": 3799,
      "Ġnov": 3800,
      "Ġphiáº¿u": 3801,
      "Ġquen": 3802,
      "imately": 3803,
      "Ġdirector": 3804,
      "ĠWhile": 3805,
      "Ġá»§y": 3806,
      "Ġworking": 3807,
      "Ġwife": 3808,
      "ĠMark": 3809,
      "Ġcontract": 3810,
      "Ġteach": 3811,
      "posed": 3812,
      "Ġsáº¡ch": 3813,
      "Ġreported": 3814,
      "Ġdest": 3815,
      "Ġdiv": 3816,
      "Ġtour": 3817,
      "Ġ+": 3818,
      "olic": 3819,
      "arliam": 3820,
      "ĠPháº¡m": 3821,
      "ĠSim": 3822,
      "ĠVir": 3823,
      "Ġháº§u": 3824,
      "ĠtÃ¡i": 3825,
      "VN": 3826,
      "ĠÄĳÃŃch": 3827,
      "ably": 3828,
      "Ġ{": 3829,
      "Ã¨m": 3830,
      "Ġvict": 3831,
      "ĠAward": 3832,
      "ĠMac": 3833,
      "ĠGo": 3834,
      "ittee": 3835,
      "book": 3836,
      "ĠCath": 3837,
      "Ġless": 3838,
      "Ġoffice": 3839,
      "45": 3840,
      "Ġcond": 3841,
      "arliament": 3842,
      "ĠnháºŃt": 3843,
      "ĠMag": 3844,
      "ĠGrand": 3845,
      "Ġtradition": 3846,
      "Ġwest": 3847,
      "Ġrelease": 3848,
      "Ġmaking": 3849,
      "Ġá»¦": 3850,
      "ĠpháºŃn": 3851,
      "Ġoffer": 3852,
      "Ġpriv": 3853,
      "Ġtyp": 3854,
      "Ġáº¤n": 3855,
      "Ġpoints": 3856,
      "estival": 3857,
      "ffic": 3858,
      "Ġweek": 3859,
      "aves": 3860,
      "Ġdeg": 3861,
      "ĠDev": 3862,
      "Ġdeveloped": 3863,
      "ĠmÃ¡i": 3864,
      "ĠThá»Ŀi": 3865,
      "NH": 3866,
      "now": 3867,
      "itz": 3868,
      "Ġthá»¥": 3869,
      ".,": 3870,
      "ators": 3871,
      "Ġgood": 3872,
      "ĠStud": 3873,
      "ĠngÄĥn": 3874,
      "ĠAngel": 3875,
      "Ġtrav": 3876,
      "ĠtrÃºc": 3877,
      "ground": 3878,
      "ways": 3879,
      "Ġtáº§m": 3880,
      "sen": 3881,
      "ĠTur": 3882,
      "05": 3883,
      "ification": 3884,
      "ector": 3885,
      "ĠGiá»": 3886,
      "04": 3887,
      "ĠThomas": 3888,
      "Ġstar": 3889,
      "Ġstyle": 3890,
      "01": 3891,
      "wh": 3892,
      "Ġngáº¯n": 3893,
      "arth": 3894,
      "ĠchÃ¡u": 3895,
      "Ġcáº¯t": 3896,
      "ura": 3897,
      "self": 3898,
      "Ġread": 3899,
      "ĠCourt": 3900,
      "Ġcase": 3901,
      "ıng": 3902,
      "itive": 3903,
      "Ġmy": 3904,
      "Ġsch": 3905,
      "isted": 3906,
      "ailed": 3907,
      "Ġá»¦y": 3908,
      "ĠÆ°Æ¡ng": 3909,
      "ellow": 3910,
      "omm": 3911,
      "Ġhá»įp": 3912,
      "Ġfund": 3913,
      "Ġemploy": 3914,
      "Ġpháº¡t": 3915,
      "irm": 3916,
      "cis": 3917,
      "istan": 3918,
      "ĠAustralian": 3919,
      "Ġlow": 3920,
      "ither": 3921,
      "Ġsignific": 3922,
      "ĠGermany": 3923,
      "%.": 3924,
      "Ġå": 3925,
      "ĠPri": 3926,
      "ĠMusic": 3927,
      "ĠKhu": 3928,
      "astern": 3929,
      "Ġmar": 3930,
      "ĠBi": 3931,
      "iddle": 3932,
      "isl": 3933,
      "ĠParis": 3934,
      "ĠÄĳÃ³n": 3935,
      "Ġrank": 3936,
      "gin": 3937,
      "Ġaverage": 3938,
      "unt": 3939,
      "Ġappl": 3940,
      "Ġhous": 3941,
      "ĠRobert": 3942,
      "Ġrá»«ng": 3943,
      "á»§ng": 3944,
      "Ġmot": 3945,
      "ĠCompany": 3946,
      "ĠMet": 3947,
      "Ġacross": 3948,
      "2018": 3949,
      "Ġadminist": 3950,
      "ĠthÃ´i": 3951,
      "ĠBas": 3952,
      "pite": 3953,
      "ĠChina": 3954,
      "che": 3955,
      "ĠFirst": 3956,
      "Ġrecogn": 3957,
      "Ġground": 3958,
      "Ġbody": 3959,
      "NA": 3960,
      "Ġrace": 3961,
      "ĠTown": 3962,
      "oul": 3963,
      "Ġbar": 3964,
      "Ġcáº§m": 3965,
      "ĠBen": 3966,
      "06": 3967,
      "Ġlá»Ĺi": 3968,
      "Æ°á»Ŀn": 3969,
      "Ġothers": 3970,
      "ĠAcadem": 3971,
      "ĠMer": 3972,
      "Ġtrá»¥": 3973,
      "Ġcast": 3974,
      "Ġshould": 3975,
      "anded": 3976,
      "bert": 3977,
      "Ġsep": 3978,
      "rick": 3979,
      "Ġexample": 3980,
      "aying": 3981,
      "anted": 3982,
      "Ġphi": 3983,
      "Ġsá»£": 3984,
      "35": 3985,
      "ĠCharles": 3986,
      "Ġlaun": 3987,
      "ĠMont": 3988,
      "go": 3989,
      "Ġ1998": 3990,
      "ano": 3991,
      "Ġleague": 3992,
      "Ġdáº§n": 3993,
      "Ġlanguage": 3994,
      "Ġcontrib": 3995,
      "ĠCentral": 3996,
      "ĠMiss": 3997,
      "ĠPhong": 3998,
      "Ġevents": 3999,
      "iding": 4000,
      "ĠkhÃ¡n": 4001,
      "uf": 4002,
      "Ġ185": 4003,
      "iting": 4004,
      "Ġproduct": 4005,
      "Ġplaying": 4006,
      "Ġimp": 4007,
      "ĠlÆ°Æ¡ng": 4008,
      "ĠhÃłi": 4009,
      "ĠnÃłng": 4010,
      "Å©i": 4011,
      "ĠTrang": 4012,
      "Ġmodern": 4013,
      "Ġlá»ĩnh": 4014,
      "Ġhimself": 4015,
      "ĠNha": 4016,
      "Ġcampaign": 4017,
      "ĠNhÆ°": 4018,
      "most": 4019,
      "Ġindepend": 4020,
      "Ġavail": 4021,
      "Ġhá»įa": 4022,
      "Ġmater": 4023,
      "Ġsen": 4024,
      "Ġeight": 4025,
      "Ġdoes": 4026,
      "ĠVÆ°Æ¡ng": 4027,
      "ĠbáºŃt": 4028,
      "Ġhá»©": 4029,
      "ĠRail": 4030,
      "Ġlive": 4031,
      "ĠDá»±": 4032,
      "ĠÄĳá»ĭch": 4033,
      "Ġnever": 4034,
      "Ġbelie": 4035,
      "Ġ35": 4036,
      "Ġchá»Ŀ": 4037,
      "Ġchiáº¿u": 4038,
      "80": 4039,
      "utes": 4040,
      "asc": 4041,
      "ees": 4042,
      "ensis": 4043,
      "Ġxung": 4044,
      "Ġservices": 4045,
      "Ġhow": 4046,
      "val": 4047,
      "ĠFlor": 4048,
      "ĠLaw": 4049,
      "rael": 4050,
      "ĠIm": 4051,
      "Ġdá»¯": 4052,
      "Ġliving": 4053,
      "Ġbáº¯c": 4054,
      "istic": 4055,
      "aker": 4056,
      "ĠMount": 4057,
      "Ġrev": 4058,
      "áº¹n": 4059,
      "ship": 4060,
      "Ġkáº»": 4061,
      "igned": 4062,
      "Ġ}": 4063,
      "ĠLat": 4064,
      "Ã³t": 4065,
      "Ġsuccessful": 4066,
      "ĠbÆ°á»Ľ": 4067,
      "Ġord": 4068,
      "lear": 4069,
      "ibr": 4070,
      "Ġenc": 4071,
      "Ġsáº¯p": 4072,
      "Ġmá»¹": 4073,
      "Ġalthough": 4074,
      "ĠDel": 4075,
      "Ġfoc": 4076,
      "ĠnhÃ©": 4077,
      "Ġthá»«a": 4078,
      "lands": 4079,
      "ĠlÆ°á»£t": 4080,
      "ĠTá»ķ": 4081,
      "olf": 4082,
      "anding": 4083,
      "Ġlai": 4084,
      "ĠhÆ°Æ¡ng": 4085,
      "ateg": 4086,
      "Ġfinished": 4087,
      "Ġbáº¡i": 4088,
      "ĠSa": 4089,
      "Ġstrong": 4090,
      "Ġliá»ģn": 4091,
      "ĠSome": 4092,
      "Ġgáº¯n": 4093,
      "ceed": 4094,
      "Ġláº¡": 4095,
      "ĠchÃºt": 4096,
      "adian": 4097,
      "Ġhu": 4098,
      "ertain": 4099,
      "Ġsepar": 4100,
      "ĠLeg": 4101,
      "ĠHá»į": 4102,
      "lor": 4103,
      "Ġthiá»ĩu": 4104,
      "ĠCao": 4105,
      "Ġmá»Ļ": 4106,
      "ĠtháºŃm": 4107,
      "Ġ1960": 4108,
      "rian": 4109,
      "ederal": 4110,
      "Ġmonths": 4111,
      "Ġsex": 4112,
      "Ġhuman": 4113,
      "rated": 4114,
      "Ġmother": 4115,
      "Tr": 4116,
      "SA": 4117,
      "ĠCÆ¡": 4118,
      "icle": 4119,
      "Ġrul": 4120,
      "ĠrÃºt": 4121,
      "ĠCO": 4122,
      "áºµng": 4123,
      "Ġ1997": 4124,
      "ĠTin": 4125,
      "ĠsÃ³c": 4126,
      "ĠCenter": 4127,
      "Ġcour": 4128,
      "west": 4129,
      "Ġ1996": 4130,
      "Ġaut": 4131,
      "Ng": 4132,
      "ĠArch": 4133,
      "itect": 4134,
      "ĠVict": 4135,
      "Ġtuy": 4136,
      "ecutive": 4137,
      "ential": 4138,
      "Ġtourn": 4139,
      "ought": 4140,
      ");": 4141,
      "Ġfree": 4142,
      "ĠCont": 4143,
      "ĠPet": 4144,
      "ĠLÃ¢m": 4145,
      "ĠLouis": 4146,
      "ĠtÃ´n": 4147,
      "ĠCong": 4148,
      "02": 4149,
      "Ġtráº¥n": 4150,
      "Ġblack": 4151,
      "ĠTÃłi": 4152,
      "Ġdaughter": 4153,
      "Ġide": 4154,
      "Ġphot": 4155,
      "Ġháº£i": 4156,
      "ĠphÃºc": 4157,
      "ĠlÃ¡i": 4158,
      "Ġfollowed": 4159,
      "cer": 4160,
      "Ġcompleted": 4161,
      "ĠMai": 4162,
      "Ġqual": 4163,
      "Ġmunicip": 4164,
      "ĠGold": 4165,
      "Ġgave": 4166,
      "ender": 4167,
      "ĠcáºŃu": 4168,
      "ication": 4169,
      "Ġ]": 4170,
      "ique": 4171,
      "Ġninh": 4172,
      "Ġcross": 4173,
      "Ġconstruction": 4174,
      "elt": 4175,
      "iple": 4176,
      "ĠbÆ°á»Ľm": 4177,
      "Ġlight": 4178,
      "Ġtest": 4179,
      "ĠChin": 4180,
      "Ġfire": 4181,
      "Ġrep": 4182,
      "Ġaway": 4183,
      "Ġremained": 4184,
      "Ġdá»±a": 4185,
      "Ġnor": 4186,
      "ĠPhÃ¡t": 4187,
      "Ġvua": 4188,
      "ospital": 4189,
      "eated": 4190,
      "acing": 4191,
      "ĠÄĳá»Ļt": 4192,
      "ĠDepartment": 4193,
      "Ġagre": 4194,
      "Ġgá»Ĺ": 4195,
      "ĠServ": 4196,
      "Ġcost": 4197,
      "ĠWil": 4198,
      "Ġbecom": 4199,
      "rey": 4200,
      "ĠchÃ¡y": 4201,
      "Ġquáº£ng": 4202,
      "Ġperformed": 4203,
      "ii": 4204,
      "oz": 4205,
      "east": 4206,
      "ĠbÃŃ": 4207,
      "time": 4208,
      "Ġacqu": 4209,
      "ĠTáºŃp": 4210,
      "uty": 4211,
      "oid": 4212,
      "alls": 4213,
      "ĠKhoa": 4214,
      "ĠSu": 4215,
      "alle": 4216,
      "Ġplayers": 4217,
      "ternet": 4218,
      "roy": 4219,
      "Ã³i": 4220,
      "ĠLuáºŃt": 4221,
      "Ġwebsite": 4222,
      "craft": 4223,
      "Ġvir": 4224,
      "itar": 4225,
      "Ġavailable": 4226,
      "yr": 4227,
      "Ġtrá»ĵng": 4228,
      "elling": 4229,
      "ĠÄĲo": 4230,
      "Ġ=": 4231,
      "ĠPhilipp": 4232,
      "ll": 4233,
      "gar": 4234,
      "Ġfront": 4235,
      "ĠÄĲá»ĳi": 4236,
      "ĠTom": 4237,
      "Ġassoci": 4238,
      "ĠOther": 4239,
      "ĠIsrael": 4240,
      "enced": 4241,
      "Ġsour": 4242,
      "ĠCam": 4243,
      "ĠMel": 4244,
      "ĠTrans": 4245,
      "ĠWestern": 4246,
      "ethod": 4247,
      "ĠTel": 4248,
      "ita": 4249,
      "iers": 4250,
      "Ġtaken": 4251,
      "ĠtÃ¢y": 4252,
      "Ġma": 4253,
      "Ġdam": 4254,
      "Ġ1995": 4255,
      "ĠTex": 4256,
      "Äģ": 4257,
      "Ġ500": 4258,
      "ĠUK": 4259,
      "Ġbiá»ĩn": 4260,
      "Ġtáº¡m": 4261,
      "duced": 4262,
      "ĠkÃ©m": 4263,
      "amin": 4264,
      "azine": 4265,
      "ĠgiÃ³": 4266,
      "Ġ1992": 4267,
      "ĠNáºµng": 4268,
      "Ġsongs": 4269,
      "ois": 4270,
      "ĠTor": 4271,
      "ĠdÃµi": 4272,
      "ĠRad": 4273,
      "Ġtháº§y": 4274,
      "Ġtáº¯c": 4275,
      "ĠÄĲáº·c": 4276,
      "aly": 4277,
      "ĠJapanese": 4278,
      "ĠMichael": 4279,
      "atural": 4280,
      "Ġdesigned": 4281,
      "sy": 4282,
      "Ġlet": 4283,
      "ĠÄĳÆ°Æ¡ng": 4284,
      "ĠSant": 4285,
      "ĠVi": 4286,
      "Ġtruy": 4287,
      "ĠChristian": 4288,
      "Ãºy": 4289,
      "á»©t": 4290,
      "Ġ45": 4291,
      "ĠGreen": 4292,
      "ĠTÆ°": 4293,
      "ĠâĢ¢": 4294,
      "Ġ},": 4295,
      "iec": 4296,
      "Ġseven": 4297,
      "ĠthÃ´n": 4298,
      "ĠlÆ°á»£c": 4299,
      "irect": 4300,
      "atory": 4301,
      "ĠCr": 4302,
      "oma": 4303,
      "ĠYÃªn": 4304,
      "Ġsignificant": 4305,
      "aps": 4306,
      "ca": 4307,
      "ĠProv": 4308,
      "ĠbÃło": 4309,
      "atives": 4310,
      "Ġput": 4311,
      "Ġimpro": 4312,
      "Ġtáº¡p": 4313,
      "less": 4314,
      "ĠCho": 4315,
      "back": 4316,
      "ĠVá»ģ": 4317,
      "ger": 4318,
      "ĠSong": 4319,
      "oles": 4320,
      "Ġ1994": 4321,
      "Ġcirc": 4322,
      "\"),": 4323,
      "ilities": 4324,
      "Ġphys": 4325,
      "ĠphÆ°á»Ŀng": 4326,
      "ĠPan": 4327,
      "Ġinj": 4328,
      "Ġpress": 4329,
      "ections": 4330,
      "ĠSince": 4331,
      "Ġhousehold": 4332,
      "viron": 4333,
      "ĠInstitute": 4334,
      "ĠSociety": 4335,
      "ĠCommun": 4336,
      "Ġvay": 4337,
      "ĠHam": 4338,
      "Ġthai": 4339,
      "ands": 4340,
      "ĠFilm": 4341,
      "ĠMil": 4342,
      "ĠBá»ĩnh": 4343,
      "Ġperformance": 4344,
      "Ġmáº¥y": 4345,
      "Ġcand": 4346,
      "Ġná»£": 4347,
      "ĠTam": 4348,
      "den": 4349,
      "Ġleading": 4350,
      "Ġonce": 4351,
      "Ġmodel": 4352,
      "37": 4353,
      "ĠÄĳÃ¨n": 4354,
      "¯ng": 4355,
      "Ġchá»¥p": 4356,
      "etic": 4357,
      "ĠIr": 4358,
      "Ġfeatures": 4359,
      "imate": 4360,
      "Ġbank": 4361,
      "Ġearn": 4362,
      "ĠngÃ´n": 4363,
      "Ġgroups": 4364,
      "ĠRussian": 4365,
      "icro": 4366,
      "Ġincludes": 4367,
      "thlet": 4368,
      "Ġlargest": 4369,
      "errit": 4370,
      "ĠcÆ°á»Ŀi": 4371,
      "ĠInter": 4372,
      "Ġstudy": 4373,
      "ularly": 4374,
      "Ġfeatured": 4375,
      "oms": 4376,
      "Ġstated": 4377,
      "ĠthÃ¡c": 4378,
      "Ġmaterial": 4379,
      "serv": 4380,
      "ĠAlthough": 4381,
      "ĠMus": 4382,
      "ĠthoÃ¡t": 4383,
      "Ġoriginally": 4384,
      "ĠdÃ¡ng": 4385,
      "Ġlab": 4386,
      "á»ĩt": 4387,
      "Ġthroughout": 4388,
      "Ġbrother": 4389,
      "chie": 4390,
      "Ġháº¡nh": 4391,
      "emor": 4392,
      "ĠScott": 4393,
      "ĠHenry": 4394,
      "Ġplan": 4395,
      "Ġradio": 4396,
      "Ġawarded": 4397,
      "Ġcuá»ĳn": 4398,
      "ĠPháºŃt": 4399,
      "cel": 4400,
      "ĠDemocr": 4401,
      "ĠÄĲÃ³": 4402,
      "bour": 4403,
      "Ġlá»¥c": 4404,
      "ĠFrancis": 4405,
      "reland": 4406,
      "iff": 4407,
      "Ġforces": 4408,
      "Ġrelig": 4409,
      "ĠSun": 4410,
      "Ġearl": 4411,
      "merc": 4412,
      "Ġsugg": 4413,
      "za": 4414,
      "me": 4415,
      "36": 4416,
      "ĠCÃ²n": 4417,
      "ĠZeal": 4418,
      "ĠVictor": 4419,
      "ĠFrank": 4420,
      "Ġtraining": 4421,
      "ĠMa": 4422,
      "Ġcurrent": 4423,
      "Ġaccess": 4424,
      "airs": 4425,
      "ĠtrÃ¹ng": 4426,
      "arter": 4427,
      "LV": 4428,
      "Ġsem": 4429,
      "ĠCro": 4430,
      "á»īnh": 4431,
      "Ġhealth": 4432,
      "ĠIts": 4433,
      "ĠVirgin": 4434,
      "ĠUk": 4435,
      "ĠMinister": 4436,
      "Ġwid": 4437,
      "ĠAfrican": 4438,
      "ĠtÃ³c": 4439,
      "eel": 4440,
      "ĠWhite": 4441,
      "yc": 4442,
      "ĠJew": 4443,
      "FA": 4444,
      "Ġcourt": 4445,
      "ĠBut": 4446,
      "ÄĲT": 4447,
      "Ġinvolved": 4448,
      "ĠCast": 4449,
      "overnor": 4450,
      "Ġsubsequ": 4451,
      "ĠrÆ¡i": 4452,
      "ges": 4453,
      "ĠAcademy": 4454,
      "Ġpur": 4455,
      "Ġeventually": 4456,
      "Ġdev": 4457,
      "ĠZealand": 4458,
      "Ġdirected": 4459,
      "ranch": 4460,
      "ĠVietnam": 4461,
      "Ġ1991": 4462,
      "CC": 4463,
      "Ġmass": 4464,
      "Ġsá»¯a": 4465,
      "Ġbá»į": 4466,
      "ĠbÄĥng": 4467,
      "Ġstage": 4468,
      "ĠEc": 4469,
      "icated": 4470,
      "Ġschools": 4471,
      "ĠHÆ°ng": 4472,
      "ĠÄĲÃłi": 4473,
      "erry": 4474,
      "erous": 4475,
      "ĠSaint": 4476,
      "Ġsound": 4477,
      "play": 4478,
      "ĠFootball": 4479,
      "Ġgoal": 4480,
      "ĠVN": 4481,
      "Ġtax": 4482,
      "ĠQuáºŃn": 4483,
      "ĠvÃ©": 4484,
      "ilies": 4485,
      "Ġmáº¡ch": 4486,
      "ĠCanadian": 4487,
      "ĠChiáº¿n": 4488,
      "Ġ1993": 4489,
      "ĠGreat": 4490,
      "Ġprobl": 4491,
      "Ġconduct": 4492,
      "ĠTuáº¥n": 4493,
      "ĠGal": 4494,
      "par": 4495,
      "ĠEduc": 4496,
      "eep": 4497,
      "Ġloss": 4498,
      "uter": 4499,
      "38": 4500,
      "Ġable": 4501,
      "Ġ70": 4502,
      "Ġseen": 4503,
      "ĠtrÄĥm": 4504,
      "Ġinformation": 4505,
      "Ġexist": 4506,
      "ĠOl": 4507,
      "con": 4508,
      "Ġtransfer": 4509,
      "ĠIran": 4510,
      "Ġwhite": 4511,
      "Ġhot": 4512,
      "ĠCons": 4513,
      "ĠtrÃº": 4514,
      "Ġliter": 4515,
      "ĠAwards": 4516,
      "istry": 4517,
      "Ġstri": 4518,
      "ĠquÃª": 4519,
      "Ġadded": 4520,
      "ĠHiá»ĩp": 4521,
      "ĠChinese": 4522,
      "iction": 4523,
      "ĠCÅ©ng": 4524,
      "500": 4525,
      "ĠBraz": 4526,
      "ician": 4527,
      "Ġanim": 4528,
      "ĠTriá»ģu": 4529,
      "ĠPeter": 4530,
      "Ġvá»¯ng": 4531,
      "48": 4532,
      "aries": 4533,
      "ĠList": 4534,
      "Ġliá»ĩt": 4535,
      "Ġmount": 4536,
      "Ġ80": 4537,
      "Ġser": 4538,
      "ĠÄĳoÃ¡n": 4539,
      "Ġlan": 4540,
      "Ġchá»£": 4541,
      "Ġcountries": 4542,
      "Ġarm": 4543,
      "ĠLake": 4544,
      "Ġtournament": 4545,
      "va": 4546,
      "ĠTexas": 4547,
      "ĠHill": 4548,
      "dis": 4549,
      "ude": 4550,
      "á»ĭa": 4551,
      "Ġprivate": 4552,
      "Ġinh": 4553,
      "ĠMos": 4554,
      "ras": 4555,
      "Ġdá»ĭ": 4556,
      "asons": 4557,
      "Ġassist": 4558,
      "aval": 4559,
      "li": 4560,
      "ĠUkrain": 4561,
      "enth": 4562,
      "Ġmust": 4563,
      "Åį": 4564,
      "Ġreplaced": 4565,
      "Ġrespons": 4566,
      "Ġnetwork": 4567,
      "Ġtá»Ŀ": 4568,
      "rd": 4569,
      "Ġnháº¯c": 4570,
      "Ġepisode": 4571,
      "47": 4572,
      "In": 4573,
      "ĠRichard": 4574,
      "33": 4575,
      "Ġpark": 4576,
      "Ġnháº¥n": 4577,
      "Ġpolice": 4578,
      "Ġnáº¯m": 4579,
      "Ġconstit": 4580,
      "atre": 4581,
      "Ġdoub": 4582,
      "ĠWomen": 4583,
      "Ġkhá»§ng": 4584,
      "Ġpast": 4585,
      "ĠChÃºa": 4586,
      "Ġthá»ķ": 4587,
      "ĠItalian": 4588,
      "EA": 4589,
      "Ġfight": 4590,
      "Ġ36": 4591,
      "Ġcou": 4592,
      "embly": 4593,
      "sel": 4594,
      "ishop": 4595,
      "Ġnovel": 4596,
      "Ġngáº¡i": 4597,
      "Ġviol": 4598,
      "īnh": 4599,
      "ĠCá»¥c": 4600,
      "Ġtreat": 4601,
      "ĠThÃ¡ng": 4602,
      "Ġprovided": 4603,
      "Ġxáº¥u": 4604,
      "rl": 4605,
      "Ġmá»Ŀi": 4606,
      "ĠTáº¿t": 4607,
      "Ġcollege": 4608,
      "99": 4609,
      "hood": 4610,
      "Ġpolic": 4611,
      "ĠThÆ°Æ¡ng": 4612,
      "Ġcompetition": 4613,
      "Ġkilled": 4614,
      "ĠÄĳá»©a": 4615,
      "ĠBrazil": 4616,
      "Ġdegree": 4617,
      "ĠBur": 4618,
      "Ġsuff": 4619,
      "ĠHot": 4620,
      "Ġclose": 4621,
      "Ġstates": 4622,
      "Ġcritic": 4623,
      "Ġcurrently": 4624,
      "ĠTrÃªn": 4625,
      "Ġfourth": 4626,
      "Ġwind": 4627,
      "Ġrange": 4628,
      "ores": 4629,
      "Ġaud": 4630,
      "Ġsil": 4631,
      "medi": 4632,
      "Ġcandid": 4633,
      "ĠSo": 4634,
      "ero": 4635,
      "tar": 4636,
      "Ġniá»ģm": 4637,
      "head": 4638,
      "Ġná»ķ": 4639,
      "Ġcivil": 4640,
      "oint": 4641,
      "ĠtÆ°Æ¡i": 4642,
      "Ġká»ĭp": 4643,
      "board": 4644,
      "Ġbá»Ŀ": 4645,
      "Ġcentral": 4646,
      "ĠÄĲÃ¬nh": 4647,
      "ĠCarl": 4648,
      "Ġkia": 4649,
      "Ġreached": 4650,
      "ye": 4651,
      "Ġsaw": 4652,
      "Ġuy": 4653,
      "oviet": 4654,
      "ĠSmith": 4655,
      "ĠAfrica": 4656,
      "Ġarg": 4657,
      "Ġfav": 4658,
      "Ġboard": 4659,
      "Ġxu": 4660,
      "Ġleast": 4661,
      "Ġeither": 4662,
      "Ġbáº¡c": 4663,
      "Ġxo": 4664,
      "ĠrÃłng": 4665,
      "face": 4666,
      "vironment": 4667,
      "ĠMexico": 4668,
      "rought": 4669,
      "Ġvo": 4670,
      "ĠÄĲÆ°á»Ŀng": 4671,
      "ĠNghá»ĭ": 4672,
      "ĠÄĲÆ°á»£c": 4673,
      "Ġcá»¥c": 4674,
      "ĠSuper": 4675,
      "75": 4676,
      "70": 4677,
      "Ġill": 4678,
      "Ġreb": 4679,
      "km": 4680,
      "ĠNot": 4681,
      "tain": 4682,
      "Ġhom": 4683,
      "ĠrÄĥng": 4684,
      "Ġscored": 4685,
      "Ġrights": 4686,
      "Ġgáº¯ng": 4687,
      "ado": 4688,
      "Ġ90": 4689,
      "Ġder": 4690,
      "Ġkhuyáº¿n": 4691,
      "sk": 4692,
      "Ġfar": 4693,
      "ĠHÆ°Æ¡ng": 4694,
      "onst": 4695,
      "illa": 4696,
      "Ġá»§ng": 4697,
      "Ġclos": 4698,
      "ny": 4699,
      "ios": 4700,
      "Ġcompos": 4701,
      "ein": 4702,
      "ications": 4703,
      "ĠGiÃ¡": 4704,
      ".)": 4705,
      "ĠGames": 4706,
      "ĠnghÃ¬n": 4707,
      "ask": 4708,
      "Ġmedia": 4709,
      "annel": 4710,
      "Ġthá»Ŀ": 4711,
      "ĠRock": 4712,
      "agon": 4713,
      "ĠViá»ĩn": 4714,
      "Ġngon": 4715,
      "Ġsá»©": 4716,
      "Ġvia": 4717,
      "ĠRob": 4718,
      "Ġattended": 4719,
      "Ġæ": 4720,
      "ĠtrÆ°ng": 4721,
      "Ġthiá»ĩt": 4722,
      "iana": 4723,
      "ĠvÆ°Æ¡ng": 4724,
      "Ġreve": 4725,
      "Ġconv": 4726,
      "ĠNgÃ¢n": 4727,
      "Ġexpress": 4728,
      "ĠTiáº¿n": 4729,
      "ĠCarol": 4730,
      "Ġcáº·p": 4731,
      "Ġrá»Ŀi": 4732,
      "ids": 4733,
      "ĠPlay": 4734,
      "ĠngÅ©": 4735,
      "utions": 4736,
      "ĠCareer": 4737,
      "ĠFollow": 4738,
      "á»³nh": 4739,
      "Ġ1950": 4740,
      "Ġplaced": 4741,
      "Ġmus": 4742,
      "ĠHLV": 4743,
      "Ġcop": 4744,
      "Ġvong": 4745,
      "88": 4746,
      "ĠIreland": 4747,
      "urity": 4748,
      "ĠKhÃ¡nh": 4749,
      "bon": 4750,
      "ĠÄĳÃ¡m": 4751,
      "Ġdiscover": 4752,
      "ume": 4753,
      "ĠtháºŃp": 4754,
      "uture": 4755,
      "Ġcensus": 4756,
      "Ġchange": 4757,
      "Ġkháº¯p": 4758,
      "Ġmix": 4759,
      "band": 4760,
      "ĠSpanish": 4761,
      "ĠSecond": 4762,
      "Ġmáº½": 4763,
      "Ġcháº·t": 4764,
      "mercial": 4765,
      "ĠÄĳÃłi": 4766,
      "ĠLos": 4767,
      "Ġdá»«ng": 4768,
      "ĠMáº·c": 4769,
      "áºŃc": 4770,
      "Ġlear": 4771,
      "Ġ1989": 4772,
      "Ġsáº¡n": 4773,
      "Ġaccept": 4774,
      "Ġtáº¥m": 4775,
      "Ġrailway": 4776,
      "aka": 4777,
      "rup": 4778,
      "tor": 4779,
      "omp": 4780,
      "ĠmÃª": 4781,
      "ĠKore": 4782,
      "pec": 4783,
      "Ġget": 4784,
      "alleng": 4785,
      "Ġkhá»ķ": 4786,
      "mon": 4787,
      "Ġcenter": 4788,
      "ĠMod": 4789,
      "39": 4790,
      "Ġplant": 4791,
      "Ġpot": 4792,
      "Ġinterest": 4793,
      "49": 4794,
      "Ġdecided": 4795,
      "Ġapprox": 4796,
      "road": 4797,
      "\").": 4798,
      "ette": 4799,
      "ĠIl": 4800,
      "ĠyÃªn": 4801,
      "Ġfif": 4802,
      "ĠÄĳáº³ng": 4803,
      "Ġabove": 4804,
      "Ġxá»©": 4805,
      "Ġdá»ĭp": 4806,
      "ply": 4807,
      "á»±u": 4808,
      "arily": 4809,
      "Ġláº¯p": 4810,
      "ycl": 4811,
      "46": 4812,
      "ĠkÃ¨m": 4813,
      "Ġxong": 4814,
      "Ġcapital": 4815,
      "ĠMuseum": 4816,
      "ĠFollowing": 4817,
      "ĠsÃłng": 4818,
      "arch": 4819,
      "Ã¤": 4820,
      "Ġstudio": 4821,
      "Æ°á»£u": 4822,
      "ĠKingdom": 4823,
      "Ġláº¯ng": 4824,
      "Ġap": 4825,
      "Ġbáº¯n": 4826,
      "Ġgold": 4827,
      "ĠSport": 4828,
      "ites": 4829,
      "ĠCÃ¡ch": 4830,
      "arr": 4831,
      "ability": 4832,
      "ĠJust": 4833,
      "Ġusually": 4834,
      "Ġachie": 4835,
      "ĠDay": 4836,
      "ĠÄĲoÃłn": 4837,
      "ĠGeorg": 4838,
      "aud": 4839,
      "Ġ1988": 4840,
      "Ġ300": 4841,
      "á»¥y": 4842,
      "cript": 4843,
      "oper": 4844,
      "Ġnight": 4845,
      "Ġmean": 4846,
      "duction": 4847,
      "ĠEducation": 4848,
      "abit": 4849,
      "Ġmu": 4850,
      "opp": 4851,
      "edy": 4852,
      "ook": 4853,
      "Ã©n": 4854,
      "ĠÄĳá»¡": 4855,
      "Ġtri": 4856,
      "osa": 4857,
      "Ġjud": 4858,
      "ĠcÃł": 4859,
      "ĠLee": 4860,
      "Ġsize": 4861,
      "Ġfilms": 4862,
      "ĠÄĳáº¿": 4863,
      "Ġupon": 4864,
      "fic": 4865,
      "ĠBank": 4866,
      "ĠsÃłn": 4867,
      "ĠDÃ¹": 4868,
      "Ġpha": 4869,
      "Ġarchitect": 4870,
      "Ġintroduced": 4871,
      "ĠchÃłng": 4872,
      "ĠSer": 4873,
      "ĠGD": 4874,
      "Ġcal": 4875,
      "order": 4876,
      "Ġhit": 4877,
      "ĠPenn": 4878,
      "Ġshows": 4879,
      "Ġfig": 4880,
      "Ġnguyá»ĩn": 4881,
      "ware": 4882,
      "ĠcÆ°á»Ľi": 4883,
      "ĠngÆ°á»£c": 4884,
      "á»Ļp": 4885,
      "ĠSir": 4886,
      "ĠIII": 4887,
      "ĠbáºŃc": 4888,
      "ĠRh": 4889,
      "Ġgiáº¿t": 4890,
      "Ġprem": 4891,
      "uses": 4892,
      "Ġchampionship": 4893,
      "Ġláº«n": 4894,
      "ĠkhÃ´": 4895,
      "ĠBest": 4896,
      "Ġmiss": 4897,
      "Ġná»Ńa": 4898,
      "ĠGre": 4899,
      "lam": 4900,
      "ketball": 4901,
      "Ġonline": 4902,
      "ĠgÃł": 4903,
      "ĠMat": 4904,
      "unk": 4905,
      "á»§y": 4906,
      "ĠPhÃºc": 4907,
      "Ġdistrib": 4908,
      "ĠmÅ©i": 4909,
      "2017": 4910,
      "Ġmeas": 4911,
      "Ġtrá»«": 4912,
      "ĠHÃ³a": 4913,
      "ĠdÆ°": 4914,
      "mb": 4915,
      "Ġoccup": 4916,
      "Ġmarket": 4917,
      "ĠArg": 4918,
      "ali": 4919,
      "Ġinstead": 4920,
      "ube": 4921,
      "55": 4922,
      "ĠviÃªm": 4923,
      "Ġsubject": 4924,
      "Ġdata": 4925,
      "ĠgiÃłu": 4926,
      "ĠnÃ©t": 4927,
      "ima": 4928,
      "Ġpreviously": 4929,
      "Ġdivision": 4930,
      "Ġnomin": 4931,
      "Ġriver": 4932,
      "icles": 4933,
      "Ġaircraft": 4934,
      "Ġthá»ıa": 4935,
      "Ġfemale": 4936,
      "ĠCommission": 4937,
      "uit": 4938,
      "ĠFin": 4939,
      "Ġlook": 4940,
      "Ġká»ĭch": 4941,
      "Ġsáº¯t": 4942,
      "ĠHÃ£y": 4943,
      "usp": 4944,
      "Ġ!": 4945,
      "ĠGovernment": 4946,
      "irth": 4947,
      "Ġrepresented": 4948,
      "ĠCatholic": 4949,
      "Ġtrib": 4950,
      "ental": 4951,
      "eleb": 4952,
      "Ġben": 4953,
      "Ġhá»ĵng": 4954,
      "ams": 4955,
      "ĠLy": 4956,
      "ĠÄĲáº§u": 4957,
      "Ġfarm": 4958,
      "Ġexhib": 4959,
      "apore": 4960,
      "Ġknow": 4961,
      "Ġball": 4962,
      "ĠScot": 4963,
      "ĠNews": 4964,
      "ĠKáº¿t": 4965,
      "olk": 4966,
      "Ġlisted": 4967,
      "Ġprovide": 4968,
      "Ġdraw": 4969,
      "ĠXe": 4970,
      "ĠKar": 4971,
      "Ġran": 4972,
      "Ġmethod": 4973,
      "ming": 4974,
      "Ġgirl": 4975,
      "ĠEv": 4976,
      "Ġaccount": 4977,
      "Ġgun": 4978,
      "Ġláº¯m": 4979,
      "oring": 4980,
      "ĠChampionships": 4981,
      "ÃŃa": 4982,
      "idents": 4983,
      "Ġeffect": 4984,
      "ĠSá»ĳ": 4985,
      "ĠÄĲÃło": 4986,
      "igan": 4987,
      "imb": 4988,
      "Ġactive": 4989,
      "Ġbehind": 4990,
      "Ġbá»ģn": 4991,
      "Ġpred": 4992,
      "elled": 4993,
      "ora": 4994,
      "Phone": 4995,
      "Ġtháº£i": 4996,
      "ĠThá»§y": 4997,
      "ĠQuÃ½": 4998,
      "Ġâ": 4999,
      "rog": 5000,
      "31": 5001,
      "ĠÄĳua": 5002,
      "Ġbrought": 5003,
      "Ġwinning": 5004,
      "ĠLater": 5005,
      "ĠAtl": 5006,
      "Ġparts": 5007,
      "Ġneigh": 5008,
      "Ġwhose": 5009,
      "ĠnghÃ¨o": 5010,
      "Ä±": 5011,
      "ends": 5012,
      "Ġneg": 5013,
      "Ġhuyáº¿t": 5014,
      "Ġdeal": 5015,
      "ĠYear": 5016,
      "iqu": 5017,
      "ĠTwo": 5018,
      "Ġbroadcast": 5019,
      "retary": 5020,
      "Ġgiáº£ng": 5021,
      "Ġpurch": 5022,
      "ĠBÃŃ": 5023,
      "elop": 5024,
      "Ġblock": 5025,
      "Ġ65": 5026,
      "icago": 5027,
      "ĠNA": 5028,
      "Ġbáº¿p": 5029,
      "ĠItaly": 5030,
      "Ġkhiá»ĥn": 5031,
      "ien": 5032,
      "ĠOb": 5033,
      "Ġrather": 5034,
      "erve": 5035,
      "iger": 5036,
      "Ġbuildings": 5037,
      "ĠSÃłi": 5038,
      "ko": 5039,
      "ĠPre": 5040,
      "Ġnorthern": 5041,
      "ĠUnd": 5042,
      "awa": 5043,
      "rest": 5044,
      "Ġkiá»ĩm": 5045,
      "Ġimpl": 5046,
      "kn": 5047,
      "Ã©o": 5048,
      "ĠFestival": 5049,
      "ened": 5050,
      "asing": 5051,
      "ĠrÆ°á»£u": 5052,
      "ĠHÃłng": 5053,
      "ĠÄĳáº£ng": 5054,
      "Ġmovement": 5055,
      "Ġmm": 5056,
      "Ġspace": 5057,
      "ĠThá»±c": 5058,
      "Æ¯": 5059,
      "ometimes": 5060,
      "ĠÄĲá»ĭnh": 5061,
      "Ġ1986": 5062,
      "ĠBrown": 5063,
      "ĠtÃºi": 5064,
      "anda": 5065,
      "SC": 5066,
      "aya": 5067,
      "Ġpaint": 5068,
      "Ġná»Ĺ": 5069,
      "Ġsection": 5070,
      "ĠmÆ¡": 5071,
      "Ġ09": 5072,
      "ĠAngeles": 5073,
      "ufact": 5074,
      "Ġstre": 5075,
      "ĠCommittee": 5076,
      "ĠhÃ¨": 5077,
      "Ġended": 5078,
      "iÄ": 5079,
      "ĠWind": 5080,
      "ĠtÃ¹y": 5081,
      "ĠgÃ³i": 5082,
      "Ġopt": 5083,
      "iá»ĩng": 5084,
      "Ġalmost": 5085,
      "rich": 5086,
      "ĠTrump": 5087,
      "ĠSoviet": 5088,
      "ĠVÄ©nh": 5089,
      "Ġlik": 5090,
      "Ġfamilies": 5091,
      "Ġplann": 5092,
      "ĠbÃ£o": 5093,
      "Ġbooks": 5094,
      "Ġinvestig": 5095,
      "Ġ32": 5096,
      "pecially": 5097,
      "Ġbá»¥ng": 5098,
      "Ġdefeated": 5099,
      "Ġcompan": 5100,
      "Ġfall": 5101,
      "Ġsouthern": 5102,
      "ĠPrem": 5103,
      "Ġgháº¿": 5104,
      "ĠKn": 5105,
      "ĠVirginia": 5106,
      "ule": 5107,
      "anth": 5108,
      "ĠMáº·t": 5109,
      "Ġ1987": 5110,
      "ridge": 5111,
      "ĠLÆ°u": 5112,
      "ĠNgay": 5113,
      "Ġbur": 5114,
      "ĠVÃ¢n": 5115,
      "ĠÄĲH": 5116,
      "Ġwriting": 5117,
      "ibrary": 5118,
      "ĠHá»įc": 5119,
      "ĠSingapore": 5120,
      "ĠmÃ¡t": 5121,
      "ĠOff": 5122,
      "Ġoutside": 5123,
      "Ġpers": 5124,
      "ĠTurk": 5125,
      "Ġrelationship": 5126,
      "Ġorganization": 5127,
      "ĠLife": 5128,
      "ĠJun": 5129,
      "34": 5130,
      "Ġáº¥m": 5131,
      "Ġung": 5132,
      "ĠquÃł": 5133,
      "Ġaction": 5134,
      "Ġprimary": 5135,
      "Ġforce": 5136,
      "acebook": 5137,
      "ĠthÆ°á»Ľc": 5138,
      "IA": 5139,
      "otes": 5140,
      "Ġpossible": 5141,
      "Ġplat": 5142,
      "ĠPhan": 5143,
      "Ġallowed": 5144,
      "atus": 5145,
      "Ġchart": 5146,
      "asse": 5147,
      "Ġgrand": 5148,
      "ĠPerson": 5149,
      "ambig": 5150,
      "ĠSwed": 5151,
      "ĠsÃºng": 5152,
      "ĠJoseph": 5153,
      "%,": 5154,
      "ĠFr": 5155,
      "Ġfinanc": 5156,
      "Ġjournal": 5157,
      "Ġfrequ": 5158,
      "ĠBang": 5159,
      "Ġcong": 5160,
      "Ġregular": 5161,
      "ĠHÃ¹ng": 5162,
      "ĠChu": 5163,
      "amed": 5164,
      "oke": 5165,
      "Ġregard": 5166,
      "Ġcut": 5167,
      "Ġkey": 5168,
      "ĠSil": 5169,
      "ĠkhÃ¡ng": 5170,
      "iences": 5171,
      "ĠOld": 5172,
      "ĠMost": 5173,
      "ĠCÃ¹ng": 5174,
      "Ġbá»ĳn": 5175,
      "Ġchanged": 5176,
      "Nh": 5177,
      "ĠThá»©": 5178,
      "ĠCa": 5179,
      "Ġtype": 5180,
      "Ġnáº¯ng": 5181,
      "ican": 5182,
      "ension": 5183,
      "ĠPac": 5184,
      "ĠSqu": 5185,
      "ĠÄĲiá»ĩn": 5186,
      "ĠGh": 5187,
      "ĠFort": 5188,
      "FL": 5189,
      "ĠArab": 5190,
      "ĠMass": 5191,
      "ĠBÃ¡o": 5192,
      "Ġruns": 5193,
      "Ġinsp": 5194,
      "Ġmiá»ĩng": 5195,
      "BA": 5196,
      "Ġlength": 5197,
      "chan": 5198,
      "ck": 5199,
      "Ġáº©m": 5200,
      "ady": 5201,
      "ux": 5202,
      "ylv": 5203,
      "ĠbÃ¨": 5204,
      "ĠTour": 5205,
      "ĠHistor": 5206,
      "ĠGÃ²n": 5207,
      "ĠAp": 5208,
      "mark": 5209,
      "Ġsettl": 5210,
      "Ġcur": 5211,
      "alled": 5212,
      "ĠTw": 5213,
      "udd": 5214,
      "iab": 5215,
      "Ġcoast": 5216,
      "ĠSummer": 5217,
      "ĠÆ¡n": 5218,
      "ĠRecords": 5219,
      "ĠWork": 5220,
      "ĠNH": 5221,
      "ila": 5222,
      "Ġunits": 5223,
      "ambiguation": 5224,
      "ĠChÆ°Æ¡ng": 5225,
      "Ġ1945": 5226,
      "Ġlower": 5227,
      "á»Ľt": 5228,
      "ato": 5229,
      "Ġstudies": 5230,
      "ĠMÃ£": 5231,
      "ĠSol": 5232,
      "adium": 5233,
      "Ġisland": 5234,
      "ĠDirect": 5235,
      "sych": 5236,
      "ĠgÃ³c": 5237,
      "disambiguation": 5238,
      "Ġapproximately": 5239,
      "ĠdÃły": 5240,
      "ĠEr": 5241,
      "Ġ1985": 5242,
      "44": 5243,
      "shire": 5244,
      "Ġask": 5245,
      "like": 5246,
      "ĠIndones": 5247,
      "inary": 5248,
      "2016": 5249,
      "ĠSar": 5250,
      "Ġdefeat": 5251,
      "Ġdocument": 5252,
      "ĠTy": 5253,
      "ĠVol": 5254,
      "urd": 5255,
      "Ġindustry": 5256,
      "ĠMÃ¡y": 5257,
      "Ġoppos": 5258,
      "atal": 5259,
      "Ġ1984": 5260,
      "Ġngang": 5261,
      "Ġtowards": 5262,
      "based": 5263,
      "Ġtháº»": 5264,
      "Ġimm": 5265,
      "Ġbeginning": 5266,
      "Ġche": 5267,
      "ĠÄĳÃ¡o": 5268,
      "ĠCongress": 5269,
      "Ġking": 5270,
      "onn": 5271,
      "ĠColl": 5272,
      "ĠÄĳÃ²i": 5273,
      "Ġstructure": 5274,
      "32": 5275,
      "porary": 5276,
      "ĠmÃ£i": 5277,
      "utch": 5278,
      "ĠArts": 5279,
      "ĠSk": 5280,
      "ĠPublic": 5281,
      "clus": 5282,
      "Ġaccording": 5283,
      "100": 5284,
      "Ġ1975": 5285,
      "Ġapproach": 5286,
      "ĠphÃ¡i": 5287,
      "--": 5288,
      "ĠHa": 5289,
      "Ġwhom": 5290,
      "ĠGod": 5291,
      "Ġartist": 5292,
      "ounter": 5293,
      "Ġtruyá»ĩn": 5294,
      "ĠWales": 5295,
      "ĠbÃ£i": 5296,
      "ĠStev": 5297,
      "ĠBill": 5298,
      "Ġspent": 5299,
      "ĠTop": 5300,
      "ĠcÆ¡n": 5301,
      "Ġháº¯n": 5302,
      "ĠBÃłi": 5303,
      "ĠNghá»ĩ": 5304,
      "Ġrau": 5305,
      "Ġhá»ģ": 5306,
      "aught": 5307,
      "Ġbreak": 5308,
      "ĠMalays": 5309,
      "Ġprinc": 5310,
      "CS": 5311,
      "ĠSur": 5312,
      "ĠGar": 5313,
      "Ġconstruct": 5314,
      "ĠkÃªnh": 5315,
      "war": 5316,
      "Ġanc": 5317,
      "Ġgáº¥p": 5318,
      ".âĢĿ": 5319,
      "Ġsoon": 5320,
      "ĠOlympics": 5321,
      "ecess": 5322,
      "ĠiPhone": 5323,
      "Ġtaking": 5324,
      "Ġhard": 5325,
      "ocal": 5326,
      "Ġanti": 5327,
      "Ġet": 5328,
      "umn": 5329,
      "ĠMill": 5330,
      "ĠOper": 5331,
      "Ġdeterm": 5332,
      "ĠTT": 5333,
      "Ġoperations": 5334,
      "ati": 5335,
      "ĠcháºŃm": 5336,
      "ĠParliament": 5337,
      "Ġespecially": 5338,
      "ĠOpen": 5339,
      "Ġowned": 5340,
      "CN": 5341,
      "Ġá»ĳng": 5342,
      "Ġmá»«ng": 5343,
      "well": 5344,
      "Ġprison": 5345,
      "ĠVinh": 5346,
      "rial": 5347,
      "ĠChicago": 5348,
      "VID": 5349,
      "owers": 5350,
      "ĠDÅ©ng": 5351,
      "ĠPak": 5352,
      "Ġtransl": 5353,
      "Ġobserv": 5354,
      "inner": 5355,
      "Ġsummer": 5356,
      "inals": 5357,
      "da": 5358,
      "Ġesc": 5359,
      "ĠHaw": 5360,
      "Ġitself": 5361,
      "Ġself": 5362,
      "Ġpay": 5363,
      "ĠFound": 5364,
      "ĠOs": 5365,
      "ĠProfess": 5366,
      "ĠHon": 5367,
      "ged": 5368,
      "pire": 5369,
      "Ġwood": 5370,
      "ĠMen": 5371,
      "ĠRel": 5372,
      "ĠlÃłn": 5373,
      "Ġleader": 5374,
      "Ġfunction": 5375,
      "Ġ#": 5376,
      "ĠMu": 5377,
      "Ġsum": 5378,
      "Ġloáº¡n": 5379,
      "ĠThÆ°á»£ng": 5380,
      "Ġbuá»ĵn": 5381,
      "Ġ1982": 5382,
      "Ġváº¿t": 5383,
      "reme": 5384,
      "ĠCáº£nh": 5385,
      "Ġplays": 5386,
      "198": 5387,
      "Ġconcern": 5388,
      "uke": 5389,
      "ĠlÃłnh": 5390,
      "Ġden": 5391,
      "Ġtro": 5392,
      "ray": 5393,
      "Ġchair": 5394,
      "Ġclosed": 5395,
      "Ġpain": 5396,
      "ĠÄĳu": 5397,
      "nel": 5398,
      "ify": 5399,
      "aled": 5400,
      "Ġtravel": 5401,
      "ĠWood": 5402,
      "ĠCD": 5403,
      "ĠCap": 5404,
      "ĠÄĳá»īnh": 5405,
      "ĠSub": 5406,
      "Ġthua": 5407,
      "ĠForce": 5408,
      "ĠHuy": 5409,
      "Ġobject": 5410,
      "Ġhigher": 5411,
      "Ġ38": 5412,
      "ready": 5413,
      "ĠFlorida": 5414,
      "Ġcommercial": 5415,
      "ĠphÃ³": 5416,
      "asion": 5417,
      "Ġdram": 5418,
      "Ġ1983": 5419,
      "Ġnatural": 5420,
      "ĠtháºŃn": 5421,
      "Ġroute": 5422,
      "Ġarmy": 5423,
      "Ġlittle": 5424,
      "Ġcommission": 5425,
      "Ġcháº£y": 5426,
      "ĠÄĳiá»ĥn": 5427,
      "vert": 5428,
      "Ġbase": 5429,
      "Ġtá»ĩ": 5430,
      "Ġsenior": 5431,
      "ĠBus": 5432,
      "Ġmagazine": 5433,
      "ĠMr": 5434,
      "Ġtraditional": 5435,
      "Ã©m": 5436,
      "ĠMot": 5437,
      "Ġcomplex": 5438,
      "ĠÄĳá»£i": 5439,
      "ĠWin": 5440,
      "Ġceleb": 5441,
      "Ġsystems": 5442,
      "rad": 5443,
      "Ġremov": 5444,
      "ĠLiber": 5445,
      "Ġnoted": 5446,
      "acc": 5447,
      "90": 5448,
      "ĠlÃ£i": 5449,
      "ises": 5450,
      "ĠTiá»ĥu": 5451,
      "ĠâĢĺ": 5452,
      "Ġmá»±c": 5453,
      "gi": 5454,
      "Ġcáº¥m": 5455,
      "Ġrespect": 5456,
      "ĠTimes": 5457,
      "chester": 5458,
      "Ġchap": 5459,
      "Ġdon": 5460,
      "ĠlÆ°á»Ľi": 5461,
      "Ġlá»ĳi": 5462,
      "Ġfood": 5463,
      "ĠvÆ°á»Ŀn": 5464,
      "ĠBattle": 5465,
      "Ġant": 5466,
      "hia": 5467,
      "itan": 5468,
      "Ġmoney": 5469,
      "ĠtÆ°á»Ŀng": 5470,
      "Ġoccur": 5471,
      "Ġstudied": 5472,
      "ibility": 5473,
      "ĠgiÃ¡p": 5474,
      "ĠAnn": 5475,
      "Ġtoo": 5476,
      "ĠAlb": 5477,
      "Ar": 5478,
      "Ġhighest": 5479,
      "Ġinstit": 5480,
      "£t": 5481,
      "eds": 5482,
      "ĠDis": 5483,
      "ĠMah": 5484,
      "ĠAS": 5485,
      "Ġdecl": 5486,
      "ĠPost": 5487,
      "iga": 5488,
      "ĠPhilippines": 5489,
      "Ġindependent": 5490,
      "antic": 5491,
      "urt": 5492,
      "ĠLand": 5493,
      "TA": 5494,
      "Ġhá»§y": 5495,
      "Ġáº©n": 5496,
      "ĠUp": 5497,
      "áº³n": 5498,
      "Ġmer": 5499,
      "Ġcollection": 5500,
      "Ġterrit": 5501,
      "Ġhá»Ļp": 5502,
      "ĠDanh": 5503,
      "ider": 5504,
      "ĠCOVID": 5505,
      "ĠTechn": 5506,
      "ĠtrÆ°Æ¡ng": 5507,
      "Ġcred": 5508,
      "ĠMá»Ĺi": 5509,
      "ĠCáº§n": 5510,
      "ĠRo": 5511,
      "TS": 5512,
      "Ġlaunched": 5513,
      "Ġcounty": 5514,
      "ĠMartin": 5515,
      "Ġmatches": 5516,
      "Ġ*": 5517,
      "Ġlived": 5518,
      "RA": 5519,
      "Ġsat": 5520,
      "Ġ1979": 5521,
      "Ġrequired": 5522,
      "Ġsurround": 5523,
      "Ġlack": 5524,
      "ims": 5525,
      "ji": 5526,
      "ĠkhuÃ´n": 5527,
      "ĠThá»ķ": 5528,
      "ĠDen": 5529,
      "Ġelev": 5530,
      "BS": 5531,
      "mm": 5532,
      "Ġopening": 5533,
      "inct": 5534,
      "ĠBig": 5535,
      "orpor": 5536,
      "Ġmanufact": 5537,
      "Ġ1972": 5538,
      "ĠxÆ°Æ¡ng": 5539,
      "aria": 5540,
      "ease": 5541,
      "anced": 5542,
      "ĠRos": 5543,
      "Ġcentre": 5544,
      "ĠOver": 5545,
      "col": 5546,
      "ĠkÃªu": 5547,
      "ĠMany": 5548,
      "iano": 5549,
      "ĠTáº¥t": 5550,
      "Ġmeans": 5551,
      "Ġgoals": 5552,
      "ĠHung": 5553,
      "Ġbelow": 5554,
      "akh": 5555,
      "Ġ37": 5556,
      "Ġdepartment": 5557,
      "EC": 5558,
      "Ġquest": 5559,
      "ĠNavy": 5560,
      "ĠLuc": 5561,
      "Ġdestroy": 5562,
      "Ġearlier": 5563,
      "ĠTrÆ°Æ¡ng": 5564,
      "Ġculture": 5565,
      "Æ°á»Ľp": 5566,
      "Ġresults": 5567,
      "Ġproperty": 5568,
      "ĠNgoáº¡i": 5569,
      "ĠThá»ĥ": 5570,
      "Ġentered": 5571,
      "OS": 5572,
      "Ġven": 5573,
      "Ġnewsp": 5574,
      "Ġfuture": 5575,
      "Ġhiá»ĩp": 5576,
      "Ġselected": 5577,
      "Ġcare": 5578,
      "ĠÄĳá»£t": 5579,
      "ĠClass": 5580,
      "Ġstaff": 5581,
      "Ġngá»«ng": 5582,
      "CP": 5583,
      "Ġvá»Ŀi": 5584,
      "ĠCá»¥": 5585,
      "Ġwoman": 5586,
      "itiz": 5587,
      "Ã£ng": 5588,
      "onia": 5589,
      "Ġdecision": 5590,
      "ira": 5591,
      "ĠSáº£n": 5592,
      "68": 5593,
      "Ġu": 5594,
      "Ġ1940": 5595,
      "Ġpersonal": 5596,
      "Ġhuáº¥n": 5597,
      "ĠResearch": 5598,
      "ĠNghi": 5599,
      "//": 5600,
      "kin": 5601,
      "Ġsusp": 5602,
      "Ġgenerally": 5603,
      "iy": 5604,
      "Ã§": 5605,
      "ĠÄĲá»ĭa": 5606,
      "een": 5607,
      "down": 5608,
      "ĠTiá»ģn": 5609,
      "Ġ1930": 5610,
      "Ġissues": 5611,
      "á»įa": 5612,
      "ĠBack": 5613,
      "Ġcháº·n": 5614,
      "Ġschol": 5615,
      "iled": 5616,
      "á»Ľp": 5617,
      "=\"": 5618,
      "ockey": 5619,
      "ĠÅ": 5620,
      "aily": 5621,
      "Ġminor": 5622,
      "Ġpractice": 5623,
      "Ġtransport": 5624,
      "venue": 5625,
      "known": 5626,
      "ternal": 5627,
      "ĠSyria": 5628,
      "Ġstandard": 5629,
      "Ġrap": 5630,
      "43": 5631,
      "Ġgenus": 5632,
      "Ġincreased": 5633,
      "tained": 5634,
      "ĠthÃ¹": 5635,
      "Ġexcept": 5636,
      "ĠlÅ©": 5637,
      "Ġadministr": 5638,
      "ĠTim": 5639,
      "ĠgÆ°Æ¡ng": 5640,
      "Ġvictory": 5641,
      "Ġcháº¥m": 5642,
      "Ġsquad": 5643,
      "Ġngá»įt": 5644,
      "Ġentire": 5645,
      "á»¯u": 5646,
      "obile": 5647,
      "ĠNorthern": 5648,
      "ĠhÃłm": 5649,
      "Ġprior": 5650,
      "ĠCov": 5651,
      ",...": 5652,
      "Le": 5653,
      "Ġmanager": 5654,
      "ĠnÃªu": 5655,
      "amily": 5656,
      "ĠRussia": 5657,
      "Ġhus": 5658,
      "ĠngÃłn": 5659,
      "Ġalready": 5660,
      "ipl": 5661,
      "ĠAssembly": 5662,
      "):": 5663,
      "ĠApple": 5664,
      "ĠlÆ°ng": 5665,
      "Ġcome": 5666,
      "onse": 5667,
      "ĠColumb": 5668,
      "Ġbecoming": 5669,
      "ĠphÃ¡n": 5670,
      "Ġlocation": 5671,
      "Ġnumerous": 5672,
      "Ġadop": 5673,
      "ĠÄĳá»©c": 5674,
      "Ġinitially": 5675,
      "thing": 5676,
      "ĠtrÃło": 5677,
      "uments": 5678,
      "azz": 5679,
      "2015": 5680,
      "Ġthus": 5681,
      "Ġappearance": 5682,
      "Ġtriá»ģu": 5683,
      "ingu": 5684,
      "Ġrelated": 5685,
      "ĠbÃ²": 5686,
      "obal": 5687,
      "arian": 5688,
      "ĠFred": 5689,
      "Ġer": 5690,
      "iáº¿c": 5691,
      "isions": 5692,
      "Ġdiffic": 5693,
      "Ġmajority": 5694,
      "ĠMo": 5695,
      "Ġpen": 5696,
      "ails": 5697,
      "ĠSpec": 5698,
      "Ġchá»Ł": 5699,
      "Ġ1981": 5700,
      "wer": 5701,
      "ĠRam": 5702,
      "Ġsometimes": 5703,
      "://": 5704,
      "arden": 5705,
      "ek": 5706,
      "ĠCuá»Ļc": 5707,
      "Ġassociated": 5708,
      "ĠVan": 5709,
      "Ġ1976": 5710,
      "Ġactivities": 5711,
      "Ġkhung": 5712,
      "MA": 5713,
      "ĠCá»ķ": 5714,
      "Ġcommand": 5715,
      "ylvania": 5716,
      "ĠGen": 5717,
      "ĠÃĿ": 5718,
      "Ġge": 5719,
      "Ġconcept": 5720,
      "ĠPháº§n": 5721,
      "writ": 5722,
      "ault": 5723,
      "ĠNhÄ©": 5724,
      "ricult": 5725,
      "Ġcompeted": 5726,
      "ĠBoard": 5727,
      "ĠLÃł": 5728,
      "istics": 5729,
      "Ġcompanies": 5730,
      "Ġens": 5731,
      "Ġdifficult": 5732,
      "ĠKho": 5733,
      "Ġ1968": 5734,
      "arriage": 5735,
      "igg": 5736,
      "Ġhor": 5737,
      "Ġdate": 5738,
      "ulated": 5739,
      "Ġacadem": 5740,
      "ĠInc": 5741,
      "wa": 5742,
      "ĠOlympic": 5743,
      "right": 5744,
      "ĠBoy": 5745,
      "Ġoperated": 5746,
      "ampion": 5747,
      "Ġcaused": 5748,
      "Ġbattle": 5749,
      "Ġháº³n": 5750,
      "42": 5751,
      "Ġanal": 5752,
      "ols": 5753,
      "yan": 5754,
      "Americ": 5755,
      "ĠFC": 5756,
      "Ġkeep": 5757,
      "irl": 5758,
      "41": 5759,
      "Ġ)": 5760,
      "ĠInf": 5761,
      "ĠVI": 5762,
      "Ġrunning": 5763,
      "Ġcertain": 5764,
      "ĠInternet": 5765,
      "Ġtrá»¯": 5766,
      "Ġngo": 5767,
      "Ġrá»Ńa": 5768,
      "Ġtrá»©ng": 5769,
      "Ġmove": 5770,
      "Ġcontains": 5771,
      "ĠValley": 5772,
      "ela": 5773,
      "ĠYoung": 5774,
      "ĠBor": 5775,
      "Ġcourse": 5776,
      "á»©a": 5777,
      "ĠFre": 5778,
      "ĠkÃ¬": 5779,
      "opter": 5780,
      "eng": 5781,
      "Ġcamera": 5782,
      "Ġwestern": 5783,
      "Ġchá»¥c": 5784,
      "Ġä": 5785,
      "Ġartists": 5786,
      "Ġterms": 5787,
      "Ġwide": 5788,
      "Ġcases": 5789,
      "ador": 5790,
      "ĠMalaysia": 5791,
      "Ġshi": 5792,
      "Ġolder": 5793,
      "Ġscient": 5794,
      "Ġunc": 5795,
      "ho": 5796,
      "Ġdom": 5797,
      "ĠcÄĥng": 5798,
      "Ġseat": 5799,
      "ĠThiáº¿t": 5800,
      "oud": 5801,
      "uts": 5802,
      "Ġlegal": 5803,
      "ĠService": 5804,
      "Ġ1978": 5805,
      "Ġphá»©c": 5806,
      "ĠlÃ´ng": 5807,
      "Ġchim": 5808,
      "ĠMcC": 5809,
      "ww": 5810,
      "ulf": 5811,
      "ĠArgent": 5812,
      "Ġlove": 5813,
      "66": 5814,
      "Ġlá»įc": 5815,
      "ĠThuáºŃn": 5816,
      "bur": 5817,
      "ĠhÃło": 5818,
      "Ġenvironment": 5819,
      "Ġwriter": 5820,
      "ĠGreek": 5821,
      "Ġestablish": 5822,
      "Ġ1974": 5823,
      "Ġcháº¡m": 5824,
      "Ġveh": 5825,
      "overs": 5826,
      "eption": 5827,
      "Ġthought": 5828,
      "Ġchief": 5829,
      "eless": 5830,
      "Ġuniversity": 5831,
      "ĠSinh": 5832,
      "ĠtÃ¡n": 5833,
      "Ġquang": 5834,
      "ĠLá»ĭch": 5835,
      "ĠRoute": 5836,
      "Ġunit": 5837,
      "Ġtext": 5838,
      "ĠMax": 5839,
      "Ġstudent": 5840,
      "mond": 5841,
      "Ġtrade": 5842,
      "ja": 5843,
      "Ġrá»ĳi": 5844,
      "Ġdiá»ĩt": 5845,
      "Ġmedal": 5846,
      "ĠTrÆ°á»Łng": 5847,
      "Ġtrá»¥c": 5848,
      "Ġhusband": 5849,
      "ĠHel": 5850,
      "ĠTHPT": 5851,
      "Ġadditional": 5852,
      "Ġserving": 5853,
      "Ġmission": 5854,
      "Ġbá»¯a": 5855,
      "ĠThÆ°á»Ŀng": 5856,
      "ĠÄĳá»«ng": 5857,
      "Ġbetter": 5858,
      "izing": 5859,
      "Ġthreat": 5860,
      "ĠthÆ°á»£ng": 5861,
      "Ġsinger": 5862,
      "ĠTÃ¢m": 5863,
      "Ġtrain": 5864,
      "ĠDef": 5865,
      "vention": 5866,
      "Ġsupported": 5867,
      "Ġretired": 5868,
      "Ġsyn": 5869,
      "ĠJul": 5870,
      "ĠAz": 5871,
      "Ġxinh": 5872,
      "Ġcharacters": 5873,
      "mitted": 5874,
      "Ġstatus": 5875,
      "Ġtung": 5876,
      "ĠNgÃ´": 5877,
      "ĠPacific": 5878,
      "di": 5879,
      "Ġcust": 5880,
      "Ġpassed": 5881,
      "Ġabs": 5882,
      "igital": 5883,
      "ĠdáºŃy": 5884,
      "ĠÄĲá»Ļi": 5885,
      "ĠEdward": 5886,
      "Ġháº¹n": 5887,
      "Ġannual": 5888,
      "Ġelections": 5889,
      "ecting": 5890,
      "uz": 5891,
      "ĠHong": 5892,
      "ĠSouthern": 5893,
      "ĠquÃªn": 5894,
      "ires": 5895,
      "Ġcollabor": 5896,
      "aine": 5897,
      "eman": 5898,
      "ansas": 5899,
      "oral": 5900,
      "eball": 5901,
      "Ġsuper": 5902,
      "ĠÄĳáº¥y": 5903,
      "Ġedition": 5904,
      "aring": 5905,
      "iÄĩ": 5906,
      "ips": 5907,
      "ĠchÃło": 5908,
      "Ġvá»¡": 5909,
      "ĠWal": 5910,
      "Ġchanges": 5911,
      "ĠOut": 5912,
      "Ġfan": 5913,
      "Ġprote": 5914,
      "Ġlay": 5915,
      "Ġnine": 5916,
      "ĠEst": 5917,
      "hio": 5918,
      "Ġprob": 5919,
      "Ġpromot": 5920,
      "Ġ400": 5921,
      "ĠphÃ¡o": 5922,
      "ĠUnder": 5923,
      "ova": 5924,
      "ĠhoÃ¡": 5925,
      "Ġguitar": 5926,
      "Ġná»Ļp": 5927,
      "Ġ1973": 5928,
      "Ġ1977": 5929,
      "ÅĤ": 5930,
      "Ġ1920": 5931,
      "Ġinterview": 5932,
      "action": 5933,
      "ĠSeries": 5934,
      "ĠDN": 5935,
      "Ġthoáº£i": 5936,
      "gl": 5937,
      "77": 5938,
      "abb": 5939,
      "ss": 5940,
      "Ġfore": 5941,
      "Ġofficer": 5942,
      "inet": 5943,
      "erem": 5944,
      "ĠCS": 5945,
      "Ġná»Ĺi": 5946,
      "ĠFacebook": 5947,
      "pped": 5948,
      "ĠHay": 5949,
      "rate": 5950,
      "Ġsea": 5951,
      "ĠVáºŃy": 5952,
      "Ġeconomic": 5953,
      "65": 5954,
      "Ġmostly": 5955,
      "ava": 5956,
      "ĠStar": 5957,
      "Ġforced": 5958,
      "Ġimmedi": 5959,
      "Ġdro": 5960,
      "Ġshot": 5961,
      "ogle": 5962,
      "lying": 5963,
      "ĠThÃ¡nh": 5964,
      "ĠvÃŃ": 5965,
      "Ġ1971": 5966,
      "Ġpiec": 5967,
      "add": 5968,
      "ĠJim": 5969,
      "Ġduyá»ĩt": 5970,
      "Ġlimited": 5971,
      "sylvania": 5972,
      "ĠSpr": 5973,
      "yo": 5974,
      "ĠÃļ": 5975,
      "elopment": 5976,
      "ĠIndonesia": 5977,
      "ĠLine": 5978,
      "Ġpercent": 5979,
      "Ġlink": 5980,
      "ĠCE": 5981,
      "ih": 5982,
      "Ġcreate": 5983,
      "agn": 5984,
      "Ġsubsequently": 5985,
      "Ġconsist": 5986,
      "Ġláº»": 5987,
      "Ġmusical": 5988,
      "LB": 5989,
      "Ġevidence": 5990,
      "Ġnáº¥u": 5991,
      "Ġfeature": 5992,
      "Ġclaimed": 5993,
      "ĠÄĳai": 5994,
      "ĠLÆ°Æ¡ng": 5995,
      "Ġquarter": 5996,
      "Ġener": 5997,
      "Ġ33": 5998,
      "Ġdá»©t": 5999,
      "ĠBiÃªn": 6000,
      "Ġexc": 6001,
      "Ġjob": 6002,
      "ĠnhiÃªu": 6003,
      "ĠÄĳuá»ķi": 6004,
      "ĠPersonal": 6005,
      "Ġhum": 6006,
      "ĠHá»": 6007,
      "ĠKong": 6008,
      "Ġkháº¥u": 6009,
      "Ġox": 6010,
      "rast": 6011,
      "Ġnews": 6012,
      "ele": 6013,
      "isation": 6014,
      "Ġvá»ı": 6015,
      "Ġreligious": 6016,
      "change": 6017,
      "ties": 6018,
      "ĠIrish": 6019,
      "ĠÄĳÄ©a": 6020,
      "Ġcouncil": 6021,
      "ĠxÆ°a": 6022,
      "ĠchÃ³": 6023,
      "Ġearned": 6024,
      "Ġthang": 6025,
      "Ġscore": 6026,
      "ĠmÃ¹i": 6027,
      "Ġhá»©ng": 6028,
      "ĠScotland": 6029,
      "Ġmeet": 6030,
      "ĠtrÃ´ng": 6031,
      "Ġmunicipality": 6032,
      "Sh": 6033,
      "Ġbá»ģ": 6034,
      "ĠBet": 6035,
      "Ġnames": 6036,
      "osoph": 6037,
      "ĠSpain": 6038,
      "Ġeditor": 6039,
      "ĠBook": 6040,
      "ĠIf": 6041,
      "Ġbasketball": 6042,
      "Ġmanagement": 6043,
      "Ġchá»§ng": 6044,
      "Ġmá»ĩnh": 6045,
      "ĠLi": 6046,
      "ĠGiao": 6047,
      "ĠDuy": 6048,
      "ĠBul": 6049,
      "Ġha": 6050,
      "Ġphil": 6051,
      "Ġtáº¯m": 6052,
      "not": 6053,
      "ĠCarolina": 6054,
      "ĠTre": 6055,
      "áº¥c": 6056,
      "Ġlegisl": 6057,
      "ĠBá»Łi": 6058,
      "uan": 6059,
      "Ġremains": 6060,
      "Ġmeeting": 6061,
      "Ġang": 6062,
      "Ġsay": 6063,
      "ĠBC": 6064,
      "Ġbá»ĳi": 6065,
      "ĠVá»¥": 6066,
      "ĠTay": 6067,
      "ĠcÃº": 6068,
      "ĠDemocratic": 6069,
      "95": 6070,
      "Ġhours": 6071,
      "omer": 6072,
      "ĠTeam": 6073,
      "ĠÐ": 6074,
      "Ġprograms": 6075,
      "ĠPennsylvania": 6076,
      "Ġmedical": 6077,
      "Ġparticularly": 6078,
      "ĠProvince": 6079,
      "ennis": 6080,
      "Ġop": 6081,
      "TP": 6082,
      "ĠÃ©p": 6083,
      "Ġsaf": 6084,
      "ĠLim": 6085,
      "hy": 6086,
      "Ġquá»¹": 6087,
      "ema": 6088,
      "Ġtan": 6089,
      "Ġissue": 6090,
      "bury": 6091,
      "Ġ1967": 6092,
      "Ġ1969": 6093,
      "Ġbirth": 6094,
      "isk": 6095,
      "ĠCH": 6096,
      "ĠÄĳá»Ľi": 6097,
      "iance": 6098,
      "Ġcomplete": 6099,
      "Ġincome": 6100,
      "ĠConst": 6101,
      "ĠLÃºc": 6102,
      "inent": 6103,
      "ĠHáº¡": 6104,
      "Ġraised": 6105,
      "rief": 6106,
      "Ġgoing": 6107,
      "Ġlá»Ĺ": 6108,
      "ortun": 6109,
      "ĠHCM": 6110,
      "Ġsports": 6111,
      "Ġbelong": 6112,
      "Ġdiscuss": 6113,
      "Ġhelped": 6114,
      "Ġparticular": 6115,
      "Ġded": 6116,
      "MS": 6117,
      "ĠgiÃł": 6118,
      "ĠCharl": 6119,
      "ĠxÃ¢m": 6120,
      "Ġmai": 6121,
      "ĠKr": 6122,
      "ĠxÄĥng": 6123,
      "Ġminutes": 6124,
      "Ġcolon": 6125,
      "ĠTheir": 6126,
      "Ġgot": 6127,
      "Ġweeks": 6128,
      "ĠScience": 6129,
      "aut": 6130,
      "Ġfle": 6131,
      "ĠRailway": 6132,
      "Ġlines": 6133,
      "Ġsá»ķ": 6134,
      "Ġthuyá»ģn": 6135,
      "Ġlonger": 6136,
      "Ġ1944": 6137,
      "ting": 6138,
      "using": 6139,
      "Ġsom": 6140,
      "Ġlarger": 6141,
      "ĠTok": 6142,
      "Ġbelieved": 6143,
      "Ġscience": 6144,
      "Ġreduc": 6145,
      "ĠbÃ¢y": 6146,
      "ĠProg": 6147,
      "ĠHá»¯u": 6148,
      "Ġfirm": 6149,
      "ĠphÃº": 6150,
      "ez": 6151,
      "ils": 6152,
      "ĠDespite": 6153,
      "Ġvan": 6154,
      "ĠMas": 6155,
      "enty": 6156,
      "Ġmáº¯n": 6157,
      "Ġpresented": 6158,
      "ĠcÆ¡m": 6159,
      "Ġplatform": 6160,
      "ĠOx": 6161,
      "ĠTruyá»ģn": 6162,
      "standing": 6163,
      "ĠSÃ¡ng": 6164,
      "á»Ļm": 6165,
      "urban": 6166,
      "ĠConference": 6167,
      "eek": 6168,
      "ĠCA": 6169,
      "ĠQueen": 6170,
      "Ġthiá»ĥu": 6171,
      "Ġleaving": 6172,
      "Ġpolitician": 6173,
      "An": 6174,
      "ĠRadio": 6175,
      "Ġsá»¹": 6176,
      "Ġparents": 6177,
      "Ġresponse": 6178,
      "Ġtá»§": 6179,
      "Ġfailed": 6180,
      "Ãªnh": 6181,
      "Ġç": 6182,
      "Ġbox": 6183,
      "Ġremain": 6184,
      "Ġreferred": 6185,
      "IS": 6186,
      "PA": 6187,
      "ĠTá»īnh": 6188,
      "enz": 6189,
      "Ġoverall": 6190,
      "ĠJud": 6191,
      "Ġsan": 6192,
      "ba": 6193,
      "Ġword": 6194,
      "ci": 6195,
      "Ġhiáº¿m": 6196,
      "Ġquick": 6197,
      "ĠJac": 6198,
      "emat": 6199,
      "Ġtá»ķn": 6200,
      "Ġgive": 6201,
      "ĠReal": 6202,
      "Ġconsider": 6203,
      "ĠChief": 6204,
      "Ġfederal": 6205,
      "Ġ1964": 6206,
      "Ġcomposed": 6207,
      "Ġseasons": 6208,
      "Ġfamous": 6209,
      "Ġdinh": 6210,
      "ĠEmpire": 6211,
      "Ġvote": 6212,
      "Ġ150": 6213,
      "Ġmultiple": 6214,
      "Ġpolicy": 6215,
      "ĠIS": 6216,
      "Ġbound": 6217,
      "Al": 6218,
      "ken": 6219,
      "ĠÄĳÃ£i": 6220,
      "Ġincrease": 6221,
      "ĠlÃ¢m": 6222,
      "imum": 6223,
      "Ġ48": 6224,
      "ersey": 6225,
      "atively": 6226,
      "ĠBh": 6227,
      "Ġbá»Ļt": 6228,
      "asseng": 6229,
      "ĠthÃ¡ch": 6230,
      "ĠThat": 6231,
      "Ġforeign": 6232,
      "ĠÄĲáº¥t": 6233,
      "78": 6234,
      "Ġeth": 6235,
      "ĠGall": 6236,
      "ĠLab": 6237,
      "Ġ1965": 6238,
      "ĠQuy": 6239,
      "abeth": 6240,
      "'.": 6241,
      "ĠTai": 6242,
      "ĠSand": 6243,
      "Ġè": 6244,
      "onald": 6245,
      "ients": 6246,
      "Ġgá»įn": 6247,
      "ĠSocial": 6248,
      "bre": 6249,
      "ĠBow": 6250,
      "ĠDani": 6251,
      "Ġtrial": 6252,
      "Ġhoang": 6253,
      "Ġshown": 6254,
      "%)": 6255,
      "ĠFrancisco": 6256,
      "ĠHow": 6257,
      "ĠSA": 6258,
      "iring": 6259,
      "Ġchalleng": 6260,
      "Ġamount": 6261,
      "Ġsister": 6262,
      "Ġdao": 6263,
      "ĠQuyáº¿t": 6264,
      "Ġvisit": 6265,
      "ĠOhio": 6266,
      "selves": 6267,
      "Ġthemselves": 6268,
      "Kh": 6269,
      "Ġfinancial": 6270,
      "Ġattract": 6271,
      "Ġacquired": 6272,
      "ĠVÃµ": 6273,
      "Å¡": 6274,
      "onic": 6275,
      "Ġcarried": 6276,
      "ĠCáº§u": 6277,
      "Ġremaining": 6278,
      "Ġgraduated": 6279,
      "ĠnhuáºŃn": 6280,
      "iro": 6281,
      "ĠvÃ¢y": 6282,
      "rea": 6283,
      "Ġ39": 6284,
      "Ġcle": 6285,
      "Ġlatter": 6286,
      "Ġháº£o": 6287,
      "ĠLord": 6288,
      "arp": 6289,
      "ĠTá»Ń": 6290,
      "Ġdisp": 6291,
      "ĠStation": 6292,
      "Ġindic": 6293,
      "Ġbatt": 6294,
      "kg": 6295,
      "Ġpromoted": 6296,
      "Ġregional": 6297,
      "tu": 6298,
      "ĠHá»ĩ": 6299,
      "elle": 6300,
      "ĠPeople": 6301,
      "Ġmention": 6302,
      "ĠJohnson": 6303,
      "Ġstep": 6304,
      "Ġngáº§m": 6305,
      "LA": 6306,
      "ĠnÃ£o": 6307,
      "ĠTÃ¬nh": 6308,
      "ĠShow": 6309,
      "2014": 6310,
      "Ġemerg": 6311,
      "Ġ75": 6312,
      "raq": 6313,
      "Ġtroops": 6314,
      "ĠTro": 6315,
      "Ġdiss": 6316,
      "amm": 6317,
      "Ġaltern": 6318,
      "lo": 6319,
      "ĠsÆ¡n": 6320,
      "ĠtrÃ²n": 6321,
      "Ġtoday": 6322,
      "Ġcá»±u": 6323,
      "Ġcu": 6324,
      "Ġinte": 6325,
      "Ġga": 6326,
      "ĠHealth": 6327,
      "Ġeastern": 6328,
      "ĠÄĲÃ´": 6329,
      "Ġinn": 6330,
      "ĠLoan": 6331,
      "Ġsoft": 6332,
      "ĠmÃ©t": 6333,
      "emic": 6334,
      "Ġstarting": 6335,
      "Ġmiddle": 6336,
      "ĠJones": 6337,
      "Ġalleg": 6338,
      "Ġscreen": 6339,
      "ĠCP": 6340,
      "Ġsociety": 6341,
      "ĠLatin": 6342,
      "ĠBoth": 6343,
      "oston": 6344,
      "ĠAsian": 6345,
      "ĠtrÃŃch": 6346,
      "ĠBre": 6347,
      "ĠÄĳáºŃu": 6348,
      "Ġsurface": 6349,
      "ĠXÃ´": 6350,
      "Ġestim": 6351,
      "Ġprofessor": 6352,
      "Ġdá»įa": 6353,
      "Ġgas": 6354,
      "ĠhÃ¢m": 6355,
      "ĠGame": 6356,
      "Ġlin": 6357,
      "ĠVo": 6358,
      "Ġuses": 6359,
      "Ġoffered": 6360,
      "itation": 6361,
      "Ġstations": 6362,
      "stein": 6363,
      "Ġproposed": 6364,
      "Ġ34": 6365,
      "76": 6366,
      "ysis": 6367,
      "cher": 6368,
      "ĠNa": 6369,
      "ĠTrá»įng": 6370,
      "Ġrate": 6371,
      "ĠBob": 6372,
      "ĠXem": 6373,
      "Ġspecific": 6374,
      "irit": 6375,
      "Ġinstr": 6376,
      "79": 6377,
      "Ġparish": 6378,
      "Ġtáº¯t": 6379,
      "Ġpoet": 6380,
      "ĠCN": 6381,
      "Ġfort": 6382,
      "teen": 6383,
      "ĠNá»¯": 6384,
      "Ġcomment": 6385,
      "bers": 6386,
      "Ġlif": 6387,
      "Ġhospital": 6388,
      "ares": 6389,
      "Ġindividuals": 6390,
      "Ġmach": 6391,
      "Ġnative": 6392,
      "TÃ´i": 6393,
      "ĠhÃ¹ng": 6394,
      "house": 6395,
      "ession": 6396,
      "aters": 6397,
      "ĠWilliams": 6398,
      "ĠPoland": 6399,
      "Ġnorm": 6400,
      "Ġ1966": 6401,
      "ĠJewish": 6402,
      "yg": 6403,
      "Ġtheory": 6404,
      "ĠkÃŃn": 6405,
      "ĠHÃ¬nh": 6406,
      "FC": 6407,
      "ĠBBC": 6408,
      "Ġmáº¡c": 6409,
      "Ġtakes": 6410,
      "ĠhÆ°": 6411,
      "ĠAsh": 6412,
      "58": 6413,
      "Ġsched": 6414,
      "Ġpháº«u": 6415,
      "ingham": 6416,
      "Ġenergy": 6417,
      "ĠPremier": 6418,
      "Ġgiá»įng": 6419,
      "Ġforms": 6420,
      "ĠEastern": 6421,
      "ĠQuan": 6422,
      "aging": 6423,
      "Ġroom": 6424,
      "ĠLao": 6425,
      "ĠAi": 6426,
      "arters": 6427,
      "ĠTÃŃnh": 6428,
      "mann": 6429,
      "Ġsequ": 6430,
      "Ġpoor": 6431,
      "Ġconsists": 6432,
      "Ġconfl": 6433,
      "Ġkhuáº©n": 6434,
      "Ġmem": 6435,
      "ĠSat": 6436,
      "Ġ1942": 6437,
      "ĠBroad": 6438,
      "Ġmeaning": 6439,
      "ĠSteph": 6440,
      "Ġrecording": 6441,
      "Ġseparate": 6442,
      "Ġtiá»ģm": 6443,
      "ĠLai": 6444,
      "ĠMichigan": 6445,
      "ĠGoogle": 6446,
      "Ġbom": 6447,
      "Ġpeak": 6448,
      "Ġmarriage": 6449,
      "ĠkhÃŃch": 6450,
      "ĠAlexander": 6451,
      "IC": 6452,
      "Ġcateg": 6453,
      "ĠDutch": 6454,
      "Ġalways": 6455,
      "ĠQuáº£n": 6456,
      "Ġbá»ĵi": 6457,
      "ĠrÃ¡c": 6458,
      "Ġsá»ĳt": 6459,
      "ĠUkraine": 6460,
      "ĠBritain": 6461,
      "load": 6462,
      "win": 6463,
      "antry": 6464,
      "Ġemb": 6465,
      "ĠthÃ©p": 6466,
      "Ġsucceed": 6467,
      "ĠKent": 6468,
      "emporary": 6469,
      "yp": 6470,
      "Ġlearn": 6471,
      "ĠStr": 6472,
      "ĠAsia": 6473,
      "NE": 6474,
      "emorial": 6475,
      "Ġcell": 6476,
      "Ġtháº£m": 6477,
      "ears": 6478,
      "ĠâĢĶ": 6479,
      "wide": 6480,
      "poration": 6481,
      "ĠHuáº¿": 6482,
      "Ġcharg": 6483,
      "ĠArm": 6484,
      "ĠToÃłn": 6485,
      "ĠCreek": 6486,
      "Ġtemper": 6487,
      "Ġfifth": 6488,
      "American": 6489,
      "Ġpil": 6490,
      "Ġlos": 6491,
      "Ġarrang": 6492,
      "ĠDevelopment": 6493,
      "ĠIraq": 6494,
      "Ġappearances": 6495,
      "ervation": 6496,
      "Ġhá»ĵn": 6497,
      "ĠEp": 6498,
      "ĠPhÆ°á»Ľc": 6499,
      "ĠVill": 6500,
      "Ġtarg": 6501,
      "itting": 6502,
      "ĠÄĳáº¡n": 6503,
      "Ġvariety": 6504,
      "ĠGovernor": 6505,
      "ĠtÃ¡": 6506,
      "ĠCer": 6507,
      "ĠWall": 6508,
      "Ġinfluence": 6509,
      "Ġprevent": 6510,
      "Ġmainly": 6511,
      "ĠCÃ¢u": 6512,
      "ĠStan": 6513,
      "ĠEliz": 6514,
      "can": 6515,
      "Ġhtt": 6516,
      "Ġsal": 6517,
      "Ġlives": 6518,
      "Ġthá»Ł": 6519,
      "ĠCub": 6520,
      "uated": 6521,
      "ĠSund": 6522,
      "ĠVin": 6523,
      "ĠHÃ¡n": 6524,
      "ugby": 6525,
      "Ġpin": 6526,
      "Ġexperience": 6527,
      "New": 6528,
      "Ġtháº§u": 6529,
      "itude": 6530,
      "ias": 6531,
      "ĠCamb": 6532,
      "ĠSenate": 6533,
      "Ġlabel": 6534,
      "Ġ55": 6535,
      "ĠchÃ¹a": 6536,
      "ĠBol": 6537,
      "ĠCard": 6538,
      "Ġrá»§": 6539,
      "uries": 6540,
      "ĠAh": 6541,
      "imin": 6542,
      "Ġbridge": 6543,
      "ĠBiography": 6544,
      "ĠCivil": 6545,
      "Ġmale": 6546,
      "tel": 6547,
      "Ġpan": 6548,
      "Ġtráº¡i": 6549,
      "ĠVer": 6550,
      "Ġheavy": 6551,
      "Ġmerg": 6552,
      "ĠForm": 6553,
      "69": 6554,
      "ĠHáºŃu": 6555,
      "ĠBerlin": 6556,
      "Ġcm": 6557,
      "Ġlic": 6558,
      "ĠConn": 6559,
      "ĠIslam": 6560,
      "ĠFord": 6561,
      "Ġrequire": 6562,
      "ĠbÃ³": 6563,
      "ped": 6564,
      "Ġrecords": 6565,
      "Ġsource": 6566,
      "Ġcháº¥n": 6567,
      "Ġdespite": 6568,
      "ĠBoston": 6569,
      "ĠmÆ°u": 6570,
      "Ġbring": 6571,
      "Ġhistorical": 6572,
      "Ġcitiz": 6573,
      "Ġserve": 6574,
      "Ġhouses": 6575,
      "ously": 6576,
      "Ġtráº§n": 6577,
      "ĠVictoria": 6578,
      "ĠJackson": 6579,
      "Ġdone": 6580,
      "Ġorganiz": 6581,
      "ĠtiÃªm": 6582,
      "ĠÂ£": 6583,
      "]]": 6584,
      "Ġnhá»±a": 6585,
      "her": 6586,
      "Ġarrived": 6587,
      "Ġtouch": 6588,
      "ĠBal": 6589,
      "Ġconditions": 6590,
      "Ġadj": 6591,
      "ĠAnton": 6592,
      "ĠtÃ´ng": 6593,
      "ried": 6594,
      "ĠTa": 6595,
      "Ġspl": 6596,
      "Ġprovides": 6597,
      "dney": 6598,
      "Ġturned": 6599,
      "Ġpra": 6600,
      "very": 6601,
      "Æ¡m": 6602,
      "ĠthÄĥng": 6603,
      "ĠtrÃºng": 6604,
      "ĠÄĳe": 6605,
      "ĠTheatre": 6606,
      "Ġbomb": 6607,
      "Ġbrief": 6608,
      "ĠsÄĥn": 6609,
      "ĠHond": 6610,
      "Ġpartn": 6611,
      "Ġtransferred": 6612,
      "Ġoperation": 6613,
      "Ã±": 6614,
      "Ġships": 6615,
      "ĠHan": 6616,
      "rown": 6617,
      "Ġcrew": 6618,
      "Ġalongside": 6619,
      "uing": 6620,
      "Ã¹m": 6621,
      "Ġsn": 6622,
      "Ġmanaged": 6623,
      "ĠOrder": 6624,
      "ĠMid": 6625,
      "itted": 6626,
      "SN": 6627,
      "Ġproducer": 6628,
      "fect": 6629,
      "ĠPakistan": 6630,
      "pool": 6631,
      "ĠDirector": 6632,
      "resp": 6633,
      "osph": 6634,
      "Ġcá»Ŀ": 6635,
      "sea": 6636,
      "ĠHÃłnh": 6637,
      "ĠBlue": 6638,
      "ĠCentre": 6639,
      "Ġjun": 6640,
      "linois": 6641,
      "ĠMaria": 6642,
      "iven": 6643,
      "Ġmight": 6644,
      "2013": 6645,
      "ĠSystem": 6646,
      "Ġparticipated": 6647,
      "Ġdeep": 6648,
      "Ġ1963": 6649,
      "Ġsaying": 6650,
      "ĠHome": 6651,
      "ĠEnter": 6652,
      "ĠLove": 6653,
      "mission": 6654,
      "á»ĩn": 6655,
      "umed": 6656,
      "Ġasked": 6657,
      "cean": 6658,
      "Ġborder": 6659,
      "ĠBern": 6660,
      "ĠngÃ£": 6661,
      "Ġappears": 6662,
      "Ġtracks": 6663,
      "andon": 6664,
      "Ġnearby": 6665,
      "ĠZh": 6666,
      "aki": 6667,
      "ĠTem": 6668,
      "Ġ49": 6669,
      "ED": 6670,
      "ĠHal": 6671,
      "Ġ1946": 6672,
      "Ġcapac": 6673,
      "ĠLá»ħ": 6674,
      "ĠKen": 6675,
      "Ġfinally": 6676,
      "ĠFoundation": 6677,
      "Ġ1962": 6678,
      "IV": 6679,
      "no": 6680,
      "Ġconstructed": 6681,
      "pose": 6682,
      "ĠPortug": 6683,
      "ĠbuÃ´n": 6684,
      "Ġhyd": 6685,
      "Ġgiá»ıi": 6686,
      "Ġwanted": 6687,
      "Ġcities": 6688,
      "burgh": 6689,
      "ĠAv": 6690,
      "ĠMá»Ľi": 6691,
      "uten": 6692,
      "59": 6693,
      "Ġyouth": 6694,
      "Ġstay": 6695,
      "ĠPrince": 6696,
      "Ġkg": 6697,
      "Ġincreasing": 6698,
      "Ġresponsible": 6699,
      "Ġnháº£y": 6700,
      "vement": 6701,
      "rovers": 6702,
      "Ġpasseng": 6703,
      "Ġcá»Ļt": 6704,
      "Ġextended": 6705,
      "mir": 6706,
      "Ġ1943": 6707,
      "Ġ1941": 6708,
      "ĠThá»¥y": 6709,
      "ĠLam": 6710,
      "inger": 6711,
      "wan": 6712,
      "Ġface": 6713,
      "ĠMinn": 6714,
      "Ġnearly": 6715,
      "Ġproblems": 6716,
      "edd": 6717,
      "Ġtechnology": 6718,
      "ĠMicro": 6719,
      "ĠCoast": 6720,
      "Ġgá»¡": 6721,
      "Ġcultural": 6722,
      "Ġfail": 6723,
      "ĠAk": 6724,
      "Ġenough": 6725,
      "Ġplans": 6726,
      "Ġpick": 6727,
      "ĠÄĲa": 6728,
      "orning": 6729,
      "ĠIllinois": 6730,
      "ĠOffice": 6731,
      "ÃĢ": 6732,
      "ĠTháº¯ng": 6733,
      "osh": 6734,
      "á»ıng": 6735,
      "ĠDan": 6736,
      "ĠCovid": 6737,
      "ĠAnother": 6738,
      "Ġissued": 6739,
      "ĠMajor": 6740,
      "Ġult": 6741,
      "Ġrecent": 6742,
      "Ġadministrative": 6743,
      "XH": 6744,
      "gypt": 6745,
      "Ġ44": 6746,
      "ĠCross": 6747,
      "ĠRod": 6748,
      "Ġlikely": 6749,
      "Ġcandidate": 6750,
      "ĠJean": 6751,
      "ĠAri": 6752,
      "ĠSea": 6753,
      "Ġrural": 6754,
      "ĠOtt": 6755,
      "ifying": 6756,
      "ĠtÃłng": 6757,
      "Ġmechan": 6758,
      "Ġ64": 6759,
      "ĠLÃło": 6760,
      "Ġcá»ı": 6761,
      "ĠPhá»¥": 6762,
      "peror": 6763,
      "Ġhouseholds": 6764,
      "Ġvon": 6765,
      "ĠHÆ¡n": 6766,
      "Ġbenef": 6767,
      "Ġdiscovered": 6768,
      "ĠÄĳiá»ĩu": 6769,
      "ĠGeorgia": 6770,
      "ĠOf": 6771,
      "Ġcorn": 6772,
      "Ġmuseum": 6773,
      "ĠKe": 6774,
      "Ġmaster": 6775,
      "ĠHá»ĵi": 6776,
      "rupt": 6777,
      "Ġeas": 6778,
      "ĠSerb": 6779,
      "ĠÄĳá»ĳt": 6780,
      "oster": 6781,
      "Ġprovince": 6782,
      "ĠCas": 6783,
      "ĠDá»ĭch": 6784,
      "Ġsa": 6785,
      "Ġamb": 6786,
      "ĠWeb": 6787,
      "ĠSydney": 6788,
      "aga": 6789,
      "Ġincorpor": 6790,
      "Ġdomin": 6791,
      "ĠPop": 6792,
      "56": 6793,
      "Wh": 6794,
      "aded": 6795,
      "ĠTod": 6796,
      "',": 6797,
      "ĠAthlet": 6798,
      "Ġngá»±c": 6799,
      "ĠProt": 6800,
      "Ġclear": 6801,
      "Ġ1948": 6802,
      "Ġtáº£ng": 6803,
      "Ġsolo": 6804,
      "ĠRay": 6805,
      "Ġbáº¡o": 6806,
      "Ġprimarily": 6807,
      "Ġtreo": 6808,
      "ensity": 6809,
      "NT": 6810,
      "Ġtold": 6811,
      "ĠColumbia": 6812,
      "ĠRepublican": 6813,
      "aped": 6814,
      "Ġleave": 6815,
      "Ġlog": 6816,
      "Ġcarry": 6817,
      "chest": 6818,
      "ĠMir": 6819,
      "ĠNÃ´ng": 6820,
      "ĠthÆ¡m": 6821,
      "Ġsuppl": 6822,
      "uer": 6823,
      "Ġresidents": 6824,
      "ety": 6825,
      "light": 6826,
      "Ġcovered": 6827,
      "ĠÄĳÃłm": 6828,
      "Ġoil": 6829,
      "ĠSÆ°": 6830,
      "Ġcause": 6831,
      "ĠWater": 6832,
      "Ġnecess": 6833,
      "undred": 6834,
      "ester": 6835,
      "itter": 6836,
      "Ġdirectly": 6837,
      "ĠMun": 6838,
      "ĠAndrew": 6839,
      "Ġelements": 6840,
      "urder": 6841,
      "ening": 6842,
      "Ġnewspaper": 6843,
      "ĠXÃ¢y": 6844,
      "ĠKenn": 6845,
      "ĠJr": 6846,
      "enes": 6847,
      "Ġlevels": 6848,
      "ĠHÄĲ": 6849,
      "oto": 6850,
      "phone": 6851,
      "ĠUr": 6852,
      "ĠUnivers": 6853,
      "Ġour": 6854,
      "ĠJo": 6855,
      "__": 6856,
      "ĠdÆ°á»£c": 6857,
      "Ġcard": 6858,
      "ĠÄĲá»Ļng": 6859,
      "ĠLá»Ļc": 6860,
      "ansion": 6861,
      "ãĢ": 6862,
      "Ġofficers": 6863,
      "ĠFour": 6864,
      "ĠÄĳá»ĩ": 6865,
      "town": 6866,
      "Ġthá»±": 6867,
      "una": 6868,
      "Ġaddress": 6869,
      "ĠMiddle": 6870,
      "ĠEgypt": 6871,
      "Ġmakes": 6872,
      "ĠTÃłu": 6873,
      "ĠFI": 6874,
      "Ġproducts": 6875,
      "ĠEngine": 6876,
      "Ġgrew": 6877,
      "ĠcÆ°á»Ľp": 6878,
      "ĠCáº£": 6879,
      "igr": 6880,
      "ully": 6881,
      "astic": 6882,
      "ogue": 6883,
      "ĠÄĳáºŃp": 6884,
      "Ġtráº§m": 6885,
      "ricket": 6886,
      "ilding": 6887,
      "ĠngáºŃp": 6888,
      "agement": 6889,
      "Ġpsych": 6890,
      "akers": 6891,
      "ĠElizabeth": 6892,
      "ĠkhÃ³c": 6893,
      "Ġhonor": 6894,
      "ĠMi": 6895,
      "ĠtÃ¡ch": 6896,
      "Ġofficially": 6897,
      "ĠSel": 6898,
      "ĠBáº±ng": 6899,
      "ading": 6900,
      "ĠÄĲáº¿": 6901,
      "á»¥n": 6902,
      "ources": 6903,
      "Ġiniti": 6904,
      "ĠChá»ĭ": 6905,
      "Ġkhen": 6906,
      "Ġhá»ıng": 6907,
      "ĠTÃ²a": 6908,
      "ĠLev": 6909,
      "Ġshare": 6910,
      "ĠTham": 6911,
      "Ġvirus": 6912,
      "US": 6913,
      "Ġfish": 6914,
      "Ġtá»ıa": 6915,
      "Ġimpact": 6916,
      "Ġváº½": 6917,
      "ĠKiáº¿n": 6918,
      "ĠFeder": 6919,
      "Ġ1956": 6920,
      "Ġgáº¡o": 6921,
      "Ġpháº¥n": 6922,
      "ycle": 6923,
      "ĠTiáº¿p": 6924,
      "ĠPV": 6925,
      "pan": 6926,
      "Ġmovie": 6927,
      "Ġ1939": 6928,
      "Ġwhole": 6929,
      "more": 6930,
      "etts": 6931,
      "67": 6932,
      "Ġnature": 6933,
      "±ng": 6934,
      "rance": 6935,
      "cy": 6936,
      "Ġrob": 6937,
      "Ġintell": 6938,
      "aven": 6939,
      "oni": 6940,
      "Ġprogress": 6941,
      "inus": 6942,
      "itage": 6943,
      "Ġhuynh": 6944,
      "ancy": 6945,
      "Ġwhether": 6946,
      "Ġspeed": 6947,
      "ĠVideo": 6948,
      "iest": 6949,
      "ĠAvenue": 6950,
      "Ġá»ĳc": 6951,
      "irmed": 6952,
      "ĠÃļc": 6953,
      "Ġprof": 6954,
      "ĠTáº¥n": 6955,
      "ĠHighway": 6956,
      "ledge": 6957,
      "Ġdouble": 6958,
      "Ġ1961": 6959,
      "ĠbÃ¹": 6960,
      "ĠÄĳá»ģn": 6961,
      "get": 6962,
      "Ġ[[": 6963,
      "Ġneighbor": 6964,
      "ĠRaj": 6965,
      "Ġhere": 6966,
      "ctions": 6967,
      "Ġhá»ķ": 6968,
      "thur": 6969,
      "class": 6970,
      "Ġrenamed": 6971,
      "57": 6972,
      "ĠEconom": 6973,
      "ĠAdd": 6974,
      "sung": 6975,
      "ĠrÃ£i": 6976,
      "Ġprojects": 6977,
      "\";": 6978,
      "Ġhang": 6979,
      "ĠGuard": 6980,
      "ĠnhÃ¡nh": 6981,
      "Ġchem": 6982,
      "ulations": 6983,
      "ĠAnt": 6984,
      "ĠBell": 6985,
      "ounds": 6986,
      "kins": 6987,
      "á»Ĺng": 6988,
      "ĠLo": 6989,
      "ĠNghÄ©a": 6990,
      "Ð°": 6991,
      "Ð¾": 6992,
      "Ġrefl": 6993,
      "Ġfell": 6994,
      "Ġordered": 6995,
      "isters": 6996,
      "ĠBorn": 6997,
      "ĠSecretary": 6998,
      "Ġdá»įc": 6999,
      "ĠVen": 7000,
      "Ġfoot": 7001,
      "ĠMore": 7002,
      "Ġsubst": 7003,
      "Ġess": 7004,
      "ĠHD": 7005,
      "Ġcáº£n": 7006,
      "Ġchá»ĳi": 7007,
      "ĠOk": 7008,
      "Qu": 7009,
      "Ġvinh": 7010,
      "Ġrule": 7011,
      "Ġdemonst": 7012,
      "ĠAut": 7013,
      "Ġtá»ĳn": 7014,
      "Ġlaws": 7015,
      "illed": 7016,
      "ĠdÃ¡m": 7017,
      "Ġfinish": 7018,
      "Ġcontinue": 7019,
      "Ġconducted": 7020,
      "Ġprop": 7021,
      "onto": 7022,
      "achus": 7023,
      "Ġpositive": 7024,
      "ĠtrÃł": 7025,
      "ocated": 7026,
      "umber": 7027,
      "Ġheart": 7028,
      "ĠScottish": 7029,
      "Ġ1958": 7030,
      "Ġ(;": 7031,
      "Ġnháº¯n": 7032,
      "CT": 7033,
      "Ġhuá»ĳng": 7034,
      "ĠgiÃ¢y": 7035,
      "ĠBec": 7036,
      "ĠMoh": 7037,
      "ĠTrÃ¡i": 7038,
      "Ġdyn": 7039,
      "ione": 7040,
      "esh": 7041,
      "Ġpath": 7042,
      "Ġsoldiers": 7043,
      "ĠBelg": 7044,
      "Ġmat": 7045,
      "lines": 7046,
      "Ġinitial": 7047,
      "ĠHor": 7048,
      "ĠMedia": 7049,
      "ĠEarth": 7050,
      "ĠSports": 7051,
      "Ġnull": 7052,
      "ĠKhÃ¡ch": 7053,
      "ouri": 7054,
      "Ġste": 7055,
      "Ġworkers": 7056,
      "ĠBab": 7057,
      "king": 7058,
      "ĠJersey": 7059,
      "Ãģ": 7060,
      "98": 7061,
      "Ġtrá»ĳn": 7062,
      "Ġexecutive": 7063,
      "ĠtrÃłn": 7064,
      "Ġgrowth": 7065,
      "Ġrevealed": 7066,
      "oli": 7067,
      "ĠBÃ¡c": 7068,
      "ĠÄĳá»ĵn": 7069,
      "Ġspread": 7070,
      "Ġdivided": 7071,
      "ĠFederal": 7072,
      "Ġdead": 7073,
      "emet": 7074,
      "ĠToy": 7075,
      "ĠMáº¹": 7076,
      "ĠNháº¥t": 7077,
      "Ġletter": 7078,
      "LÄĲ": 7079,
      "alo": 7080,
      "ĠQua": 7081,
      "Ġdrug": 7082,
      "ĠÄĳoáº¡t": 7083,
      "achel": 7084,
      "ĠtÃ¢n": 7085,
      "GB": 7086,
      "ĠDou": 7087,
      "Ġheadqu": 7088,
      "icted": 7089,
      "ĠWild": 7090,
      "ĠBiá»ĥn": 7091,
      "ĠBrook": 7092,
      "Ġrac": 7093,
      "Ġstories": 7094,
      "2021": 7095,
      "Ġintended": 7096,
      "Ġfriends": 7097,
      "Ġprominent": 7098,
      "Ġlies": 7099,
      "illy": 7100,
      "ĠTPHCM": 7101,
      "Ġreason": 7102,
      "Ġnotable": 7103,
      "Ġcolor": 7104,
      "Ġong": 7105,
      "iform": 7106,
      "anks": 7107,
      "Ġvalue": 7108,
      "ĠId": 7109,
      "Ġwithd": 7110,
      "iew": 7111,
      "Ġsáº¯m": 7112,
      "idi": 7113,
      "Ġfollows": 7114,
      "ĠCorps": 7115,
      "MT": 7116,
      "Ġplanned": 7117,
      "lav": 7118,
      "Ġunivers": 7119,
      "han": 7120,
      "Ġremoved": 7121,
      "ĠtÃºy": 7122,
      "Ġdark": 7123,
      "ĠCuá»ĳi": 7124,
      "ĠkhoÃ¡n": 7125,
      "ĠNic": 7126,
      "ĠRa": 7127,
      "ĠRA": 7128,
      "Ġidea": 7129,
      "Ġnumbers": 7130,
      "Ġshoot": 7131,
      "ĠRome": 7132,
      "Ġactor": 7133,
      "Ġkháº©n": 7134,
      "level": 7135,
      "Ġstars": 7136,
      "Ġ1954": 7137,
      "ager": 7138,
      "ipal": 7139,
      "Ġ(,": 7140,
      "ĠElect": 7141,
      "ĠEs": 7142,
      "Ġ1947": 7143,
      "Ġ1959": 7144,
      "part": 7145,
      "ĠDoanh": 7146,
      "ĠCult": 7147,
      "52": 7148,
      "XVN": 7149,
      "ĠHá»£p": 7150,
      "Ġphá»ıng": 7151,
      "ĠgiáºŃt": 7152,
      "ĠChel": 7153,
      "ĠHead": 7154,
      "Ġpotential": 7155,
      "ĠPolit": 7156,
      "stone": 7157,
      "Ġcá»ķng": 7158,
      "Ġdisplay": 7159,
      "ĠHospital": 7160,
      "ĠIv": 7161,
      "Ġnation": 7162,
      "ropol": 7163,
      "rical": 7164,
      "Ġkind": 7165,
      "ĠField": 7166,
      "Ġcontain": 7167,
      "Ġcanh": 7168,
      "itamin": 7169,
      "Ġathlet": 7170,
      "Ġproduce": 7171,
      "Ġhoáº£ng": 7172,
      "ĠPolish": 7173,
      "Ġancient": 7174,
      "rics": 7175,
      "ĠMusl": 7176,
      "Ġfootballer": 7177,
      "yard": 7178,
      "Ġhighly": 7179,
      "ronic": 7180,
      "Ġmá»ĩt": 7181,
      "aug": 7182,
      "ĠSanta": 7183,
      "arrow": 7184,
      "ĠtÄ©nh": 7185,
      "Ġax": 7186,
      "64": 7187,
      "Ġcapacity": 7188,
      "ĠHoÃłn": 7189,
      "Ġfloor": 7190,
      "Ġcab": 7191,
      "ĠDie": 7192,
      "Ġsingles": 7193,
      "53": 7194,
      "Ġcáº£ng": 7195,
      "ĠWindows": 7196,
      "orph": 7197,
      "ĠtÃłn": 7198,
      "ĠLew": 7199,
      "Ġgan": 7200,
      "ori": 7201,
      "ĠCorn": 7202,
      "Ġstream": 7203,
      "Ġ120": 7204,
      "Ġvu": 7205,
      "jected": 7206,
      "ĠGood": 7207,
      "Ġadministration": 7208,
      "Ġconstitu": 7209,
      "Ġterr": 7210,
      "Ġreform": 7211,
      "ĠHarv": 7212,
      "Ġpurs": 7213,
      "Ġassistant": 7214,
      "ĠMinistry": 7215,
      "chi": 7216,
      "Ġeffects": 7217,
      "ieuten": 7218,
      "Ġ42": 7219,
      "54": 7220,
      "ĠÄĳáºŃm": 7221,
      "ĠJeff": 7222,
      "Ġtal": 7223,
      "ĠCÃ¡i": 7224,
      "ĠThree": 7225,
      "ĠRog": 7226,
      "ĠDam": 7227,
      "Ġovers": 7228,
      "PS": 7229,
      "resent": 7230,
      "ĠTal": 7231,
      "Ġimplement": 7232,
      "Ġawards": 7233,
      "ĠÄĲá»Ŀi": 7234,
      "Ġfemales": 7235,
      "ĠInst": 7236,
      "Ġbasis": 7237,
      "Ġsecurity": 7238,
      "Ġera": 7239,
      "Ġ1957": 7240,
      "Ġgá»£i": 7241,
      "yll": 7242,
      "ĠngÆ°á»¡ng": 7243,
      "Ġsmaller": 7244,
      "ĠKáº¿": 7245,
      "ker": 7246,
      "ĠÄĳuÃ´i": 7247,
      "ĠlÃ´": 7248,
      "Ġquickly": 7249,
      "Ġsearch": 7250,
      "ĠChung": 7251,
      "ĠEnd": 7252,
      "Ġscene": 7253,
      "ĠKal": 7254,
      "ĠBÃ¹i": 7255,
      "ĠDun": 7256,
      "Ġmoving": 7257,
      "encies": 7258,
      "ĠAnth": 7259,
      "Ġrespectively": 7260,
      "includ": 7261,
      "ĠlÃ£o": 7262,
      "ĠShi": 7263,
      "ĠOrig": 7264,
      "ĠFar": 7265,
      "ĠTÃ´ng": 7266,
      "Ġwords": 7267,
      "cription": 7268,
      "Ġleaders": 7269,
      "TO": 7270,
      "Ġchannel": 7271,
      "Ġfellow": 7272,
      "Ġdrama": 7273,
      "Ġstreet": 7274,
      "Ġpurchased": 7275,
      "apers": 7276,
      "72": 7277,
      "Ġ1955": 7278,
      "Ġupper": 7279,
      "Ġsquare": 7280,
      "ean": 7281,
      "Ġráº¯n": 7282,
      "Ġprotein": 7283,
      "Ġefforts": 7284,
      "ĠAlso": 7285,
      "net": 7286,
      "irds": 7287,
      "Ġbehav": 7288,
      "Ġforward": 7289,
      "2012": 7290,
      "ĠCÆ°á»Ŀng": 7291,
      "ĠmÃ£n": 7292,
      "Ġruá»Ļt": 7293,
      "Ġautom": 7294,
      "Ġopportun": 7295,
      "nic": 7296,
      "Ġraces": 7297,
      "Ġassigned": 7298,
      "istered": 7299,
      "Ġsettlement": 7300,
      "rah": 7301,
      "ĠHistoric": 7302,
      "Ġbranch": 7303,
      "ĠPen": 7304,
      "worth": 7305,
      "achusetts": 7306,
      "ĠCorporation": 7307,
      "ghan": 7308,
      "ĠkhuyÃªn": 7309,
      "Ġimmediately": 7310,
      "Ġdedicated": 7311,
      "Ġattention": 7312,
      "Ġphotograph": 7313,
      "roid": 7314,
      "Ġcoin": 7315,
      "ĠTá»±": 7316,
      "ĠtÃºc": 7317,
      "Cl": 7318,
      "Ġkem": 7319,
      "Ġgre": 7320,
      "ĠQueens": 7321,
      "ĠSev": 7322,
      "axy": 7323,
      "Ġactivity": 7324,
      "itled": 7325,
      "ulpt": 7326,
      "tle": 7327,
      "Ġcounter": 7328,
      "Ġtreatment": 7329,
      "ĠManchester": 7330,
      "ĠAirport": 7331,
      "DA": 7332,
      "Ġyet": 7333,
      "ĠBall": 7334,
      "Ġphilosoph": 7335,
      "Ġagreed": 7336,
      "wick": 7337,
      "ĠJoe": 7338,
      "ĠArgentina": 7339,
      "Ġmax": 7340,
      "orship": 7341,
      "Ġredu": 7342,
      "ĠĠ": 7343,
      "adesh": 7344,
      "Ġvotes": 7345,
      "Ġhistoric": 7346,
      "Ġdraft": 7347,
      "Ġ1949": 7348,
      "Ġparliament": 7349,
      "ĠlÃ£m": 7350,
      "uff": 7351,
      "isa": 7352,
      "Ġrepe": 7353,
      "Ġwinner": 7354,
      "Ġfeaturing": 7355,
      "Ġdance": 7356,
      "ĠDet": 7357,
      "Ġcompared": 7358,
      "ieutenant": 7359,
      "ĠhÃ´": 7360,
      "ĠAst": 7361,
      "Ġcommonly": 7362,
      "Ġcontact": 7363,
      "ĠClark": 7364,
      "Ġminister": 7365,
      "ĠlÃŃnh": 7366,
      "bourne": 7367,
      "ĠSamsung": 7368,
      "Ġuns": 7369,
      "ĠdÃłn": 7370,
      "Ġplaces": 7371,
      "ĠcÆ°Æ¡ng": 7372,
      "ĠThá»ĳng": 7373,
      "ĠchÃºa": 7374,
      "ĠHarris": 7375,
      "Ã¸": 7376,
      "Ġarticle": 7377,
      "ĠÄĲáº¡o": 7378,
      "NHH": 7379,
      "ferences": 7380,
      "Ġfavor": 7381,
      "ĠchÃºc": 7382,
      "Ġsemi": 7383,
      "room": 7384,
      "Ġcá»¡": 7385,
      "Ġbáº¡ch": 7386,
      "Ġ1952": 7387,
      "Ġdeclared": 7388,
      "enna": 7389,
      "Ġgained": 7390,
      "ĠdÃ¢m": 7391,
      "Ġmá»ıi": 7392,
      "Ġclip": 7393,
      "agen": 7394,
      "Ġunion": 7395,
      "ĠnhÃ£n": 7396,
      "ĠHind": 7397,
      "ĠTS": 7398,
      "Ġláº§m": 7399,
      "ipment": 7400,
      "Ġpaper": 7401,
      "cow": 7402,
      "ĠkiÃªn": 7403,
      "á»ĭn": 7404,
      "ĠIV": 7405,
      "Ġinside": 7406,
      "Ġdestroyed": 7407,
      "ĠRepresent": 7408,
      "Ġmunicipal": 7409,
      "ĠnhÃłng": 7410,
      "Ġcerem": 7411,
      "Ġrecover": 7412,
      "ĠMassachusetts": 7413,
      "2020": 7414,
      "resh": 7415,
      "Ġtráº¡m": 7416,
      "ĠWay": 7417,
      "nes": 7418,
      "ĠbÆ¡i": 7419,
      "ĠMur": 7420,
      "ĠTNHH": 7421,
      "áº«y": 7422,
      "Ġroles": 7423,
      "Ġagricult": 7424,
      "ĠDonald": 7425,
      "eased": 7426,
      "Ġfacilities": 7427,
      "ĠSá»Ń": 7428,
      "Ġneeded": 7429,
      "ĠChap": 7430,
      "oration": 7431,
      "Ġloan": 7432,
      "ĠsÃ¡nh": 7433,
      "ĠLÃłm": 7434,
      "ĠtáºŃt": 7435,
      "Ġtypes": 7436,
      "vis": 7437,
      "ĠthÃ¡o": 7438,
      "Ġfocus": 7439,
      "Ġpal": 7440,
      "Ġsuffered": 7441,
      "Ġmáº£nh": 7442,
      "Ġtitled": 7443,
      "ĠPa": 7444,
      "otte": 7445,
      "Ġorganized": 7446,
      "ĠLittle": 7447,
      "anger": 7448,
      "Ġattend": 7449,
      "rig": 7450,
      ";&": 7451,
      "ER": 7452,
      "ĠKorea": 7453,
      "Ġestimated": 7454,
      "ubb": 7455,
      "Ġmountain": 7456,
      "VD": 7457,
      "Bl": 7458,
      "Ġquestion": 7459,
      "Ġnuc": 7460,
      "Ġbá»¥i": 7461,
      "Ġreviews": 7462,
      "Ġformat": 7463,
      "Ġstore": 7464,
      "2011": 7465,
      "Ġhá»©a": 7466,
      "Ġdirection": 7467,
      "Ġcá»ĳt": 7468,
      "........": 7469,
      "ĠÃ´m": 7470,
      "63": 7471,
      "ented": 7472,
      "Ġsources": 7473,
      "ĠSom": 7474,
      "izes": 7475,
      "ĠEU": 7476,
      "bit": 7477,
      "ĠdÃ¢u": 7478,
      "ĠTÄ©nh": 7479,
      "á»ĳm": 7480,
      "perial": 7481,
      "ĠSpe": 7482,
      "Ġhá»ıa": 7483,
      "mas": 7484,
      "Ġconference": 7485,
      "ĠChild": 7486,
      "ĠSupreme": 7487,
      "Ġfeel": 7488,
      "Ġasp": 7489,
      "eme": 7490,
      "ĠcÃ£i": 7491,
      "Ġhiáº¿n": 7492,
      "respond": 7493,
      "Ġ01": 7494,
      "SP": 7495,
      "Ġsymb": 7496,
      "62": 7497,
      "89": 7498,
      "ĠBáº¡ch": 7499,
      "Ġtang": 7500,
      "Ġleaves": 7501,
      "Ġaccepted": 7502,
      "Ġstop": 7503,
      "ami": 7504,
      "ĠvÃµ": 7505,
      "ĠRom": 7506,
      "Ġlá»«a": 7507,
      "Ġadult": 7508,
      "ĠdÆ°á»Ŀng": 7509,
      "ĠHuyá»ĩn": 7510,
      "ĠKir": 7511,
      "ĠbÃ©o": 7512,
      "ĠCha": 7513,
      "iant": 7514,
      "Ġtiáº¿c": 7515,
      "ĠJon": 7516,
      "Ġphysical": 7517,
      "Ġclubs": 7518,
      "ĠThÆ¡": 7519,
      "Ġváº£i": 7520,
      "ĠCapt": 7521,
      "ĠthÃ¡nh": 7522,
      "ito": 7523,
      "ĠSao": 7524,
      "eller": 7525,
      "ĠMadrid": 7526,
      "set": 7527,
      "ĠFA": 7528,
      "Ġthink": 7529,
      "Ġgiving": 7530,
      "ĠÄĳá»±ng": 7531,
      "Ġpet": 7532,
      "Ġcontrovers": 7533,
      "Ġweap": 7534,
      "ĠDaniel": 7535,
      "Ġcommunities": 7536,
      "inity": 7537,
      "ĠxuÃ¢n": 7538,
      "Ġ1953": 7539,
      "Ġhousing": 7540,
      "ĠPower": 7541,
      "ĠgiÃły": 7542,
      "Ġperman": 7543,
      "FF": 7544,
      "owa": 7545,
      "ĠTaylor": 7546,
      "ĠsÃ´i": 7547,
      "edom": 7548,
      "ĠChiá»ģu": 7549,
      "Ġmedian": 7550,
      "Ġconver": 7551,
      "erd": 7552,
      "ĠBad": 7553,
      "Ġhung": 7554,
      "Ġnhi": 7555,
      "Ġxá»ī": 7556,
      "Ġagreement": 7557,
      "Ġtypically": 7558,
      "Ġlargely": 7559,
      "ĠNG": 7560,
      "Ġmetal": 7561,
      "emy": 7562,
      "Ġlanguages": 7563,
      "Ġbeat": 7564,
      "Ġscholars": 7565,
      "ĠSever": 7566,
      "Ġcharge": 7567,
      "ĠcÃłi": 7568,
      "ĠMarc": 7569,
      "ĠÃ¡c": 7570,
      "Ġchampion": 7571,
      "ĠStadium": 7572,
      "ĠGirl": 7573,
      "Ġterritory": 7574,
      "Ġmurder": 7575,
      "ĠQuá»³nh": 7576,
      "Ġoccurred": 7577,
      "ĠNap": 7578,
      "ĠPrime": 7579,
      "yt": 7580,
      "ĠBH": 7581,
      "acks": 7582,
      "Ġadopted": 7583,
      "icine": 7584,
      "ordin": 7585,
      "ĠFox": 7586,
      "Ġice": 7587,
      "Ġngá»±a": 7588,
      "Ġelectric": 7589,
      "aks": 7590,
      "ĠÄĳáº¡p": 7591,
      "Ġé": 7592,
      "Ġviá»ħn": 7593,
      "ining": 7594,
      "lan": 7595,
      "ĠBridge": 7596,
      "rugg": 7597,
      "ĠgiÃ£n": 7598,
      "iti": 7599,
      "put": 7600,
      "Ġproblem": 7601,
      "ĠDar": 7602,
      "igade": 7603,
      "anner": 7604,
      "Ġwidely": 7605,
      "Ġ\"\"": 7606,
      "ĠchÃŃn": 7607,
      "Ġestate": 7608,
      "Ġtrá»įn": 7609,
      "cm": 7610,
      "Ġrout": 7611,
      "51": 7612,
      "ĠNÃ³i": 7613,
      "lywood": 7614,
      "Ġconfirmed": 7615,
      "ĠToronto": 7616,
      "ĠHonda": 7617,
      "ĠEach": 7618,
      "ĠWilson": 7619,
      "Ġtháº£": 7620,
      "ivity": 7621,
      "ĠCrit": 7622,
      "ĠgiÆ°á»Ŀng": 7623,
      "Ġserves": 7624,
      "Ġepisodes": 7625,
      "ĠSab": 7626,
      "Ġcaptured": 7627,
      "Ġcode": 7628,
      "Ġleadership": 7629,
      "onents": 7630,
      "oti": 7631,
      "Ġchuá»Ĺi": 7632,
      "ĠTokyo": 7633,
      "ĠLind": 7634,
      "ĠAud": 7635,
      "ĠBishop": 7636,
      "nÄĥm": 7637,
      "Ġresulted": 7638,
      "ĠAtt": 7639,
      "Ġoperating": 7640,
      "ĠJustice": 7641,
      "ĠNi": 7642,
      "ĠMov": 7643,
      "ĠDoc": 7644,
      "mad": 7645,
      "real": 7646,
      "Ġut": 7647,
      "ĠNetwork": 7648,
      "ilton": 7649,
      "Ġmuá»ĳi": 7650,
      "ĠDa": 7651,
      "Ã¹y": 7652,
      "Ġxáº¿": 7653,
      "ĠAff": 7654,
      "iverpool": 7655,
      "ĠOrgan": 7656,
      "Ġthr": 7657,
      "Ġhosted": 7658,
      "Ġprobably": 7659,
      "Ġwalk": 7660,
      "rum": 7661,
      "Ġbá»įn": 7662,
      "ĠbÃª": 7663,
      "Ġflag": 7664,
      "Ġmá»¡": 7665,
      "Ġdistinct": 7666,
      "ighter": 7667,
      "Ġrat": 7668,
      "ĠlÃ£ng": 7669,
      "ĠMain": 7670,
      "ounded": 7671,
      "ĠÄĲá»Ĺ": 7672,
      "ĠMoscow": 7673,
      "ĠIslands": 7674,
      "Ġbig": 7675,
      "Ġmixed": 7676,
      "Ġcomputer": 7677,
      "Ġconclud": 7678,
      "ĠBackground": 7679,
      "agh": 7680,
      "Ġsilver": 7681,
      "Ġhop": 7682,
      "ĠAP": 7683,
      "ĠJes": 7684,
      "ĠSlov": 7685,
      "74": 7686,
      "ĠUy": 7687,
      "300": 7688,
      "adelp": 7689,
      "ĠNhi": 7690,
      "ĠSpecial": 7691,
      "Ġstone": 7692,
      "ms": 7693,
      "CO": 7694,
      "Ġtrá»ĳng": 7695,
      "ĠTháº£o": 7696,
      "Ġ1936": 7697,
      "Ġcomes": 7698,
      "anta": 7699,
      "ĠThá»į": 7700,
      "ĠÆ°a": 7701,
      "ĠUSA": 7702,
      "Ġretire": 7703,
      "Ġcommittee": 7704,
      "Ġcoal": 7705,
      "tario": 7706,
      "Ġcoming": 7707,
      "Ġmill": 7708,
      "emetery": 7709,
      "/.": 7710,
      "ĠÄĲinh": 7711,
      "Ġstrength": 7712,
      "Ġpresence": 7713,
      "ĠIndepend": 7714,
      "ĠChiáº¿c": 7715,
      "Ġsmart": 7716,
      "Ġ1951": 7717,
      "ĠProgram": 7718,
      "Ġability": 7719,
      "ĠCommon": 7720,
      "à¤": 7721,
      "Ġmiles": 7722,
      "ĠBusiness": 7723,
      "ĠDown": 7724,
      "with": 7725,
      "ĠEth": 7726,
      "71": 7727,
      "ĠMP": 7728,
      "Ġquality": 7729,
      "Ġdepart": 7730,
      "anna": 7731,
      "Ġaccomp": 7732,
      "vest": 7733,
      "ewh": 7734,
      "Ġburied": 7735,
      "ĠBand": 7736,
      "etting": 7737,
      "iser": 7738,
      "ĠOnline": 7739,
      "Ġir": 7740,
      "ĠDung": 7741,
      "ello": 7742,
      "phy": 7743,
      "Ġsevent": 7744,
      "ĠBarb": 7745,
      "rie": 7746,
      "pa": 7747,
      "Ã£nh": 7748,
      "Ġ1938": 7749,
      "Ġcitizens": 7750,
      "Ġhundred": 7751,
      "á»µ": 7752,
      "estic": 7753,
      "imal": 7754,
      "Ġparties": 7755,
      "Ġmotor": 7756,
      "Ġacademic": 7757,
      "adelphia": 7758,
      "istance": 7759,
      "Ġurban": 7760,
      "Ġpair": 7761,
      "Ã©e": 7762,
      "Ġalbums": 7763,
      "esc": 7764,
      "Ġpeace": 7765,
      "miss": 7766,
      "Ġabandon": 7767,
      "Ġwa": 7768,
      "Ġngá»«a": 7769,
      "Ġidentified": 7770,
      "Ġ1900": 7771,
      "Ġháº§m": 7772,
      "Ġblood": 7773,
      "ĠNai": 7774,
      "ĠThi": 7775,
      "igen": 7776,
      "Ġnewly": 7777,
      "ologist": 7778,
      "Ġexpanded": 7779,
      "ĠNight": 7780,
      "tÃ´": 7781,
      "Ġscoring": 7782,
      "Ġpositions": 7783,
      "Ġcombined": 7784,
      "Ġsens": 7785,
      "ĠRevolution": 7786,
      "atin": 7787,
      "amber": 7788,
      "Ġpun": 7789,
      "Ġfelt": 7790,
      "ĠChampions": 7791,
      "ĠMaster": 7792,
      "Ġyards": 7793,
      "Ġaffili": 7794,
      "ĠSum": 7795,
      "ĠPress": 7796,
      "ĠcÃ¡t": 7797,
      "Ġpoll": 7798,
      "ĠchÄĥn": 7799,
      "Ġowner": 7800,
      "Ġtherefore": 7801,
      "Ġcáº¥t": 7802,
      "Ġfix": 7803,
      "ĠPers": 7804,
      "alion": 7805,
      "do": 7806,
      "ĠlÃºa": 7807,
      "uls": 7808,
      "Ġrecomm": 7809,
      "Ġhabit": 7810,
      "Ġtrá»Ļm": 7811,
      "ĠMike": 7812,
      "CH": 7813,
      "Ġtaught": 7814,
      "Ġreduced": 7815,
      "73": 7816,
      "Ġacting": 7817,
      "Ġlá»ĵ": 7818,
      "ĠWeek": 7819,
      "ĠduyÃªn": 7820,
      "ĠTs": 7821,
      "ĠSav": 7822,
      "ĠLiverpool": 7823,
      "gs": 7824,
      "ĠFair": 7825,
      "Ġrecognized": 7826,
      "Ġexpected": 7827,
      "ĠOxford": 7828,
      "ĠvÄ©": 7829,
      "Ġperformances": 7830,
      "ĠBefore": 7831,
      "à¸": 7832,
      "ĠDuke": 7833,
      "£n": 7834,
      "Ġdeliv": 7835,
      "sinh": 7836,
      "ĠColor": 7837,
      "Ġconcent": 7838,
      "erland": 7839,
      "Ġcontent": 7840,
      "ĠlÃŃ": 7841,
      "iph": 7842,
      "85": 7843,
      "ĠPolice": 7844,
      "Ġequipment": 7845,
      "Ġoffers": 7846,
      "CB": 7847,
      "Ġencour": 7848,
      "ĠUs": 7849,
      "Ġdigital": 7850,
      "Ġjoint": 7851,
      "2010": 7852,
      "Ġgiam": 7853,
      "yer": 7854,
      "ĠKy": 7855,
      "ici": 7856,
      "ĠGiá»Ľi": 7857,
      "esota": 7858,
      "ashion": 7859,
      "adi": 7860,
      "zh": 7861,
      "ĠCLB": 7862,
      "olved": 7863,
      "Ġvoice": 7864,
      "Ġ41": 7865,
      "ĠAlf": 7866,
      "zech": 7867,
      "ĠMV": 7868,
      "stitution": 7869,
      "Ġlabor": 7870,
      "ĠVTV": 7871,
      "uled": 7872,
      "urname": 7873,
      "Ġwatch": 7874,
      "ĠOntario": 7875,
      "ror": 7876,
      "Ġinterp": 7877,
      "ĠTháº§n": 7878,
      "Ġáº£o": 7879,
      "Ġgiáº¥c": 7880,
      "Ġï": 7881,
      "áº¯k": 7882,
      "Ġ1918": 7883,
      "Ġdistribution": 7884,
      "ĠsÃ³t": 7885,
      "Ġdistance": 7886,
      "Ġwall": 7887,
      "GT": 7888,
      "tainment": 7889,
      "olid": 7890,
      "86": 7891,
      "ĠNaz": 7892,
      "Ġtitles": 7893,
      "ĠLibrary": 7894,
      "iá»ħu": 7895,
      "ĠLight": 7896,
      "ĠGeography": 7897,
      "ĠRegiment": 7898,
      "ĠNations": 7899,
      "Ġrecently": 7900,
      "ĠNik": 7901,
      "ĠBeach": 7902,
      "Ġgranted": 7903,
      "Ġenter": 7904,
      "Un": 7905,
      "soft": 7906,
      "Ġcorrespond": 7907,
      "ĠTÃ´n": 7908,
      "ĠÄĲÄĥng": 7909,
      "ĠLady": 7910,
      "Ġmá»¥n": 7911,
      "Ġlosing": 7912,
      "pur": 7913,
      "sex": 7914,
      "ĠAbd": 7915,
      "Ġdáº¡": 7916,
      "Ġchua": 7917,
      "ĠthoÃ¡ng": 7918,
      "Ġplants": 7919,
      "fe": 7920,
      "ĠTriá»ĩu": 7921,
      "oln": 7922,
      "igence": 7923,
      "Ġpressure": 7924,
      "Ã¬a": 7925,
      "Sc": 7926,
      "ĠTÃ¹ng": 7927,
      "ĠUt": 7928,
      "Ġ43": 7929,
      "Ġcritical": 7930,
      "ĠJournal": 7931,
      "Å«": 7932,
      "įt": 7933,
      "Ġhar": 7934,
      "ĠAdminist": 7935,
      "ĠKH": 7936,
      "ĠPhiladelphia": 7937,
      "Ġresident": 7938,
      "ĠThÆ°": 7939,
      "Ġkhá»ķng": 7940,
      "Ġmodels": 7941,
      "Ġláº·ng": 7942,
      "Ðµ": 7943,
      "Ġgreen": 7944,
      "zz": 7945,
      "ĠTrá»ĭnh": 7946,
      "ĠFamily": 7947,
      "ĠAmong": 7948,
      "Ġbad": 7949,
      "ĠBÃ¡n": 7950,
      "ĠBá»ĵ": 7951,
      "ĠIndust": 7952,
      "ĠÄĲá»ģ": 7953,
      "Ġbillion": 7954,
      "Ġnominated": 7955,
      "ĠNiger": 7956,
      "Ġmentioned": 7957,
      "Ġpainting": 7958,
      "ĠNether": 7959,
      "Ġcontemporary": 7960,
      "Æ°á»Ľt": 7961,
      "Ġprin": 7962,
      "Ġsurrounding": 7963,
      "Ġcreation": 7964,
      "Ġfast": 7965,
      "Ġdamage": 7966,
      "Ġflight": 7967,
      "itness": 7968,
      "unte": 7969,
      "Ġsculpt": 7970,
      "cho": 7971,
      "ĠbÃ¡": 7972,
      "ĠNguá»ĵn": 7973,
      "usion": 7974,
      "Ġranked": 7975,
      "ĠMinnesota": 7976,
      "Ġ?": 7977,
      "Ġ51": 7978,
      "ĠArthur": 7979,
      "ĠÄĳáº¯t": 7980,
      "Ġorganizations": 7981,
      "Ġ1937": 7982,
      "uge": 7983,
      "Ġcouple": 7984,
      "Ġseats": 7985,
      "aza": 7986,
      "Ġ46": 7987,
      "Ġrang": 7988,
      "jan": 7989,
      "áº¹t": 7990,
      "ĠHoÃłi": 7991,
      "Ġindustrial": 7992,
      "ĠÃ¡i": 7993,
      "star": 7994,
      "Ġdisease": 7995,
      "Ġxá»©ng": 7996,
      "%;": 7997,
      "Ġsales": 7998,
      "ĠWat": 7999,
      "Ġmess": 8000,
      "Ġshowed": 8001,
      "Ġrules": 8002,
      "alis": 8003,
      "water": 8004,
      "Ġstrugg": 8005,
      "ÅŁ": 8006,
      "Ġtwenty": 8007,
      "ĠGolden": 8008,
      "Ġcars": 8009,
      "áº±n": 8010,
      "bec": 8011,
      "ĠPo": 8012,
      "ĠTÃªn": 8013,
      "ĠÎ": 8014,
      "Ġliterature": 8015,
      "Ġfeet": 8016,
      "Ġtwice": 8017,
      "inson": 8018,
      "ĠSon": 8019,
      "Ġanalysis": 8020,
      "rys": 8021,
      "ĠMarsh": 8022,
      "III": 8023,
      "Ġxáº¡": 8024,
      "Ġ600": 8025,
      "seud": 8026,
      "Ġthous": 8027,
      "ĠsÃ¡u": 8028,
      "Ġteacher": 8029,
      "ĠProfessor": 8030,
      "ĠTiáº¿ng": 8031,
      "Ġresulting": 8032,
      "Ġnhá»ĩn": 8033,
      "ething": 8034,
      "je": 8035,
      "ĠSwedish": 8036,
      "Ġ99": 8037,
      "ga": 8038,
      "ĠDiá»ħn": 8039,
      "joy": 8040,
      "ĠãĢ": 8041,
      "ĠmÃ³c": 8042,
      "ĠLang": 8043,
      "Ġspons": 8044,
      "ĠMess": 8045,
      "Ġcontest": 8046,
      "ĠTransport": 8047,
      "ĠAM": 8048,
      "met": 8049,
      "ÃĶ": 8050,
      "ĠFinal": 8051,
      "Bill": 8052,
      "ĠDor": 8053,
      "ĠKhan": 8054,
      "Ġva": 8055,
      "ĠAD": 8056,
      "ibly": 8057,
      "ĠVá»ĭ": 8058,
      "ĠTrÃł": 8059,
      "Ġgovernor": 8060,
      "Ġrá»§i": 8061,
      "Ġsexual": 8062,
      "Ġcáº©n": 8063,
      "!\"": 8064,
      "Ġmiáº¿ng": 8065,
      "Ġkhá»Ľp": 8066,
      "Ġvess": 8067,
      "Ġtable": 8068,
      "uns": 8069,
      "ĠKorean": 8070,
      "Ġpattern": 8071,
      "ĠNÆ°á»Ľc": 8072,
      "ĠnÃºt": 8073,
      "ĠCre": 8074,
      "ĠNorw": 8075,
      "ulty": 8076,
      "ĠLeon": 8077,
      "ĠTownship": 8078,
      "odies": 8079,
      "Ġhiá»ĥn": 8080,
      "ĠKel": 8081,
      "Ġopposition": 8082,
      "Ġsuggested": 8083,
      "Ġpaid": 8084,
      "Ġspring": 8085,
      "Ġobtained": 8086,
      "Ġfigure": 8087,
      "Ġcháº½": 8088,
      "Ġtrá»Ļn": 8089,
      "ĠKiá»ĥm": 8090,
      "ached": 8091,
      "ĠTan": 8092,
      "Ġconcert": 8093,
      "ables": 8094,
      "asty": 8095,
      "Ġserious": 8096,
      "Ġlaunch": 8097,
      "rawn": 8098,
      "Ġcampus": 8099,
      "ĠAfghan": 8100,
      "Ġauthorities": 8101,
      "ĠxÃ³a": 8102,
      "ĠSus": 8103,
      "ĠOffic": 8104,
      "ĠAbb": 8105,
      "Ġgovern": 8106,
      "Ġofficials": 8107,
      "incial": 8108,
      "ĠBatt": 8109,
      "urer": 8110,
      "ĠHarry": 8111,
      "ĠJunior": 8112,
      "Ġkept": 8113,
      "ricts": 8114,
      "lad": 8115,
      "ules": 8116,
      "Ġpict": 8117,
      "Ġsecondary": 8118,
      "ĠAlbum": 8119,
      "sky": 8120,
      "Ġappar": 8121,
      "Ġassociation": 8122,
      "ription": 8123,
      "iced": 8124,
      "ĠBrad": 8125,
      "Ġ1000": 8126,
      "ervative": 8127,
      "vin": 8128,
      "Ġslight": 8129,
      "TM": 8130,
      "sey": 8131,
      "Ġchairman": 8132,
      "ĠVÃŃ": 8133,
      "Ġ250": 8134,
      "á»ĳp": 8135,
      "Ġmicro": 8136,
      "ĠBos": 8137,
      "á»¥t": 8138,
      "Ġwing": 8139,
      "ĠDÆ°á»Ľi": 8140,
      "ni": 8141,
      "Ġcondition": 8142,
      "ĠLas": 8143,
      "ĠÄĲiá»ĥm": 8144,
      "agan": 8145,
      "bu": 8146,
      "ĠChris": 8147,
      "onent": 8148,
      "Ġinjury": 8149,
      "ĠÄĳÃ¢m": 8150,
      "Ġarrested": 8151,
      "ĠCzech": 8152,
      "ĠAtlantic": 8153,
      "Ġmales": 8154,
      "CAA": 8155,
      "Ġinform": 8156,
      "ĠPier": 8157,
      "avel": 8158,
      "Ġwild": 8159,
      "ĠMilitary": 8160,
      "Ġproviding": 8161,
      "Ġlang": 8162,
      "Ġdensity": 8163,
      "aith": 8164,
      "ega": 8165,
      "enness": 8166,
      "ĠTime": 8167,
      "Ġcontinues": 8168,
      "ĠrÃło": 8169,
      "Ð¸": 8170,
      "iminal": 8171,
      "Ġná»Ł": 8172,
      "ĠHuman": 8173,
      "Ġpolitics": 8174,
      "Ġ47": 8175,
      "ĠChelsea": 8176,
      "orb": 8177,
      "ĠGalaxy": 8178,
      "ĠWars": 8179,
      "ĠBudd": 8180,
      "ski": 8181,
      "ĠConf": 8182,
      "EAN": 8183,
      "Ġsites": 8184,
      "Ġcomedy": 8185,
      "ĠxÃ³m": 8186,
      "Ġformation": 8187,
      "Äį": 8188,
      "Ġreceive": 8189,
      "Ġpropos": 8190,
      "Ġchuá»Ļt": 8191,
      "khÃ´ng": 8192,
      "ĠAth": 8193,
      "ĠLá»±c": 8194,
      "Ġcycl": 8195,
      "oir": 8196,
      "Ġchá»«ng": 8197,
      "Ġclaims": 8198,
      "ĠFreder": 8199,
      "Ġtried": 8200,
      "Ġ1919": 8201,
      "ĠCÄĥn": 8202,
      "Ġtraffic": 8203,
      "Ġkil": 8204,
      "Ġham": 8205,
      "61": 8206,
      "Ġmarked": 8207,
      "ĠCommunity": 8208,
      "Ġinspired": 8209,
      "ĠCastle": 8210,
      "eason": 8211,
      "Ġblue": 8212,
      "ĠSem": 8213,
      "ĠKansas": 8214,
      "western": 8215,
      "Ġlá»£n": 8216,
      "ĠtÃŃ": 8217,
      "Ġsplit": 8218,
      "Ġtrue": 8219,
      "Ġdesignated": 8220,
      "athemat": 8221,
      "Ġheav": 8222,
      "Ġ52": 8223,
      "aro": 8224,
      "Ġteaching": 8225,
      "Ġactually": 8226,
      "ĠmÃłng": 8227,
      "ĠDavis": 8228,
      "ĠÄĲáº·ng": 8229,
      "ĠTuyÃªn": 8230,
      "osis": 8231,
      "raham": 8232,
      "Ġxoay": 8233,
      "ĠDue": 8234,
      "which": 8235,
      "Ġ1935": 8236,
      "ĠTechnology": 8237,
      "ureau": 8238,
      "weight": 8239,
      "Ġchá»ĳt": 8240,
      "Ġgrowing": 8241,
      "Ġliber": 8242,
      "Ġpurpose": 8243,
      "Ġcaptain": 8244,
      "ĠlÃ¢y": 8245,
      "ighth": 8246,
      "ĠNgÃłi": 8247,
      "Ġgreater": 8248,
      "ĠLin": 8249,
      "Ġeffort": 8250,
      "Ġvitamin": 8251,
      "ĠSteve": 8252,
      "long": 8253,
      "Ġbow": 8254,
      "ĠGa": 8255,
      "Ġpublish": 8256,
      "ĠCy": 8257,
      "ika": 8258,
      "law": 8259,
      "ml": 8260,
      "Ġsucceeded": 8261,
      "orney": 8262,
      "Ġ2023": 8263,
      "ĠNetherlands": 8264,
      "Ġacid": 8265,
      "Ġseg": 8266,
      "Ġbecomes": 8267,
      "Ġfestival": 8268,
      "omot": 8269,
      "Ġforest": 8270,
      "unn": 8271,
      "ĠPC": 8272,
      "ĠRoss": 8273,
      "ĠHuyá»ģn": 8274,
      "Æ°á»¡i": 8275,
      "ete": 8276,
      "enez": 8277,
      "Ġtiá»ĩc": 8278,
      "olia": 8279,
      "eding": 8280,
      "Ġknowledge": 8281,
      "ĠHuá»³nh": 8282,
      "ucky": 8283,
      "Ġhall": 8284,
      "Æ°á»£n": 8285,
      "utional": 8286,
      "ĠWalk": 8287,
      "ĠngÆ°": 8288,
      "ĠGer": 8289,
      "Ġsport": 8290,
      "ĠToyota": 8291,
      "ĠOd": 8292,
      "ĠFire": 8293,
      "ES": 8294,
      "Ġcolumn": 8295,
      "ĠSri": 8296,
      "rect": 8297,
      "ruit": 8298,
      "ĠCop": 8299,
      "ĠthÃ¡p": 8300,
      "ĠBáº¥t": 8301,
      "Ġclimate": 8302,
      "RS": 8303,
      "ĠDeath": 8304,
      "lyn": 8305,
      "ĠColon": 8306,
      "ĠCroat": 8307,
      "Ġburn": 8308,
      "Ġattacks": 8309,
      "Ġsubs": 8310,
      "Ġapplied": 8311,
      "ĠHÃ´m": 8312,
      "uct": 8313,
      "Ġhap": 8314,
      "ĠgiáºŃn": 8315,
      "Ġbá»Ľt": 8316,
      "Ġpack": 8317,
      "ropolitan": 8318,
      "LC": 8319,
      "ĠCur": 8320,
      "Ġexec": 8321,
      "pression": 8322,
      "ĠMissouri": 8323,
      "Ġbá»įc": 8324,
      "ĠBÆ°á»Ľc": 8325,
      "ĠLike": 8326,
      "org": 8327,
      "Ġroyal": 8328,
      "ĠCab": 8329,
      "224": 8330,
      "Ġpremier": 8331,
      "acement": 8332,
      "Ġmarg": 8333,
      "Ġhá»Ĺn": 8334,
      "Ġconflict": 8335,
      "Ġvillages": 8336,
      "ĠBetween": 8337,
      "Ġtarget": 8338,
      "Ġ>": 8339,
      "Ġslow": 8340,
      "Ġillust": 8341,
      "ĠtÃ¡o": 8342,
      "ĠbÃ¡m": 8343,
      "2019": 8344,
      "Ġprec": 8345,
      "uki": 8346,
      "Ġ1914": 8347,
      "Ġsituated": 8348,
      "ĠNS": 8349,
      "Ġfacility": 8350,
      "acter": 8351,
      "Ġcritics": 8352,
      "ĠvÃ¡y": 8353,
      "ĠBecause": 8354,
      "ĠProject": 8355,
      "reb": 8356,
      "Ġregions": 8357,
      "ĠForest": 8358,
      "eta": 8359,
      "eline": 8360,
      "Ġcells": 8361,
      "edral": 8362,
      "Ġ1933": 8363,
      "Ġexperiment": 8364,
      "apped": 8365,
      "ĠFore": 8366,
      "Ġheadquarters": 8367,
      "onsin": 8368,
      "Ġinstrument": 8369,
      "Ġthá»į": 8370,
      "erc": 8371,
      "ĠGiáº¥y": 8372,
      "ĠThrough": 8373,
      "ĠKat": 8374,
      "ante": 8375,
      "ĠMunicip": 8376,
      "ĠEP": 8377,
      "ĠCÃ¡t": 8378,
      "Ġ1917": 8379,
      "ĠtÆ°á»Ľc": 8380,
      "Ġfully": 8381,
      "ĠMáº¡nh": 8382,
      "ift": 8383,
      "ĠPH": 8384,
      "Ġsupply": 8385,
      "ĠBah": 8386,
      "Ġconnected": 8387,
      "eral": 8388,
      "Ġexisting": 8389,
      "omy": 8390,
      "ĠLegisl": 8391,
      "ĠtráºŃt": 8392,
      "ĠCirc": 8393,
      "Ġfigures": 8394,
      "Ġfans": 8395,
      "ĠCÃ¡": 8396,
      "Ġtrains": 8397,
      "ĠnhÆ°á»£ng": 8398,
      "Ġalone": 8399,
      "illery": 8400,
      "ĠMá»įi": 8401,
      "Ġmom": 8402,
      "roll": 8403,
      "Ġsixth": 8404,
      "emen": 8405,
      "Ġaim": 8406,
      "ĠEntertainment": 8407,
      "ĠRet": 8408,
      "ĠkhoÃ¡ng": 8409,
      "isconsin": 8410,
      "Ġyounger": 8411,
      "ĠlÃ²": 8412,
      "ĠMÃ¹a": 8413,
      "áº«m": 8414,
      "eech": 8415,
      "Ġweight": 8416,
      "ĠAlbert": 8417,
      "Ġtells": 8418,
      "Ġdial": 8419,
      "ĠMA": 8420,
      "Ġtower": 8421,
      "ridae": 8422,
      "áº¹o": 8423,
      "Ġsurname": 8424,
      "Ġpitch": 8425,
      "ĠRegion": 8426,
      "ĠGreg": 8427,
      "Ġbill": 8428,
      "Ġhel": 8429,
      "ructure": 8430,
      "Ġpromotion": 8431,
      "Ġmeant": 8432,
      "Ġlibrary": 8433,
      "Ġgraph": 8434,
      "Ġbott": 8435,
      "Sp": 8436,
      "Ġ1929": 8437,
      "Ġimage": 8438,
      "ĠRonald": 8439,
      "Ġlá»ĩch": 8440,
      "ĠÄĳiá»ĩp": 8441,
      "ĠBat": 8442,
      "Ġclasses": 8443,
      "Ġsecret": 8444,
      "Ġrapid": 8445,
      "Ġearth": 8446,
      "aire": 8447,
      "Ġspirit": 8448,
      "chestra": 8449,
      "ĠPhim": 8450,
      "Ġsettled": 8451,
      "raight": 8452,
      "Ġbegin": 8453,
      "Ġinternet": 8454,
      "Ġcarri": 8455,
      "esis": 8456,
      "ĠHart": 8457,
      "ĠJer": 8458,
      "Ġspot": 8459,
      "ĠCaptain": 8460,
      "CD": 8461,
      "Ġtree": 8462,
      "Ġprep": 8463,
      "ĠSky": 8464,
      "incoln": 8465,
      "Ġactress": 8466,
      "mouth": 8467,
      "Ġcustom": 8468,
      "Ġ1934": 8469,
      "Ġbrothers": 8470,
      "ĠdÃŃnh": 8471,
      "Ġreturning": 8472,
      "Ġlake": 8473,
      "Ġ58": 8474,
      "Ġ59": 8475,
      "Ġsituation": 8476,
      "ĠBalt": 8477,
      "erved": 8478,
      "ĠthÃ³i": 8479,
      "Ġpartner": 8480,
      "roc": 8481,
      "Ġrain": 8482,
      "ĠMelbourne": 8483,
      "ĠClin": 8484,
      "Ġbron": 8485,
      "Ġreports": 8486,
      "Ġrefused": 8487,
      "Ġbia": 8488,
      "ĠASEAN": 8489,
      "Ġmut": 8490,
      "ĠCEO": 8491,
      "Ġshop": 8492,
      "andal": 8493,
      "Ġcommander": 8494,
      "Billboard": 8495,
      "Ġscientific": 8496,
      "ĠbÃ´ng": 8497,
      "uters": 8498,
      "Ġachieved": 8499,
      "iva": 8500,
      "Ġallowing": 8501,
      "Ġcannot": 8502,
      "Ġsuggest": 8503,
      "elli": 8504,
      "Ġlot": 8505,
      "uous": 8506,
      "Ġconsum": 8507,
      "uting": 8508,
      "ĠLes": 8509,
      "lay": 8510,
      "Ġchosen": 8511,
      "Ġrelatively": 8512,
      "ĠTR": 8513,
      "Ġcá»¥m": 8514,
      "bro": 8515,
      "ĠCai": 8516,
      "Ġrisk": 8517,
      "Ġagg": 8518,
      "ĠMountain": 8519,
      "ĠSang": 8520,
      "Ġstock": 8521,
      "inners": 8522,
      "Ġairport": 8523,
      "ĠtÃ´m": 8524,
      "Ġbass": 8525,
      "Ġunique": 8526,
      "Ġsides": 8527,
      "ĠÄĳeo": 8528,
      "ĠghÃ©p": 8529,
      "ĠWisconsin": 8530,
      "Ġmá»ıng": 8531,
      "gu": 8532,
      "ĠSweden": 8533,
      "ĠOt": 8534,
      "Ġtheme": 8535,
      "ĠãĢĤ": 8536,
      "eastern": 8537,
      "ĠxÆ°á»Łng": 8538,
      "Ġscript": 8539,
      "track": 8540,
      "ĠDesign": 8541,
      "alty": 8542,
      "Ġ1928": 8543,
      "iable": 8544,
      "ĠNag": 8545,
      "Ġversions": 8546,
      "Ġsays": 8547,
      "ĠnÆ°á»Ľng": 8548,
      "itors": 8549,
      "ashi": 8550,
      "Ġple": 8551,
      "ĠthÃ¹ng": 8552,
      "ergy": 8553,
      "Ġbaseball": 8554,
      "ĠLewis": 8555,
      "Ġdoctor": 8556,
      "Ġthir": 8557,
      "itable": 8558,
      "athan": 8559,
      "Ġadvanced": 8560,
      "ĠJord": 8561,
      "Ġmel": 8562,
      "ĠTrá»ĭ": 8563,
      "ĠStephen": 8564,
      "Ġfounder": 8565,
      "Ġ179": 8566,
      "ĠHou": 8567,
      "Ġadapt": 8568,
      "century": 8569,
      "Ġdefined": 8570,
      "iat": 8571,
      "Ġnarrow": 8572,
      "ĠPA": 8573,
      "cont": 8574,
      "ĠRen": 8575,
      "ĠDiego": 8576,
      "Ġfighting": 8577,
      "ĠAli": 8578,
      "Ġmetres": 8579,
      "ĠTest": 8580,
      "ĠÄĳam": 8581,
      "Ġvs": 8582,
      "ĠmÆ°á»Ŀi": 8583,
      "Ġcompletely": 8584,
      "Ġnáº¥m": 8585,
      "ĠMau": 8586,
      "Ġsurvey": 8587,
      "ĠViÃªn": 8588,
      "ban": 8589,
      "Ġbought": 8590,
      "ĠSeveral": 8591,
      "Ġcert": 8592,
      "Ex": 8593,
      "ĠFree": 8594,
      "ĠMedical": 8595,
      "ĠbÆ¡m": 8596,
      "ĠNick": 8597,
      "olis": 8598,
      "Ġportion": 8599,
      "senal": 8600,
      "onym": 8601,
      "Ġngá»įn": 8602,
      "Ġgives": 8603,
      "Ġwant": 8604,
      "Ġ1910": 8605,
      "ĠChile": 8606,
      "ĠngoÃ¡i": 8607,
      "Ġvisited": 8608,
      "Ġarts": 8609,
      "ĠEarl": 8610,
      "Ġmeasure": 8611,
      "Ġrestaur": 8612,
      "ĠÂ»": 8613,
      "ĠMicrosoft": 8614,
      "andy": 8615,
      "IM": 8616,
      "uv": 8617,
      "Ġdipl": 8618,
      "Ġmaterials": 8619,
      "AA": 8620,
      "ĠPhÃ¢n": 8621,
      "ĠThay": 8622,
      "ĠEmperor": 8623,
      "ĠBru": 8624,
      "ĠArmen": 8625,
      "ĠPlot": 8626,
      "ĠHáº±ng": 8627,
      "iling": 8628,
      "Ġenjoy": 8629,
      "Ġholds": 8630,
      "Ġaired": 8631,
      "ĠLincoln": 8632,
      "ĠKaz": 8633,
      "emed": 8634,
      "yd": 8635,
      "Ġproceed": 8636,
      "uchia": 8637,
      "ĠThiáº¿u": 8638,
      "Ġfavour": 8639,
      "Ġháº¹p": 8640,
      "Ġconsisted": 8641,
      "Ġoldest": 8642,
      "ĠFederation": 8643,
      "Ġ1924": 8644,
      "Ġsoftware": 8645,
      "nham": 8646,
      "ĠchÃ¬m": 8647,
      "ĠhÃł": 8648,
      "ipped": 8649,
      "Ġtheatre": 8650,
      "ĠmÃ¢y": 8651,
      "Ġtowns": 8652,
      "Ġnhá»ĭp": 8653,
      "ĠKam": 8654,
      "Ġsons": 8655,
      "ikh": 8656,
      "ĠTháº¡ch": 8657,
      "kes": 8658,
      "Ġsimply": 8659,
      "ĠToday": 8660,
      "...]": 8661,
      "Ġvang": 8662,
      "ĠBarn": 8663,
      "Ġapproved": 8664,
      "ĠChÃ¡nh": 8665,
      "ĠRegister": 8666,
      "ader": 8667,
      "ĠCáºŃp": 8668,
      "ĠTÃº": 8669,
      "rin": 8670,
      "Ġpros": 8671,
      "restling": 8672,
      "400": 8673,
      "Ġháº±ng": 8674,
      "ĠSÃ¢n": 8675,
      "ĠBon": 8676,
      "ĠPot": 8677,
      "Ġruá»ĵi": 8678,
      "ĠAddition": 8679,
      "ĠCape": 8680,
      "asy": 8681,
      "ĠKl": 8682,
      "ĠKa": 8683,
      "ĠHungary": 8684,
      "Ġsoáº¡n": 8685,
      "Ind": 8686,
      "Ġthings": 8687,
      "ĠGeomet": 8688,
      "claim": 8689,
      "Ġ1932": 8690,
      "iot": 8691,
      "ĠStand": 8692,
      "Ġthá»£": 8693,
      "earing": 8694,
      "rac": 8695,
      "ĠEll": 8696,
      "antly": 8697,
      "ĠdÃ£": 8698,
      "Ġcai": 8699,
      "Ġboy": 8700,
      "ĠGil": 8701,
      "zona": 8702,
      "Ġprepar": 8703,
      "ĠLt": 8704,
      "Ġbegins": 8705,
      "Ġfair": 8706,
      "uma": 8707,
      "Ġarms": 8708,
      "Ġsá»£i": 8709,
      "ĠBeng": 8710,
      "Ġpublication": 8711,
      "Ġcreating": 8712,
      "inth": 8713,
      "Ġattempted": 8714,
      "ĠSquad": 8715,
      "Ġ1922": 8716,
      "Ġaudience": 8717,
      "Ġgoes": 8718,
      "ĠhÃ´i": 8719,
      "Ġdefin": 8720,
      "Ġgam": 8721,
      "ĠSpring": 8722,
      "ĠNCAA": 8723,
      "Ġ95": 8724,
      "ĠSS": 8725,
      "agu": 8726,
      "atar": 8727,
      "á»ıi": 8728,
      "ĠtrÆ°a": 8729,
      "ĠHollywood": 8730,
      "Ġopposed": 8731,
      "ĠCost": 8732,
      "zen": 8733,
      "ĠPhÆ°á»£ng": 8734,
      "Ġtemple": 8735,
      "po": 8736,
      "Ġflood": 8737,
      "Ġauthority": 8738,
      "ĠLib": 8739,
      "ĠPrize": 8740,
      "Ġtá»±a": 8741,
      "box": 8742,
      "ĠGram": 8743,
      "ographic": 8744,
      "Ġngáº¡c": 8745,
      "uri": 8746,
      "ĠXin": 8747,
      "Ġoccasion": 8748,
      "Ġallows": 8749,
      "Ġtalk": 8750,
      "ĠAle": 8751,
      "ĠJacob": 8752,
      "ĠTÄĥng": 8753,
      "ĠMS": 8754,
      "ĠMÃ´i": 8755,
      "Ġ800": 8756,
      "Ġmayor": 8757,
      "ĠCambridge": 8758,
      "gn": 8759,
      "ĠDVD": 8760,
      "Ġadvert": 8761,
      "ging": 8762,
      "iation": 8763,
      "anguage": 8764,
      "Ã¼r": 8765,
      "Ġprincipal": 8766,
      "har": 8767,
      "ocese": 8768,
      "ĠStock": 8769,
      "ĠColorado": 8770,
      "Ġnecessary": 8771,
      "Ġvoc": 8772,
      "Ġbroke": 8773,
      "ifically": 8774,
      "achelor": 8775,
      "ulate": 8776,
      "BI": 8777,
      "pha": 8778,
      "aling": 8779,
      "ĠBulgar": 8780,
      "ĠChair": 8781,
      "Ġbackground": 8782,
      "Ġ1912": 8783,
      "87": 8784,
      "regon": 8785,
      "Ġ1931": 8786,
      "Ġprotection": 8787,
      "Ġcas": 8788,
      "ĠtrÃ´i": 8789,
      "elve": 8790,
      "stan": 8791,
      "zy": 8792,
      "Ġvocal": 8793,
      "ĠShort": 8794,
      "ĠUl": 8795,
      "Ġretirement": 8796,
      "eton": 8797,
      "raf": 8798,
      "Ġsubsequent": 8799,
      "ĠTer": 8800,
      "Ġfile": 8801,
      "organ": 8802,
      "Ġmol": 8803,
      "Ġunable": 8804,
      "Ġfrequently": 8805,
      "Ġwinter": 8806,
      "ĠbÃ¡t": 8807,
      "Ġcontributed": 8808,
      "Ġflow": 8809,
      "ĠReception": 8810,
      "Ġmáº§m": 8811,
      "ardo": 8812,
      "ĠQueensland": 8813,
      "abad": 8814,
      "ĠÄĳÃł": 8815,
      "ĠPit": 8816,
      "ĠKu": 8817,
      "ĠTiÃªu": 8818,
      "Ġactions": 8819,
      "ĠOcean": 8820,
      "ĠHamp": 8821,
      "83": 8822,
      "ĠFe": 8823,
      "Ġunderst": 8824,
      "Ġglobal": 8825,
      "Ġreceiving": 8826,
      "Ġyellow": 8827,
      "Ġoccupied": 8828,
      "ancing": 8829,
      "ĠSimon": 8830,
      "Ġsets": 8831,
      "ĠÃ¡m": 8832,
      "ĠMemorial": 8833,
      "Ġ54": 8834,
      "Ġbrand": 8835,
      "Ġvacc": 8836,
      "Ġcommissioned": 8837,
      "ennessee": 8838,
      "Ġgiáº¥u": 8839,
      "Ġarchitecture": 8840,
      "Ġaccident": 8841,
      "ĠLá»£i": 8842,
      "Ġthuáº§n": 8843,
      "anning": 8844,
      "ngÆ°á»Ŀi": 8845,
      "iques": 8846,
      "La": 8847,
      "imens": 8848,
      "GS": 8849,
      "Ġdaily": 8850,
      "Ġultimately": 8851,
      "Ġfought": 8852,
      "Ġngá»Ļ": 8853,
      "Ġphun": 8854,
      "Ġdisapp": 8855,
      "Ġmethods": 8856,
      "Ġattempts": 8857,
      "Ġ1927": 8858,
      "ĠÄĲT": 8859,
      "Ġ1921": 8860,
      "Ġattacked": 8861,
      "ĠInn": 8862,
      "kov": 8863,
      "Ġhi": 8864,
      "Ġfaced": 8865,
      "Ġbuy": 8866,
      "Ġfocused": 8867,
      "ĠPalest": 8868,
      "Ġneighborhood": 8869,
      "chen": 8870,
      "Ġrespond": 8871,
      "Ġshared": 8872,
      "2009": 8873,
      "ista": 8874,
      "ĠChannel": 8875,
      "Ġentitled": 8876,
      "Ġbáº¿n": 8877,
      "ĠLive": 8878,
      "Ġentry": 8879,
      "Ġanimals": 8880,
      "ĠObama": 8881,
      "ĠFurther": 8882,
      "ĠÄĳá»Ĺ": 8883,
      "ĠKiá»ģu": 8884,
      "Ġhands": 8885,
      "Ġdropped": 8886,
      "oting": 8887,
      "ĠTrinh": 8888,
      "Ġ1925": 8889,
      "Ġheight": 8890,
      "Ġdrive": 8891,
      "ĠLáº¡p": 8892,
      "ĠCountry": 8893,
      "ĠÄĲÃ£": 8894,
      "Ġelement": 8895,
      "ĠÃģo": 8896,
      "Ġnegoti": 8897,
      "iel": 8898,
      "Ġexpansion": 8899,
      "Ġemployed": 8900,
      "cha": 8901,
      "Ġnha": 8902,
      "Ġfounding": 8903,
      "Ġhappen": 8904,
      "Ġváº¹n": 8905,
      "Ġvice": 8906,
      "Ġdistingu": 8907,
      "Ġeconomy": 8908,
      "81": 8909,
      "Ġtháº¡ch": 8910,
      "ĠHun": 8911,
      "ĠtuÃ¢n": 8912,
      "Ġmulti": 8913,
      "Ġsafety": 8914,
      "ĠInt": 8915,
      "bar": 8916,
      "Ġjourn": 8917,
      "84": 8918,
      "Ġcart": 8919,
      "Ġformerly": 8920,
      "Ġbronze": 8921,
      "ĠGeometridae": 8922,
      "ĠCampuchia": 8923,
      "ĠCÃºc": 8924,
      "cÃ³": 8925,
      "pson": 8926,
      "Ġmáº¡n": 8927,
      "Ġunknown": 8928,
      "ĠMexican": 8929,
      "ĠDal": 8930,
      "Ġspect": 8931,
      "Ġcat": 8932,
      "ĠvuÃ´ng": 8933,
      "ĠDescription": 8934,
      "also": 8935,
      "ples": 8936,
      "Ġiron": 8937,
      "Ġphu": 8938,
      "ĠGab": 8939,
      "Ġdocumentary": 8940,
      "Ġroot": 8941,
      "ĠsÃºt": 8942,
      "Ġtrees": 8943,
      "Ġthiá»ĩp": 8944,
      "ĠKarl": 8945,
      "ĠNhÃ³m": 8946,
      "Ġengineering": 8947,
      "writer": 8948,
      "ĠPass": 8949,
      "ĠTag": 8950,
      "ĠIowa": 8951,
      "mph": 8952,
      "ĠArsenal": 8953,
      "./.": 8954,
      "stream": 8955,
      "Ġrepresenting": 8956,
      "ĠThÃ¢n": 8957,
      "edia": 8958,
      "ds": 8959,
      "ogen": 8960,
      "Ġnotes": 8961,
      "ĠLor": 8962,
      "Ġhorse": 8963,
      "ĠSound": 8964,
      "ĠIndiana": 8965,
      "ĠBaron": 8966,
      "ĠColomb": 8967,
      "Ġconstituency": 8968,
      "jo": 8969,
      "Ġroll": 8970,
      "Ġperforming": 8971,
      "Ġmorning": 8972,
      "umin": 8973,
      "IT": 8974,
      "ĠBM": 8975,
      "Ġresources": 8976,
      "Ġextensive": 8977,
      "equ": 8978,
      "Con": 8979,
      "ĠPut": 8980,
      "Ġexclus": 8981,
      "ption": 8982,
      "pet": 8983,
      "Ġlect": 8984,
      "ĠProduction": 8985,
      "Ð½": 8986,
      "Ġvent": 8987,
      "uccess": 8988,
      "Ġbá»ĳc": 8989,
      "Ġroof": 8990,
      "Ġcopies": 8991,
      "urance": 8992,
      "įa": 8993,
      "Ġcovers": 8994,
      "life": 8995,
      "ĠMC": 8996,
      "Ġmá»ı": 8997,
      "ĠUN": 8998,
      "Ġreference": 8999,
      "ĠAdam": 9000,
      "ĠÄĳáº»": 9001,
      "ĠTen": 9002,
      "Ġcalc": 9003,
      "Ġsomething": 9004,
      "Ġmemory": 9005,
      "Ġsmartphone": 9006,
      "Ã½t": 9007,
      "Ġinch": 9008,
      "dam": 9009,
      "phas": 9010,
      "Ġagent": 9011,
      "OV": 9012,
      "Ġ53": 9013,
      "Ġscheduled": 9014,
      "ĠArizona": 9015,
      "pping": 9016,
      "Ġcombat": 9017,
      "IN": 9018,
      "ivals": 9019,
      "ĠTennessee": 9020,
      "Ġaged": 9021,
      "Ġshortly": 9022,
      "ĠPrim": 9023,
      "Ġvehicles": 9024,
      "olas": 9025,
      "Ġhockey": 9026,
      "wing": 9027,
      "ĠHáº§u": 9028,
      "Ġstorm": 9029,
      "Ġalleged": 9030,
      ")\"": 9031,
      "ĠCommand": 9032,
      "ĠAndroid": 9033,
      "ĠMaryland": 9034,
      "Ġchinh": 9035,
      "Ġcrime": 9036,
      "Â°": 9037,
      "Ġcancer": 9038,
      "ĠMiller": 9039,
      "ĠHard": 9040,
      "ĠWhit": 9041,
      "ĠHiáº¿u": 9042,
      "ĠArea": 9043,
      "ĠLáº¡c": 9044,
      "su": 9045,
      "ĠCung": 9046,
      "Ġeffective": 9047,
      "aris": 9048,
      "Ġending": 9049,
      "ooth": 9050,
      "ateur": 9051,
      "Ġnháº¡y": 9052,
      "Ġexchange": 9053,
      "ece": 9054,
      "Ġmá»įc": 9055,
      "rim": 9056,
      "Ġtá»įa": 9057,
      "Ġkhoe": 9058,
      "Ġcontrast": 9059,
      "ĠTony": 9060,
      "ĠCeram": 9061,
      "Ġstarring": 9062,
      "ĠTurkey": 9063,
      "ĠYam": 9064,
      "ĠStat": 9065,
      "Ġ(),": 9066,
      "ĠOregon": 9067,
      "ĠHawai": 9068,
      "Ġstructures": 9069,
      "Ġqualified": 9070,
      "Ġstraight": 9071,
      "ĠAuth": 9072,
      "ĠWrit": 9073,
      "ĠKey": 9074,
      "ãģ": 9075,
      "Ġhá»ĳi": 9076,
      "82": 9077,
      "lined": 9078,
      "Ġelimin": 9079,
      "ĠSciences": 9080,
      "RO": 9081,
      "Ġdistricts": 9082,
      "ĠDisc": 9083,
      "Ġlyrics": 9084,
      "Ġvalley": 9085,
      "ĠSix": 9086,
      "Ġrot": 9087,
      "ĠPap": 9088,
      "Ġinstitutions": 9089,
      "Ġpresidential": 9090,
      "uties": 9091,
      "Ġarticles": 9092,
      "Ġhotel": 9093,
      "ĠmÃły": 9094,
      "ĠAmericans": 9095,
      "ĠAfghanistan": 9096,
      "iders": 9097,
      "season": 9098,
      "ĠJordan": 9099,
      "olished": 9100,
      "ĠRáº¥t": 9101,
      "ĠKiÃªn": 9102,
      "Ġhers": 9103,
      "icks": 9104,
      "Ġhighway": 9105,
      "ĠPrior": 9106,
      "ques": 9107,
      "Ġdefense": 9108,
      "Ġinhabit": 9109,
      "á»Ĩ": 9110,
      "ectic": 9111,
      "ĠNháºŃn": 9112,
      "Ġcloth": 9113,
      "ĠWinter": 9114,
      "aved": 9115,
      "ĠVenez": 9116,
      "ĠUSS": 9117,
      "ĠSin": 9118,
      "Ġguest": 9119,
      "ĠÃĲ": 9120,
      "ĠHamilton": 9121,
      "Ġconvers": 9122,
      "ĠFront": 9123,
      "ĠcÃ¡p": 9124,
      "Ġ1923": 9125,
      "Ġsought": 9126,
      "mes": 9127,
      "ĠWalter": 9128,
      "ĠNob": 9129,
      "Ġgirls": 9130,
      "Ġpiece": 9131,
      "Ġmachine": 9132,
      "ĠMá»¥c": 9133,
      "aux": 9134,
      "Ġbal": 9135,
      "usal": 9136,
      "ĠSÄ©": 9137,
      "ĠSquare": 9138,
      "Ġsense": 9139,
      "Ġtrop": 9140,
      "arry": 9141,
      "Ġngáº¯m": 9142,
      "ĠDomin": 9143,
      "Ġxáº£": 9144,
      "Ġ56": 9145,
      "former": 9146,
      "inder": 9147,
      "igration": 9148,
      "ource": 9149,
      "Ġtha": 9150,
      "cidae": 9151,
      "ĠGord": 9152,
      "Ġrich": 9153,
      "Ġletters": 9154,
      "ht": 9155,
      "ĠRoy": 9156,
      "ĠvÃłnh": 9157,
      "Ġcandidates": 9158,
      "Ġ1916": 9159,
      "Ġtouchdown": 9160,
      "Ġmis": 9161,
      "ĠthÃ¢m": 9162,
      "ĠBuilding": 9163,
      "ĠPed": 9164,
      "ĠHans": 9165,
      "ĠCÄĲ": 9166,
      "ovo": 9167,
      "Ġlands": 9168,
      "Ġfields": 9169,
      "ĠJane": 9170,
      "Ġpermanent": 9171,
      "Ġ[...]": 9172,
      "El": 9173,
      "ĠPoint": 9174,
      "ĠNoc": 9175,
      "Ġproperties": 9176,
      "AS": 9177,
      "Æ°Æ¡n": 9178,
      "Ġconverted": 9179,
      "ĠBÃ¡": 9180,
      "Ġconsult": 9181,
      "ĠTelevision": 9182,
      "only": 9183,
      "Ġmi": 9184,
      "Ġtriá»ĩt": 9185,
      "Ġextra": 9186,
      "Ġmoth": 9187,
      "Ġ1915": 9188,
      "Ġstopp": 9189,
      "Ġmaximum": 9190,
      "ĠTÆ°Æ¡ng": 9191,
      "ĠBry": 9192,
      "ĠHotel": 9193,
      "Ġavoid": 9194,
      "rome": 9195,
      "It": 9196,
      "Ġpiano": 9197,
      "ĠMáº«u": 9198,
      "ĠTrÃŃ": 9199,
      "optera": 9200,
      "ĠNghiÃªn": 9201,
      "Ġrough": 9202,
      "ĠHi": 9203,
      "Ġcenturies": 9204,
      "Ġinaug": 9205,
      "Ġgay": 9206,
      "Ġplayoff": 9207,
      "Ġdomestic": 9208,
      "ĠNich": 9209,
      "ĠTar": 9210,
      "Ġexam": 9211,
      "Ġdetermined": 9212,
      "ĠSn": 9213,
      "ĠRoll": 9214,
      "ĠNhÃ¬n": 9215,
      "ĠDisney": 9216,
      "ĠVinc": 9217,
      "udget": 9218,
      "awn": 9219,
      "ĠNev": 9220,
      "bi": 9221,
      "ĠSi": 9222,
      "Ġ1926": 9223,
      "Ġvac": 9224,
      "yes": 9225,
      "Ġsector": 9226,
      "Ġ85": 9227,
      "Ġgeneration": 9228,
      "Ġviá»ĩt": 9229,
      "Ġintegr": 9230,
      "?\"": 9231,
      "ĠLabor": 9232,
      "ĠArk": 9233,
      "Ġattrib": 9234,
      "ĠJenn": 9235,
      "HÃł": 9236,
      "Ġracing": 9237,
      "ĠHoly": 9238,
      "ĠTurn": 9239,
      "ĠKit": 9240,
      "ifer": 9241,
      "Ġinters": 9242,
      "Ġdecor": 9243,
      "Ġsuccessfully": 9244,
      "gor": 9245,
      "Ġlearning": 9246,
      "Ġ\"(": 9247,
      "áº·m": 9248,
      "Ġá»©c": 9249,
      "Ġpowerful": 9250,
      "ĠchÃ©p": 9251,
      "Ġlá»ıng": 9252,
      "ĠMilan": 9253,
      "Ġrecognition": 9254,
      "Ġtia": 9255,
      "ĠRang": 9256,
      "Ġlocations": 9257,
      "Ġfinishing": 9258,
      "ĠGS": 9259,
      ";/": 9260,
      "icial": 9261,
      "fa": 9262,
      "ĠSud": 9263,
      "Ġbey": 9264,
      "ĠbÃ¹ng": 9265,
      "ĠngÆ°Æ¡i": 9266,
      "Ġreact": 9267,
      "Ġalt": 9268,
      "Ġsetting": 9269,
      "Ġbáº£y": 9270,
      "Ġexpressed": 9271,
      "Ġslightly": 9272,
      "umes": 9273,
      "ĠTrá»Ŀi": 9274,
      "ĠnÃ©m": 9275,
      "ĠThÄĥng": 9276,
      "Ġngá»¥": 9277,
      "Ġapplication": 9278,
      "Ġcontaining": 9279,
      "ĠDougl": 9280,
      "ĠUE": 9281,
      "Ġmáº¡o": 9282,
      "Ġcarbon": 9283,
      "Ġinvestigation": 9284,
      "ĠCuba": 9285,
      "ĠNow": 9286,
      "Ġidentity": 9287,
      "Ġsed": 9288,
      "ĠJuan": 9289,
      "ĠHur": 9290,
      "ĠGarden": 9291,
      "ĠSH": 9292,
      "ĠMcG": 9293,
      "Ġchuyá»ģn": 9294,
      "Ġvá»Ļi": 9295,
      "Ġoffices": 9296,
      "Ġconsecutive": 9297,
      "ĠMuslim": 9298,
      "Ġbor": 9299,
      "Ġwrite": 9300,
      "Ġnick": 9301,
      "rif": 9302,
      "while": 9303,
      "Ġsupporting": 9304,
      "Ġprint": 9305,
      "Ġsamp": 9306,
      "fit": 9307,
      "Ġspeech": 9308,
      "anka": 9309,
      "Ġpush": 9310,
      "ĠServices": 9311,
      "ĠLÃ£nh": 9312,
      "bell": 9313,
      "Ġonto": 9314,
      "ĠUpon": 9315,
      "ĠEver": 9316,
      "Ġdecre": 9317,
      "Ġways": 9318,
      "Ġetc": 9319,
      "ĠRem": 9320,
      "ĠlÃ´i": 9321,
      "ĠTháºŃm": 9322,
      "Ġlá»įt": 9323,
      "Ġthuáº«n": 9324,
      "ĠÄĳá»¥": 9325,
      "ryst": 9326,
      "outs": 9327,
      "Ġnormal": 9328,
      "We": 9329,
      "ĠTun": 9330,
      "Ġtrust": 9331,
      "Ġ1913": 9332,
      "Ġrein": 9333,
      "ĠNotable": 9334,
      "ĠStone": 9335,
      "ĠÄĳáº¯c": 9336,
      "eri": 9337,
      "Ġreasons": 9338,
      "Ġinvited": 9339,
      "ĠInfantry": 9340,
      "ĠBou": 9341,
      "ĠNhá»Ŀ": 9342,
      "ĠniÃªm": 9343,
      "omes": 9344,
      "ĠRu": 9345,
      "ĠkhÃ¡t": 9346,
      "Ġrefers": 9347,
      "Ġtechnical": 9348,
      "Ġviolence": 9349,
      "ĠNorway": 9350,
      "Ġmá»ĳc": 9351,
      "ĠReview": 9352,
      "Ġtrá»Ļi": 9353,
      "Ġrepresentative": 9354,
      "roup": 9355,
      "Ġoccurs": 9356,
      "inea": 9357,
      "Ġinfluenced": 9358,
      "ĠPhilip": 9359,
      "ĠAffairs": 9360,
      "Ġko": 9361,
      "Ġphase": 9362,
      "fort": 9363,
      "Ġkhuyáº¿t": 9364,
      "ĠKhoáº£ng": 9365,
      "ÑĢ": 9366,
      "Ġwealth": 9367,
      "Ġjudge": 9368,
      "ĠTrust": 9369,
      "ĠYouT": 9370,
      "Ġmerged": 9371,
      "ĠRose": 9372,
      "áº¢nh": 9373,
      "ĠAlexand": 9374,
      "leep": 9375,
      "uese": 9376,
      "ĠManagement": 9377,
      "egian": 9378,
      "Ġguns": 9379,
      "Ġbeyond": 9380,
      "Ġdecades": 9381,
      "Ġestablishment": 9382,
      "má»Ļt": 9383,
      "Ġappoint": 9384,
      "celona": 9385,
      "obi": 9386,
[...]
