{
  "version": "1.0",
  "truncation": null,
  "padding": null,
  "added_tokens": [
    {
      "id": 0,
      "content": "<pad>",
      "single_word": false,
      "lstrip": false,
      "rstrip": false,
      "normalized": false,
      "special": true
    },
    {
      "id": 1,
      "content": "<s>",
      "single_word": false,
      "lstrip": false,
      "rstrip": false,
      "normalized": false,
      "special": true
    },
    {
      "id": 2,
      "content": "</s>",
      "single_word": false,
      "lstrip": false,
      "rstrip": false,
      "normalized": false,
      "special": true
    },
    {
      "id": 3,
      "content": "<unk>",
      "single_word": false,
      "lstrip": false,
      "rstrip": false,
      "normalized": false,
      "special": true
    }
  ],
  "normalizer": {
    "type": "NFC"
  },
  "pre_tokenizer": {
    "type": "ByteLevel",
    "add_prefix_space": true,
    "trim_offsets": true,
    "use_regex": true
  },
  "post_processor": {
    "type": "TemplateProcessing",
    "single": [
      {
        "SpecialToken": {
          "id": "<s>",
          "type_id": 0
        }
      },
      {
        "Sequence": {
          "id": "A",
          "type_id": 0
        }
      },
      {
        "SpecialToken": {
          "id": "</s>",
          "type_id": 0
        }
      }
    ],
    "pair": [
      {
        "SpecialToken": {
          "id": "<s>",
          "type_id": 0
        }
      },
      {
        "Sequence": {
          "id": "A",
          "type_id": 0
        }
      },
      {
        "SpecialToken": {
          "id": "</s>",
          "type_id": 0
        }
      },
      {
        "SpecialToken": {
          "id": "</s>",
          "type_id": 0
        }
      },
      {
        "Sequence": {
          "id": "B",
          "type_id": 0
        }
      },
      {
        "SpecialToken": {
          "id": "</s>",
          "type_id": 0
        }
      }
    ],
    "special_tokens": {
      "</s>": {
        "id": "</s>",
        "ids": [
          2
        ],
        "tokens": [
          "</s>"
        ]
      },
      "<s>": {
        "id": "<s>",
        "ids": [
          1
        ],
        "tokens": [
          "<s>"
        ]
      }
    }
  },
  "decoder": {
    "type": "ByteLevel",
    "add_prefix_space": true,
    "trim_offsets": true,
    "use_regex": true
  },
  "model": {
    "type": "BPE",
    "dropout": null,
    "unk_token": "<unk>",
    "continuing_subword_prefix": null,
    "end_of_word_suffix": null,
    "fuse_unk": false,
    "byte_fallback": false,
    "ignore_merges": false,
    "vocab": {
      "<pad>": 0,
      "<s>": 1,
      "</s>": 2,
      "<unk>": 3,
      "A": 4,
      "B": 5,
      "C": 6,
      "D": 7,
      "E": 8,
      "F": 9,
      "G": 10,
      "H": 11,
      "I": 12,
      "J": 13,
      "K": 14,
      "L": 15,
      "M": 16,
      "N": 17,
      "O": 18,
      "P": 19,
      "Q": 20,
      "R": 21,
      "S": 22,
      "T": 23,
      "U": 24,
      "V": 25,
      "W": 26,
      "X": 27,
      "Y": 28,
      "Z": 29,
      "a": 30,
      "b": 31,
      "c": 32,
      "d": 33,
      "e": 34,
      "f": 35,
      "g": 36,
      "h": 37,
      "i": 38,
      "j": 39,
      "k": 40,
      "l": 41,
      "m": 42,
      "n": 43,
      "o": 44,
      "p": 45,
      "q": 46,
      "r": 47,
      "s": 48,
      "t": 49,
      "u": 50,
      "v": 51,
      "w": 52,
      "x": 53,
      "y": 54,
      "z": 55,
      "¡": 56,
      "¢": 57,
      "£": 58,
      "¤": 59,
      "¥": 60,
      "¦": 61,
      "§": 62,
      "¨": 63,
      "©": 64,
      "ª": 65,
      "«": 66,
      "¬": 67,
      "®": 68,
      "¯": 69,
      "°": 70,
      "±": 71,
      "²": 72,
      "³": 73,
      "´": 74,
      "µ": 75,
      "¶": 76,
      "·": 77,
      "¸": 78,
      "¹": 79,
      "º": 80,
      "»": 81,
      "¼": 82,
      "½": 83,
      "¾": 84,
      "¿": 85,
      "Ã": 86,
      "Ä": 87,
      "Å": 88,
      "Æ": 89,
      "Ç": 90,
      "Ì": 91,
      "Í": 92,
      "á": 93,
      "Ċ": 94,
      "Ġ": 95,
      "Ģ": 96,
      "ģ": 97,
      "Ĥ": 98,
      "ĥ": 99,
      "Ħ": 100,
      "ħ": 101,
      "Ĩ": 102,
      "ĩ": 103,
      "Ī": 104,
      "ī": 105,
      "Ĭ": 106,
      "ĭ": 107,
      "Į": 108,
      "į": 109,
      "İ": 110,
      "ı": 111,
      "Ĳ": 112,
      "ĳ": 113,
      "Ĵ": 114,
      "ĵ": 115,
      "Ķ": 116,
      "ķ": 117,
      "ĸ": 118,
      "Ĺ": 119,
      "ĺ": 120,
      "Ļ": 121,
      "ļ": 122,
      "Ľ": 123,
      "ľ": 124,
      "Ŀ": 125,
      "ŀ": 126,
      "Ł": 127,
      "ł": 128,
      "Ń": 129,
      "á»": 130,
      "áº": 131,
      "ng": 132,
      "Ġt": 133,
      "Ġc": 134,
      "nh": 135,
      "ĠÄ": 136,
      "Ãł": 137,
      "ĠÄĳ": 138,
      "Ġm": 139,
      "Ġl": 140,
      "hÃ": 141,
      "Æ°": 142,
      "Ġnh": 143,
      "Ã¡": 144,
      "Ġv": 145,
      "Ġh": 146,
      "Ġch": 147,
      "Ġk": 148,
      "Ġn": 149,
      "Ġs": 150,
      "Ġg": 151,
      "Ġb": 152,
      "áº¥": 153,
      "Ã³": 154,
      "Ġth": 155,
      "áº£": 156,
      "Ġd": 157,
      "Æ°á»": 158,
      "áº¡": 159,
      "iá»": 160,
      "Ġr": 161,
      "Ġp": 162,
      "Ãª": 163,
      "áº¿": 164,
      "Ã¬": 165,
      "Ġng": 166,
      "Æ¡": 167,
      "ĠthÃ": 168,
      "áº¥t": 169,
      "Ġtr": 170,
      "ĠÄĳá»": 171,
      "Ãªn": 172,
      "Ġgi": 173,
      "Ã¢": 174,
      "á»ĳ": 175,
      "áº§": 176,
      "áºŃ": 177,
      "ao": 178,
      "ĠkhÃ": 179,
      "ĠlÃł": 180,
      "áº¯": 181,
      "Ġx": 182,
      "ua": 183,
      "ĠT": 184,
      "Ã´": 185,
      "Ġvá»": 186,
      "Ġph": 187,
      "Ã¬nh": 188,
      "Æ°á»£": 189,
      "Ġq": 190,
      "ĠC": 191,
      "Ãłng": 192,
      "Ġmá»": 193,
      "Ġchá»": 194,
      "ĠmÃł": 195,
      "ĠcÃ³": 196,
      "ĠM": 197,
      "Ľi": 198,
      "anh": 199,
      "Ãły": 200,
      "iá»ĩ": 201,
      "ĠnhÆ°": 202,
      "ĠthÃ¬": 203,
      "ĠN": 204,
      "´ng": 205,
      "Ġqu": 206,
      "iáº¿": 207,
      "áº¥y": 208,
      "Ġá»": 209,
      "ay": 210,
      "Ġcá»": 211,
      "Ġbá»": 212,
      "Ŀi": 213,
      "Ã¹": 214,
      "áº¹": 215,
      "Ġmua": 216,
      "ĠhÃłng": 217,
      "Ġráº¥t": 218,
      "ĠvÃł": 219,
      "Ġhá»": 220,
      "ĠcÃ¡": 221,
      "in": 222,
      "Ġkh": 223,
      "áº¡i": 224,
      "ĠkhÃ´ng": 225,
      "Ã²": 226,
      "áº©": 227,
      "ĠhÃ": 228,
      "Æ¡i": 229,
      "am": 230,
      "Ãłi": 231,
      "Ġtá»": 232,
      "uy": 233,
      "on": 234,
      "©ng": 235,
      "Ã¡y": 236,
      "ĠnÃ³": 237,
      "áº§n": 238,
      "iá»ģ": 239,
      "ĠS": 240,
      "ch": 241,
      "Ãº": 242,
      "á»ĵ": 243,
      "áº·": 244,
      "ĠH": 245,
      "ĠmÃ¬nh": 246,
      "Ġnhanh": 247,
      "Æ°á»£c": 248,
      "Ġthá»": 249,
      "ĠnÃły": 250,
      "ĠÄĲ": 251,
      "áº£n": 252,
      "Ġtá»ĳ": 253,
      "Ã£": 254,
      "ĠÄĳÆ°á»£c": 255,
      "áº¹p": 256,
      "ong": 257,
      "Ã©": 258,
      "Ġdá»": 259,
      "Ġcho": 260,
      "ĠchÃ": 261,
      "ĠgiÃ¡": 262,
      "áºŃn": 263,
      "Ã¢u": 264,
      "Ã¹ng": 265,
      "ĠÄĳáº¹p": 266,
      "Ġo": 267,
      "ho": 268,
      "ai": 269,
      "ĠcÅ": 270,
      "Ġtá»ĳt": 271,
      "áº£i": 272,
      "ÃŃ": 273,
      "ĠmÃ¡y": 274,
      "Ġko": 275,
      "ĠcÅ©ng": 276,
      "em": 277,
      "Æ¡n": 278,
      "á»ĵi": 279,
      "áº©m": 280,
      "ĠquÃ¡": 281,
      "ĠnhÆ°ng": 282,
      "Ġsá»": 283,
      "ĠnÃªn": 284,
      "Ġlá»": 285,
      "Ġpháº©m": 286,
      "Æ°á»Ŀi": 287,
      "Ġcáº£": 288,
      "hop": 289,
      "ung": 290,
      "an": 291,
      "Ġok": 292,
      "ang": 293,
      "Ġbá»ĭ": 294,
      "ĠkhÃ¡": 295,
      "Ġláº¡i": 296,
      "Ġcá»§": 297,
      "Ã²n": 298,
      "Äĥ": 299,
      "Ã¢n": 300,
      "Æ°á»Ľ": 301,
      "áº¿t": 302,
      "ĠG": 303,
      "iÃªn": 304,
      "ĠhÃ¬": 305,
      "ĠhÃ¬nh": 306,
      "ĠV": 307,
      "Ġrá»ĵi": 308,
      "Ġngh": 309,
      "Ġcá»§a": 310,
      "iá»ģu": 311,
      "ame": 312,
      "Ġnhá»": 313,
      "Ġlu": 314,
      "Ġná»": 315,
      "ĠdÃ¹ng": 316,
      "Ġtháº¥y": 317,
      "ĠcÃ¡i": 318,
      "Ġgiao": 319,
      "au": 320,
      "ĠÄĳi": 321,
      "Ġpin": 322,
      "Ġvá»Ľi": 323,
      "iáº¿t": 324,
      "inh": 325,
      "ĠngÆ°á»Ŀi": 326,
      "Ġmá»Ľi": 327,
      "ĠÄĳÃ³": 328,
      "Ġláº¯": 329,
      "ĠCh": 330,
      "ĠL": 331,
      "áºŃt": 332,
      "kk": 333,
      "uyá»": 334,
      "Ã³i": 335,
      "Ã´n": 336,
      "ĠcÃ²n": 337,
      "áº¯c": 338,
      "Ġshop": 339,
      "Ġcon": 340,
      "Æ°a": 341,
      "Æ°á»£ng": 342,
      "iá»ĩn": 343,
      "ĠB": 344,
      "ĠgÃ¬": 345,
      "ĠÄĳá»ĥ": 346,
      "Ãło": 347,
      "ĠphÃ": 348,
      "ĠhÆ¡n": 349,
      "Ġgiá»": 350,
      "Ġra": 351,
      "ĠK": 352,
      "Ġláº¯m": 353,
      "áº½": 354,
      "Ġcháº¥t": 355,
      "Æ°á»Ľc": 356,
      "Ã´ng": 357,
      "áº«": 358,
      "ĠTh": 359,
      "áº¡n": 360,
      "ĠluÃ´n": 361,
      "áº»": 362,
      "ĠD": 363,
      "¯a": 364,
      "iá»ĩt": 365,
      "Ġsáº£n": 366,
      "ĠlÆ°á»£ng": 367,
      "ĠnÃ³i": 368,
      "Ġsao": 369,
      "iá»ģn": 370,
      "Ġpháº£i": 371,
      "Ġa": 372,
      "Ġá»ķ": 373,
      "Ã¢y": 374,
      "áº·t": 375,
      "ĠlÃłm": 376,
      "Ġqua": 377,
      "iá»ĥ": 378,
      "Ġvá»ģ": 379,
      "ĠhÆ¡i": 380,
      "Ġnhiá»ģu": 381,
      "ĠP": 382,
      "Ġkhi": 383,
      "Ġchá»ī": 384,
      "Ãªu": 385,
      "ĠngÃły": 386,
      "ĠÄĳÃ£": 387,
      "á»į": 388,
      "Ġá»ķn": 389,
      "Ġy": 390,
      "áº§m": 391,
      "ĠGi": 392,
      "ĠnÃło": 393,
      "uá»ĳ": 394,
      "ĠÄĳÃ¡": 395,
      "ĠgÃ³i": 396,
      "áº¡c": 397,
      "¥ng": 398,
      "Ġhay": 399,
      "Ġtrong": 400,
      "ĠnháºŃn": 401,
      "áº§u": 402,
      "ĠÄĳc": 403,
      "ĠchÆ¡i": 404,
      "Ġbiáº¿t": 405,
      "áº«n": 406,
      "Ġlo": 407,
      "ĠNg": 408,
      "Ã´i": 409,
      "Ãłn": 410,
      "á»Ļ": 411,
      "ĠchÆ°a": 412,
      "Æ°Æ¡": 413,
      "ĥn": 414,
      "Ã½": 415,
      "ii": 416,
      "ĠÄĳá»Ļ": 417,
      "áºŃy": 418,
      "Ġem": 419,
      "Ġgame": 420,
      "Æ°Æ¡ng": 421,
      "Ġsáº½": 422,
      "Ġhá»Ļ": 423,
      "áº¯t": 424,
      "Ġdá»¥ng": 425,
      "Ġná»¯a": 426,
      "en": 427,
      "Ĺi": 428,
      "pp": 429,
      "±ng": 430,
      "ĠbÃ¡": 431,
      "Ġho": 432,
      "ĠA": 433,
      "Ġbáº¡n": 434,
      "Ġtiá»ģn": 435,
      "Ġnha": 436,
      "áº©n": 437,
      "eo": 438,
      "±c": 439,
      "Ãºc": 440,
      "ĠcÃ¡c": 441,
      "Ġto": 442,
      "ĠNh": 443,
      "Ãºng": 444,
      "Ġá»Ł": 445,
      "Ġáº¡": 446,
      "ĠTr": 447,
      "Ġcáº£m": 448,
      "¥c": 449,
      "Æ°á»£t": 450,
      "Æ°ng": 451,
      "Ġtháº¿": 452,
      "Ã²ng": 453,
      "ĠMÃ¡y": 454,
      "Ġláº§n": 455,
      "Æ°á»Ŀ": 456,
      "´i": 457,
      "áº£nh": 458,
      "tt": 459,
      "áº¯n": 460,
      "Æ°á»Ŀng": 461,
      "ĠváºŃy": 462,
      "Ġháº¿t": 463,
      "áº±ng": 464,
      "Ġváº«n": 465,
      "Ġsau": 466,
      "ĠlÃªn": 467,
      "áº§y": 468,
      "Ġtiáº¿": 469,
      "Ġcháº¯c": 470,
      "uyá»ĩ": 471,
      "Ġanh": 472,
      "©c": 473,
      "ĠtÃ¬nh": 474,
      "Ńch": 475,
      "oi": 476,
      "áº¿n": 477,
      "ĠÄĳÃ³ng": 478,
      "Ġtu": 479,
      "ĠmÆ°á»£t": 480,
      "ĠvÃło": 481,
      "ĠthÃ´i": 482,
      "Ġmáº¥y": 483,
      "nn": 484,
      "Ã¨": 485,
      "Ġáº£nh": 486,
      "«a": 487,
      "Äĥng": 488,
      "Ãłnh": 489,
      "hh": 490,
      "ĠÄĥn": 491,
      "Ġtrá»": 492,
      "ĠSáº£n": 493,
      "ĠlÃ¢u": 494,
      "Ġsá»Ń": 495,
      "áº£o": 496,
      "Ġtay": 497,
      "ĠthÃŃch": 498,
      "ĠnhÃł": 499,
      "aa": 500,
      "ĠÄĳÃºng": 501,
      "¢n": 502,
      "ĠtÃŃ": 503,
      "Ġf": 504,
      "ik": 505,
      "¥p": 506,
      "ra": 507,
      "ķi": 508,
      "ĠnhÃ©": 509,
      "Ġnghe": 510,
      "ĠMÃ¬nh": 511,
      "Ġtá»«": 512,
      "ĠxÃłi": 513,
      "áº¡y": 514,
      "ĠGiao": 515,
      "ĠlÃºc": 516,
      "Ä©": 517,
      "Ġsáº¡c": 518,
      "hi": 519,
      "Ġtáº§m": 520,
      "ĠthÃ¡": 521,
      "ĠÄĳáº§u": 522,
      "ĠÄĳÃ¢u": 523,
      "Ġmá»į": 524,
      "Ġchá»ĭ": 525,
      "Ġngon": 526,
      "ĠQ": 527,
      "Ļt": 528,
      "á»ĭ": 529,
      "al": 530,
      "Ġchá»©": 531,
      "Ġxem": 532,
      "Ġchung": 533,
      "áº¥u": 534,
      "įc": 535,
      "Ġchá»¥p": 536,
      "§ng": 537,
      "Ġmá»įi": 538,
      "er": 539,
      "áº·c": 540,
      "ĠÄĳáº¿n": 541,
      "ĠchÃº": 542,
      "ĠvÃ¬": 543,
      "ĠkhÃ¡c": 544,
      "ĠlÃ²ng": 545,
      "Ġtao": 546,
      "Ġtho": 547,
      "Ã¢m": 548,
      "Ġai": 549,
      "amera": 550,
      "áº¿u": 551,
      "Ã¡ng": 552,
      "Ġmá»Ļt": 553,
      "ĠviÃªn": 554,
      "£p": 555,
      "Ġdá»ħ": 556,
      "ui": 557,
      "Ġsá»ĳ": 558,
      "Ġnhiá»ĩt": 559,
      "ĠÃ¡": 560,
      "Ã³ng": 561,
      "iá»ĥu": 562,
      "ĠnhÃ¬": 563,
      "Ġsi": 564,
      "ĠÄĳá»ĵ": 565,
      "ıi": 566,
      "Ġkhá»": 567,
      "iá»ĩu": 568,
      "áº¥n": 569,
      "Ġvá»«a": 570,
      "ee": 571,
      "ĠtrÃ¢u": 572,
      "Ġhá»£p": 573,
      "kkkk": 574,
      "Ġgiá»Ŀ": 575,
      "ĠtháºŃt": 576,
      "áº£m": 577,
      "ĠhÃłi": 578,
      "Ġlá»Ĺi": 579,
      "Ġphá»": 580,
      "ĠÃ½": 581,
      "ĠtháºŃn": 582,
      "ĠÄĳá»ģ": 583,
      "ĠX": 584,
      "ĠR": 585,
      "Ġcáº©n": 586,
      "Ġráº»": 587,
      "ĠmÃłu": 588,
      "ĠnÆ°á»Ľc": 589,
      "ĠMá»": 590,
      "ĠmÃłn": 591,
      "Ġá»§ng": 592,
      "áº·ng": 593,
      "jd": 594,
      "¯ng": 595,
      "áºŃp": 596,
      "Äĥm": 597,
      "ĠHÃłng": 598,
      "ĠthÃ¡ng": 599,
      "Ã¡i": 600,
      "ĠÆ¡i": 601,
      "uyá»ĩt": 602,
      "ĠnhÃ¬n": 603,
      "ĠnhÃ¢n": 604,
      "Ġw": 605,
      "Ġthá»©": 606,
      "Ġchu": 607,
      "Ã©o": 608,
      "Ġthá»ĥ": 609,
      "id": 610,
      "ĠtrÆ°á»Ľc": 611,
      "uyÃªn": 612,
      "ĠÄĳáº·t": 613,
      "Ġgá»į": 614,
      "Ġchi": 615,
      "Ġmáº·t": 616,
      "ĠÄĳá»§": 617,
      "ĠÃ´ng": 618,
      "ĠtÃ´i": 619,
      "ªm": 620,
      "Ġngo": 621,
      "áº¡nh": 622,
      "Ġká»": 623,
      "ĠÄĳÃ¢y": 624,
      "iki": 625,
      "Ġso": 626,
      "ĠO": 627,
      "Ġbáº£o": 628,
      "uá»ĳn": 629,
      "ħn": 630,
      "iáº¿n": 631,
      "Ġnhá»¯ng": 632,
      "ĠthÃªm": 633,
      "ĠhÃ´": 634,
      "Äĥn": 635,
      "Ã¡c": 636,
      "Ġcamera": 637,
      "ie": 638,
      "Ġdo": 639,
      "Ġnháº¥t": 640,
      "ĠÄĳÃ¡ng": 641,
      "Ġcháº¯n": 642,
      "áº¡t": 643,
      "á»ĵn": 644,
      "im": 645,
      "áº£ng": 646,
      "Ġta": 647,
      "áº¡m": 648,
      "Ã£i": 649,
      "Ġtuyá»ĩt": 650,
      "Ãªm": 651,
      "áº¥p": 652,
      "Ńi": 653,
      "Ġnhá»ı": 654,
      "Ġe": 655,
      "Ġcá»©": 656,
      "ĠShop": 657,
      "įng": 658,
      "Ġkho": 659,
      "Ġnay": 660,
      "Ġsá»±": 661,
      "ĠÆ¡n": 662,
      "ĠÄĳang": 663,
      "Ġmáº¹": 664,
      "ĠchÃŃ": 665,
      "ģn": 666,
      "Ġla": 667,
      "ĠtrÃªn": 668,
      "ĠÄĳá»ĭ": 669,
      "Ġcao": 670,
      "Æ°á»Ł": 671,
      "iá»ĥm": 672,
      "gg": 673,
      "ĠtÃŃnh": 674,
      "Ġmuá»ĳn": 675,
      "Ġcá»±c": 676,
      "Ġá»©ng": 677,
      "Ġmang": 678,
      "Ġxu": 679,
      "ĠhÃ´m": 680,
      "js": 681,
      "Ġbao": 682,
      "Æ°á»Łng": 683,
      "«ng": 684,
      "Ġdc": 685,
      "ĠPh": 686,
      "Ġthá»Ŀi": 687,
      "Ġvá»¥": 688,
      "ĠÄĳÃ¡nh": 689,
      "uu": 690,
      "Ġtá»±": 691,
      "ĠyÃªu": 692,
      "įn": 693,
      "ĠmÃły": 694,
      "ĠsÃ¡ng": 695,
      "oo": 696,
      "ĠnÃ³ng": 697,
      "ĠÄĳá»ģu": 698,
      "ĠÄĳiá»ĩn": 699,
      "Ġi": 700,
      "Ãµ": 701,
      "Ġcháº¡y": 702,
      "Æ¡m": 703,
      "Ġvá»Ŀi": 704,
      "Ġmáº¥t": 705,
      "Ã¹i": 706,
      "Ġvá»įng": 707,
      "ĠbÃªn": 708,
      "ks": 709,
      "ĠMua": 710,
      "ĠQu": 711,
      "ĠthÆ°Æ¡ng": 712,
      "Ġhá»ĵ": 713,
      "ĠtÆ°": 714,
      "te": 715,
      "áº¡o": 716,
      "Ġváº¥n": 717,
      "á»ĳi": 718,
      "ĠÃł": 719,
      "ĳng": 720,
      "Ġphá»¥c": 721,
      "ĠkhÃ³": 722,
      "ĠngoÃłi": 723,
      "uyá»ħn": 724,
      "ĭch": 725,
      "ĠÄĳá»Ļng": 726,
      "Ġcáº§n": 727,
      "Ã¡t": 728,
      "Ã³c": 729,
      "ĠnÄĥm": 730,
      "ĠKhÃ": 731,
      "Ġtiáº¿p": 732,
      "mm": 733,
      "Ġngu": 734,
      "ĠPin": 735,
      "ĠcÃ´ng": 736,
      "ĠsÃłi": 737,
      "ĠhÃ£": 738,
      "ĠliÃªn": 739,
      "ĠchÃ³": 740,
      "áº¡ng": 741,
      "ĠÄĳá»ķi": 742,
      "dd": 743,
      "Ã©t": 744,
      "áº¥m": 745,
      "nd": 746,
      "Ġba": 747,
      "Ġtháº±ng": 748,
      "Ġthoáº¡i": 749,
      "tttt": 750,
      "ĠsiÃªu": 751,
      "Å©": 752,
      "Ġthu": 753,
      "ĠMá»Ľi": 754,
      "ĠchÃŃnh": 755,
      "Ġgian": 756,
      "Ġngá»": 757,
      "ĠphÃ¡": 758,
      "Ġgá»įi": 759,
      "Ġxong": 760,
      "ĠNguyá»ħn": 761,
      "Ġtin": 762,
      "ĠchÃ¡": 763,
      "iá»ĩm": 764,
      "ĠbÃ¡n": 765,
      "ĠdÃ¢n": 766,
      "Ġhá»įc": 767,
      "ÃŃt": 768,
      "ĠCháº¥t": 769,
      "Ġtá»Ľi": 770,
      "ĠcÃ´": 771,
      "ĠCÃ³": 772,
      "Ġbu": 773,
      "Ãºi": 774,
      "ĠnghÄ©": 775,
      "Ġbáº±ng": 776,
      "ĠÄĲá»": 777,
      "ah": 778,
      "Ġtiáº¿ng": 779,
      "ĠÄĳá»ĭnh": 780,
      "ĠÆ°ng": 781,
      "£i": 782,
      "if": 783,
      "ĠbÃ¬nh": 784,
      "ĠcÃ¡ch": 785,
      "ĠvÃ´": 786,
      "ĠNhÃ": 787,
      "ĠÃ": 788,
      "Ġco": 789,
      "ĠNÃ³i": 790,
      "iáº¿u": 791,
      "Ńa": 792,
      "iiii": 793,
      "Ġbáº¯t": 794,
      "ĠChá»": 795,
      "áºŃm": 796,
      "Ġlá»Ľ": 797,
      "Ġtáº·ng": 798,
      "Ġgiá»ĳng": 799,
      "ĠtÃ¢m": 800,
      "ĠÄĳáº¥y": 801,
      "ac": 802,
      "Ġthá»Ń": 803,
      "Ġj": 804,
      "ĠthÆ°á»Ŀng": 805,
      "ĠdÃ¹": 806,
      "á»ĳng": 807,
      "Ġloáº¡i": 808,
      "Ġxinh": 809,
      "Ġtá»¥": 810,
      "Ġvs": 811,
      "ĠÄĳiá»ģu": 812,
      "Ġz": 813,
      "ĠÄĳá»ĵng": 814,
      "Ġnáº¿u": 815,
      "Ġtháº§y": 816,
      "ĠcÃ¹ng": 817,
      "ĠÄĳáº§y": 818,
      "ĠvÃ¢n": 819,
      "ĠhÃłnh": 820,
      "ĠbÃ©": 821,
      "Ġda": 822,
      "Ġtá»ĩ": 823,
      "Ġtáº¡i": 824,
      "Ã¡n": 825,
      "Ġtheo": 826,
      "uyá»ĩn": 827,
      "bd": 828,
      "áº³": 829,
      "Ġmáº·c": 830,
      "Ġnháº¹": 831,
      "uá»ĳng": 832,
      "be": 833,
      "áº¯ng": 834,
      "Ġláº¥y": 835,
      "Ġquan": 836,
      "ĠthÃłnh": 837,
      "pppp": 838,
      "Ġvui": 839,
      "Ġcu": 840,
      "Ġma": 841,
      "ĠChÃ": 842,
      "ĠnÄĥng": 843,
      "ĠNhÆ°ng": 844,
      "ĠghÃ": 845,
      "Ļi": 846,
      "Ġhá»ıi": 847,
      "ĠnhiÃªn": 848,
      "aaaa": 849,
      "ĠlÃ½": 850,
      "Ġtuáº§n": 851,
      "á»ĳc": 852,
      "Ġxe": 853,
      "ĠVá»": 854,
      "ĠÄĳÃ©o": 855,
      "ĠdÃłi": 856,
      "ĠkÃ©": 857,
      "nnnn": 858,
      "Ġsp": 859,
      "Ġrá»": 860,
      "ĠE": 861,
      "Ġbáº£n": 862,
      "ĠAnh": 863,
      "ss": 864,
      "Ġcháº¿t": 865,
      "ĠTiki": 866,
      "á»Ļt": 867,
      "ok": 868,
      "ĠtoÃłn": 869,
      "ıng": 870,
      "ideo": 871,
      "Ġxá»": 872,
      "Ġpháº§n": 873,
      "Ġxin": 874,
      "Ġgáº§n": 875,
      "Ġloa": 876,
      "ns": 877,
      "Ġtáº¡m": 878,
      "ar": 879,
      "ia": 880,
      "Ġmá»Ł": 881,
      "ĠÄĲÃ³ng": 882,
      "he": 883,
      "Ġmong": 884,
      "Ġsá»£": 885,
      "ĠRáº¥t": 886,
      "ºc": 887,
      "ĠÄĳiá»ĥm": 888,
      "Ġmá»Ĺi": 889,
      "Ġhiá»ĩn": 890,
      "Ġan": 891,
      "Ġchá»Ńi": 892,
      "Ã¡ch": 893,
      "ĠCáº£m": 894,
      "Ġlag": 895,
      "Ġmáº¡nh": 896,
      "ĠcháºŃm": 897,
      "Ġhá»Ļp": 898,
      "Ġchá»ĭu": 899,
      "ĠhÃ£ng": 900,
      "Ġbá»ı": 901,
      "ĠkÃ©m": 902,
      "Ġhiá»ĥu": 903,
      "ifi": 904,
      "Ġdá»ĭch": 905,
      "á»Ļc": 906,
      "Ġkáº¿": 907,
      "Ġsinh": 908,
      "ĠthÆ¡m": 909,
      "Ãºt": 910,
      "Æ°á»Ľng": 911,
      "ĠchÃºng": 912,
      "Ġnhau": 913,
      "ĠÄĲÃ£": 914,
      "jj": 915,
      "áº¡ch": 916,
      "Ġper": 917,
      "Ġáº¥y": 918,
      "Ġgá»": 919,
      "Ġkiá»ĥu": 920,
      "Ġngay": 921,
      "Ġvideo": 922,
      "Ġtháº¥t": 923,
      "hd": 924,
      "ĠF": 925,
      "kkkkkkkk": 926,
      "Ġbá»Ļ": 927,
      "ĠcÆ°á»Ŀi": 928,
      "ĠThÃ": 929,
      "uyá»ĥn": 930,
      "Ãłu": 931,
      "iá»ĩc": 932,
      "Ġchuáº©n": 933,
      "ou": 934,
      "Ġhiá»ĩu": 935,
      "áº¯m": 936,
      "hhhh": 937,
      "ĠkÃ¬": 938,
      "ll": 939,
      "ĠtÆ°á»Łng": 940,
      "Ġsáº¯c": 941,
      "ĠViá»ĩt": 942,
      "ĠnÃ¨": 943,
      "Ġtá»¥c": 944,
      "Ġchuyá»ĩn": 945,
      "ĠchÃª": 946,
      "ĠGiÃ¡": 947,
      "ĠvÃ£i": 948,
      "á»ĳt": 949,
      "ĠbÃ¡o": 950,
      "ĠÄĳÆ°á»Ŀng": 951,
      "Ġsá»ĳng": 952,
      "ĠrÃµ": 953,
      "Ġphim": 954,
      "ĠÃªm": 955,
      "ĠHo": 956,
      "us": 957,
      "Ġmay": 958,
      "Ġsang": 959,
      "Ġshi": 960,
      "Ġthiáº¿t": 961,
      "kd": 962,
      "ĠÃŃt": 963,
      "Ġkáº¿t": 964,
      "Ġviá»ĩc": 965,
      "Ġnháº¡y": 966,
      "ĠmÃ¹i": 967,
      "ĠtÃºi": 968,
      "ĠkÃŃ": 969,
      "Ġtiki": 970,
      "iá»ĩp": 971,
      "Ġyáº¿u": 972,
      "ĠthÃ¢n": 973,
      "Ġthanh": 974,
      "ĠbÃ¡c": 975,
      "Ġmáº¯t": 976,
      "Ġre": 977,
      "Ġtá»ĳi": 978,
      "ĠÄĳÆ¡": 979,
      "Ġgiáº£m": 980,
      "Ġquy": 981,
      "Ġnhá»Ľ": 982,
      "ģm": 983,
      "ĠnÃ©t": 984,
      "Ġmáº¡ng": 985,
      "Ġgia": 986,
      "Ġwifi": 987,
      "ĠKhÃ´ng": 988,
      "Ġtiá»ĩn": 989,
      "Ġcáº¥u": 990,
      "ĠgiáºŃt": 991,
      "ĠOK": 992,
      "Ġhá»į": 993,
      "NG": 994,
      "et": 995,
      "Ġchuyá»ĥn": 996,
      "ĠcÆ¡": 997,
      "ĠphÃ¡t": 998,
      "Ġhi": 999,
      "ro": 1000,
      "©a": 1001,
      "bs": 1002,
      "Ġdi": 1003,
      "Ġquay": 1004,
      "Ġmn": 1005,
      "Ġno": 1006,
      "Ġmá»ģm": 1007,
      "at": 1008,
      "st": 1009,
      "ĠTá»": 1010,
      "ĠphÃ¹": 1011,
      "ĠÄĳá»«ng": 1012,
      "Ġdu": 1013,
      "Ġquáº£": 1014,
      "Æ°á»Ľt": 1015,
      "Ġtá»¥t": 1016,
      "ĠnháºŃt": 1017,
      "Ġvl": 1018,
      "ĠbÃł": 1019,
      "ĠTráº§n": 1020,
      "Ġlá»Ľn": 1021,
      "Ġsai": 1022,
      "áº«u": 1023,
      "ĠnguyÃªn": 1024,
      "ĠNam": 1025,
      "Ġnhá»ī": 1026,
      "Ġtráº£": 1027,
      "ĠchÃ¡n": 1028,
      "ĠthÃ´ng": 1029,
      "Ġminh": 1030,
      "ĠY": 1031,
      "Ġváº»": 1032,
      "ĠphÃŃ": 1033,
      "ĠvÃłi": 1034,
      "±a": 1035,
      "Ġnghiá»ĩm": 1036,
      "Ġbá»įn": 1037,
      "ĠCÃ²n": 1038,
      "ĠkÃ¨": 1039,
      "Ġláº¯p": 1040,
      "á»ķi": 1041,
      "Ġcam": 1042,
      "iv": 1043,
      "Ġtai": 1044,
      "Ġthá»ĭ": 1045,
      "Ġgiá»Ľi": 1046,
      "Ġtrá»Ŀi": 1047,
      "jf": 1048,
      "Ġcáº§u": 1049,
      "Ġcáº§m": 1050,
      "ic": 1051,
      "Ġbuá»ĵn": 1052,
      "áº³ng": 1053,
      "ĠbÃłn": 1054,
      "one": 1055,
      "á»įng": 1056,
      "Ġcm": 1057,
      "Ġcoi": 1058,
      "ĠchÃºt": 1059,
      "Ġtrung": 1060,
      "Ġkhá»ıi": 1061,
      "iÃªu": 1062,
      "ĠchÃ¢n": 1063,
      "ĠbÃłi": 1064,
      "Ġnháº¡c": 1065,
      "Ġthá»©c": 1066,
      "ĠkÃ¨m": 1067,
      "Ġváº£i": 1068,
      "ĠHÃ¬nh": 1069,
      "Ġbá»ĳ": 1070,
      "Ãºp": 1071,
      "áº·p": 1072,
      "ĠghÃª": 1073,
      "bb": 1074,
      "Ġcháº£": 1075,
      "Ġcháº¿": 1076,
      "Ġtuy": 1077,
      "ĠNhÃ¢n": 1078,
      "ĠÄĳt": 1079,
      "ĠquÃ¢n": 1080,
      "áº·n": 1081,
      "le": 1082,
      "Ġu": 1083,
      "ale": 1084,
      "Ã¡nh": 1085,
      "ĠI": 1086,
      "ĠÄĳá»įc": 1087,
      "ĠsÃ³ng": 1088,
      "Ġtrá»£": 1089,
      "iá»ĥn": 1090,
      "á»įc": 1091,
      "iÃª": 1092,
      "Ġthá»±c": 1093,
      "ĠtiÃªn": 1094,
      "Ġchá»įn": 1095,
      "Ã²i": 1096,
      "Ġnhu": 1097,
      "Ġhá»ĵi": 1098,
      "oc": 1099,
      "Ġthiá»ĩn": 1100,
      "Æ°u": 1101,
      "Ġxuá»ĳng": 1102,
      "Ġoke": 1103,
      "Ġgiáº£i": 1104,
      "ºt": 1105,
      "ĠÄĳá»ĳ": 1106,
      "Ġchá»Ĺ": 1107,
      "ĠÃ¢m": 1108,
      "Ġkinh": 1109,
      "áº¯p": 1110,
      "Ġthi": 1111,
      "Ġxá»ĭ": 1112,
      "zz": 1113,
      "Ġtá»Ļi": 1114,
      "re": 1115,
      "ĠcÃłng": 1116,
      "Ġmáº«u": 1117,
      "Ġad": 1118,
      "Ġnáº·ng": 1119,
      "ĠÄĳá»£i": 1120,
      "ĠdÃ²ng": 1121,
      "ĠThá»": 1122,
      "ĠmÃ£": 1123,
      "Ġbá»ģn": 1124,
      "ams": 1125,
      "eb": 1126,
      "ak": 1127,
      "Ġtáº¯t": 1128,
      "Ã¡m": 1129,
      "Ġsale": 1130,
      "ĠCá»": 1131,
      "Ġdung": 1132,
      "Ġxuáº¥t": 1133,
      "Ġkia": 1134,
      "Ġká»¹": 1135,
      "Ġchá»ĳng": 1136,
      "ĠcÃ¡o": 1137,
      "Ġnam": 1138,
      "Ã³p": 1139,
      "ĠCon": 1140,
      "Ġxa": 1141,
      "ĠMinh": 1142,
      "ĠkhÃ¡ch": 1143,
      "okok": 1144,
      "Ġse": 1145,
      "Ġchá»§": 1146,
      "ĠcÃ¢u": 1147,
      "ĠtÃ¡c": 1148,
      "ĠmÃ¡": 1149,
      "Ġtrá»įng": 1150,
      "ĠÄĳá»Ŀi": 1151,
      "Ġvá»ĭ": 1152,
      "Ġnghá»": 1153,
      "eeee": 1154,
      "amsung": 1155,
      "cc": 1156,
      "ĠCho": 1157,
      "ĠKh": 1158,
      "ĠDÃ¹ng": 1159,
      "ĠCamera": 1160,
      "á»ĵng": 1161,
      "Ġgá»įn": 1162,
      "ĠmÃ¡t": 1163,
      "Ġde": 1164,
      "Ġtáº£": 1165,
      "ĠdÆ°á»": 1166,
      "Ġtáº¥t": 1167,
      "Ġtrai": 1168,
      "á»įi": 1169,
      "Ġtrang": 1170,
      "Ġcá»©ng": 1171,
      "ze": 1172,
      "ĠSáº½": 1173,
      "ĠxÃŃ": 1174,
      "yy": 1175,
      "ĠdÃły": 1176,
      "ĠdÃ¢y": 1177,
      "Ġquáº§n": 1178,
      "Ġship": 1179,
      "īnh": 1180,
      "hs": 1181,
      "ĠÄĳen": 1182,
      "ĠlÆ°á»Ľt": 1183,
      "Ġhai": 1184,
      "ĠEm": 1185,
      "¬n": 1186,
      "ĩnh": 1187,
      "Ġtg": 1188,
      "Ġcáº¥p": 1189,
      "ĠvÃłng": 1190,
      "nx": 1191,
      "Ġin": 1192,
      "Ġca": 1193,
      "Ľt": 1194,
      "ĠÄĳÃªm": 1195,
      "jdjd": 1196,
      "Ġgá»Ńi": 1197,
      "ing": 1198,
      "áºŃu": 1199,
      "ĠVN": 1200,
      "ĠÄĳÆ¡n": 1201,
      "Ġlá»Ŀi": 1202,
      "ĠÄĳá»©a": 1203,
      "ĠgiÃ¡c": 1204,
      "Ġtui": 1205,
      "it": 1206,
      "Ã´m": 1207,
      "©t": 1208,
      "gggg": 1209,
      "Ġkiáº¿n": 1210,
      "Ġthay": 1211,
      "ĠPhÃ": 1212,
      "ĠÄĳo": 1213,
      "Ġbiáº¿n": 1214,
      "ĠyÃªn": 1215,
      "á»Ļng": 1216,
      "me": 1217,
      "Ġmá»ıng": 1218,
      "ĠkÄ©": 1219,
      "ĠcáºŃp": 1220,
      "ĠgiÃºp": 1221,
      "iÃªng": 1222,
      "Ġngá»§": 1223,
      "ĠgÃ¡i": 1224,
      "Ġmá»©c": 1225,
      "ĠQuÃ¡": 1226,
      "Ġviá»ĩt": 1227,
      "Ġkg": 1228,
      "tttttttt": 1229,
      "ĠbÃ¢y": 1230,
      "uá»ĳi": 1231,
      "ĭn": 1232,
      "iáº¿c": 1233,
      "Ġnghiá»ĩp": 1234,
      "aha": 1235,
      "Ġxá»ĭn": 1236,
      "hone": 1237,
      "Ġná»ķi": 1238,
      "Ġchá»Ŀ": 1239,
      "Ġthua": 1240,
      "Ġthiáº¿u": 1241,
      "Ġhá»Ĺ": 1242,
      "ĠChá»ī": 1243,
      "Ġkhoáº£ng": 1244,
      "uuuu": 1245,
      "ĠdÃ¡n": 1246,
      "ĠMá»įi": 1247,
      "tu": 1248,
      "Äĳ": 1249,
      "Ġgáº·p": 1250,
      "Ġbáº¥t": 1251,
      "Ġxáº¥u": 1252,
      "Ġquáº£ng": 1253,
      "Ġsize": 1254,
      "ĠphÃ¢n": 1255,
      "ĠOk": 1256,
      "áº©u": 1257,
      "ck": 1258,
      "ĠbáºŃt": 1259,
      "Ġdáº«n": 1260,
      "ag": 1261,
      "uyáº¿t": 1262,
      "Ġxanh": 1263,
      "or": 1264,
      "ĠAi": 1265,
      "ĠNÃªn": 1266,
      "ĠxÃŃu": 1267,
      "Ġte": 1268,
      "Ġtráº£i": 1269,
      "Ġbá»ĩnh": 1270,
      "ĠNghe": 1271,
      "Ġhoáº·c": 1272,
      "Ġbiá»ĩt": 1273,
      "ĠÄĳá»ĳi": 1274,
      "Łi": 1275,
      "ĠtÆ°á»£ng": 1276,
      "ĠmÃ´": 1277,
      "uá»ĳc": 1278,
      "ÃŃnh": 1279,
      "Ġháº£": 1280,
      "Ġká»³": 1281,
      "Ľm": 1282,
      "Ġsu": 1283,
      "ĠmÃ£i": 1284,
      "Ġliá»ĩu": 1285,
      "Ġkhu": 1286,
      "Ã¨o": 1287,
      "ĠNhÃ¬n": 1288,
      "ĠÄĳáº¥t": 1289,
      "ĠmÃ¡i": 1290,
      "Ġlun": 1291,
      "ĠkÃªu": 1292,
      "Ã¬m": 1293,
      "uyá»ģn": 1294,
      "Ãłm": 1295,
      "ĠTÃ´i": 1296,
      "ĠcÅ©": 1297,
      "ĠChá»ĭ": 1298,
      "Ġip": 1299,
      "ĠÄĳÃ´i": 1300,
      "Ġlá»£i": 1301,
      "is": 1302,
      "Ġsáº¡ch": 1303,
      "ĠtáºŃn": 1304,
      "Ġquá»ĳc": 1305,
      "Ã¹a": 1306,
      "ww": 1307,
      "ĠLo": 1308,
      "Ġcuá»Ļc": 1309,
      "Ġban": 1310,
      "mi": 1311,
      "ķng": 1312,
      "Ġhoa": 1313,
      "ĠKhÃ¡": 1314,
      "²ng": 1315,
      "Ġtiáº¿t": 1316,
      "ĠÄĳau": 1317,
      "ĠlÃŃ": 1318,
      "Ġphá»¥": 1319,
      "Ġtriá»ĩu": 1320,
      "ĠSau": 1321,
      "Ġtáº¿": 1322,
      "ĠtÃªn": 1323,
      "ĠTH": 1324,
      "áº±": 1325,
      "Ġgiáº¥y": 1326,
      "ĠChÆ¡i": 1327,
      "Ġlá»Ľp": 1328,
      "ĠÌ": 1329,
      "ĠKo": 1330,
      "ĠCH": 1331,
      "ĠSá»": 1332,
      "Ġtrá»«": 1333,
      "ĠU": 1334,
      "ĠÄĳá»©ng": 1335,
      "Ġnguá»ĵn": 1336,
      "ip": 1337,
      "Ġcá»ĳ": 1338,
      "ĠÃ¡o": 1339,
      "ĠÃĶ": 1340,
      "Ġuá»ĳng": 1341,
      "ıe": 1342,
      "ĠváºŃn": 1343,
      "Ġngá»ĵi": 1344,
      "ĠTG": 1345,
      "ĠCÃ¡i": 1346,
      "pppppppp": 1347,
      "ĠtÃ¬m": 1348,
      "ppo": 1349,
      "ĠhoÃłn": 1350,
      "th": 1351,
      "Ġchá»©c": 1352,
      "alo": 1353,
      "Ġkhá»ıe": 1354,
      "ĠcÃłi": 1355,
      "Ġmo": 1356,
      "ĠtrÆ°á»Ŀng": 1357,
      "ĠphÃ²ng": 1358,
      "ff": 1359,
      "la": 1360,
      "ÃĢ": 1361,
      "Ġtráº¯ng": 1362,
      "iáº¿m": 1363,
      "ĠSp": 1364,
      "¹ng": 1365,
      "Ġae": 1366,
      "jx": 1367,
      "ĠlÆ°ng": 1368,
      "ĠchÃ³ng": 1369,
      "ub": 1370,
      "ĠÄĳeo": 1371,
      "Ġtráº»": 1372,
      "ĠÄĳá»¡": 1373,
      "Ġyou": 1374,
      "jsjs": 1375,
      "ĠHoÃłng": 1376,
      "Ġlá»ĵn": 1377,
      "Ġná»ĳi": 1378,
      "Ġtuá»ķi": 1379,
      "ike": 1380,
      "ĠdÆ°á»Ľi": 1381,
      "Ã¡o": 1382,
      "Ġvi": 1383,
      "ĠMÃłn": 1384,
      "Ġdá»±": 1385,
      "ĠhÆ°á»Ľng": 1386,
      "Ã©p": 1387,
      "ĠTGD": 1388,
      "ĠÄĳÄĥng": 1389,
      "Ġrá»Ļng": 1390,
      "Ġfan": 1391,
      "Ļng": 1392,
      "á»ĳp": 1393,
      "Ġtuá»Ļt": 1394,
      "ĠÃŃ": 1395,
      "ĠtáºŃp": 1396,
      "Ġcháº¥p": 1397,
      "áº£y": 1398,
      "iáº¿ng": 1399,
      "iiiiiiii": 1400,
      "nnnnnnnn": 1401,
      "Ġdá»ĭ": 1402,
      "Ġtá»«ng": 1403,
      "Ġdiá»ĩn": 1404,
      "Ġtra": 1405,
      "ĠquÃł": 1406,
      "Ġsá»Ľm": 1407,
      "ĠChÆ°a": 1408,
      "mmmm": 1409,
      "iá»ħn": 1410,
      "Ġtinh": 1411,
      "uyen": 1412,
      "áº³n": 1413,
      "ol": 1414,
      "Ġchiáº¿c": 1415,
      "Ġnáº¥u": 1416,
      "ĠgiÃł": 1417,
      "Ġmá»ĭn": 1418,
      "áº¿p": 1419,
      "Ġcá»Ńa": 1420,
      "Ġhoáº¡t": 1421,
      "Ġthoáº£i": 1422,
      "ĠJ": 1423,
      "ĠtÃ³c": 1424,
      "ĠvÄĥn": 1425,
      "Ġbay": 1426,
      "Ġsá»©c": 1427,
      "ĠLáº§n": 1428,
      "Ġtgdd": 1429,
      "bx": 1430,
      "Ġsamsung": 1431,
      "Ġlá»±c": 1432,
      "ĠQua": 1433,
      "ĩt": 1434,
      "ĠÄĳÃ²i": 1435,
      "Ġháº³n": 1436,
      "ĠSao": 1437,
      "áº¢": 1438,
      "ĠÄĳa": 1439,
      "Ã£o": 1440,
      "Ġcháº³ng": 1441,
      "Ã³n": 1442,
      "ĠkhÃ´": 1443,
      "Ġtá»¥i": 1444,
      "Å©ng": 1445,
      "ĠtÃłi": 1446,
      "ĠTrung": 1447,
      "aaaaaaaa": 1448,
      "ĠÄĳem": 1449,
      "Ġchiá»ģu": 1450,
      "ĠLá»": 1451,
      "£t": 1452,
      "©p": 1453,
      "Ġcung": 1454,
      "Ġmá»ĵ": 1455,
      "ta": 1456,
      "á»³": 1457,
      "Ġchá»¯": 1458,
      "Ġsá»¯a": 1459,
      "vv": 1460,
      "ĠCÃ¡c": 1461,
      "ĠLÃª": 1462,
      "Ġhá»Ļi": 1463,
      "ix": 1464,
      "os": 1465,
      "Ġnu": 1466,
      "Ġcá»Ļng": 1467,
      "ĠThanh": 1468,
      "Ġchá»īnh": 1469,
      "¡ng": 1470,
      "Ġnháº¯n": 1471,
      "ĠbÃ³ng": 1472,
      "Ġbáº¥m": 1473,
      "tube": 1474,
      "Ġcl": 1475,
      "ĠsÃ¡ch": 1476,
      "ĠTuy": 1477,
      "ĠtÃ¹": 1478,
      "Ġcuá»ĳi": 1479,
      "Æ¯": 1480,
      "Ġmai": 1481,
      "Ġha": 1482,
      "áº±m": 1483,
      "ĠcÆ¡m": 1484,
      "ĠlÅ©": 1485,
      "ĠNáº¿u": 1486,
      "Ġquyá»": 1487,
      "¡i": 1488,
      "ĠtÆ°Æ¡ng": 1489,
      "Ġkiá»ĥm": 1490,
      "ĠgiÃ¡o": 1491,
      "ĠChi": 1492,
      "Ġtiáº¿c": 1493,
      "ĠCÃ´": 1494,
      "Ġmá»Ŀ": 1495,
      "Ġlá»ĭch": 1496,
      "ĠLÃºc": 1497,
      "sm": 1498,
      "Ġpro": 1499,
      "Ġpháº£n": 1500,
      "ieu": 1501,
      "ĠSÃłi": 1502,
      "ien": 1503,
      "ĠÄĳáº¡i": 1504,
      "Ġchai": 1505,
      "ĠÄĲiá»ĩn": 1506,
      "ĠÄĲÃºng": 1507,
      "Ġnhá»±a": 1508,
      "Ġmáº¯c": 1509,
      "Ġst": 1510,
      "ĠGiá»": 1511,
      "NH": 1512,
      "ĠchÃºc": 1513,
      "ĠChÃºc": 1514,
      "art": 1515,
      "áº¡p": 1516,
      "ĠtrÃ¬nh": 1517,
      "Ġxo": 1518,
      "ĠNhá»": 1519,
      "jc": 1520,
      "Ġkiá»ĩn": 1521,
      "áº¹n": 1522,
      "ĠHá»": 1523,
      "pper": 1524,
      "ĠXin": 1525,
      "Ġly": 1526,
      "ĠbÃ²": 1527,
      "ĠhÃºt": 1528,
      "ĠÄĲáº¹p": 1529,
      "Ġfb": 1530,
      "ĠkÃŃch": 1531,
      "Ġtháº§n": 1532,
      "ĠhÃ³": 1533,
      "kkkkkkkkkkkkkkkk": 1534,
      "ĠtrÃŃ": 1535,
      "Ġabe": 1536,
      "ĠÄĳáº·c": 1537,
      "Ġme": 1538,
      "ĠXÃłi": 1539,
      "ĠNgá»įc": 1540,
      "Ġká»ĥ": 1541,
      "iet": 1542,
      "bdbd": 1543,
      "ive": 1544,
      "ig": 1545,
      "Ġghi": 1546,
      "je": 1547,
      "rr": 1548,
      "ve": 1549,
      "Ġchiáº¿n": 1550,
      "Ã³m": 1551,
      "Ġcá»¥": 1552,
      "ĠLinh": 1553,
      "uá»ĳt": 1554,
      "Ġquyá»ģn": 1555,
      "Ġviáº¿t": 1556,
      "Ġche": 1557,
      "ĠÄĳÃ¡o": 1558,
      "ĠÄĳáº¡o": 1559,
      "ĠnÆ¡i": 1560,
      "ĠriÃªng": 1561,
      "Ġvá»£": 1562,
      "ĠBá»": 1563,
      "Ġlol": 1564,
      "ndnd": 1565,
      "oy": 1566,
      "Ġtham": 1567,
      "ĠcÃ¢y": 1568,
      "Ġthá»§": 1569,
      "Ġcmt": 1570,
      "ĠtÄĥng": 1571,
      "Ġthuyáº¿t": 1572,
      "end": 1573,
      "ĠdÃ¡m": 1574,
      "á»ĳn": 1575,
      "áº©y": 1576,
      "ĠphÃŃm": 1577,
      "iao": 1578,
      "Ġnoi": 1579,
      "Ġnt": 1580,
      "ĠMong": 1581,
      "Ġxá»Ń": 1582,
      "uh": 1583,
      "Ġlinh": 1584,
      "ĠW": 1585,
      "Ġá»ĳp": 1586,
      "Ġmau": 1587,
      "Ġvc": 1588,
      "Ġthe": 1589,
      "Ġtháº¥p": 1590,
      "hhhhhhhh": 1591,
      "kf": 1592,
      "ĠcÃ¢n": 1593,
      "ĠnghÃ": 1594,
      "ĠxÃ¡c": 1595,
      "ĠÄĲá»Ļ": 1596,
      "iew": 1597,
      "ow": 1598,
      "Ġon": 1599,
      "Ġtáº¡o": 1600,
      "Ġmiáº¿ng": 1601,
      "Ġdáº§n": 1602,
      "Ġcá»¥c": 1603,
      "ĠThu": 1604,
      "ĠkÃŃnh": 1605,
      "ĠÃĶng": 1606,
      "ut": 1607,
      "ĠhÃ¡": 1608,
      "Ġná»Ļi": 1609,
      "Ġgiá»¯": 1610,
      "dddd": 1611,
      "ĠÄĳÆ°a": 1612,
      "ĠdÃŃnh": 1613,
      "Ġquen": 1614,
      "Ġoi": 1615,
      "ĠPháº¡m": 1616,
      "ĠchÃ¡u": 1617,
      "Ġnhá»Ŀ": 1618,
      "ĠDá»": 1619,
      "ĠÃģ": 1620,
      "¢u": 1621,
      "§a": 1622,
      "Ġmk": 1623,
      "Ã³t": 1624,
      "Ġdáº·n": 1625,
      "ĠTÃºi": 1626,
      "Ġchip": 1627,
      "ĠhÃ£y": 1628,
      "ĠÄĳu": 1629,
      "Ġmu": 1630,
      "Ġnc": 1631,
      "ĠMÃłu": 1632,
      "Ġnote": 1633,
      "Ġvn": 1634,
      "Ġdáº§u": 1635,
      "ĠÄĳá»±ng": 1636,
      "Ã¢ng": 1637,
      "ĠTá»ĳt": 1638,
      "ĠcÃł": 1639,
      "ĠmÃ¨o": 1640,
      "Ġláº¡nh": 1641,
      "ĠváºŃt": 1642,
      "ĠNháºŃn": 1643,
      "hx": 1644,
      "Ġhaha": 1645,
      "ĠMÃł": 1646,
      "á»Ļi": 1647,
      "Ġnáº±m": 1648,
      "Ã£n": 1649,
      "ĠphÃºt": 1650,
      "ubg": 1651,
      "ĠÄĳÃ¬nh": 1652,
      "ĠlÆ°Æ¡ng": 1653,
      "Ġtá»ĳc": 1654,
      "Ġtrá»ĭ": 1655,
      "ĠÆ°": 1656,
      "Ġcáº¯t": 1657,
      "ĠnhiÃªu": 1658,
      "Ġhao": 1659,
      "Ġtrc": 1660,
      "Ġkháº¯c": 1661,
      "ĠDáº§n": 1662,
      "ĠÃ¡p": 1663,
      "ook": 1664,
      "ĠVá»ģ": 1665,
      "Ġbo": 1666,
      "Ġgiáº£": 1667,
      "Ġhá»ĩ": 1668,
      "ĠThá»ĭ": 1669,
      "Ġtrá»Ł": 1670,
      "hf": 1671,
      "Ļc": 1672,
      "Ġliá»ģn": 1673,
      "ĠNH": 1674,
      "Ġcá»ķ": 1675,
      "Ġweb": 1676,
      "Ġtest": 1677,
      "ĵn": 1678,
      "ĠmÃ¹a": 1679,
      "Ġlike": 1680,
      "Ġcha": 1681,
      "Ġá»¦": 1682,
      "Ġnghá»ī": 1683,
      "Ġmng": 1684,
      "Ġkkk": 1685,
      "ĠgÃ³p": 1686,
      "Ġbe": 1687,
      "ĠbÃ¡nh": 1688,
      "ahah": 1689,
      "ĠChá»¥p": 1690,
      "Ġquyáº¿t": 1691,
      "iaomi": 1692,
      "Ġlam": 1693,
      "ĠtrÃ´ng": 1694,
      "Ġtá»©c": 1695,
      "Ġná»¯": 1696,
      "Ġchia": 1697,
      "Ġtá»Ń": 1698,
      "ĠHÃł": 1699,
      "ĠtÃŃn": 1700,
      "ĠMá»¹": 1701,
      "ĠTGDD": 1702,
      "ĠÃ´": 1703,
      "Ġkháº©u": 1704,
      "Ġoppo": 1705,
      "ĠTháº¥y": 1706,
      "ĠkhuÃ´n": 1707,
      "jg": 1708,
      "Ġthiá»ĩt": 1709,
      "Ġkhá»§ng": 1710,
      "ap": 1711,
      "ke": 1712,
      "ĠÄĳÃłn": 1713,
      "Ġbá»įc": 1714,
      "ĠHiáº¿u": 1715,
      "ĠluáºŃn": 1716,
      "ĠVá»Ľi": 1717,
      "Ġtháº»": 1718,
      "ĠxÃ©t": 1719,
      "Ġvá»ĩ": 1720,
      "ĠMáº¥y": 1721,
      "ĠVÄĥn": 1722,
      "Ġyoutube": 1723,
      "ĠnháºŃp": 1724,
      "ĠhÆ°": 1725,
      "Ãªnh": 1726,
      "Ġtri": 1727,
      "ĠgiÃłu": 1728,
      "ack": 1729,
      "Ġseal": 1730,
      "áºµ": 1731,
      "kx": 1732,
      "Ãģ": 1733,
      "Ġná»ĵi": 1734,
      "Ġram": 1735,
      "Ġpl": 1736,
      "ĠTu": 1737,
      "ĠphÃª": 1738,
      "ksks": 1739,
      "ĠVá»«a": 1740,
      "nsns": 1741,
      "ja": 1742,
      "ĵng": 1743,
      "Ġkiáº¿m": 1744,
      "ĠÄĳá»ı": 1745,
      "Ã¨n": 1746,
      "ĠdÃ¡ng": 1747,
      "to": 1748,
      "ĠlÆ°u": 1749,
      "iá»ħ": 1750,
      "ĠgiÃły": 1751,
      "ĠTR": 1752,
      "Ġmá»«ng": 1753,
      "Ġlá»Ĺ": 1754,
      "Ġfu": 1755,
      "ĠkhÃ³a": 1756,
      "el": 1757,
      "Ġsd": 1758,
      "Ġkhá»ķ": 1759,
      "ĠThá»Ŀi": 1760,
      "Ġiphone": 1761,
      "nc": 1762,
      "ote": 1763,
      "¥i": 1764,
      "Ġlai": 1765,
      "Ġháº¡n": 1766,
      "ĠxÆ°a": 1767,
      "Ġngá»Ŀ": 1768,
      "Ġmax": 1769,
      "hdhd": 1770,
      "īu": 1771,
      "Ġcua": 1772,
      "Ġnháº£y": 1773,
      "ĠnÃ£o": 1774,
      "Ġxá»©ng": 1775,
      "Ġnhiá»ĩm": 1776,
      "ĠchuyÃªn": 1777,
      "Ġdanh": 1778,
      "Ġgiáº·t": 1779,
      "ĠSáº¡c": 1780,
      "Ġmá»ĵm": 1781,
      "ine": 1782,
      "uyáº¿n": 1783,
      "Ã£nh": 1784,
      "ĠNguyen": 1785,
      "Ġfac": 1786,
      "Ġrá»Ńa": 1787,
      "Ġshipper": 1788,
      "ĠÄĳáº¯t": 1789,
      "Ġbt": 1790,
      "Ġhihi": 1791,
      "ĠkÃ©o": 1792,
      "Ġcáº£nh": 1793,
      "ĠChu": 1794,
      "ĠBa": 1795,
      "ĠnghÄ©a": 1796,
      "Ġpubg": 1797,
      "Ġmá»ĩt": 1798,
      "Ġlá»Ļ": 1799,
      "ĠVÃ¬": 1800,
      "Ġháº¡t": 1801,
      "ĠÄĳá»£t": 1802,
      "jw": 1803,
      "ree": 1804,
      "¨o": 1805,
      "ĠbÃ¬": 1806,
      "Ġthui": 1807,
      "ĠÄĳá»ķ": 1808,
      "ĠkhÃºc": 1809,
      "áº»o": 1810,
      "ĠthÃ¡i": 1811,
      "as": 1812,
      "įt": 1813,
      "Ġcx": 1814,
      "Ġcáº¯m": 1815,
      "Ġbáº¯n": 1816,
      "Ġthan": 1817,
      "Ġtá»ķ": 1818,
      "ad": 1819,
      "om": 1820,
      "Ġtáº¿t": 1821,
      "ĠgÃł": 1822,
      "iii": 1823,
      "ĠnhÃ¬u": 1824,
      "Ġzalo": 1825,
      "Ġláº½": 1826,
      "ĠsÄĥn": 1827,
      "ĠtrÆ°á»Łng": 1828,
      "ĠVÃ¢n": 1829,
      "ĠBáº¡n": 1830,
      "ĠTháº§y": 1831,
      "Ġkhoáº»": 1832,
      "Ã¡p": 1833,
      "Ġkem": 1834,
      "ĠlÃłnh": 1835,
      "iá»ĩng": 1836,
      "ĠdÃłnh": 1837,
      "Ġkhá»Łi": 1838,
      "view": 1839,
      "Ġáº¥m": 1840,
      "ĠÄĳm": 1841,
      "ĠmÃ©o": 1842,
      "ĠkhuyÃªn": 1843,
      "ĠÄĲÃ¢y": 1844,
      "ĠKhi": 1845,
      "Ġapp": 1846,
      "Ġuy": 1847,
      "ĠmÅ©": 1848,
      "ĠnÃºt": 1849,
      "ĠTrang": 1850,
      "Ġngoáº¡i": 1851,
      "Ġthá»ĭt": 1852,
      "Ġáº£o": 1853,
      "Ġtáº£i": 1854,
      "Ġtráº¡ng": 1855,
      "ĠÄĲÃ¡ng": 1856,
      "Ġná»Ńa": 1857,
      "age": 1858,
      "ĠmÃ´i": 1859,
      "Ġláº¡": 1860,
      "Ġnhe": 1861,
      "Ġngta": 1862,
      "Ġchá»ĵng": 1863,
      "Ġtá»Ļc": 1864,
      "ĠnuÃ´i": 1865,
      "ĠQuá»ĳc": 1866,
      "á»³nh": 1867,
      "bi": 1868,
      "nf": 1869,
      "xy": 1870,
      "ÃĶ": 1871,
      "Ġhe": 1872,
      "Ġdáº¡y": 1873,
      "Ġvá»¡": 1874,
      "ĠNhÆ°": 1875,
      "ĠPháº£i": 1876,
      "ebook": 1877,
      "bf": 1878,
      "Ġcai": 1879,
      "Ġbá»¯a": 1880,
      "ĠÄĲÆ°á»£c": 1881,
      "ĠÄĲang": 1882,
      "ĠTháº¿": 1883,
      "ĠPhÆ°Æ¡ng": 1884,
      "Ġreview": 1885,
      "iu": 1886,
      "ĠsÄ©": 1887,
      "ĠthiÃªn": 1888,
      "ĠAn": 1889,
      "Ġká»ĩ": 1890,
      "uhu": 1891,
      "ĠmÃª": 1892,
      "ĠmÃ³p": 1893,
      "ĠhÆ°á»Łng": 1894,
      "ĠbÃ¹": 1895,
      "Ġtráº§n": 1896,
      "ĠXu": 1897,
      "Ġand": 1898,
      "ĠCam": 1899,
      "ĠHi": 1900,
      "ĠHay": 1901,
      "ĠhoÃ¡": 1902,
      "eeeeeeee": 1903,
      "roi": 1904,
      "áºł": 1905,
      "ĠtiÃªu": 1906,
      "Ġnháº¯c": 1907,
      "Ġsuy": 1908,
      "ĠÄĳá»īnh": 1909,
      "ĠNG": 1910,
      "ĠNÃ³": 1911,
      "ĠVÃł": 1912,
      "Ġsá»Ńa": 1913,
      "ĠÃ¡n": 1914,
      "ĠMá»Ĺi": 1915,
      "Ġntn": 1916,
      "Ġplus": 1917,
      "Ġtim": 1918,
      "ĠlÃ´ng": 1919,
      "Ġnhung": 1920,
      "Ġháº¡i": 1921,
      "Ġháº¡nh": 1922,
      "Ġdt": 1923,
      "ĠrÄĥng": 1924,
      "ĠrÃºt": 1925,
      "Ġá»ŀ": 1926,
      "Ġlá»±a": 1927,
      "ĠphÃºc": 1928,
      "á»įt": 1929,
      "ĠNhung": 1930,
      "Ġsim": 1931,
      "ĠkhÃ³c": 1932,
      "īa": 1933,
      "Ġmiá»ĩng": 1934,
      "Ġvay": 1935,
      "Ġhiáº¿u": 1936,
      "Ġmá»¹": 1937,
      "ĠquÃªn": 1938,
      "ĠCháº¯c": 1939,
      "ĠLoa": 1940,
      "iÃªm": 1941,
      "Ġcc": 1942,
      "Ġháº¹n": 1943,
      "Ġká»ĭ": 1944,
      "Ġgáº¡o": 1945,
      "Ġru": 1946,
      "ĠhÃ³a": 1947,
      "Ġfull": 1948,
      "ma": 1949,
      "ĠZ": 1950,
      "ĠcÆ°ng": 1951,
      "ĠÄĳáºŃp": 1952,
      "ĠmÃ³n": 1953,
      "Ġnháº§m": 1954,
      "Ġbá»ķ": 1955,
      "hihi": 1956,
      "ĠÄĲá»ĥ": 1957,
      "ĠkÃ¬a": 1958,
      "Ġáº¢": 1959,
      "Ġhá»ıng": 1960,
      "Ġtá»ĳn": 1961,
      "ĠNgÆ°á»Ŀi": 1962,
      "ĠNhÃł": 1963,
      "ĠCá»±c": 1964,
      "ed": 1965,
      "ĠháºŃn": 1966,
      "ĠtrÃ¡i": 1967,
      "Ġbá»¥ng": 1968,
      "ĠSamsung": 1969,
      "áºµn": 1970,
      "¢m": 1971,
      "áº¤": 1972,
      "ĠÄĳÃ¨n": 1973,
      "Ġláº§m": 1974,
      "ĠhÃł": 1975,
      "ĠxÆ°á»Ľc": 1976,
      "ĠShi": 1977,
      "ĠTháºŃt": 1978,
      "ĠNháºŃt": 1979,
      "Ġnghá»ĩ": 1980,
      "ĠKhÃ¡nh": 1981,
      "il": 1982,
      "ĠÆ": 1983,
      "Ġchua": 1984,
      "Ġnáº¯ng": 1985,
      "ĠxÃ£": 1986,
      "ĠBáº£o": 1987,
      "Ġloáº¡n": 1988,
      "ĠÄĳá»Ļi": 1989,
      "Ġxá»īu": 1990,
      "ĠmÃ¡u": 1991,
      "kw": 1992,
      "Ãĵ": 1993,
      "ÄĲ": 1994,
      "Ġcáº£i": 1995,
      "ĠnhÃ¡": 1996,
      "ĠgÃ³c": 1997,
      "Ġbi": 1998,
      "ĠrÃ¹i": 1999,
      "Ġngang": 2000,
      "ĠTo": 2001,
      "Ġah": 2002,
      "ĠÄĳá»Ļc": 2003,
      "Ãµi": 2004,
      "ĠQuáº§n": 2005,
      "ĠnghÃ¨o": 2006,
      "Iá»": 2007,
      "ĠÆ°u": 2008,
      "Ġhang": 2009,
      "ĠluáºŃt": 2010,
      "ĠLÃłm": 2011,
      "ĠÄĲá»©c": 2012,
      "iá»ħm": 2013,
      "ps": 2014,
      "Ġva": 2015,
      "ĠgÃ¢y": 2016,
      "Ġthiá»ĩu": 2017,
      "Ġphong": 2018,
      "ĠKH": 2019,
      "á»Ļp": 2020,
      "ĠkhoÃ¡": 2021,
      "ivo": 2022,
      "Ġup": 2023,
      "Ġcáº¡nh": 2024,
      "ĠÄĳÃ´ng": 2025,
      "Ġgh": 2026,
      "Ġdm": 2027,
      "Ġpháº¡t": 2028,
      "Ãºn": 2029,
      "ĠHuy": 2030,
      "Ġdá»¯": 2031,
      "Ġak": 2032,
      "all": 2033,
      "Ġid": 2034,
      "Ġson": 2035,
      "Ġgoo": 2036,
      "áº¹o": 2037,
      "Ã£y": 2038,
      "ĠThan": 2039,
      "ĠThiáº¿t": 2040,
      "ĠhoÃłng": 2041,
      "ream": 2042,
      "okokokok": 2043,
      "Ġclip": 2044,
      "ĠhÃ¡t": 2045,
      "bo": 2046,
      "lu": 2047,
      "ĠvÃ²ng": 2048,
      "ĠsÆ¡": 2049,
      "Ġsuá»ĳt": 2050,
      "Ġngá»įt": 2051,
      "ĠthÃº": 2052,
      "ĠVÅ©": 2053,
      "Ġcute": 2054,
      "uc": 2055,
      "Ġnv": 2056,
      "ĠnÃ¢ng": 2057,
      "ĠsÆ°á»Ľng": 2058,
      "ĠdÃłng": 2059,
      "ĠChÃ¡": 2060,
      "Ġonl": 2061,
      "Ġtem": 2062,
      "Ġlive": 2063,
      "iáº¿p": 2064,
      "Ġbá»Ľt": 2065,
      "Ġgiá»ıi": 2066,
      "ĠhoÃłi": 2067,
      "Ġthoáº£ng": 2068,
      "ĠQuang": 2069,
      "Ġáº¢nh": 2070,
      "ate": 2071,
      "Ġáº¥n": 2072,
      "ĠÄĳiÃªn": 2073,
      "Ġhiá»ĥm": 2074,
      "Ġhá»ĳi": 2075,
      "Ġngáº¯n": 2076,
      "ĠtrÃ²": 2077,
      "ĠHáº£i": 2078,
      "kg": 2079,
      "Ġtáº¯m": 2080,
      "Ġdáº¥u": 2081,
      "Ġroi": 2082,
      "Ġtrend": 2083,
      "ĠTÃ¹ng": 2084,
      "Ãºa": 2085,
      "Ġnghá»ĭ": 2086,
      "ĠBÃ¬nh": 2087,
      "ĠDo": 2088,
      "á»įn": 2089,
      "jz": 2090,
      "Ġsáº¯p": 2091,
      "Ġthuá»ĳc": 2092,
      "ĠkhÃŃ": 2093,
      "ĠCÅ©ng": 2094,
      "Ġlá»ĩ": 2095,
      "Ġrá»Ľt": 2096,
      "ĠYÃªu": 2097,
      "fu": 2098,
      "ĠtÃłu": 2099,
      "ĠmÃ¬": 2100,
      "Ġnháº¡t": 2101,
      "ĠquÃª": 2102,
      "Ġbá»¥i": 2103,
      "ĠHÃłi": 2104,
      "ĠDuy": 2105,
      "wwww": 2106,
      "hc": 2107,
      "Ġdai": 2108,
      "Ġdiá»ħn": 2109,
      "ĠCo": 2110,
      "ink": 2111,
      "ĠHá»Ļp": 2112,
      "gggggggg": 2113,
      "Æ¯á»": 2114,
      "Ġchá»¥c": 2115,
      "Ġbuá»ķi": 2116,
      "uuuuuuuu": 2117,
      "ĠÃŃch": 2118,
      "bc": 2119,
      "ud": 2120,
      "xx": 2121,
      "ĠmÆ°a": 2122,
      "Ġviá»ģn": 2123,
      "ĠCÃ´ng": 2124,
      "Ġmá»¥": 2125,
      "Ġmá»ıi": 2126,
      "Ġlá»«a": 2127,
      "ĠtÃŃch": 2128,
      "ĠthuáºŃt": 2129,
      "ep": 2130,
      "nz": 2131,
      "vs": 2132,
      "Ġmi": 2133,
      "ĠmÃłng": 2134,
      "Ġlao": 2135,
      "ĠchÄĥm": 2136,
      "Ġsung": 2137,
      "Ġsáºµn": 2138,
      "Ġbiá»ĥn": 2139,
      "Ġduy": 2140,
      "ĠxÃ²": 2141,
      "ĠHÃ´m": 2142,
      "ÃŃch": 2143,
      "ssss": 2144,
      "jfjf": 2145,
      "ĠDá»ħ": 2146,
      "og": 2147,
      "ÃĬ": 2148,
      "áº¾": 2149,
      "Ġhiá»ĥn": 2150,
      "Ġss": 2151,
      "ĠsÃ¡nh": 2152,
      "Ġthao": 2153,
      "ĠtráºŃn": 2154,
      "Ġgiáº£n": 2155,
      "ĠMá»Ļt": 2156,
      "Ġkhen": 2157,
      "ĠÄĲáº·t": 2158,
      "Ġnguoi": 2159,
      "ĠThÃŃch": 2160,
      "ĠTá»«": 2161,
      "ĠÃģo": 2162,
      "Ġká»ĭp": 2163,
      "od": 2164,
      "Ġáº©m": 2165,
      "Ĥn": 2166,
      "Ġváº·n": 2167,
      "Ġhuhu": 2168,
      "Ġsam": 2169,
      "Ġbin": 2170,
      "ĠduyÃªn": 2171,
      "ĠrÆ¡i": 2172,
      "ĠTáº¥t": 2173,
      "ĠTuyá»ĩt": 2174,
      "Ġhá»ģ": 2175,
      "Ġkhuyáº¿n": 2176,
      "Ġiu": 2177,
      "Ġms": 2178,
      "Ġnhiá»ħm": 2179,
      "ĠcÃ¡m": 2180,
      "ĠXem": 2181,
      "¥t": 2182,
      "ĠbÃºt": 2183,
      "áº¥c": 2184,
      "Æ°á»¡i": 2185,
      "ĠngÄĥn": 2186,
      "ĠThÃłnh": 2187,
      "ĠPH": 2188,
      "á»Ļn": 2189,
      "ĠTrong": 2190,
      "Ġfor": 2191,
      "Ġfree": 2192,
      "jv": 2193,
      "Ġtung": 2194,
      "Ġmiá»ģn": 2195,
      "ĠlÃ£nh": 2196,
      "ĠdÆ¡": 2197,
      "ĠÄĲá»ĵng": 2198,
      "and": 2199,
      "ĠtoÃ¡n": 2200,
      "Ġchuá»Ļt": 2201,
      "ĠghÃ©t": 2202,
      "ct": 2203,
      "Ġty": 2204,
      "Ġtáº¥m": 2205,
      "ĠhÆ°Æ¡ng": 2206,
      "ĠkÃªnh": 2207,
      "ĠsÃ¡t": 2208,
      "Ġbiá»ĥu": 2209,
      "ĠthÆ°": 2210,
      "Ġráº±ng": 2211,
      "ĠrÃ¨": 2212,
      "Ġtráº§y": 2213,
      "ĠxÃºc": 2214,
      "Ġtá»ı": 2215,
      "iá»ģm": 2216,
      "ĠÄĲÃ¡nh": 2217,
      "ĠBá»Ļ": 2218,
      "Ġhoi": 2219,
      "ĠthoÃ¡t": 2220,
      "eu": 2221,
      "mart": 2222,
      "sk": 2223,
      "Ġgáº¯n": 2224,
      "Ġbáº©n": 2225,
      "ĠMai": 2226,
      "ĠhÃ´i": 2227,
      "Ġtá»ķng": 2228,
      "ĠKho": 2229,
      "ĠTháº£o": 2230,
      "alal": 2231,
      "Ġhá»įa": 2232,
      "ĠYou": 2233,
      "ĠdÆ°á»¡ng": 2234,
      "rus": 2235,
      "ĠÄĳáº¿": 2236,
      "Ġvoi": 2237,
      "ĠbÃ´ng": 2238,
      "Ġbáº¿p": 2239,
      "ĠrÃ¡p": 2240,
      "Ġtriá»ĥn": 2241,
      "Ġá»īa": 2242,
      "ĠkhÄĥn": 2243,
      "ĠTrá»": 2244,
      "Ä©nh": 2245,
      "ĠChÃº": 2246,
      "ĠThÃ¡i": 2247,
      "Ġim": 2248,
      "á»·": 2249,
      "Ġnho": 2250,
      "Ġgb": 2251,
      "Ġgá»ĳi": 2252,
      "Ã³a": 2253,
      "Ġdáº¡ng": 2254,
      "Ġpage": 2255,
      "ĠtrÃ¡ch": 2256,
      "Ġtá»·": 2257,
      "ĠSá»ĳng": 2258,
      "ĠHuyá»ģn": 2259,
      "Ġá»ķng": 2260,
      "Ġhoáº¡": 2261,
      "ĠÄĳá»ĭa": 2262,
      "ĠPhan": 2263,
      "ĠphÃ¡p": 2264,
      "Ġdume": 2265,
      "zzzz": 2266,
      "bz": 2267,
      "yd": 2268,
      "¯u": 2269,
      "á»ĩ": 2270,
      "ĠÄĤn": 2271,
      "ĠvÃŃ": 2272,
      "Ġháº¡": 2273,
      "Ġthá»«a": 2274,
      "ĠÄĲi": 2275,
      "Ġrat": 2276,
      "Ġcá»©u": 2277,
      "Ġdep": 2278,
      "roid": 2279,
      "ĠÃ´m": 2280,
      "ĠtÃ´": 2281,
      "ĠÄĳáº£ng": 2282,
      "Ġkeo": 2283,
      "Ġnáº¯p": 2284,
      "Ġtháº¥m": 2285,
      "Ġtreo": 2286,
      "Ġquáº£n": 2287,
      "ĠcÃ¡nh": 2288,
      "ĠSo": 2289,
      "ĠbÃ¡t": 2290,
      "ĠtÃ´m": 2291,
      "Ġli": 2292,
      "Ġváº½": 2293,
      "ĠchÄĥng": 2294,
      "Ġbá»±c": 2295,
      "Ġkhai": 2296,
      "ĠÃ¡c": 2297,
      "Ġhá»ĵng": 2298,
      "Ġcmn": 2299,
      "jr": 2300,
      "Ġman": 2301,
      "Ġcháº¡m": 2302,
      "ĠsÃ¢u": 2303,
      "ĠtrÄĥm": 2304,
      "Ġtá»īnh": 2305,
      "ĠBÃ¡c": 2306,
      "ĠNgon": 2307,
      "á»Ļm": 2308,
      "ĠÌģ": 2309,
      "Ġmiá»ħn": 2310,
      "Ġnhan": 2311,
      "ĠsÆ°": 2312,
      "Ġgáº¥p": 2313,
      "ĠdáºŃy": 2314,
      "ĠrÃłng": 2315,
      "Ġxáº¡o": 2316,
      "Ġxiaomi": 2317,
      "Ġá»ĵn": 2318,
      "ĠcÃ¡p": 2319,
      "ĠÄĲá»ĵ": 2320,
      "Ġná»ģn": 2321,
      "ĠLong": 2322,
      "tttttttttttttttt": 2323,
      "ĠGiá»Ŀ": 2324,
      "Ġvcl": 2325,
      "jh": 2326,
      "Ľp": 2327,
      "Ġlong": 2328,
      "ĠkÃ½": 2329,
      "Ġnguy": 2330,
      "ĠHD": 2331,
      "ĠHÆ¡i": 2332,
      "Ġgiá»¯a": 2333,
      "ĠTháº±ng": 2334,
      "Ġdate": 2335,
      "ĠChÃŃ": 2336,
      "Ġidol": 2337,
      "gs": 2338,
      "ÃĮ": 2339,
      "ĠÄĳk": 2340,
      "Ġmoi": 2341,
      "Ġlau": 2342,
      "Ġkiá»ĩm": 2343,
      "Ġchá»¯a": 2344,
      "ĠHu": 2345,
      "Æ°á»Ľp": 2346,
      "Ġná»Ĺi": 2347,
      "ĠAd": 2348,
      "Ġtáº©y": 2349,
      "ĠÄĳáº£m": 2350,
      "Ġvivo": 2351,
      "ĠgiÃ³": 2352,
      "Ġvá»ı": 2353,
      "ĠCao": 2354,
      "ĠhÃ¨": 2355,
      "ĠÄĲt": 2356,
      "ĠLáº¡i": 2357,
      "ĠTran": 2358,
      "ĠQuá»³nh": 2359,
      "ĠtÆ°Æ¡i": 2360,
      "Ġreal": 2361,
      "bbbb": 2362,
      "yyyy": 2363,
      "nnnnnnnnnnnnnnnn": 2364,
      "ĠChÃ¡n": 2365,
      "Ġcay": 2366,
      "ĠlÃ¡": 2367,
      "Ġváº¡ch": 2368,
      "ĠsÃ³c": 2369,
      "Ġgáº¯ng": 2370,
      "Ġrung": 2371,
      "Ġtranh": 2372,
      "ĠtrÆ°a": 2373,
      "Ġtruyá»ģn": 2374,
      "ĠxuyÃªn": 2375,
      "ĠHy": 2376,
      "ĠGB": 2377,
      "ĠQU": 2378,
      "á»ĭa": 2379,
      "ĠOppo": 2380,
      "Ġhá»ĵn": 2381,
      "Ġcom": 2382,
      "gi": 2383,
      "jt": 2384,
      "ĠlÃ³t": 2385,
      "Ġkim": 2386,
      "Ġthoi": 2387,
      "Ġxáº£": 2388,
      "Ġpha": 2389,
      "Ġchá»©ng": 2390,
      "Ġsá»§a": 2391,
      "ĠVáº£i": 2392,
      "Ġá»¦a": 2393,
      "ce": 2394,
      "ei": 2395,
      "ot": 2396,
      "vid": 2397,
      "Ġá»ĳc": 2398,
      "ĠÄĳáºŃm": 2399,
      "Æ°á»¡ng": 2400,
      "Ġtá»§": 2401,
      "ĠGiang": 2402,
      "Ġwa": 2403,
      "ick": 2404,
      "aka": 2405,
      "nxnx": 2406,
      "mmmmmmmm": 2407,
      "kz": 2408,
      "ĠháºŃu": 2409,
      "Ġchui": 2410,
      "ĠbÃ©o": 2411,
      "Ġdk": 2412,
      "Æ°á»Ľi": 2413,
      "Ġtru": 2414,
      "ĠBáº¯t": 2415,
      "Ġlove": 2416,
      "Ġkhoe": 2417,
      "Ġred": 2418,
      "Ġonline": 2419,
      "ba": 2420,
      "ty": 2421,
      "ĠÃ³c": 2422,
      "Ġne": 2423,
      "ĠdÃ©p": 2424,
      "ĠrÃ¡ch": 2425,
      "Ġpháº¡m": 2426,
      "Ġcá»¡": 2427,
      "ĠÄĲm": 2428,
      "ĠchÃ©": 2429,
      "ĠphÃ©p": 2430,
      "ĠiP": 2431,
      "ĠÃĿ": 2432,
      "cccc": 2433,
      "gle": 2434,
      "ĠÃ´i": 2435,
      "Ġlon": 2436,
      "Ġhy": 2437,
      "ĠtrÃ¡nh": 2438,
      "ĠxÃ¢y": 2439,
      "ĠCáº¥u": 2440,
      "ĠMáº·c": 2441,
      "Ġcá»Ŀ": 2442,
      "áº¹t": 2443,
      "ĠGÃ³i": 2444,
      "Ġná»į": 2445,
      "ĠDÃ¢n": 2446,
      "ĠDÆ°Æ¡ng": 2447,
      "ĠÄĳÃ¡p": 2448,
      "ooth": 2449,
      "ĠÄĳoáº¡n": 2450,
      "cm": 2451,
      "ur": 2452,
      "ÃĤ": 2453,
      "ĠÄĳáº£o": 2454,
      "ĠnhÃłng": 2455,
      "ĠTao": 2456,
      "ĠCÃ¡m": 2457,
      "Ġkhong": 2458,
      "ĠchÃ¢u": 2459,
      "ent": 2460,
      "jjjj": 2461,
      "ĠThanks": 2462,
      "ĠÄĳáº¡t": 2463,
      "ĠchÆ°Æ¡ng": 2464,
      "Ġnáº¡n": 2465,
      "Ġtha": 2466,
      "ĠTÃº": 2467,
      "Ġá»Ķ": 2468,
      "ĠTháº¥t": 2469,
      "ĠNgh": 2470,
      "ĠAbe": 2471,
      "Ġtoi": 2472,
      "iiiiiiiiiiiiiiii": 2473,
      "Ġstream": 2474,
      "Ġcs": 2475,
      "ĠcÄĥng": 2476,
      "ĠthÆ¡": 2477,
      "Ġgiáº¿t": 2478,
      "ĠTI": 2479,
      "Ġkhung": 2480,
      "ĠVáº«n": 2481,
      "ĠphÃŃa": 2482,
      "Ġgiá»įng": 2483,
      "ĠNgo": 2484,
      "hhh": 2485,
      "ixi": 2486,
      "de": 2487,
      "ĠtÃ½": 2488,
      "Ġcong": 2489,
      "ĠmáºŃt": 2490,
      "Ġlan": 2491,
      "ĠnÃ¡t": 2492,
      "Ġbáº¡c": 2493,
      "Ġthang": 2494,
      "Ġdan": 2495,
      "ĠthÃ¹ng": 2496,
      "Ġkháº£": 2497,
      "Ġoki": 2498,
      "Ġcá»§ng": 2499,
      "ĠVáºŃy": 2500,
      "ĠÃ¡m": 2501,
      "ĠThÃ´i": 2502,
      "Ġduoc": 2503,
      "ĠSá»Ń": 2504,
      "ĠTGDÄĲ": 2505,
      "Ġtien": 2506,
      "ĠdÆ°": 2507,
      "Ġbá»Łi": 2508,
      "ĠBao": 2509,
      "ĠThÆ°Æ¡ng": 2510,
      "ĠNhiá»ģu": 2511,
      "Ġtiáº¿n": 2512,
      "Ġfps": 2513,
      "Ġphá»§": 2514,
      "Ġthuá»Ļc": 2515,
      "ĠiPhone": 2516,
      "ld": 2517,
      "ĠcÆ°á»Ľp": 2518,
      "Ġláº¡c": 2519,
      "Ġve": 2520,
      "ĠvÅ©": 2521,
      "Ġhuy": 2522,
      "ĠhÃło": 2523,
      "Ġsáº»": 2524,
      "Ġthá»ĳng": 2525,
      "Ġtháº¯ng": 2526,
      "Ġngáº¡i": 2527,
      "ĠTiá»ģn": 2528,
      "ĠhÃª": 2529,
      "ĠHá»ĵ": 2530,
      "Ġlá»¡": 2531,
      "ĠLu": 2532,
      "iw": 2533,
      "up": 2534,
      "£n": 2535,
      "ĠcáºŃu": 2536,
      "ĠlÃ¢y": 2537,
      "Ġlink": 2538,
      "Ġhd": 2539,
      "ĠdÃ£": 2540,
      "ĠgiÃ£n": 2541,
      "Ġpháº¿t": 2542,
      "ĠMay": 2543,
      "ĠquÃ½": 2544,
      "ĠBu": 2545,
      "ĠÃ¡nh": 2546,
      "Ġkhoáº£n": 2547,
      "ĠchÃŃp": 2548,
      "oooo": 2549,
      "dddddddd": 2550,
      "kv": 2551,
      "ĠÄĳÃª": 2552,
      "Ġlq": 2553,
      "Ġháº£o": 2554,
      "ĠniÃªn": 2555,
      "ĠnÆ°á»Ľng": 2556,
      "ĠCu": 2557,
      "ĠNá»ĵi": 2558,
      "ĠHá»ĵng": 2559,
      "Ġthá»ģ": 2560,
      "Ġdá»Ł": 2561,
      "Ġláº¯c": 2562,
      "Ġtop": 2563,
      "ĠXiaomi": 2564,
      "ĠchÃ¡y": 2565,
      "hehe": 2566,
      "kdkd": 2567,
      "smart": 2568,
      "Ġface": 2569,
      "ĠShip": 2570,
      "luet": 2571,
      "Ġform": 2572,
      "lo": 2573,
      "uf": 2574,
      "ĠtÃ¢y": 2575,
      "Ġmik": 2576,
      "Ġviá»ĩn": 2577,
      "Ġgoi": 2578,
      "Ġbá»ĥ": 2579,
      "Ġhá»Ł": 2580,
      "Ġbá»ĭch": 2581,
      "ĠGame": 2582,
      "jdj": 2583,
      "Ġdá»ĭp": 2584,
      "ÃĶNG": 2585,
      "Ġredmi": 2586,
      "AY": 2587,
      "min": 2588,
      "Ġmáº¡i": 2589,
      "Ġle": 2590,
      "Ġlung": 2591,
      "Ġvai": 2592,
      "ĠbÃ³c": 2593,
      "ĠhÃ²": 2594,
      "Ġsá»Ŀ": 2595,
      "Ġná»ķ": 2596,
      "ĠChÃło": 2597,
      "bsbs": 2598,
      "Ġá»¦ng": 2599,
      "ĠChuáº©n": 2600,
      "ĠmÅ©i": 2601,
      "un": 2602,
      "ĠÃª": 2603,
      "Ġkáº»": 2604,
      "ĠngÆ°á»£c": 2605,
      "ĠtrÆ¡n": 2606,
      "ĠBÃ©": 2607,
      "Ġib": 2608,
      "rrrr": 2609,
      "ĠbÃ¨": 2610,
      "Ġchá»«ng": 2611,
      "Ġtá»Ŀ": 2612,
      "ona": 2613,
      "Ġnhá»¥c": 2614,
      "ĠLiÃªn": 2615,
      "ĠÄĳá»ĭt": 2616,
      "ĠdÃ¹m": 2617,
      "ĠghÃ©p": 2618,
      "ĠCá»©": 2619,
      "aaaaaaaaaaaaaaaa": 2620,
      "Ġfacebook": 2621,
      "luetooth": 2622,
      "ĠÆ¡": 2623,
      "ĠcÆ°á»Ŀng": 2624,
      "Ġhk": 2625,
      "ĠthÃ¨": 2626,
      "ĠhÃŃ": 2627,
      "Ġthá»īnh": 2628,
      "hhd": 2629,
      "á»ĭch": 2630,
      "Ġcá»©t": 2631,
      "ĠÄĲá»«ng": 2632,
      "ON": 2633,
      "hv": 2634,
      "Ġns": 2635,
      "ĠthÆ°á»Ľc": 2636,
      "Ġdáº¡o": 2637,
      "ĠÄĳá»©c": 2638,
      "ĠxÃ³a": 2639,
      "ĠTáº¡i": 2640,
      "Ġkhiáº¿n": 2641,
      "Ġlá»ıng": 2642,
      "ĠLÃł": 2643,
      "Ġtrá»¥": 2644,
      "ĠChá»©": 2645,
      "ĠCHá»": 2646,
      "sh": 2647,
      "ĠtÃ¡o": 2648,
      "ĠmÆ¡": 2649,
      "Ġlm": 2650,
      "ĠvÃ¹ng": 2651,
      "ĠvÆ°á»£t": 2652,
      "ĠsÃ¢n": 2653,
      "Ġbn": 2654,
      "Ġdao": 2655,
      "ĠthÃ´": 2656,
      "ĠtrÃł": 2657,
      "ĠÄĳá»Ĺ": 2658,
      "Ġxay": 2659,
      "ĠCA": 2660,
      "Ġfi": 2661,
      "ĠÆł": 2662,
      "CM": 2663,
      "ion": 2664,
      "phone": 2665,
      "um": 2666,
      "vd": 2667,
      "Ġong": 2668,
      "ĠÄĳÄ©": 2669,
      "ĠvÃŃt": 2670,
      "Ġsh": 2671,
      "ĠNá»": 2672,
      "Ġkhá»ĭa": 2673,
      "ĠchÃ¹": 2674,
      "ĠquÃ¡n": 2675,
      "ĠKim": 2676,
      "ĠGiÃły": 2677,
      "Ġmat": 2678,
      "Ġsaid": 2679,
      "se": 2680,
      "Ġváº§y": 2681,
      "Ġkk": 2682,
      "Ġnua": 2683,
      "Ġtháº³ng": 2684,
      "ĠTB": 2685,
      "ĠNá»Ļi": 2686,
      "ĠVÃµ": 2687,
      "ĠVsmart": 2688,
      "ĠBÃªn": 2689,
      "Ġquanh": 2690,
      "aaa": 2691,
      "iep": 2692,
      "Ġthuáº¿": 2693,
      "ĠFac": 2694,
      "Ġteam": 2695,
      "Ġcheck": 2696,
      "ĠTuáº¥n": 2697,
      "Ġmá»¥n": 2698,
      "ĠChÃºng": 2699,
      "ĠÃ©o": 2700,
      "ĠÄĳÃłi": 2701,
      "Ġsn": 2702,
      "Ġsan": 2703,
      "ĠsÃºc": 2704,
      "ĠkhÃ¹ng": 2705,
      "ĠxÃłm": 2706,
      "Ġphai": 2707,
      "ĠÄĲÃ¬nh": 2708,
      "ĠGI": 2709,
      "ĠGoo": 2710,
      "ĠDÃ¹": 2711,
      "ĠDung": 2712,
      "Ġquang": 2713,
      "ĠbÃ¡m": 2714,
      "ĠhÃ´n": 2715,
      "ĠYáº¿n": 2716,
      "ĠPhÃ¡": 2717,
      "ĠÌĢ": 2718,
      "ĠWifi": 2719,
      "ÃĬN": 2720,
      "wei": 2721,
      "Ġung": 2722,
      "áº¦": 2723,
      "ĠláºŃp": 2724,
      "ĠgÃ¡y": 2725,
      "ĠbÄĥng": 2726,
      "Ġtrá»ĳn": 2727,
      "ĠTui": 2728,
      "ĠCáº§n": 2729,
      "ĠMáº·t": 2730,
      "ĠhÃ´ng": 2731,
      "kks": 2732,
      "ĠDÃ¢y": 2733,
      "Ġlap": 2734,
      "ĠPhá»": 2735,
      "ĠÃĤ": 2736,
      "are": 2737,
      "Ġrealme": 2738,
      "AN": 2739,
      "gh": 2740,
      "iy": 2741,
      "kl": 2742,
      "Ġml": 2743,
      "ĠchÃło": 2744,
      "Ġdáº»o": 2745,
      "Æ°á»£n": 2746,
      "ĠMuá»ĳn": 2747,
      "Ã¹m": 2748,
      "Ġtá»ĭch": 2749,
      "ĠSÄĥn": 2750,
      "Ġchoi": 2751,
      "ĠDÃ©p": 2752,
      "ĠTrÆ°á»Ľc": 2753,
      "ĠthoÃ¡ng": 2754,
      "ĠQuáº£": 2755,
      "ake": 2756,
      "Ġlá»ĩch": 2757,
      "ĠFacebook": 2758,
      "ach": 2759,
      "co": 2760,
      "fe": 2761,
      "hz": 2762,
      "ĠÆ°á»Ľc": 2763,
      "ĠlÃ³c": 2764,
      "Ġcháº¥m": 2765,
      "ĠsÃ³i": 2766,
      "Ġbh": 2767,
      "Ġbáº£": 2768,
      "Ġbiet": 2769,
      "ĠTiÃªn": 2770,
      "Ġphá»ĳ": 2771,
      "Ġná»£": 2772,
      "ĠTheo": 2773,
      "ĠGia": 2774,
      "eno": 2775,
      "Ġtot": 2776,
      "ĠthÃ¡nh": 2777,
      "akak": 2778,
      "hshs": 2779,
      "pppppppppppppppp": 2780,
      "kkkkkkkkkkkkkkkkkkkkkkkkkkkkkkkk": 2781,
      "ĠXuÃ¢n": 2782,
      "Ġcan": 2783,
      "Ġcáº¯n": 2784,
      "Ġcáº¥m": 2785,
      "Ġcac": 2786,
      "Ġcáº·p": 2787,
      "ĠhÃłn": 2788,
      "Ġcháº·t": 2789,
      "ĠngÃ£": 2790,
      "ĠngÃ´n": 2791,
      "Ġngá»įc": 2792,
      "ĠÄĳá»©t": 2793,
      "Ġxáº¡c": 2794,
      "uawei": 2795,
      "ĠTáº¿t": 2796,
      "ĠphÆ°Æ¡ng": 2797,
      "Ġhá»¯u": 2798,
      "Ã£ng": 2799,
      "ĠLÃĢ": 2800,
      "ĠÃ¡i": 2801,
      "okia": 2802,
      "smsm": 2803,
      "ĠthÃ¨m": 2804,
      "gd": 2805,
      "jk": 2806,
      "lf": 2807,
      "mx": 2808,
      "Ġcanh": 2809,
      "Ġmáº¯n": 2810,
      "Ġvan": 2811,
      "Ġváº¹n": 2812,
      "Ġny": 2813,
      "Ġset": 2814,
      "Ġtháº£": 2815,
      "Ġday": 2816,
      "ĠdÃŃ": 2817,
      "Ġnge": 2818,
      "ĠTáº¡m": 2819,
      "ĠMÃ¹i": 2820,
      "ĠSÆ¡n": 2821,
      "ĠSÃ³i": 2822,
      "Ġlá»įc": 2823,
      "ĠGá»": 2824,
      "ĠChá»Ńi": 2825,
      "ĠKhá»": 2826,
      "Ġmess": 2827,
      "Ġlá»Ļn": 2828,
      "Ġgood": 2829,
      "ka": 2830,
      "ĩm": 2831,
      "ĠÄĳÃło": 2832,
      "ĠÄĳÃŃt": 2833,
      "ĠlÆ°á»Ŀi": 2834,
      "Ġhong": 2835,
      "Ġgá»ĳc": 2836,
      "Ġbáº¯c": 2837,
      "ĠbÆ°á»Ľc": 2838,
      "ĠgiÃ²n": 2839,
      "ĠHai": 2840,
      "Ġdá»±ng": 2841,
      "Ġsá»Ł": 2842,
      "Ġnghi": 2843,
      "ĠthÃ¡o": 2844,
      "Ġvsmart": 2845,
      "bxbx": 2846,
      "ĠxoÃ¡": 2847,
      "Iá»Ĩ": 2848,
      "ell": 2849,
      "qq": 2850,
      "ym": 2851,
      "ĠÃ©p": 2852,
      "ĠcÃ£i": 2853,
      "Ġchat": 2854,
      "ĠbÃª": 2855,
      "ĠÄĳá»ĳng": 2856,
      "ĠTe": 2857,
      "ĠÄĲiá»ĥm": 2858,
      "Ã©m": 2859,
      "Ġof": 2860,
      "Ġluong": 2861,
      "ĠBáº¯c": 2862,
      "ĠphÃ´ng": 2863,
      "ĠDu": 2864,
      "ĠNgu": 2865,
      "Ġdoanh": 2866,
      "ĠthuáºŃn": 2867,
      "ĠFan": 2868,
      "Ġdá»ĭu": 2869,
      "ĠÆ°i": 2870,
      "AM": 2871,
      "of": 2872,
      "ts": 2873,
      "ter": 2874,
      "Ġus": 2875,
      "ĠcáºŃn": 2876,
      "ĠÄĳÃ´": 2877,
      "ĠÄĳáº³ng": 2878,
      "Ġlá»ĵi": 2879,
      "Ġnháº¥n": 2880,
      "ĠcháºŃp": 2881,
      "Ġnao": 2882,
      "Ġdau": 2883,
      "ĠTÃ³m": 2884,
      "Ġpham": 2885,
      "ĠCS": 2886,
      "Ġá»Ĳ": 2887,
      "Ġá»©c": 2888,
      "ind": 2889,
      "Ġtá»ī": 2890,
      "ĠÄĲÆ°á»Ŀng": 2891,
      "Ġdá»¥c": 2892,
      "Ġdá»«ng": 2893,
      "Ġdá»įn": 2894,
      "ĠLÃªn": 2895,
      "Ġshopee": 2896,
      "ĠÄĳÃ¡m": 2897,
      "ala": 2898,
      "ĠRe": 2899,
      "jsj": 2900,
      "ĠbuÃ´n": 2901,
      "Ġnghá»ģ": 2902,
      "ĠNhá»¯ng": 2903,
      "hhhhhhhhhhhhhhhh": 2904,
      "ĠBuá»ĵn": 2905,
      "ir": 2906,
      "kc": 2907,
      "ls": 2908,
      "lv": 2909,
      "td": 2910,
      "ĵi": 2911,
      "Ġtan": 2912,
      "ĠtÆ°á»Ľng": 2913,
      "ĠÄĳÆ°Æ¡ng": 2914,
      "Ġmanh": 2915,
      "Ġhah": 2916,
      "Ġchá»ĳt": 2917,
      "Ġdong": 2918,
      "ĠgiáºŃn": 2919,
      "ĠMy": 2920,
      "Ġtá»Ľ": 2921,
      "ĠKáº¿t": 2922,
      "ĠDi": 2923,
      "ĠPhi": 2924,
      "ĠNhanh": 2925,
      "Ġchim": 2926,
      "Ġgá»Ĺ": 2927,
      "Ġxá»ĭt": 2928,
      "ĠtÃ¹y": 2929,
      "ĠGiá»ĳng": 2930,
      "Ġxoay": 2931,
      "ĠToÃłn": 2932,
      "pe": 2933,
      "ĠtÃ¹ng": 2934,
      "Ġtiá»ĩm": 2935,
      "ĠÄĳáº¥u": 2936,
      "Ġmáº½": 2937,
      "Ġheo": 2938,
      "ĠchiÃªn": 2939,
      "ĠnÃłn": 2940,
      "Ġnma": 2941,
      "Ġsong": 2942,
      "ĠdÃµi": 2943,
      "ĠrÆ°á»¡i": 2944,
      "ĠngÃ¡o": 2945,
      "Ġtrá»Ļm": 2946,
      "ĠTÃ¢m": 2947,
      "ĠCoi": 2948,
      "Ġlá»£n": 2949,
      "Ġhoang": 2950,
      "Ġtrá»±c": 2951,
      "ĠQuy": 2952,
      "Ġxá»©": 2953,
      "Ġcháº£y": 2954,
      "Ġkkkk": 2955,
      "Ġá»Ķn": 2956,
      "Ġui": 2957,
      "áº¬": 2958,
      "Ġlen": 2959,
      "Ġki": 2960,
      "ĠsÃ´ng": 2961,
      "Ġbong": 2962,
      "ĠbáºŃy": 2963,
      "ĠthÃŃ": 2964,
      "ĠphiÃªn": 2965,
      "ĠMÅ©": 2966,
      "Ġhá»©ng": 2967,
      "ĠcÃ¡t": 2968,
      "ĠNgÃły": 2969,
      "á»ĭnh": 2970,
      "ĠÄĳá»ĭch": 2971,
      "ĠthuÃª": 2972,
      "ĠÄĳá»ĳt": 2973,
      "Ġsuáº¥t": 2974,
      "Ġandroid": 2975,
      "áº¤T": 2976,
      "IN": 2977,
      "ky": 2978,
      "ly": 2979,
      "Ãļ": 2980,
      "Ġau": 2981,
      "Ĺng": 2982,
      "Ġtam": 2983,
      "ĠtÆ°á»Ŀng": 2984,
      "Ġcáº·c": 2985,
      "Ġcá»ĳc": 2986,
      "Ġcall": 2987,
      "ĠÄĳÃ¹a": 2988,
      "ĠmÃ³c": 2989,
      "ĠlÆ°á»£t": 2990,
      "ĠnhÅ©ng": 2991,
      "ĠvÄĥng": 2992,
      "Ġnáº¯m": 2993,
      "Ġsáº¯m": 2994,
      "ĠbÃły": 2995,
      "ĠngÃłn": 2996,
      "ĠtrÃ²n": 2997,
      "uan": 2998,
      "ĠTáº§m": 2999,
      "Ġmá»Ļ": 3000,
      "ĠMn": 3001,
      "ĠMÃły": 3002,
      "ĠNote": 3003,
      "Ġquáº¡t": 3004,
      "Ġlá»į": 3005,
      "ĠnghiÃªm": 3006,
      "ĠBiáº¿t": 3007,
      "ĠphÃ³": 3008,
      "Ġgiá»įt": 3009,
      "Ġká»·": 3010,
      "ĠghÃ©": 3011,
      "rom": 3012,
      "ĠKhuyÃªn": 3013,
      "ĠPhÃ¹": 3014,
      "ĠkhÃ´n": 3015,
      "ms": 3016,
      "ox": 3017,
      "ux": 3018,
      "ĠtÃ¡n": 3019,
      "ĠÄĳáº»": 3020,
      "ĠÄĳáºŃu": 3021,
      "Ġhieu": 3022,
      "Ġchay": 3023,
      "ĠkÃª": 3024,
      "Ġkáº¹o": 3025,
      "Ġtháº¯c": 3026,
      "Ġdáº¡": 3027,
      "ĠphÃłn": 3028,
      "Ġá»§a": 3029,
      "Ġhá»ķ": 3030,
      "ĠSai": 3031,
      "ĠHÆ°Æ¡ng": 3032,
      "ĠÄĲo": 3033,
      "ĠÄĲáº·c": 3034,
      "ĠBá»įn": 3035,
      "ĠÄĳÃ¡i": 3036,
      "ĠTrinh": 3037,
      "Ġtrá»©ng": 3038,
      "jdnd": 3039,
      "Ġcor": 3040,
      "ĠChÃ¢u": 3041,
      "ĠHoa": 3042,
      "ĠkÃŃn": 3043,
      "Ġmuá»Ļn": 3044,
      "ĠÆ¯ng": 3045,
      "cy": 3046,
      "date": 3047,
      "nb": 3048,
      "nv": 3049,
      "ĠcÃº": 3050,
      "ĠcÆ°á»Ľi": 3051,
      "ĠÄĳáº¡p": 3052,
      "ĠÄĳep": 3053,
      "Ġmh": 3054,
      "Ġmp": 3055,
      "ĠlÃ¡o": 3056,
      "Ġvo": 3057,
      "ĠcháºŃt": 3058,
      "Ġnáº¥y": 3059,
      "ĠsÃºng": 3060,
      "ĠthÃł": 3061,
      "Ġngá»Ļ": 3062,
      "Ã¢t": 3063,
      "Ġxáº¯n": 3064,
      "ĠqÃ¡": 3065,
      "ĠnhÆ°g": 3066,
      "Ġcá»ķng": 3067,
      "ĠHÆ°ng": 3068,
      "ĠÄĲÃ©o": 3069,
      "ĠLe": 3070,
      "ĠLan": 3071,
      "kkk": 3072,
      "ĠBÃłi": 3073,
      "ĠTrÆ°á»Ŀng": 3074,
      "ĠRáº»": 3075,
      "ĠQuÃ¢n": 3076,
      "ĠThÃ¬": 3077,
      "ĠÄĳoÃłn": 3078,
      "ĠOke": 3079,
      "ĠnghÃ¬n": 3080,
      "Ġthanks": 3081,
      "Ġruá»Ļt": 3082,
      "ĠChÃŃnh": 3083,
      "ug": 3084,
      "Ġá»ĳng": 3085,
      "ľI": 3086,
      "Ġcuá»ĳn": 3087,
      "Ġnhieu": 3088,
      "Ġváº¿t": 3089,
      "Ġniá»ģm": 3090,
      "ĠsÃ²": 3091,
      "Ġthat": 3092,
      "Ġdang": 3093,
      "Ġpt": 3094,
      "ĠthÃ¢m": 3095,
      "ĠtrÃºng": 3096,
      "ĠlÃłng": 3097,
      "Ġxáº¿p": 3098,
      "ĠTÃ¢n": 3099,
      "ĠSH": 3100,
      "Ġoff": 3101,
      "ĠNgÃ´": 3102,
      "ĠTrá»įng": 3103,
      "ĠTá»±": 3104,
      "Ġadmin": 3105,
      "Ġcap": 3106,
      "pppppppppppp": 3107,
      "vvvv": 3108,
      "ĠHá»£p": 3109,
      "Ġhehe": 3110,
      "ĠZalo": 3111,
      "Ġgoogle": 3112,
      "ĠYoutube": 3113,
      "vy": 3114,
      "Ãį": 3115,
      "Ġtáº¥u": 3116,
      "ĠtÃ³m": 3117,
      "Ġláº»": 3118,
      "Ġláº«n": 3119,
      "Ġváº©n": 3120,
      "Ġkáº¹p": 3121,
      "ĠsÆ°Æ¡ng": 3122,
      "Ġbung": 3123,
      "Ġtháº©m": 3124,
      "ĠrÃ¡c": 3125,
      "Ġngáº§u": 3126,
      "ĠTáº·ng": 3127,
      "ĠCáº£": 3128,
      "Ġmá»¥c": 3129,
      "ĠÄĲc": 3130,
      "Ġlá»ħ": 3131,
      "ĠVideo": 3132,
      "Ġláº¯ng": 3133,
      "ĠBÃłn": 3134,
      "ĠAe": 3135,
      "Ġtoang": 3136,
      "nns": 3137,
      "ĠchuÃ´ng": 3138,
      "ieng": 3139,
      "Ġkhoan": 3140,
      "jdjdjdjd": 3141,
      "Ġchá»Ŀn": 3142,
      "ĠÄĳuá»ķi": 3143,
      "alaxy": 3144,
      "dÄĳ": 3145,
      "gx": 3146,
      "ĠlÃ´": 3147,
      "Ġvv": 3148,
      "Ġhu": 3149,
      "ĠngÃ³n": 3150,
      "Ġtruy": 3151,
      "ĠtrÃ¡ng": 3152,
      "ĠgiÃ¢y": 3153,
      "ĠxÃ¬": 3154,
      "ĠMáº¡nh": 3155,
      "Ġbá»©c": 3156,
      "Ġkhui": 3157,
      "ĠhÃº": 3158,
      "ĠÄĲÃło": 3159,
      "ĠÄĲá»įc": 3160,
      "Ġokie": 3161,
      "ĠBan": 3162,
      "Ġhok": 3163,
      "ĠtÃŃm": 3164,
      "ĠXe": 3165,
      "ĠMá»Ł": 3166,
      "ggg": 3167,
      "uuu": 3168,
      "ĠPhÃ¹ng": 3169,
      "top": 3170,
      "Ġupdate": 3171,
      "ĠTrá»Ŀi": 3172,
      "Ġcorona": 3173,
      "go": 3174,
      "Ġláº¹": 3175,
      "ĠnhÃ²": 3176,
      "Ġvd": 3177,
      "Ġvao": 3178,
      "Ġvang": 3179,
      "Ġháº¥p": 3180,
      "Ġnáº¡p": 3181,
      "ĠsÆ¡n": 3182,
      "ĠsáºŃp": 3183,
      "ĠgÃłng": 3184,
      "Ġpo": 3185,
      "ĠtrÃ¹ng": 3186,
      "ĠtrÆ°á»£t": 3187,
      "ĠÄĳá»¥": 3188,
      "ĠxÃ³m": 3189,
      "ĠTQ": 3190,
      "ĠTiáº¿n": 3191,
      "ĠTÆ°á»Łng": 3192,
      "Ġvá»±c": 3193,
      "ĠCÃĵ": 3194,
      "Ġmá»ı": 3195,
      "ĠHN": 3196,
      "ĠHÃ£y": 3197,
      "Ġdá»¥": 3198,
      "Ġor": 3199,
      "ĠBá»ĳ": 3200,
      "ĠNguyÃªn": 3201,
      "ĠApp": 3202,
      "ĠNhi": 3203,
      "tting": 3204,
      "ttel": 3205,
      "ĠRa": 3206,
      "ĠRam": 3207,
      "iettel": 3208,
      "Ġrep": 3209,
      "ĠTá»§": 3210,
      "bile": 3211,
      "bw": 3212,
      "cl": 3213,
      "gon": 3214,
      "§y": 3215,
      "ĩn": 3216,
      "ĠtÃ´n": 3217,
      "Ġck": 3218,
      "Ġmá»ĳt": 3219,
      "ĠvÃ¡y": 3220,
      "ĠvÃµ": 3221,
      "Ġke": 3222,
      "Ġnáº£n": 3223,
      "Ġnáº§y": 3224,
      "ĠsÃłn": 3225,
      "áº§ng": 3226,
      "Ġxung": 3227,
      "ĠCa": 3228,
      "ĠMÃ¡": 3229,
      "ĠSang": 3230,
      "cher": 3231,
      "á»ĵm": 3232,
      "ĠVÃŃ": 3233,
      "kkd": 3234,
      "ĠBá»ĭ": 3235,
      "ĠThi": 3236,
      "Ġloz": 3237,
      "ĠNgá»": 3238,
      "ĠAnd": 3239,
      "ard": 3240,
      "ĠcÅ©g": 3241,
      "kfkf": 3242,
      "ĠNgoÃłi": 3243,
      "bg": 3244,
      "vi": 3245,
      "Ġtiá»ĥu": 3246,
      "ĠcÃ¹i": 3247,
      "ĠÄĳÃłng": 3248,
      "ĠÄĳáº±ng": 3249,
      "ĠmÆ°á»£n": 3250,
      "ĠlÃ¡i": 3251,
      "ĠlÃµi": 3252,
      "ĠnhiÃªng": 3253,
      "Ġváº·t": 3254,
      "Ġhs": 3255,
      "Ġhon": 3256,
      "Ġháº£i": 3257,
      "Ġhet": 3258,
      "Ġná»ĳt": 3259,
      "ĠthÆ°á»£ng": 3260,
      "Ġtháº£m": 3261,
      "Ġthá»ĳi": 3262,
      "ĠdÆ°Æ¡ng": 3263,
      "ĠTai": 3264,
      "ĠTá»ĳi": 3265,
      "Ġphi": 3266,
      "ĠNay": 3267,
      "Ġhá»Ŀi": 3268,
      "Ġkhá»ĳn": 3269,
      "ĠhÃ¢": 3270,
      "ĠÄĲáº¡t": 3271,
      "ĠLÆ°u": 3272,
      "Ġsá»ĳc": 3273,
      "Ġkhá»Ľp": 3274,
      "ĠxuÃ¢n": 3275,
      "jsks": 3276,
      "Ãµm": 3277,
      "Ġthuong": 3278,
      "ĠÄĲá»ģ": 3279,
      "ĠHoÃłi": 3280,
      "ĠPhÃºc": 3281,
      "ĠShipper": 3282,
      "ssssssss": 3283,
      "ÃĮNH": 3284,
      "ĠphÃ³ng": 3285,
      "lay": 3286,
      "ne": 3287,
      "tra": 3288,
      "ver": 3289,
      "Æł": 3290,
      "ĠÄĳai": 3291,
      "ĠÄĳáº§m": 3292,
      "ĠmA": 3293,
      "ĠmÃ¹": 3294,
      "ĠlÆ°á»¡ng": 3295,
      "Ġvu": 3296,
      "Ġchiáº¿u": 3297,
      "ĠnÃ´ng": 3298,
      "Ġsáº¿p": 3299,
      "Ġbáº£ng": 3300,
      "Ġbth": 3301,
      "Ġdáº¹p": 3302,
      "ĠdÃ¢m": 3303,
      "Ġráº£nh": 3304,
      "Ġxáº£y": 3305,
      "ĠTho": 3306,
      "ĠpháºŃn": 3307,
      "Ġphá»ĳi": 3308,
      "Ġcá»Ļt": 3309,
      "Ġbá»Ŀ": 3310,
      "Ġbá»Ļt": 3311,
      "ĠhÃ¹": 3312,
      "ĠHiá»ĩn": 3313,
      "ĠHÃłn": 3314,
      "ĠHiá»ĩp": 3315,
      "ĠÄĲáº·ng": 3316,
      "ĠchÃ¬": 3317,
      "anan": 3318,
      "ĠÄĳÃ³n": 3319,
      "ĠChip": 3320,
      "ĠBÃł": 3321,
      "nnd": 3322,
      "Ä©u": 3323,
      "ĠRá»ĵi": 3324,
      "ifif": 3325,
      "ĠIn": 3326,
      "ĠtgdÄĳ": 3327,
      "ĠÃĶi": 3328,
      "ĠNhá»Ŀ": 3329,
      "eeeeeeeeeeeeeeee": 3330,
      "Ġtime": 3331,
      "wwwwwwww": 3332,
      "ÃĤN": 3333,
      "hw": 3334,
      "mz": 3335,
      "tr": 3336,
      "áº®": 3337,
      "ĠtáºŃt": 3338,
      "Ġtik": 3339,
      "ĠÄĳÃº": 3340,
      "Ġhn": 3341,
      "Ġnen": 3342,
      "Ġsho": 3343,
      "ĠdÆ°ng": 3344,
      "ĠtrÃ´i": 3345,
      "Ġtruyá»ĩn": 3346,
      "ĠlÃło": 3347,
      "ĠCáº§m": 3348,
      "Ġchá»£": 3349,
      "ĠMo": 3350,
      "Ġbá»±": 3351,
      "ina": 3352,
      "Ġluon": 3353,
      "ĠLÃ¢u": 3354,
      "ĠLÃ¢n": 3355,
      "ĠLÆ°Æ¡ng": 3356,
      "ĠBÃ¹i": 3357,
      "Ġfake": 3358,
      "Ġchá»©a": 3359,
      "Ġhá»įp": 3360,
      "ĠÌ£": 3361,
      "ĠLá»Ĺi": 3362,
      "ĠtÃ¹m": 3363,
      "ndndndnd": 3364,
      "ahahahah": 3365,
      "rush": 3366,
      "ĠNghÄ©": 3367,
      "UY": 3368,
      "hr": 3369,
      "md": 3370,
      "sa": 3371,
      "uong": 3372,
      "Ľn": 3373,
      "Ġtáº¯c": 3374,
      "Ġmac": 3375,
      "ĠmÃºa": 3376,
      "Ġmixi": 3377,
      "ĠlÃ¬": 3378,
      "ĠlÃ£o": 3379,
      "Ġnhai": 3380,
      "Ġváº£": 3381,
      "Ġview": 3382,
      "Ġhiá»ģn": 3383,
      "Ġsa": 3384,
      "Ġsz": 3385,
      "Ġsay": 3386,
      "ĠbÃ³": 3387,
      "ĠbáºŃn": 3388,
      "Ġbá»ĳc": 3389,
      "Ġrau": 3390,
      "Ġreno": 3391,
      "Ġngáº¯t": 3392,
      "ĠCá»ĳ": 3393,
      "Ġmá»±c": 3394,
      "ĠMa": 3395,
      "Ġout": 3396,
      "ĠDa": 3397,
      "Ġadd": 3398,
      "á»ĭn": 3399,
      "ĠPhÆ°á»Ľc": 3400,
      "Ġis": 3401,
      "oucher": 3402,
      "ĠThá»±c": 3403,
      "ith": 3404,
      "jcjc": 3405,
      "ĠKhoa": 3406,
      "ĠhÃªn": 3407,
      "Ġá»Ĳp": 3408,
      "dit": 3409,
      "uw": 3410,
      "ĠÆ¯": 3411,
      "Ġcrush": 3412,
      "ĠmÃ´n": 3413,
      "ĠmÃ´ng": 3414,
      "Ġmic": 3415,
      "ĠlÃ´i": 3416,
      "Ġkm": 3417,
      "ĠgÆ°Æ¡ng": 3418,
      "ĠbÃ£": 3419,
      "ĠbÃ´i": 3420,
      "Ġpr": 3421,
      "Ġgiang": 3422,
      "ĠquÃ©t": 3423,
      "Ġbá»ģ": 3424,
      "Ġkháº£o": 3425,
      "Ġkhiá»ĥn": 3426,
      "Ġkhuyáº¿t": 3427,
      "Ã²a": 3428,
      "ĠÄĲáº¿n": 3429,
      "ĠBáº£n": 3430,
      "ĠDá»ĭch": 3431,
      "ĠloÃłi": 3432,
      "nnn": 3433,
      "á»ĭt": 3434,
      "ĠXinh": 3435,
      "ĠShopee": 3436,
      "bdb": 3437,
      "Ġdien": 3438,
      "ĠId": 3439,
      "ĠIphone": 3440,
      "ĠThá»©": 3441,
      "áº¾T": 3442,
      "Ġsnap": 3443,
      "Ġptpppppppppppp": 3444,
      "INH": 3445,
      "OS": 3446,
      "UB": 3447,
      "qua": 3448,
      "shi": 3449,
      "ĠtÃłn": 3450,
      "Ġcty": 3451,
      "ĠÄĳam": 3452,
      "Ġmáº»": 3453,
      "Ġchs": 3454,
      "Ġkb": 3455,
      "Ġnil": 3456,
      "Ġgai": 3457,
      "ĠgÃ£y": 3458,
      "Ġbl": 3459,
      "Ġdiá»ĩt": 3460,
      "Ġngáº§m": 3461,
      "ĠTP": 3462,
      "ĠTa": 3463,
      "ĠMi": 3464,
      "ĠMáº¥t": 3465,
      "ini": 3466,
      "ĠSP": 3467,
      "ĠÄĳÃ³i": 3468,
      "ĠCháº£": 3469,
      "áº«y": 3470,
      "ĠPham": 3471,
      "Ġthich": 3472,
      "Ġsetting": 3473,
      "ĠUS": 3474,
      "jaja": 3475,
      "ĠHuá»³nh": 3476,
      "ĠchÃ©n": 3477,
      "ĠPhÃ¡t": 3478,
      "CH": 3479,
      "OP": 3480,
      "der": 3481,
      "fy": 3482,
      "nw": 3483,
      "Łm": 3484,
      "ĠtÃº": 3485,
      "ĠcÆ¡n": 3486,
      "Ġmy": 3487,
      "ĠlÃ²i": 3488,
      "Ġlá»ĵng": 3489,
      "Ġnhi": 3490,
      "ĠvÃ¡n": 3491,
      "Ġcháº£nh": 3492,
      "Ġninh": 3493,
      "Ġsáº¥y": 3494,
      "Ġsac": 3495,
      "Ġbinh": 3496,
      "ĠtrÃ¢n": 3497,
      "ĠMk": 3498,
      "ĠMáº«u": 3499,
      "ĠcÃ¡n": 3500,
      "ĠSá»ĳ": 3501,
      "ĠHáº¿t": 3502,
      "ĠHáº±ng": 3503,
      "ĠHá»įc": 3504,
      "ĠÄĲáº§u": 3505,
      "ĠViet": 3506,
      "Ġná»Ł": 3507,
      "ĠChung": 3508,
      "ĠLá»Ļc": 3509,
      "ĠKá»ĩ": 3510,
      "Ġye": 3511,
      "Ġmá»įc": 3512,
      "Ġká»ī": 3513,
      "oom": 3514,
      "mmm": 3515,
      "iiiii": 3516,
      "ĠFB": 3517,
      "ĠUy": 3518,
      "áºłI": 3519,
      "ĠKHÃĶNG": 3520,
      "Ġgháº¿": 3521,
      "Ġlaptop": 3522,
      "ĠÃĤm": 3523,
      "ĠAndroid": 3524,
      "KI": 3525,
      "by": 3526,
      "eng": 3527,
      "ha": 3528,
      "like": 3529,
      "ry": 3530,
      "uv": 3531,
      "vt": 3532,
      "ĠÆ°á»Ľt": 3533,
      "Ġti": 3534,
      "ĠcÃły": 3535,
      "Ġcáº¥n": 3536,
      "ĠmÃºn": 3537,
      "ĠlÃ²": 3538,
      "Ġvid": 3539,
      "Ġkkkkk": 3540,
      "Ġnx": 3541,
      "Ġsoi": 3542,
      "Ġgáº¥u": 3543,
      "ĠdÃ¬": 3544,
      "Ġro": 3545,
      "ĠtrÃ¬": 3546,
      "ĠÄĳá»¥ng": 3547,
      "ĠlÃłn": 3548,
      "ĠTá»Ļc": 3549,
      "ĠTiá»ĩp": 3550,
      "ĠCÆ°á»Ŀng": 3551,
      "Ġchá»Ľ": 3552,
      "ĠHiá»ĩu": 3553,
      "ĠHCM": 3554,
      "ĠÄĲÄĥng": 3555,
      "ĠÄĲáº£ng": 3556,
      "ĠVi": 3557,
      "ĠVÃło": 3558,
      "Ġlum": 3559,
      "ĠLy": 3560,
      "ĠKiá»ģu": 3561,
      "ĠThÆ°": 3562,
      "ĠNhÆ°á»£c": 3563,
      "nnx": 3564,
      "Ġtrá»ħ": 3565,
      "ĠhÃ£m": 3566,
      "ĠphÃ¡n": 3567,
      "Ġrá»«ng": 3568,
      "ĠHoang": 3569,
      "bsb": 3570,
      "Ġokela": 3571,
      "zzz": 3572,
      "Ġvirus": 3573,
      "ĠQuan": 3574,
      "ĠhÃ³ng": 3575,
      "bdbdbdbd": 3576,
      "ncnc": 3577,
      "ĠhÃ²a": 3578,
      "ĠÄĲoÃłn": 3579,
      "ĠmAh": 3580,
      "Ġam": 3581,
      "á»µ": 3582,
      "Ġtc": 3583,
      "ĠcÆ°": 3584,
      "ĠÄĳÃŃch": 3585,
      "Ġmah": 3586,
      "ĠmÆ°á»Ľt": 3587,
      "ĠlÃ¡c": 3588,
      "Ġvuá»ĳt": 3589,
      "Ġhinh": 3590,
      "Ġgá»ĵm": 3591,
      "Ġbanh": 3592,
      "ĠbÃ³p": 3593,
      "Ġbit": 3594,
      "Ġnguyá»ħn": 3595,
      "Ġgio": 3596,
      "Ġvá»Ľ": 3597,
      "Ġphiá»ģn": 3598,
      "ĠCÆ°á»Ŀi": 3599,
      "Ġmá»¡": 3600,
      "Ġmá»ĭ": 3601,
      "ĠMáº¹": 3602,
      "Ġque": 3603,
      "Ġá»§": 3604,
      "ĠSi": 3605,
      "ĠchÃ©p": 3606,
      "ĠVy": 3607,
      "ĠVin": 3608,
      "ĠVinh": 3609,
      "Ġnhá»ĩn": 3610,
      "hhs": 3611,
      "ĠRá»": 3612,
      "ĠPháº§n": 3613,
      "tttttt": 3614,
      "ĠÄĲá»Ĺ": 3615,
      "Ġcovid": 3616,
      "ĠChá»§": 3617,
      "ĠLoáº¡i": 3618,
      "jxjx": 3619,
      "ĠJack": 3620,
      "box": 3621,
      "ctive": 3622,
      "UBG": 3623,
      "TM": 3624,
      "Tu": 3625,
      "Ġáº§m": 3626,
      "ĠmÃµm": 3627,
      "ĠlÄĥn": 3628,
      "ĠnhÄĥn": 3629,
      "Ġchang": 3630,
      "Ġchuyen": 3631,
      "Ġkiáº¿p": 3632,
      "Ġgalaxy": 3633,
      "ĠbÃŃt": 3634,
      "Ġbro": 3635,
      "Ġbluetooth": 3636,
      "Ġthai": 3637,
      "Ġpe": 3638,
      "ĠTÃłu": 3639,
      "Ġphan": 3640,
      "Ġmá»Ŀi": 3641,
      "ĠMU": 3642,
      "ĠNÃły": 3643,
      "ĠNÆ°á»Ľc": 3644,
      "Ġquá»·": 3645,
      "aming": 3646,
      "Ġtá»ĵn": 3647,
      "ĠSiÃªu": 3648,
      "ĠHO": 3649,
      "ĠHáº¡nh": 3650,
      "emote": 3651,
      "ĠquÃ¡i": 3652,
      "ĠCháº¡y": 3653,
      "ĠChiáº¿n": 3654,
      "ĠLÃ¢m": 3655,
      "ĠBáº±ng": 3656,
      "ĠThua": 3657,
      "ĠPUBG": 3658,
      "ĠÄĳá»ĵn": 3659,
      "eee": 3660,
      "ĠÄĳá»ģn": 3661,
      "Ġtag": 3662,
      "ĠQuáº£ng": 3663,
      "ĠÄĳoÃ¡n": 3664,
      "Ġapple": 3665,
      "uuuuuuuuuuuuuuuu": 3666,
      "ĠLuÃ´n": 3667,
      "áº¦N": 3668,
      "bj": 3669,
      "jo": 3670,
      "na": 3671,
      "tjd": 3672,
      "ue": 3673,
      "±t": 3674,
      "Ãĥ": 3675,
      "Ġeo": 3676,
      "Ġtn": 3677,
      "ĠtÃ´ng": 3678,
      "Ġtáº§ng": 3679,
      "ĠÄĳáº¯ng": 3680,
      "ĠmÃ¡c": 3681,
      "Ġmáº·n": 3682,
      "ĠlÃ¹i": 3683,
      "Ġnhin": 3684,
      "ĠnhÆ°á»£c": 3685,
      "Ġnhiu": 3686,
      "ĠvÃ¡": 3687,
      "Ġviet": 3688,
      "Ġhiáº¿n": 3689,
      "Ġhuyá»ģn": 3690,
      "Ġni": 3691,
      "ĠnÃ¢u": 3692,
      "ĠnÃºi": 3693,
      "ĠgÃµ": 3694,
      "Ġbik": 3695,
      "ĠbÆ¡m": 3696,
      "Ġbáº¯p": 3697,
      "ĠxÄ©u": 3698,
      "ĠTÆ°": 3699,
      "ĠTiáº¿c": 3700,
      "ĠTÃŃnh": 3701,
      "ĠMÆ°á»£t": 3702,
      "ĠMixi": 3703,
      "Ġcá»Ń": 3704,
      "Ġcá»©c": 3705,
      "ĠSA": 3706,
      "ĠHáº¡t": 3707,
      "ĠÄĲÃ³": 3708,
      "ĠÄĲinh": 3709,
      "Ġsá»ī": 3710,
      "ans": 3711,
      "ĠGhÃ": 3712,
      "ĠViettel": 3713,
      "ĠLH": 3714,
      "ĠKiá»ĥu": 3715,
      "ĠNgÃ¢n": 3716,
      "ĠTrÃ¢n": 3717,
      "Ġfla": 3718,
      "Ġsiu": 3719,
      "Ġwith": 3720,
      "ĠPhong": 3721,
      "mment": 3722,
      "Ġngá»¯": 3723,
      "ĠÄĲá»ķi": 3724,
      "Ġjack": 3725,
      "Ġnot": 3726,
      "ice": 3727,
      "ĠPhÃº": 3728,
      "ĠCHO": 3729,
      "Ġruá»ĵi": 3730,
      "ĠYouTu": 3731,
      "Ġshare": 3732,
      "ĠnhÃ²e": 3733,
      "ĠIdol": 3734,
      "ĠYouTube": 3735,
      "br": 3736,
      "fh": 3737,
      "fi": 3738,
      "io": 3739,
      "ml": 3740,
      "nk": 3741,
      "set": 3742,
      "ĠÆ°a": 3743,
      "Ġmen": 3744,
      "Ġlay": 3745,
      "ĠlÆ°á»¡i": 3746,
      "Ġcháº·n": 3747,
      "Ġchiáº¿m": 3748,
      "Ġkaka": 3749,
      "ĠnÃł": 3750,
      "Ġgu": 3751,
      "Ġgui": 3752,
      "Ġgáº¡ch": 3753,
      "Ġbáº§u": 3754,
      "ĠdÃ´": 3755,
      "Ġdoi": 3756,
      "Ġduyá»ĩt": 3757,
      "Ġriáº¿t": 3758,
      "Ġpa": 3759,
      "Ġtro": 3760,
      "ĠtrÆ°ng": 3761,
      "ĠkhÃ¢u": 3762,
      "Ġxl": 3763,
      "ĠTÃ¢y": 3764,
      "Ġvá»Ļi": 3765,
      "ĠphÆ°á»Ŀng": 3766,
      "Ġpháº¥n": 3767,
      "ĠNÄĥm": 3768,
      "Ġkhach": 3769,
      "ĠSam": 3770,
      "ĠHÃ¹ng": 3771,
      "ĠHáºŃu": 3772,
      "Ġthá»Ł": 3773,
      "Ġthá»Ľt": 3774,
      "Ġdá»ĥ": 3775,
      "Ġlá»Ńa": 3776,
      "ĠBluetooth": 3777,
      "ĠÄĳÃ£i": 3778,
      "Ġloc": 3779,
      "kkkkkk": 3780,
      "jdbd": 3781,
      "jdkd": 3782,
      "Ġbuá»Ļc": 3783,
      "Ġrá»¥ng": 3784,
      "Ġinch": 3785,
      "Ġmot": 3786,
      "jsjsjsjs": 3787,
      "jgjg": 3788,
      "keke": 3789,
      "Ġtá»ķn": 3790,
      "ĠCovid": 3791,
      "Ġcmnr": 3792,
      "ĠApple": 3793,
      "bv": 3794,
      "km": 3795,
      "op": 3796,
      "sd": 3797,
      "Ġtuyá»ĥn": 3798,
      "Ġtáº¥c": 3799,
      "ĠÄĳáº¥m": 3800,
      "ĠmÃ²": 3801,
      "ĠláºŃt": 3802,
      "Ġham": 3803,
      "Ġna": 3804,
      "Ġga": 3805,
      "Ġgáº¡t": 3806,
      "Ġthik": 3807,
      "Ġden": 3808,
      "Ġdth": 3809,
      "ĠrÃ¢u": 3810,
      "ĠrÃ²i": 3811,
      "ĠthÃ¹": 3812,
      "Ġtrao": 3813,
      "ĠtrÃłn": 3814,
      "ĠÄĳá»ĩm": 3815,
      "Ġxui": 3816,
      "ĠTÃ¬nh": 3817,
      "ĠTiá»ĩn": 3818,
      "ĠCT": 3819,
      "ĠCÃł": 3820,
      "ĠCÃģ": 3821,
      "Ġbá»įt": 3822,
      "Ġkhiáº¿p": 3823,
      "ĠSan": 3824,
      "ĠSÃ³ng": 3825,
      "ĠchÃ¨": 3826,
      "ail": 3827,
      "Ġokokok": 3828,
      "ĠVl": 3829,
      "ĠVui": 3830,
      "Ġnhá»Ł": 3831,
      "ĠBÃ¡n": 3832,
      "ĠTháº¯ng": 3833,
      "Ġhot": 3834,
      "Æ°á»Łi": 3835,
      "ĠQuÃ½": 3836,
      "ĠKhÃ³": 3837,
      "ĠÃĢ": 3838,
      "ĠÃļ": 3839,
      "Ġhic": 3840,
      "Ġself": 3841,
      "Ġcafe": 3842,
      "ĠSá»£": 3843,
      "ĠSá»¯a": 3844,
      "ĠNhá»Ľ": 3845,
      "ĠHá»¯u": 3846,
      "jeje": 3847,
      "áºµng": 3848,
      "ĠTRá»": 3849,
      "okokokokok": 3850,
      "ĠkhÃŃt": 3851,
      "Æ¯á»¢": 3852,
      "nnnnnnnnnnnnnnnnnnnnnnnnnnnnnnnn": 3853,
      "cccccccc": 3854,
      "ĠTIKI": 3855,
      "ĠÄĳÄ©a": 3856,
      "Ġauto": 3857,
      "ONG": 3858,
      "dg": 3859,
      "ding": 3860,
      "ian": 3861,
      "kh": 3862,
      "xt": 3863,
      "¢t": 3864,
      "©o": 3865,
      "Ġao": 3866,
      "ģu": 3867,
      "á»Ĳ": 3868,
      "Ġtáº§n": 3869,
      "ĠÄĳÃ¢m": 3870,
      "ĠmÃºt": 3871,
      "ĠláºŃn": 3872,
      "Ġváº¯t": 3873,
      "Ġvkl": 3874,
      "Ġhan": 3875,
      "ĠhÆ°á»Ľc": 3876,
      "Ġháº§u": 3877,
      "Ġnch": 3878,
      "Ġsáº¯t": 3879,
      "Ġgr": 3880,
      "Ġbon": 3881,
      "ĠthÆ°á»Łng": 3882,
      "Ġdz": 3883,
      "Ġngá»Ļt": 3884,
      "Ġtroi": 3885,
      "ĠxÃ¡ch": 3886,
      "ĠTÃłi": 3887,
      "Ġvá»©t": 3888,
      "Ġphiáº¿u": 3889,
      "ĠCl": 3890,
      "amam": 3891,
      "ĠSon": 3892,
      "ĠÄĲM": 3893,
      "ĠÄĲÃ´ng": 3894,
      "Ġsá»ķ": 3895,
      "ĠVÃ£i": 3896,
      "Ġnhá»ĭn": 3897,
      "Ġná»Ļ": 3898,
      "ĠKM": 3899,
      "ĠDm": 3900,
      "ĠGiáº¥y": 3901,
      "ĠTrÃºc": 3902,
      "Ġwed": 3903,
      "Ġbac": 3904,
      "Ġngá»«": 3905,
      "Ġngá»Ĺng": 3906,
      "Ġcomment": 3907,
      "jjf": 3908,
      "Ġgá»Ľm": 3909,
      "ĠYÃªn": 3910,
      "Ġnhuá»Ļm": 3911,
      "ĠBá»ı": 3912,
      "ĠÄĳuÃ´i": 3913,
      "ĠmuÃ´n": 3914,
      "hfhf": 3915,
      "alalalal": 3916,
      "ĠchÃ©m": 3917,
      "rrrrrrrr": 3918,
      "ĠGoogle": 3919,
      "Ġusb": 3920,
      "ĠSHOP": 3921,
      "EN": 3922,
      "UI": 3923,
      "dy": 3924,
      "did": 3925,
      "Ġáº¿": 3926,
      "Ġá»ĳ": 3927,
      "áºº": 3928,
      "ĠÄĳÆ°Æ¡": 3929,
      "Ġmm": 3930,
      "ĠmiÃªu": 3931,
      "Ġliá»ĩt": 3932,
      "ĠnhÃ³m": 3933,
      "Ġhuawei": 3934,
      "Ġchan": 3935,
      "Ġná»ĵng": 3936,
      "Ġnokia": 3937,
      "ĠdÃ¨": 3938,
      "ĠTá»ĳc": 3939,
      "ĠCáº§u": 3940,
      "ĠCÃ¡t": 3941,
      "ĠCÃ¡ch": 3942,
      "Ġchá»ķ": 3943,
      "Ġchá»Ł": 3944,
      "ĠMang": 3945,
      "ĠMÃ¨o": 3946,
      "ĠNV": 3947,
      "ĠNo": 3948,
      "ĠNinh": 3949,
      "Ã¹n": 3950,
      "ĠhÃ¹ng": 3951,
      "Ġtá»ĵi": 3952,
      "ĠSÃ¡ch": 3953,
      "ĠHa": 3954,
      "ĠHÃĢ": 3955,
      "ĠkhÃ¡nh": 3956,
      "ĠnghiÃªng": 3957,
      "Ġnhá»ĥ": 3958,
      "ĠLÃ½": 3959,
      "ĠLÆ°á»Ľt": 3960,
      "ĠBe": 3961,
      "ĠThiÃªn": 3962,
      "ĠDuyÃªn": 3963,
      "ĠhoÃł": 3964,
      "ĠATM": 3965,
      "ĠTrÃªn": 3966,
      "Ġphá»ıng": 3967,
      "ĠXá»ĭn": 3968,
      "Ġit": 3969,
      "Ġngá»©a": 3970,
      "Ġrá»Ŀi": 3971,
      "Ġgá»¡": 3972,
      "ĠThÃº": 3973,
      "usan": 3974,
      "yyy": 3975,
      "áº±n": 3976,
      "Ġnuoc": 3977,
      "Ġthá»§y": 3978,
      "gggggggggggggggg": 3979,
      "icker": 3980,
      "ĠÆ¯u": 3981,
      "ship": 3982,
      "jjs": 3983,
      "lw": 3984,
      "lon": 3985,
      "nt": 3986,
      "va": 3987,
      "ÄĤ": 3988,
      "ĠÃ´n": 3989,
      "įp": 3990,
      "Ġtp": 3991,
      "ĠcÄĥn": 3992,
      "ĠÄĳáº©y": 3993,
      "Ġmá»ĳi": 3994,
      "Ġmini": 3995,
      "ĠnhÃ¡i": 3996,
      "Ġvote": 3997,
      "Ġhz": 3998,
      "Ġhá»ĳt": 3999,
      "Ġchet": 4000,
      "Ġsl": 4001,
      "Ġsáº¥p": 4002,
      "Ġgg": 4003,
      "Ġbalo": 4004,
      "Ġtháº£i": 4005,
      "Ġdáº¡i": 4006,
      "ĠdáºŃp": 4007,
      "Ġdá»ĳi": 4008,
      "ĠCÆ¡": 4009,
      "ĠCÃ¹ng": 4010,
      "ĠSu": 4011,
      "chch": 4012,
      "ĠHÃ³ng": 4013,
      "ĠHell": 4014,
      "Ã©n": 4015,
      "ĠgiÃ¡m": 4016,
      "Ġsá»£i": 4017,
      "ĠLáº¯p": 4018,
      "ĠLike": 4019,
      "ĠDÅ©ng": 4020,
      "Ġloi": 4021,
      "ena": 4022,
      "ery": 4023,
      "ĠXá»": 4024,
      "idid": 4025,
      "Ġsoáº¡n": 4026,
      "ieie": 4027,
      "ime": 4028,
      "Ġios": 4029,
      "ĠQuáº¡t": 4030,
      "ndn": 4031,
      "Ġbass": 4032,
      "ĠÄĲá»§": 4033,
      "Ġjoy": 4034,
      "Ġreset": 4035,
      "Ġuá»": 4036,
      "ock": 4037,
      "ĠKhÄĥn": 4038,
      "jdjdjd": 4039,
      "ort": 4040,
      "ĠÃģnh": 4041,
      "ĠXuáº¥t": 4042,
      "okokokokokokokok": 4043,
      "Ġlite": 4044,
      "Ok": 4045,
      "bbd": 4046,
      "lx": 4047,
      "rm": 4048,
      "ys": 4049,
      "zg": 4050,
      "Ãī": 4051,
      "ĠtÃło": 4052,
      "Ġcame": 4053,
      "Ġcau": 4054,
      "ĠÄĳÃł": 4055,
      "ĠÄĳung": 4056,
      "Ġláº¡y": 4057,
      "Ġláº·ng": 4058,
      "Ġláº»o": 4059,
      "Ġvong": 4060,
      "ĠchÃłng": 4061,
      "Ġnon": 4062,
      "ĠniÃªm": 4063,
      "ĠsÃ´i": 4064,
      "ĠgÃ¡nh": 4065,
      "ĠbÃº": 4066,
      "ĠbÃŃ": 4067,
      "Ġtháº£o": 4068,
      "Ġdáº§y": 4069,
      "ĠdÃ£n": 4070,
      "ĠrÃŃt": 4071,
      "ĠngÃ¢n": 4072,
      "ĠngÅ©": 4073,
      "Ġnguyá»ĩn": 4074,
      "Ġgiáº·c": 4075,
      "ĠxÆ°Æ¡ng": 4076,
      "ĠxÄĥng": 4077,
      "Ġqa": 4078,
      "ĠCÃ¢y": 4079,
      "Ġchá»Ŀi": 4080,
      "ĠNokia": 4081,
      "ĠhÃ¢m": 4082,
      "Ġtá»Łm": 4083,
      "áº·m": 4084,
      "ĠHuawei": 4085,
      "ĠÄĲÆ¡n": 4086,
      "ĠÄĲá»Ļng": 4087,
      "Ġsá»¥t": 4088,
      "ĠVÃ´": 4089,
      "ĠVÃĢ": 4090,
      "Ġnghiá»ĩn": 4091,
      "Ġnhá»ĭ": 4092,
      "ĠÄĳinh": 4093,
      "ĠKÃŃnh": 4094,
      "ĠNhu": 4095,
      "ĠNháº¥t": 4096,
      "ĠTráº£i": 4097,
      "ĠTrend": 4098,
      "ĠTrá»ĭnh": 4099,
      "Æ°á»Ŀn": 4100,
      "Ġtuong": 4101,
      "Ġtrá»¯": 4102,
      "ragon": 4103,
      "ĠQC": 4104,
      "Ġwf": 4105,
      "Ġngoan": 4106,
      "Ġrá»§": 4107,
      "Ġnow": 4108,
      "ĠLoan": 4109,
      "ĠNhá»ı": 4110,
      "Ġbest": 4111,
      "ĠHihi": 4112,
      "hihihihi": 4113,
      "ĠThank": 4114,
      "zzzzzzzz": 4115,
      "dddddddddddddddd": 4116,
      "ĠchÃ¹i": 4117,
      "Ġhahaha": 4118,
      "Ġselfie": 4119,
      "AR": 4120,
      "ET": 4121,
      "ara": 4122,
      "bh": 4123,
      "cn": 4124,
      "fg": 4125,
      "gy": 4126,
      "ite": 4127,
      "ÃĴ": 4128,
      "Ġáº©n": 4129,
      "áº¨": 4130,
      "Ġtv": 4131,
      "Ġtks": 4132,
      "Ġtáº¡p": 4133,
      "ĠtÄ©nh": 4134,
      "Ġcáº£n": 4135,
      "ĠcÃłnh": 4136,
      "ĠÄĳÃłnh": 4137,
      "ĠmáºŃp": 4138,
      "Ġlang": 4139,
      "Ġnhen": 4140,
      "Ġvoucher": 4141,
      "Ġks": 4142,
      "Ġky": 4143,
      "Ġbáº¡i": 4144,
      "ĠbÃªnh": 4145,
      "Ġthem": 4146,
      "Ġdr": 4147,
      "Ġdá»ĳt": 4148,
      "ĠngÃłnh": 4149,
      "Ġngáº¡t": 4150,
      "ĠthÃª": 4151,
      "Ġxá»ĳp": 4152,
      "ĠCÃ¢u": 4153,
      "Ġchá»įc": 4154,
      "ĠMiáº¿ng": 4155,
      "ĠNv": 4156,
      "ĠquÃ¨": 4157,
      "ĠquÄĥng": 4158,
      "Ġbá»ī": 4159,
      "Ġhá»¥t": 4160,
      "ĠHong": 4161,
      "Ġsá»ĭn": 4162,
      "ĠVn": 4163,
      "ĠVu": 4164,
      "ĠVivo": 4165,
      "ĠBÃ¢y": 4166,
      "ĠBalo": 4167,
      "ĠphÃº": 4168,
      "ĠDe": 4169,
      "Ġactive": 4170,
      "Ġlock": 4171,
      "ĠtÃŃt": 4172,
      "ĠnhÃ©t": 4173,
      "ĠchÃºa": 4174,
      "Ġphá»©c": 4175,
      "ĠÆ¡iii": 4176,
      "ĠÆ¡iiii": 4177,
      "Ġmake": 4178,
      "ĠThÃ´ng": 4179,
      "ĠTá»ķ": 4180,
      "ĠTá»©c": 4181,
      "ĠThá»Ń": 4182,
      "Ġmobile": 4183,
      "igh": 4184,
      "nsnsnsns": 4185,
      "Ġthank": 4186,
      "Ġdmx": 4187,
      "ĠTrá»«": 4188,
      "bbbbbbbb": 4189,
      "Ġcombo": 4190,
      "mmmmmmmmmmmmmmmm": 4191,
      "ĠSize": 4192,
      "ĠHello": 4193,
      "LE": 4194,
      "kt": 4195,
      "mg": 4196,
      "py": 4197,
      "tion": 4198,
      "á»¹": 4199,
      "Ġtiep": 4200,
      "ĠcÃ¢m": 4201,
      "ĠÄĳÃ¨": 4202,
      "ĠÄĳiá»ĩu": 4203,
      "Ġmáº¿n": 4204,
      "ĠmÃ³ng": 4205,
      "ĠlÃ³": 4206,
      "ĠlÃ¢n": 4207,
      "ĠnhÃ£n": 4208,
      "Ġcháº£o": 4209,
      "ĠchÆ°á»Łng": 4210,
      "Ġsmart": 4211,
      "Ġgan": 4212,
      "Ġgáº¯t": 4213,
      "Ġbai": 4214,
      "Ġthg": 4215,
      "Ġrong": 4216,
      "Ġráº½": 4217,
      "ĠrÃ¡ng": 4218,
      "Ġtrinh": 4219,
      "ĠtrÃ³c": 4220,
      "Ġtrog": 4221,
      "Ġgiong": 4222,
      "Ġxai": 4223,
      "ĠTks": 4224,
      "ĠCÃ¡": 4225,
      "ĠMe": 4226,
      "ĠquáºŃn": 4227,
      "Ġá»«": 4228,
      "Ġkhe": 4229,
      "Ġkháº¯p": 4230,
      "Ġthá»Ŀ": 4231,
      "Ġlá»ķi": 4232,
      "ĠGá»įi": 4233,
      "ĠVote": 4234,
      "ĠDáº¡o": 4235,
      "Ġfix": 4236,
      "rab": 4237,
      "ĠChá»Ŀ": 4238,
      "bdnd": 4239,
      "ĠChÃ³": 4240,
      "ĠChÃ¢n": 4241,
      "ĠkÃ©p": 4242,
      "Ġload": 4243,
      "bbx": 4244,
      "fund": 4245,
      "ĠhÃ¨n": 4246,
      "Ġfire": 4247,
      "ĠPhá»¥c": 4248,
      "Ġshow": 4249,
      "Ġuá»ķng": 4250,
      "AT": 4251,
      "LV": 4252,
      "bn": 4253,
      "bt": 4254,
      "db": 4255,
      "dj": 4256,
      "jn": 4257,
      "kr": 4258,
      "rn": 4259,
      "¹y": 4260,
      "áº¸": 4261,
      "Ġháº±ng": 4262,
      "Ġnáº¡": 4263,
      "Ġbang": 4264,
      "Ġbáº¡o": 4265,
      "ĠdÃ¢u": 4266,
      "Ġdlv": 4267,
      "ĠrÃ¡t": 4268,
      "ĠgiÆ°á»Ŀng": 4269,
      "ĠxÃ¡m": 4270,
      "ĠTáºŃp": 4271,
      "ĠTá»Ļi": 4272,
      "Ġvá»¯ng": 4273,
      "Ġphu": 4274,
      "Ġphá»ĳt": 4275,
      "Ġphone": 4276,
      "ĠMoi": 4277,
      "Ġcá»ı": 4278,
      "Ġbá»ĵn": 4279,
      "Ġhá»©a": 4280,
      "Ġhá»ķng": 4281,
      "ĠSale": 4282,
      "ĠHe": 4283,
      "ĠHá»ĵi": 4284,
      "ĠHaha": 4285,
      "Ġthá»ı": 4286,
      "ĠÄĲáº¡i": 4287,
      "ĠÄĲiá»ģu": 4288,
      "Ġlá»¥c": 4289,
      "Äĥc": 4290,
      "ĠLam": 4291,
      "ĠBÃ¡nh": 4292,
      "ĠÄĳá»ĥu": 4293,
      "áº«m": 4294,
      "ĠThe": 4295,
      "ĠThay": 4296,
      "ppy": 4297,
      "Ġnhaaaaa": 4298,
      "ĠTrÆ°Æ¡ng": 4299,
      "Ġtuá»³": 4300,
      "Ġkhá»±ng": 4301,
      "Ġchug": 4302,
      "Ġngá»±c": 4303,
      "ĠziÃªn": 4304,
      "ĠThÃªm": 4305,
      "Ġdell": 4306,
      "ĠTHá»": 4307,
      "ffff": 4308,
      "Ġvien": 4309,
      "Ġsticker": 4310,
      "Ġmuon": 4311,
      "iá»ħu": 4312,
      "ĠChuá»Ļt": 4313,
      "ĠCuá»Ļc": 4314,
      "ĠGood": 4315,
      "ĠGá»Ńi": 4316,
      "ĠTest": 4317,
      "enger": 4318,
      "ĠMUA": 4319,
      "Ġflash": 4320,
      "Ġokokoko": 4321,
      "ĠÄĳÆ°Æ¡c": 4322,
      "UNG": 4323,
      "cg": 4324,
      "coy": 4325,
      "ge": 4326,
      "mo": 4327,
      "sjs": 4328,
      "ul": 4329,
      "xi": 4330,
      "ĠtuyÃªn": 4331,
      "Ġcáº¡o": 4332,
      "ĠÄĳg": 4333,
      "ĠÄĳáº¯n": 4334,
      "ĠÄĳag": 4335,
      "Ġmáº¡ch": 4336,
      "ĠvÃ©": 4337,
      "Ġchuyáº¿n": 4338,
      "ĠnÃłng": 4339,
      "Ġsk": 4340,
      "Ġsáº¡t": 4341,
      "ĠbÃ´": 4342,
      "ĠthÄĥm": 4343,
      "ĠdÄĥm": 4344,
      "Ãªng": 4345,
      "ĠthÃ³": 4346,
      "Ġtráº§m": 4347,
      "ĠÄĳá»¥c": 4348,
      "ĠkhÃ©o": 4349,
      "ĠTT": 4350,
      "ĠTin": 4351,
      "ĠTÃ³c": 4352,
      "ĠCO": 4353,
      "ĠmÃłi": 4354,
      "ĠMáº¡ng": 4355,
      "ĠquÃłi": 4356,
      "Ġquáº¥n": 4357,
      "Ġá»Ŀ": 4358,
      "Ġkhá»ĳi": 4359,
      "Ãºm": 4360,
      "ĠHá»į": 4361,
      "Ġthá»£": 4362,
      "ĠÄĲÃł": 4363,
      "ĠÄĲem": 4364,
      "ĠÄĲÃ´i": 4365,
      "ĠÄĲá»ĭt": 4366,
      "ĠkhÃ¡m": 4367,
      "ĠkhÃ¡ng": 4368,
      "ĠGÃ²n": 4369,
      "Ġná»¥": 4370,
      "ĠLa": 4371,
      "ĠLáº¥y": 4372,
      "ĠTháº¯m": 4373,
      "Ġat": 4374,
      "ĠGiáº£m": 4375,
      "ĠNga": 4376,
      "Ġhome": 4377,
      "Ġnhah": 4378,
      "Ġnhaaa": 4379,
      "ĠNháº¡c": 4380,
      "Ġtuc": 4381,
      "Ġfrom": 4382,
      "Ġsá»ĳt": 4383,
      "Ġex": 4384,
      "Ġkhoa": 4385,
      "ĠchÃ¡t": 4386,
      "ahaha": 4387,
      "Ġji": 4388,
      "Ġzai": 4389,
      "ĠThÃ¹y": 4390,
      "kdnd": 4391,
      "ĠTá»ķng": 4392,
      "Ġvlog": 4393,
      "Ġtuyáº¿n": 4394,
      "iÃªt": 4395,
      "ĠKháº©u": 4396,
      "ĠBá»¯a": 4397,
      "Æ¯á»ļ": 4398,
      "Æ¯á»ľI": 4399,
      "Ġhuynh": 4400,
      "ĠLÃĢM": 4401,
      "ĠUSB": 4402,
      "dragon": 4403,
      "jjd": 4404,
      "ti": 4405,
      "xg": 4406,
      "ÃĻ": 4407,
      "Ġáº»": 4408,
      "Ġjs": 4409,
      "áº¶": 4410,
      "Ġts": 4411,
      "ĠtÃºc": 4412,
      "ĠÄĳáº¯c": 4413,
      "ĠmÃ¢y": 4414,
      "Ġmáº£nh": 4415,
      "ĠmÄ©": 4416,
      "Ġlg": 4417,
      "ĠlÃ£i": 4418,
      "ĠlÄ©nh": 4419,
      "ĠnhÃ¡y": 4420,
      "Ġnháº½": 4421,
      "ĠnháºŃy": 4422,
      "ĠnháºŃu": 4423,
      "Ġvua": 4424,
      "ĠvÃ£": 4425,
      "ĠvÃ²i": 4426,
      "ĠvÃ¢ng": 4427,
      "Ġnáº¿t": 4428,
      "Ġnet": 4429,
      "Ġser": 4430,
      "Ġghe": 4431,
      "Ġbáº¡": 4432,
      "ĠbÃło": 4433,
      "Ġdáº¯t": 4434,
      "ĠrÃ¬": 4435,
      "ĠrÃ¢t": 4436,
      "ĠthÃ¢": 4437,
      "Ġtrá»ĳng": 4438,
      "ĠTáº¥n": 4439,
      "ĠMI": 4440,
      "Ġquáº¥t": 4441,
      "Ġcá»«": 4442,
      "Ġkhinh": 4443,
      "ĠhÃ¡ng": 4444,
      "ĠSÃ¡ng": 4445,
      "Ġoan": 4446,
      "Ġlá»Ŀ": 4447,
      "ank": 4448,
      "ĠGá»ĳi": 4449,
      "ĠVI": 4450,
      "ĠVá»ĭ": 4451,
      "ĠKem": 4452,
      "ĠDat": 4453,
      "Ġquai": 4454,
      "ĠPIN": 4455,
      "ĠÄĳcm": 4456,
      "Ġlogo": 4457,
      "Ġsá»ĳp": 4458,
      "Ġtá»±a": 4459,
      "tel": 4460,
      "Ġbuá»ĵi": 4461,
      "ĠÄĲá»£t": 4462,
      "Ġjo": 4463,
      "ĠzÃ´": 4464,
      "Ġcuoi": 4465,
      "ĠFrom": 4466,
      "Ġdeal": 4467,
      "Ġboss": 4468,
      "ĠThá»ĭnh": 4469,
      "ksksks": 4470,
      "Ġandroi": 4471,
      "ĠNGÆ¯á»ľI": 4472,
      "jzjz": 4473,
      "Ġtruoc": 4474,
      "iiiiiiiiiiiiiiiiiiiiiiiiiiiiiiii": 4475,
      "ĠNgoáº¡i": 4476,
      "Ġnilon": 4477,
      "ĠUyÃªn": 4478,
      "CC": 4479,
      "EO": 4480,
      "PT": 4481,
      "cs": 4482,
      "cv": 4483,
      "ft": 4484,
      "iz": 4485,
      "mc": 4486,
      "ore": 4487,
      "pu": 4488,
      "Ġik": 4489,
      "Ġáº¤": 4490,
      "ĭt": 4491,
      "ļI": 4492,
      "á»ī": 4493,
      "ĠtÃ¢n": 4494,
      "ĠtÃ¡i": 4495,
      "Ġcáº¥t": 4496,
      "Ġmieng": 4497,
      "Ġlá»ĵ": 4498,
      "Ġnháº£m": 4499,
      "Ġháº¡ng": 4500,
      "Ġchá»ĳi": 4501,
      "Ġnd": 4502,
      "ĠsÃ³t": 4503,
      "Ġsusan": 4504,
      "ĠgÃª": 4505,
      "ĠgÃ²n": 4506,
      "ĠtháºŃm": 4507,
      "Ġremote": 4508,
      "ĠngÃ¢m": 4509,
      "ĠthÃºc": 4510,
      "ĠgiÃ¹m": 4511,
      "ĠTV": 4512,
      "ĠTÃ¡o": 4513,
      "Ġphun": 4514,
      "ĠCm": 4515,
      "ĠCáº©m": 4516,
      "ĠCas": 4517,
      "ĠMic": 4518,
      "ĠMÃĮNH": 4519,
      "Ġquá»³": 4520,
      "Ġtá»©": 4521,
      "ĠSG": 4522,
      "ĠSe": 4523,
      "ĠÄĲáºŃu": 4524,
      "ĠÄĲá»ĭnh": 4525,
      "Ġbá»ĭt": 4526,
      "Ġná»Ĺ": 4527,
      "ĠChiá»ģu": 4528,
      "ĠKinh": 4529,
      "ĠDate": 4530,
      "Ġall": 4531,
      "Ġahihi": 4532,
      "ĠPubg": 4533,
      "ĠNgá»ĵi": 4534,
      "Ġnhaa": 4535,
      "ĠTrÃł": 4536,
      "ĠtuÃ½": 4537,
      "Ġkhá»ī": 4538,
      "Ġkhá»Ń": 4539,
      "Ġkhá»±a": 4540,
      "Ġchup": 4541,
      "ksn": 4542,
      "Å©a": 4543,
      "Ġthuá»·": 4544,
      "iiiiiii": 4545,
      "Ġzui": 4546,
      "Ġdat": 4547,
      "jjc": 4548,
      "Ġun": 4549,
      "ress": 4550,
      "jsjsjs": 4551,
      "oyd": 4552,
      "hxhx": 4553,
      "Ġbox": 4554,
      "ĠNHA": 4555,
      "ĠTuÃ¢n": 4556,
      "hdhdhd": 4557,
      "gioi": 4558,
      "hehehehe": 4559,
      "ĠhÃŃt": 4560,
      "ĠchÃ¹a": 4561,
      "ĠKhá»ķ": 4562,
      "tern": 4563,
      "Ġpost": 4564,
      "ĠThÃºy": 4565,
      "NN": 4566,
      "ble": 4567,
      "cu": 4568,
      "gj": 4569,
      "pq": 4570,
      "tv": 4571,
      "Ġáº©u": 4572,
      "Ġtk": 4573,
      "ĠtÃª": 4574,
      "ĠtÃ©": 4575,
      "Ġcá»ĳng": 4576,
      "Ġcáº·n": 4577,
      "ĠÄĳÃ¡y": 4578,
      "ĠÄĳÃ¹ng": 4579,
      "ĠmÃ¹ng": 4580,
      "ĠlÃ²n": 4581,
      "Ġlá»ĳi": 4582,
      "ĠlÃ£ng": 4583,
      "Ġvin": 4584,
      "Ġvinh": 4585,
      "ĠvÃ¢y": 4586,
      "Ġvá»ĳn": 4587,
      "Ġhuyá»ĩn": 4588,
      "ĠhÃłm": 4589,
      "ĠchÆ°": 4590,
      "Ġkiá»ģu": 4591,
      "ĠnÃ©": 4592,
      "Ġniá»ĩm": 4593,
      "Ġgd": 4594,
      "ĠbÃ£i": 4595,
      "ĠthÆ°a": 4596,
      "Ġdinh": 4597,
      "Ġpk": 4598,
      "Ġxao": 4599,
      "Ġpháº§m": 4600,
      "ĠCáºŃp": 4601,
      "ĠCom": 4602,
      "ĠCON": 4603,
      "ĠMC": 4604,
      "ĠMP": 4605,
      "Ġbá»ĵ": 4606,
      "inow": 4607,
      "ĠnÃ³n": 4608,
      "ĠSS": 4609,
      "ĠSn": 4610,
      "ĠHáº¡": 4611,
      "ĠHÆ¡n": 4612,
      "ÃŃn": 4613,
      "ĠVáºŃn": 4614,
      "Ġnghiá»ĩt": 4615,
      "ĠChat": 4616,
      "ĠLQ": 4617,
      "ĠLink": 4618,
      "ĠBÃ¡t": 4619,
      "ĠBÃºt": 4620,
      "ĠDÃ²ng": 4621,
      "ĠDLV": 4622,
      "Ġal": 4623,
      "Ġalo": 4624,
      "Ġyáº¿n": 4625,
      "ĠGiÃłu": 4626,
      "Ġloan": 4627,
      "ĠÄĳá»Ļt": 4628,
      "Ġhoáº¡i": 4629,
      "Ġtuá»Ļc": 4630,
      "Ġfa": 4631,
      "Ġfai": 4632,
      "jdn": 4633,
      "ĠngoÃ¡i": 4634,
      "ooo": 4635,
      "ĠÄĲá»£i": 4636,
      "Ġzá»": 4637,
      "ĠzáºŃy": 4638,
      "Ġcug": 4639,
      "Ġrá»ĩt": 4640,
      "ĠFu": 4641,
      "Ġdis": 4642,
      "stream": 4643,
      "ĠTá»¥i": 4644,
      "ĠIP": 4645,
      "ĠUá»ĳng": 4646,
      "Ġxog": 4647,
      "igig": 4648,
      "Ġnhá»Ŀn": 4649,
      "Ġplay": 4650,
      "jfjfjfjf": 4651,
      "ĠGIÃģ": 4652,
      "Ġmessenger": 4653,
      "qqqq": 4654,
      "Æ¯á»¢C": 4655,
      "didong": 4656,
      "gioididong": 4657,
      "ANG": 4658,
      "CS": 4659,
      "fd": 4660,
      "jb": 4661,
      "ltra": 4662,
      "tok": 4663,
      "vx": 4664,
      "vÅ©": 4665,
      "Ġáº¹p": 4666,
      "Ġtt": 4667,
      "Ġtau": 4668,
      "Ġtiet": 4669,
      "ĠcÃºt": 4670,
      "Ġcáº¯p": 4671,
      "Ġcáº©u": 4672,
      "ĠÄĳe": 4673,
      "Ġláº©u": 4674,
      "Ġlien": 4675,
      "ĠnhÃ£": 4676,
      "ĠnhÆ°á»Ŀng": 4677,
      "Ġváº¥t": 4678,
      "ĠvÃ¡c": 4679,
      "Ġchanh": 4680,
      "ĠchÄĥn": 4681,
      "Ġkiá»ģm": 4682,
      "Ġgá»Ļi": 4683,
      "Ġgym": 4684,
      "Ġbb": 4685,
      "Ġbáº¡ch": 4686,
      "ĠbÃºn": 4687,
      "ĠthÄĥng": 4688,
      "Ġtháº¥u": 4689,
      "Ġdd": 4690,
      "Ġdon": 4691,
      "Ġdeo": 4692,
      "ĠrÆ°á»£": 4693,
      "ĠrÃ´i": 4694,
      "Ġrui": 4695,
      "ĠrÃ£i": 4696,
      "Ġtrieu": 4697,
      "Ġtrá»įn": 4698,
      "Ġgioi": 4699,
      "áºŃc": 4700,
      "ĠTÃªn": 4701,
      "ĠTiá»ĥu": 4702,
      "Ġvá»Ł": 4703,
      "ĠphÆ¡i": 4704,
      "ĠCai": 4705,
      "ĠCuá»ĳi": 4706,
      "ĠCáº¢": 4707,
      "ĠMV": 4708,
      "ĠNs": 4709,
      "Ġhá»§y": 4710,
      "ĠSh": 4711,
      "ĠHÃ²a": 4712,
      "Ġsá»«ng": 4713,
      "ana": 4714,
      "ĠCháº¿t": 4715,
      "ĠLÃ£nh": 4716,
      "ĠBÄĥng": 4717,
      "Ġgiá»±t": 4718,
      "ĠThÆ¡m": 4719,
      "ĠDt": 4720,
      "ĠDanh": 4721,
      "Ġac": 4722,
      "Ġacc": 4723,
      "Ġhoc": 4724,
      "ĠtuÃ¢n": 4725,
      "ĠXanh": 4726,
      "ĠRiÃªng": 4727,
      "jdhd": 4728,
      "Ġwh": 4729,
      "Ġwi": 4730,
      "Ġedit": 4731,
      "ĠkhÃ³i": 4732,
      "Ġthun": 4733,
      "ĠÄĲá»¥": 4734,
      "Ġzin": 4735,
      "jje": 4736,
      "Ġgá»Łi": 4737,
      "ĠFb": 4738,
      "ĠFi": 4739,
      "ĠFor": 4740,
      "llll": 4741,
      "ĠGiÃ¡o": 4742,
      "kdk": 4743,
      "lear": 4744,
      "ĠxÃŃch": 4745,
      "Ġtgian": 4746,
      "Ġsub": 4747,
      "Ġkhuáº©n": 4748,
      "ĠÌī": 4749,
      "Ġtrading": 4750,
      "ĠQuay": 4751,
      "ĠLá»Ŀi": 4752,
      "sms": 4753,
      "ĠGiá»Ľi": 4754,
      "ĠThuáºŃn": 4755,
      "ĠÆ°ii": 4756,
      "Ġbom": 4757,
      "ĠkemvÅ©": 4758,
      "kzkz": 4759,
      "jjjjjjjj": 4760,
      "aaaaaaaaaaaaaaaaaaaaaaaaaaaaaaaa": 4761,
      "Iá»ĨT": 4762,
      "ĠPhim": 4763,
      "Ġorder": 4764,
      "Ġkey": 4765,
      "tjdtjd": 4766,
      "á»ĲC": 4767,
      "ĠÄĲMX": 4768,
      "Ġná»Ļp": 4769,
      "Iáº¾": 4770,
      "OI": 4771,
      "ber": 4772,
      "jck": 4773,
      "ko": 4774,
      "line": 4775,
      "nam": 4776,
      "ri": 4777,
      "ĠÃ¢u": 4778,
      "ģnh": 4779,
      "Ġtang": 4780,
      "Ġtiá»ĩp": 4781,
      "Ġct": 4782,
      "Ġcang": 4783,
      "Ġcáº¡n": 4784,
      "Ġcard": 4785,
      "ĠÄĳáº£": 4786,
      "ĠÄĳÃ¹i": 4787,
      "Ġmix": 4788,
      "Ġmjh": 4789,
      "ĠlÆ°á»£c": 4790,
      "ĠlÄĥng": 4791,
      "ĠlÃ¡t": 4792,
      "Ġluyá»ĩn": 4793,
      "Ġliáº¿m": 4794,
      "Ġnháº«n": 4795,
      "Ġnhuyá»ħn": 4796,
      "ĠnhÃ¡m": 4797,
      "Ġnhma": 4798,
      "ĠvÆ¡i": 4799,
      "ĠvÆ°Æ¡ng": 4800,
      "ĠvÄĳ": 4801,
      "ĠhÅ©": 4802,
      "Ġchuá»ĳi": 4803,
      "Ġkp": 4804,
      "Ġnai": 4805,
      "ĠnÃ©m": 4806,
      "Ġsx": 4807,
      "ĠbÆ¡": 4808,
      "ĠbÆ¡i": 4809,
      "ĠbÃ¹i": 4810,
      "ĠbÃºa": 4811,
      "ĠdÃª": 4812,
      "ĠdiÃªn": 4813,
      "Ġdáº»": 4814,
      "ĠdÃ¡i": 4815,
      "Ġngáº¯m": 4816,
      "Ġtre": 4817,
      "Ġtráº¡i": 4818,
      "ĠtrÃło": 4819,
      "ĠÄĳá»ĩ": 4820,
      "ĠkhÃŃch": 4821,
      "ĠxÃ³t": 4822,
      "ĠTÃ´": 4823,
      "ĠTáº£i": 4824,
      "ĠTien": 4825,
      "ĠpháºŃt": 4826,
      "ĠCá»Ļng": 4827,
      "Ġchá»Ľp": 4828,
      "ĠMin": 4829,
      "ĠMÃ£i": 4830,
      "ĠMar": 4831,
      "ĠMÃĢ": 4832,
      "Ġcá»į": 4833,
      "Ġkhg": 4834,
      "Ġkhuy": 4835,
      "Ġkhac": 4836,
      "ĠHd": 4837,
      "ĠHang": 4838,
      "ĠHiá»ģn": 4839,
      "Ġthá»¥": 4840,
      "Ġdá»Ĺi": 4841,
      "Ġoh": 4842,
      "Ġlá»įt": 4843,
      "ĠGáº¡o": 4844,
      "ĠViÃªn": 4845,
      "ĠVÃ¢ng": 4846,
      "ĠnghiÃªn": 4847,
      "ĠCháºŃm": 4848,
      "ĠLÃło": 4849,
      "ĠLÅ©": 4850,
      "ĠBF": 4851,
      "ĠBÃŃch": 4852,
      "Ġgiá»ı": 4853,
      "ĠKá»": 4854,
      "ĠKiÃªn": 4855,
      "ĠDM": 4856,
      "ĠDan": 4857,
      "ĠPro": 4858,
      "ĠNghi": 4859,
      "ĠNgoc": 4860,
      "ppp": 4861,
      "ĠAD": 4862,
      "ĠAK": 4863,
      "Ġtrá»¥c": 4864,
      "ikokokokokok": 4865,
      "Ġthoai": 4866,
      "ĠRed": 4867,
      "Ġngoai": 4868,
      "ĠsoÃ¡t": 4869,
      "Ġtat": 4870,
      "ood": 4871,
      "Ġngá»Ńi": 4872,
      "Ġrá»±c": 4873,
      "kdjd": 4874,
      "Ġshiper": 4875,
      "Ġhaizz": 4876,
      "ĠJoy": 4877,
      "áº¢N": 4878,
      "nfnf": 4879,
      "ĠNGH": 4880,
      "xxxx": 4881,
      "Ġmiui": 4882,
      "ĠtÃ´t": 4883,
      "tttttttttttttttttttttttttttttttt": 4884,
      "Ġfile": 4885,
      "inda": 4886,
      "áº¬T": 4887,
      "ĠhÃ¢hh": 4888,
      "ternet": 4889,
      "ikokokokokokOk": 4890,
      "BT": 4891,
      "da": 4892,
      "ec": 4893,
      "gf": 4894,
      "lus": 4895,
      "rs": 4896,
      "yw": 4897,
      "ĠÃ¢n": 4898,
      "ĠtÃ¡ch": 4899,
      "Ġcbi": 4900,
      "Ġmb": 4901,
      "ĠmÃŃ": 4902,
      "ĠlÃª": 4903,
      "Ġnhg": 4904,
      "Ġhahah": 4905,
      "Ġhack": 4906,
      "Ġhjh": 4907,
      "Ġchao": 4908,
      "ĠkiÃªn": 4909,
      "Ġkáº¹t": 4910,
      "ĠnÃ´": 4911,
      "Ġnuá»ĳt": 4912,
      "Ġgay": 4913,
      "Ġdj": 4914,
      "Ġdam": 4915,
      "Ġdjd": 4916,
      "Ġdnd": 4917,
      "Ġrá»ĳt": 4918,
      "ĠngÃ¡n": 4919,
      "ĠtrÃªu": 4920,
      "Ġtráº¥n": 4921,
      "ĠtrÃ£i": 4922,
      "Ġtrá»Ļn": 4923,
      "Ġgiáº£ng": 4924,
      "ĠTi": 4925,
      "ĠTáº¡": 4926,
      "ĠCM": 4927,
      "ĠCÃłi": 4928,
      "Ġmá»ģn": 4929,
      "Ġchá»«a": 4930,
      "ĠMÃ¹a": 4931,
      "Ġá»įp": 4932,
      "Ġhá»īu": 4933,
      "Ġkha": 4934,
      "Ġkhay": 4935,
      "ĠhÃ¢n": 4936,
      "ĠSa": 4937,
      "ĠSt": 4938,
      "ĠHá»ĳi": 4939,
      "Ġthá»¥t": 4940,
      "ĠÄĲÃ¢u": 4941,
      "ĠÄĲeo": 4942,
      "ĠÄĲáº§y": 4943,
      "Ġdá»Ĺ": 4944,
      "ĠchÃ¢m": 4945,
      "ĠGáº§n": 4946,
      "ĠVÃ¡y": 4947,
      "Ġná»©ng": 4948,
      "Ġná»©t": 4949,
      "ĠChai": 4950,
      "ĠChuyÃªn": 4951,
      "ĠCháº³ng": 4952,
      "ĠBA": 4953,
      "ĠBÃª": 4954,
      "ĠTháº§n": 4955,
      "ĠThiáº¿u": 4956,
      "ĠDáº§u": 4957,
      "ĠDiá»ĩu": 4958,
      "Ġyeu": 4959,
      "Ġhoan": 4960,
      "Ġtoan": 4961,
      "tton": 4962,
      "hhe": 4963,
      "Ġfl": 4964,
      "Ġthoa": 4965,
      "ĠXong": 4966,
      "ĠRáº¤T": 4967,
      "Ġkhoai": 4968,
      "ĠchÃŃn": 4969,
      "ĠchÃ³p": 4970,
      "Ġcode": 4971,
      "Ġzip": 4972,
      "nnnnn": 4973,
      "ĠThÃ¡": 4974,
      "Ġtuyet": 4975,
      "ĠThá»§y": 4976,
      "ĠmÃ£n": 4977,
      "Ġvá»ĭt": 4978,
      "hsjs": 4979,
      "Ġhá»Ĺn": 4980,
      "ĠKhÃ¡ch": 4981,
      "ĠHá»ĩ": 4982,
      "Ġthegioididong": 4983,
      "hhhhhhhhh": 4984,
      "ĠNHÆ¯": 4985,
      "ĠÄĳmx": 4986,
      "ĠbÃ¹n": 4987,
      "ĠToang": 4988,
      "ĠHuynh": 4989,
      "Ġlivestream": 4990,
      "Ġnghá»ĭch": 4991,
      "Ġfreeship": 4992,
      "cmcm": 4993,
      "ĠhÃªt": 4994,
      "ĠPhá»¥": 4995,
      "vyvy": 4996,
      "ĠÃļc": 4997,
      "ight": 4998,
      "Æ¯á»ļC": 4999,
      "ĠrÆ°á»£u": 5000,
      "ikokokokokokOkikokokokokokOk": 5001,
      "ER": 5002,
      "TT": 5003,
      "VN": 5004,
      "dkd": 5005,
      "ew": 5006,
      "gv": 5007,
      "hj": 5008,
      "hii": 5009,
      "ial": 5010,
      "pt": 5011,
      "sc": 5012,
      "sks": 5013,
      "¥y": 5014,
      "ĭnh": 5015,
      "Ġtl": 5016,
      "ĠtÃ¡t": 5017,
      "Ġcf": 5018,
      "Ġcn": 5019,
      "Ġcmm": 5020,
      "Ġcáº¡p": 5021,
      "ĠÄĳÃ©t": 5022,
      "ĠÄĳÃºt": 5023,
      "Ġmáº£": 5024,
      "Ġmá»ĳc": 5025,
      "Ġmáº¯m": 5026,
      "ĠmÆ°u": 5027,
      "ĠmÃ©p": 5028,
      "Ġleo": 5029,
      "ĠlÃ¢m": 5030,
      "Ġlá»ĳp": 5031,
      "Ġnháº·t": 5032,
      "ĠhÆ¡": 5033,
      "Ġhiáº¿p": 5034,
      "ĠchÃł": 5035,
      "Ġchinh": 5036,
      "Ġgo": 5037,
      "Ġgam": 5038,
      "Ġbk": 5039,
      "Ġbiá»ĩn": 5040,
      "Ġdn": 5041,
      "Ġdá»ĵi": 5042,
      "Ġráº¯n": 5043,
      "Ġrá»ĳi": 5044,
      "Ġráº¡p": 5045,
      "ĠngÆ°": 5046,
      "ĠngáºŃp": 5047,
      "ĠthÃ²": 5048,
      "Ġgiai": 5049,
      "Ġgiau": 5050,
      "Ġgiáº¥c": 5051,
      "ĠxÃ¢m": 5052,
      "Ġxiu": 5053,
      "ĠTay": 5054,
      "ĠTam": 5055,
      "ĠTÄĥng": 5056,
      "Ġmá»ķ": 5057,
      "Ġmá»Ľ": 5058,
      "ĠMÃ¬": 5059,
      "ĠquÃŃ": 5060,
      "Ġbá»ĵi": 5061,
      "áº¹c": 5062,
      "ĠSI": 5063,
      "ĠÄĲu": 5064,
      "ĠÄĲÆ¯á»¢C": 5065,
      "Ã©c": 5066,
      "Ġdá»«a": 5067,
      "Ġoto": 5068,
      "Ġsá»įc": 5069,
      "Ġokay": 5070,
      "ĠVÃ²ng": 5071,
      "Ġnhá»©c": 5072,
      "ĠCháº¿": 5073,
      "ĠChuyá»ĩn": 5074,
      "ĠLU": 5075,
      "ĠKÃŃch": 5076,
      "ĠThuy": 5077,
      "ĠThiá»ĩn": 5078,
      "ĠDV": 5079,
      "ĠTrc": 5080,
      "ĠTrad": 5081,
      "ali": 5082,
      "Ġkhá»ķng": 5083,
      "Ġphá»ķ": 5084,
      "Ġwe": 5085,
      "Ġwin": 5086,
      "ĠyÃªuc": 5087,
      "ĠÃłh": 5088,
      "ĠchÃ³i": 5089,
      "bdhd": 5090,
      "aaaaa": 5091,
      "nnnnnn": 5092,
      "Ġrá»Ĺ": 5093,
      "jjg": 5094,
      "jjj": 5095,
      "oup": 5096,
      "atch": 5097,
      "jff": 5098,
      "Ġtuyáº¿t": 5099,
      "led": 5100,
      "Ġnhug": 5101,
      "ĠÄĳá»ĳc": 5102,
      "ĠThá»§": 5103,
      "Ġsela": 5104,
      "ĠKháº¯c": 5105,
      "hsh": 5106,
      "Ġvir": 5107,
      "olsa": 5108,
      "ĠLá»ĩ": 5109,
      "Ġcá»¥m": 5110,
      "ĠÄĳuoc": 5111,
      "Ġbeat": 5112,
      "ĠTuá»ķi": 5113,
      "hdhdhdhd": 5114,
      "Ġghiá»ģn": 5115,
      "bcbc": 5116,
      "nznz": 5117,
      "yyyyyyyy": 5118,
      "Ġnew": 5119,
      "ĠRefund": 5120,
      "Ġhahaa": 5121,
      "ssssssssssssssss": 5122,
      "ĠThoáº¡i": 5123,
      "Ġtiktok": 5124,
      "UYá»": 5125,
      "Ġngá»«oi": 5126,
      "ĠHÃĢNG": 5127,
      "ĠthÃ³i": 5128,
      "ĠMIUI": 5129,
      "ĠFull": 5130,
      "ĠForm": 5131,
      "EL": 5132,
      "HÃłng": 5133,
      "PP": 5134,
      "SD": 5135,
      "dm": 5136,
      "ga": 5137,
      "jns": 5138,
      "kb": 5139,
      "ki": 5140,
      "pw": 5141,
      "play": 5142,
      "xh": 5143,
      "xv": 5144,
      "¤NG": 5145,
      "¨C": 5146,
      "Ġjd": 5147,
      "Ġone": 5148,
      "ĢN": 5149,
      "á»Ĺi": 5150,
      "Ġcáº©m": 5151,
      "ĠcÄĳ": 5152,
      "ĠÄĥ": 5153,
      "ĠÄĳiá»ĥn": 5154,
      "ĠÄĳuá»ĳi": 5155,
      "Ġmeo": 5156,
      "Ġmuá»ĳi": 5157,
      "ĠlÃŃt": 5158,
      "ĠlÆ°á»Ľi": 5159,
      "ĠvÄ©": 5160,
      "Ġháº¯n": 5161,
      "Ġhuyáº¿t": 5162,
      "Ġhuh": 5163,
      "Ġhqua": 5164,
      "Ġchj": 5165,
      "Ġka": 5166,
      "Ġnick": 5167,
      "Ġsáº¥u": 5168,
      "Ġsáº·c": 5169,
      "ĠgáºŃy": 5170,
      "Ġbáº»": 5171,
      "Ġtháº¯m": 5172,
      "Ġthiá»ĩp": 5173,
      "Ġdua": 5174,
      "ĠdÄ©": 5175,
      "Ġranh": 5176,
      "Ġrang": 5177,
      "ĠngÃłi": 5178,
      "ĠngÃ´i": 5179,
      "ĠngÆ°á»¡ng": 5180,
      "Ġtran": 5181,
      "ĠÄĳá»Ŀ": 5182,
      "Ġgiáº§y": 5183,
      "ĠkhÃ©t": 5184,
      "Ġxi": 5185,
      "ĠxÃ´": 5186,
      "Ġxáº»o": 5187,
      "ĠTÆ°á»Ŀng": 5188,
      "Ġvá»īa": 5189,
      "Ġphut": 5190,
      "Ġqq": 5191,
      "ĠqÃºa": 5192,
      "ĠCor": 5193,
      "ĠNÃºt": 5194,
      "ĠNÃĢ": 5195,
      "Ġbá»Ļi": 5196,
      "Ġhá»įng": 5197,
      "ĠhÃ©t": 5198,
      "iá»ģng": 5199,
      "ĠSinh": 5200,
      "ĠHieu": 5201,
      "ĠÄĲT": 5202,
      "ĠchÃ¢t": 5203,
      "ĠÄĳáº¹pHÃłng": 5204,
      "ĠVÆ°Æ¡ng": 5205,
      "Ġnghen": 5206,
      "Ġnghiep": 5207,
      "Ġluc": 5208,
      "Ġluu": 5209,
      "Ġná»ĥ": 5210,
      "ĠLO": 5211,
      "ĠLock": 5212,
      "ĠBÃ³ng": 5213,
      "ĠTham": 5214,
      "ĠThuá»ĳc": 5215,
      "ĠDÃ¡n": 5216,
      "Ġaba": 5217,
      "Ġyt": 5218,
      "ĠGiáº£i": 5219,
      "Ġhom": 5220,
      "ĠAN": 5221,
      "Ġnhaaaa": 5222,
      "ĠNha": 5223,
      "ĠTrÃ´ng": 5224,
      "ĠtÃŃp": 5225,
      "Ġff": 5226,
      "Ġfee": 5227,
      "Ġthoii": 5228,
      "Ġkhá»©": 5229,
      "ĠXÃ£": 5230,
      "jdks": 5231,
      "ĠkhoÃ¡i": 5232,
      "iiiiii": 5233,
      "Ġzoom": 5234,
      "ĠHoÃłn": 5235,
      "Ġdich": 5236,
      "iver": 5237,
      "jfj": 5238,
      "bbb": 5239,
      "Ġum": 5240,
      "ĠCá»©ng": 5241,
      "ĠKhu": 5242,
      "ttttttttt": 5243,
      "isa": 5244,
      "ĠSá»±": 5245,
      "lab": 5246,
      "Ġquyá»ĥn": 5247,
      "iger": 5248,
      "jej": 5249,
      "ĠbÃ¬a": 5250,
      "áºłN": 5251,
      "Ġká»ĭch": 5252,
      "Iá»Ĥ": 5253,
      "vsvs": 5254,
      "Ġmih": 5255,
      "ĠÄĳáº¿m": 5256,
      "bzbz": 5257,
      "jtd": 5258,
      "nxnxnxnx": 5259,
      "oooooooo": 5260,
      "ĠÃªi": 5261,
      "ĠPhÃ¡p": 5262,
      "hzhz": 5263,
      "smsmsmsm": 5264,
      "áº¬N": 5265,
      "ĠNghÄ©a": 5266,
      "Ġsmartphone": 5267,
      "ĠthÃ¢y": 5268,
      "Ġkhuya": 5269,
      "ĠTrading": 5270,
      "AI": 5271,
      "df": 5272,
      "fj": 5273,
      "jq": 5274,
      "lq": 5275,
      "ny": 5276,
      "oh": 5277,
      "shs": 5278,
      "vz": 5279,
      "¦A": 5280,
      "´n": 5281,
      "Ġuu": 5282,
      "Ġtanh": 5283,
      "Ġtáº¥n": 5284,
      "ĠcÃ£": 5285,
      "ĠcáºŃy": 5286,
      "Ġcat": 5287,
      "ĠÄĳb": 5288,
      "ĠÄĳanh": 5289,
      "ĠÄĳÃ¹": 5290,
      "ĠÄĳÃ²n": 5291,
      "ĠmÆ°á»Ŀi": 5292,
      "ĠmÃ²n": 5293,
      "ĠlÄĥm": 5294,
      "ĠliÃªm": 5295,
      "Ġnhá»ĵi": 5296,
      "ĠvÃ³n": 5297,
      "Ġvery": 5298,
      "Ġhiáº¿m": 5299,
      "Ġchac": 5300,
      "Ġkar": 5301,
      "Ġnang": 5302,
      "ĠnÃªu": 5303,
      "Ġnap": 5304,
      "Ġsg": 5305,
      "Ġgáº·m": 5306,
      "ĠbÃ¹ng": 5307,
      "Ġbia": 5308,
      "Ġblu": 5309,
      "ĠrÆ°á»Ľc": 5310,
      "Ġtren": 5311,
      "ĠtrÃºc": 5312,
      "ĠtrÃ¹m": 5313,
      "Ġxáº¡": 5314,
      "ĠxiÃªn": 5315,
      "ĠxÃ´i": 5316,
      "Ġxac": 5317,
      "ĠTC": 5318,
      "ĠTp": 5319,
      "ĠTuan": 5320,
      "Ġvá»Ŀ": 5321,
      "Ġpháº³ng": 5322,
      "ĠCÃłng": 5323,
      "ĠCay": 5324,
      "ĠCÃ¢n": 5325,
      "ĠCáº·p": 5326,
      "ĠNoi": 5327,
      "ĠNáºµng": 5328,
      "Ġhá»§": 5329,
      "Ġhá»ı": 5330,
      "ĠST": 5331,
      "ĠSáº¢N": 5332,
      "ĠHanh": 5333,
      "ĠHÃºt": 5334,
      "Ġthá»į": 5335,
      "Ġdá»įc": 5336,
      "Ġdá»±a": 5337,
      "ĠgiÃ¡n": 5338,
      "ÃŃu": 5339,
      "Ġlá»Ļc": 5340,
      "ĠGáº·p": 5341,
      "ĠVÄ©nh": 5342,
      "Ġnhá»£t": 5343,
      "Ġná»ĩm": 5344,
      "ĠChá»ĳng": 5345,
      "ĠChiáº¿c": 5346,
      "ĠChá»įn": 5347,
      "ĠBH": 5348,
      "ĠBo": 5349,
      "ĠBá»Ļt": 5350,
      "Ġrap": 5351,
      "ĠKeo": 5352,
      "ĠTháº£m": 5353,
      "Ġgames": 5354,
      "ene": 5355,
      "Ġfil": 5356,
      "ĠthÃ¡ch": 5357,
      "ers": 5358,
      "ĠXL": 5359,
      "ĠMá»Ŀi": 5360,
      "Ġsoan": 5361,
      "jsjd": 5362,
      "Ġbat": 5363,
      "Ġback": 5364,
      "Ġngá»Ńa": 5365,
      "ĠphÃ¡i": 5366,
      "Ġdata": 5367,
      "Ġcuoc": 5368,
      "Ġmade": 5369,
      "kkkkkkkkkkkk": 5370,
      "ĠThÃ¢n": 5371,
      "bsns": 5372,
      "ĠdiÃªng": 5373,
      "Ġbá»ĳn": 5374,
      "ĠCá»¦A": 5375,
      "Ġdelay": 5376,
      "Ġhaiz": 5377,
      "ĠPhÃŃ": 5378,
      "áº±g": 5379,
      "Ġmod": 5380,
      "ÃĢN": 5381,
      "jsjsj": 5382,
      "Ġstar": 5383,
      "bdbdb": 5384,
      "ĠBá»ĩnh": 5385,
      "Ġncl": 5386,
      "jgx": 5387,
      "ÃĶN": 5388,
      "ĠthÃºi": 5389,
      "ska": 5390,
      "ĠKhoáº£ng": 5391,
      "jrjr": 5392,
      "ĠCAO": 5393,
      "comm": 5394,
      "akakakak": 5395,
      "pppppppppppppppppppppppppppppppp": 5396,
      "Iá»ĨN": 5397,
      "ĠReal": 5398,
      "ĠMax": 5399,
      "ttttttt": 5400,
      "Ġpass": 5401,
      "Ġnchung": 5402,
      "ĠXá»©ng": 5403,
      "áº¨M": 5404,
      "Ġbá»īm": 5405,
      "áº¸P": 5406,
      "ÃĻNG": 5407,
      "Ġáº»m": 5408,
      "ĠCmt": 5409,
      "ĠMicro": 5410,
      "ĠSnap": 5411,
      "ĠRedmi": 5412,
      "ĠCorona": 5413,
      "Ch": 5414,
      "CAR": 5415,
      "book": 5416,
      "cj": 5417,
      "con": 5418,
      "du": 5419,
      "lh": 5420,
      "land": 5421,
      "oe": 5422,
      "press": 5423,
      "rl": 5424,
      "sn": 5425,
      "sus": 5426,
      "vc": 5427,
      "vj": 5428,
      "vo": 5429,
      "yle": 5430,
      "ĠÃ³i": 5431,
      "ĺI": 5432,
      "á»ģ": 5433,
      "ĠtÃ£": 5434,
      "Ġtáº¹o": 5435,
      "Ġcg": 5436,
      "ĠcÆ°Æ¡ng": 5437,
      "Ġcar": 5438,
      "ĠÄĳáº¡n": 5439,
      "ĠÄĳÃŃnh": 5440,
      "Ġmv": 5441,
      "Ġmiáº¿t": 5442,
      "ĠmÃ¨": 5443,
      "Ġmall": 5444,
      "ĠnhÃŃ": 5445,
      "Ġkieu": 5446,
      "Ġkáº»o": 5447,
      "ĠnÃºp": 5448,
      "Ġnta": 5449,
      "Ġsc": 5450,
      "Ġsv": 5451,
      "Ġsanh": 5452,
      "Ġsáº¡n": 5453,
      "Ġgaming": 5454,
      "ĠbÄĥn": 5455,
      "ĠbÃ¨o": 5456,
      "ĠbÃ£o": 5457,
      "Ġthiá»ĥu": 5458,
      "Ġpáº£i": 5459,
      "Ġngáº«u": 5460,
      "Ġnguyen": 5461,
      "Ġtrá»ĵng": 5462,
      "ĠÄĳá»ī": 5463,
      "Ġgiam": 5464,
      "ĠxÃł": 5465,
      "ĠTK": 5466,
      "ĠTiáº¿ng": 5467,
      "ĠphÃł": 5468,
      "ĠphÆ°á»Ľc": 5469,
      "Ġphuc": 5470,
      "ĠCÆ¡m": 5471,
      "ĠCáº¯m": 5472,
      "Ġchá»§ng": 5473,
      "ĠMÃ£": 5474,
      "ĠMiá»ģn": 5475,
      "ĠMINH": 5476,
      "ĠNÃĬN": 5477,
      "ĠNcl": 5478,
      "Ġá»ĵ": 5479,
      "Ġcá»įc": 5480,
      "ĠSáº¯p": 5481,
      "ĠSáº¿p": 5482,
      "ĠHÆ°á»Ľng": 5483,
      "ĠHuhu": 5484,
      "ĠÄĲI": 5485,
      "ĠÄĲa": 5486,
      "ĠÄĲÃĥ": 5487,
      "ĠÄĲáº¸P": 5488,
      "Äĥt": 5489,
      "Ġná»ĭnh": 5490,
      "ĠBÃ¡": 5491,
      "ĠBin": 5492,
      "ĠBáº¯n": 5493,
      "ĠBáº¿p": 5494,
      "ĠBáºłN": 5495,
      "ĠphÃ©t": 5496,
      "Ġgiá»Ŀi": 5497,
      "ĠKI": 5498,
      "ĠKO": 5499,
      "ĠKiá»ĩt": 5500,
      "ĠKá»³": 5501,
      "ĠTháº»": 5502,
      "ĠDang": 5503,
      "ĠDÃłnh": 5504,
      "Ġass": 5505,
      "Ġare": 5506,
      "Ġavt": 5507,
      "Ġloai": 5508,
      "Ã½t": 5509,
      "Ġhoáº¡ch": 5510,
      "ĠAI": 5511,
      "Ġnhat": 5512,
      "ĠNhin": 5513,
      "ĠTráº£": 5514,
      "Ġfr": 5515,
      "ĠRong": 5516,
      "ĠÆ¡ii": 5517,
      "Ġwif": 5518,
      "Ġchuc": 5519,
      "ksk": 5520,
      "ĠQuÃł": 5521,
      "Ġbar": 5522,
      "Ġthuáº§n": 5523,
      "Ġngá»±a": 5524,
      "Ġcopy": 5525,
      "Ġzing": 5526,
      "aaaaaaa": 5527,
      "Ġrá»¡": 5528,
      "Ġanti": 5529,
      "ĠFree": 5530,
      "ĠHoan": 5531,
      "ivi": 5532,
      "ĠThá»ģ": 5533,
      "akaka": 5534,
      "ccc": 5535,
      "ĠKhanh": 5536,
      "Ġinbox": 5537,
      "ity": 5538,
      "tttttttttttttt": 5539,
      "ckck": 5540,
      "Ġipad": 5541,
      "ĠLove": 5542,
      "ĠTHU": 5543,
      "ĠCHI": 5544,
      "ÃĢI": 5545,
      "áº¢I": 5546,
      "ĠGiá»įng": 5547,
      "ĠWi": 5548,
      "ĠDá»¤NG": 5549,
      "ĠÄĳun": 5550,
      "ĠNHá»": 5551,
      "ksksksks": 5552,
      "ada": 5553,
      "ÃĶI": 5554,
      "bfbf": 5555,
      "kgx": 5556,
      "anda": 5557,
      "Ġtype": 5558,
      "Ġtá»ıa": 5559,
      "gsgs": 5560,
      "ÃĤY": 5561,
      "ĠTÃºm": 5562,
      "upg": 5563,
      "áº¦U": 5564,
      "ĠÃĤu": 5565,
      "Ġcacao": 5566,
      "ÆłN": 5567,
      "ĠhÃ¹m": 5568,
      "Ġmacro": 5569,
      "ĠGhÃª": 5570,
      "ÄĤNG": 5571,
      "Ġnhá»ĭp": 5572,
      "ĠCase": 5573,
      "Ki": 5574,
      "MI": 5575,
      "TP": 5576,
      "ast": 5577,
      "do": 5578,
      "djd": 5579,
      "ey": 5580,
      "fal": 5581,
      "gt": 5582,
      "gdd": 5583,
      "gkx": 5584,
      "hb": 5585,
      "iyd": 5586,
      "kq": 5587,
      "ker": 5588,
      "nos": 5589,
      "per": 5590,
      "rp": 5591,
      "so": 5592,
      "sp": 5593,
      "sy": 5594,
      "wn": 5595,
      "xb": 5596,
      "zy": 5597,
      "¤C": 5598,
      "±u": 5599,
      "ĦN": 5600,
      "ĠtÃ¡": 5601,
      "Ġtua": 5602,
      "ĠtÆ¡i": 5603,
      "ĠtÃ¨": 5604,
      "Ġtivi": 5605,
      "ĠcÃ²": 5606,
      "Ġcá»ĳi": 5607,
      "Ġcuá»ĳc": 5608,
      "Ġcare": 5609,
      "ĠÄĳáºŃy": 5610,
      "Ġmáº¡": 5611,
      "Ġmon": 5612,
      "ĠlÃ¡ch": 5613,
      "ĠlÃŃnh": 5614,
      "Ġled": 5615,
      "ĠnhÃ´m": 5616,
      "Ġvch": 5617,
      "Ġvcc": 5618,
      "ĠvÄ©nh": 5619,
      "Ġhen": 5620,
      "Ġchá»ĳn": 5621,
      "Ġchina": 5622,
      "Ġkn": 5623,
      "Ġkiá»ĩt": 5624,
      "ĠnÃ´n": 5625,
      "ĠnÃŃt": 5626,
      "ĠsÃłng": 5627,
      "Ġsat": 5628,
      "Ġsml": 5629,
      "ĠgÄĳ": 5630,
      "ĠbáºŃc": 5631,
      "ĠdÃ²": 5632,
      "Ġdem": 5633,
      "Ġri": 5634,
      "ĠrÆ°á»£t": 5635,
      "ĠrÃłnh": 5636,
      "Ġrom": 5637,
      "ĠtráºŃt": 5638,
      "Ã¢p": 5639,
      "Ġxh": 5640,
      "ĠxÃ©": 5641,
      "ĠxÄĥm": 5642,
      "ĠTáº¯t": 5643,
      "ĠTuyáº¿t": 5644,
      "ĠTÃ¬m": 5645,
      "ĠTáº¥c": 5646,
      "Ġpháº¿": 5647,
      "Ġphá»ĵng": 5648,
      "Ġqc": 5649,
      "ĠCÆ°ng": 5650,
      "Ġmá»³": 5651,
      "Ġchá»Ľt": 5652,
      "ĠMH": 5653,
      "ĠMau": 5654,
      "ĠMik": 5655,
      "ĠNa": 5656,
      "ĠNáº¥u": 5657,
      "ĠNÃĵ": 5658,
      "Ġbá»£": 5659,
      "Ġbá»į": 5660,
      "ĠhÃ©": 5661,
      "ama": 5662,
      "ĠHK": 5663,
      "Ġthá»ķi": 5664,
      "ĠÄĲáº¥t": 5665,
      "Ġdá»Ŀi": 5666,
      "hoho": 5667,
      "ĠGb": 5668,
      "ĠVs": 5669,
      "ĠVÃłi": 5670,
      "ĠChia": 5671,
      "ĠLG": 5672,
      "ĠLive": 5673,
      "kkf": 5674,
      "ĠBI": 5675,
      "ĠBui": 5676,
      "ĠBáº£ng": 5677,
      "ĠphÃ²": 5678,
      "ĠKáº¹p": 5679,
      "ĠThuyáº¿t": 5680,
      "ĠDáº¡": 5681,
      "ĠDao": 5682,
      "ĠDell": 5683,
      "ĠDÃĤN": 5684,
      "Ġap": 5685,
      "Ġace": 5686,
      "ĠPage": 5687,
      "Ġyy": 5688,
      "iif": 5689,
      "Ġhoac": 5690,
      "ĠTrÃ¢m": 5691,
      "ĠTrÆ°á»Łng": 5692,
      "ere": 5693,
      "Ġwatch": 5694,
      "Ġchuoi": 5695,
      "ĠchiÃªu": 5696,
      "Ġngoc": 5697,
      "Ġkhoang": 5698,
      "ĠkhoÄĥn": 5699,
      "ksns": 5700,
      "tech": 5701,
      "ĠÄĲá»ĺ": 5702,
      "Ġzay": 5703,
      "Ġcuá»ĵng": 5704,
      "Ġcuá»Ļn": 5705,
      "ĠVá»Ģ": 5706,
      "ĠVá»ļI": 5707,
      "Ġxá»ī": 5708,
      "ark": 5709,
      "Ġgá»¥c": 5710,
      "hhhhh": 5711,
      "ust": 5712,
      "Ġreac": 5713,
      "Ġhix": 5714,
      "icic": 5715,
      "Ġuh": 5716,
      "ĠIt": 5717,
      "reen": 5718,
      "ĠCá»§a": 5719,
      "Ġcach": 5720,
      "ĠPhÃ²ng": 5721,
      "tttttttttt": 5722,
      "tutu": 5723,
      "ĠÌĤ": 5724,
      "ĠUi": 5725,
      "laska": 5726,
      "ĠviÃªm": 5727,
      "Ġdá»±t": 5728,
      "ĠJB": 5729,
      "osa": 5730,
      "Æ¯A": 5731,
      "ĠDá»±": 5732,
      "ĠÆ°iii": 5733,
      "ĠNHáº¬N": 5734,
      "jgz": 5735,
      "hdhdhhd": 5736,
      "xynos": 5737,
      "kwkw": 5738,
      "fup": 5739,
      "Æ¯á»ľ": 5740,
      "ĠPHáº¨M": 5741,
      "eueu": 5742,
      "ĠnhoÃ¨": 5743,
      "ĠQUÃģ": 5744,
      "ĠLuáºŃt": 5745,
      "oft": 5746,
      "ÃįNH": 5747,
      "ĠCafe": 5748,
      "ĠhÃ¹a": 5749,
      "Ġnilong": 5750,
      "Ġblut": 5751,
      "Ġmá»ĭa": 5752,
      "Ġá»§i": 5753,
      "ĠchÃ¨n": 5754,
      "ntnt": 5755,
      "Ġatm": 5756,
      "ĠRealme": 5757,
      "Cháº¥t": 5758,
      "AB": 5759,
      "AC": 5760,
      "AL": 5761,
      "CN": 5762,
      "ND": 5763,
      "RE": 5764,
      "cb": 5765,
      "com": 5766,
      "ds": 5767,
      "free": 5768,
      "gn": 5769,
      "hg": 5770,
      "hee": 5771,
      "jhd": 5772,
      "kn": 5773,
      "lz": 5774,
      "lhc": 5775,
      "mb": 5776,
      "mf": 5777,
      "oon": 5778,
      "rd": 5779,
      "rand": 5780,
      "sb": 5781,
      "soft": 5782,
      "tf": 5783,
      "£m": 5784,
      "¥a": 5785,
      "°C": 5786,
      "ÃĿ": 5787,
      "Ġáº¥u": 5788,
      "ĮI": 5789,
      "ım": 5790,
      "ĶI": 5791,
      "Ġtia": 5792,
      "ĠtáºŃu": 5793,
      "ĠtiÃªm": 5794,
      "Ġttttttttttttttttt": 5795,
      "Ġtieng": 5796,
      "Ġcv": 5797,
      "ĠcÃło": 5798,
      "ĠcÃºng": 5799,
      "ĠÄĳx": 5800,
      "ĠÄĳong": 5801,
      "Ġmui": 5802,
      "Ġln": 5803,
      "Ġls": 5804,
      "Ġlz": 5805,
      "Ġliá»ģu": 5806,
      "Ġláº§u": 5807,
      "ĠlÃºa": 5808,
      "Ġliá»ģm": 5809,
      "ĠlÃ¹n": 5810,
      "Æ°Æ¡n": 5811,
      "ĠnhÃ¡nh": 5812,
      "ĠvÆ¡": 5813,
      "Ġvll": 5814,
      "Ġvvv": 5815,
      "ĠvÃªnh": 5816,
      "Ġhp": 5817,
      "Ġhá»ĳ": 5818,
      "Ġnan": 5819,
      "ĠnÆ°a": 5820,
      "Ġsen": 5821,
      "Ġsad": 5822,
      "Ġsena": 5823,
      "Ġgem": 5824,
      "Ġgáº¯m": 5825,
      "Ġgrab": 5826,
      "Ġbáº¿t": 5827,
      "ĠbiÃªn": 5828,
      "ĠbÆ°ng": 5829,
      "Ġbáº£y": 5830,
      "Ġthong": 5831,
      "Ġthuyá»ģn": 5832,
      "Ġthiet": 5833,
      "Ġrd": 5834,
      "Ġrá»ĵng": 5835,
      "ĠrÃ£nh": 5836,
      "Ġpupg": 5837,
      "ĠngÆ¡": 5838,
      "ĠthÃ©p": 5839,
      "ĠtrÃ¡": 5840,
      "Ġtráº·c": 5841,
      "ĠgiÆ¡": 5842,
      "ĠgiÃłnh": 5843,
      "Ġgiáº¥u": 5844,
      "Ġgirl": 5845,
      "ĠxÃ¡": 5846,
      "ĠTO": 5847,
      "ĠTinh": 5848,
      "ĠTiáº¿p": 5849,
      "Ġphat": 5850,
      "Ġpháº«u": 5851,
      "ĠCÃĶNG": 5852,
      "Ġchá»£t": 5853,
      "ĠMB": 5854,
      "ĠMO": 5855,
      "ĠMs": 5856,
      "ĠMng": 5857,
      "ĠMiá»ħn": 5858,
      "ĠMiá»ĩng": 5859,
      "ĠNÃło": 5860,
      "ĠNÃ³ng": 5861,
      "ĠNow": 5862,
      "ĠNAM": 5863,
      "ĠquÃ£ng": 5864,
      "Ġá»¨": 5865,
      "Ġá»Ľt": 5866,
      "Ġbá»ıng": 5867,
      "Ġhá»ĩt": 5868,
      "ĠcÃ¡u": 5869,
      "Ġkhiáº¿u": 5870,
      "Ġtá»ıi": 5871,
      "ĠSen": 5872,
      "ĠSing": 5873,
      "ĠHic": 5874,
      "ĠHÃ£ng": 5875,
      "Ġthá»§ng": 5876,
      "ĠÄĲH": 5877,
      "ĠÄĲÃ¨n": 5878,
      "ĠgiÃ¡p": 5879,
      "Ġlá»§": 5880,
      "Ġlá»§ng": 5881,
      "Ġlá»ĩnh": 5882,
      "ant": 5883,
      "Ġokee": 5884,
      "Ġokkkkkkk": 5885,
      "Æ°á»Ľm": 5886,
      "ĠGH": 5887,
      "ĠVoucher": 5888,
      "ĠVIá»ĨT": 5889,
      "Ġnhá»¡": 5890,
      "ĠluÃ´ng": 5891,
      "ĠChui": 5892,
      "Ġshopp": 5893,
      "ĠBh": 5894,
      "ĠBi": 5895,
      "ĠBáº¥t": 5896,
      "ĠBÃ´ng": 5897,
      "ĠNgay": 5898,
      "ĠANH": 5899,
      "ĠNháº¹": 5900,
      "ĠTrÃ¢u": 5901,
      "ĠTriá»ĩu": 5902,
      "Ã¨m": 5903,
      "ĠnhÃłm": 5904,
      "Ġsil": 5905,
      "ĠOff": 5906,
      "Ġdcm": 5907,
      "ĠPhuong": 5908,
      "ool": 5909,
      "Ġngá»¡": 5910,
      "ĠphÃ¡o": 5911,
      "ahs": 5912,
      "Ġcut": 5913,
      "Ġmag": 5914,
      "Ġmak": 5915,
      "Ġrá»ı": 5916,
      "Ġxá»ı": 5917,
      "nsjs": 5918,
      "kdkf": 5919,
      "Ġdiem": 5920,
      "Ġnova": 5921,
      "ĠTá»ĩ": 5922,
      "ĠkÃ¨o": 5923,
      "Ġultra": 5924,
      "Ġthis": 5925,
      "ĠCá»¥c": 5926,
      "ĠKhang": 5927,
      "Ġdel": 5928,
      "ĠPhÃ¢n": 5929,
      "mera": 5930,
      "uuuuu": 5931,
      "ish": 5932,
      "ĠKhÃ¡c": 5933,
      "ĠTHáº¤": 5934,
      "ĠTHÃĮ": 5935,
      "ĠÌĥ": 5936,
      "ubik": 5937,
      "old": 5938,
      "ĠLá»¡": 5939,
      "ĠNhá»±a": 5940,
      "ĠBá»Ľt": 5941,
      "ĠBá»Łi": 5942,
      "ĠThuá»·": 5943,
      "ĠhÃ¡n": 5944,
      "nsnsns": 5945,
      "Ġsdt": 5946,
      "ĠTop": 5947,
      "yyyyttttttttt": 5948,
      "ĠQUá»ĲC": 5949,
      "baba": 5950,
      "ĠGIA": 5951,
      "hhhhhhhhhhhhhhhhhhhhhhhhhhhhhhhh": 5952,
      "ĠQuynh": 5953,
      "Ġkiem": 5954,
      "ĠthÃŃnh": 5955,
      "ÃļC": 5956,
      "ĠNgá»§": 5957,
      "wwwwwwwwwwwwwwww": 5958,
      "mzmz": 5959,
      "Ġtikinow": 5960,
      "Ġhnay": 5961,
      "ĠlÃ¬n": 5962,
      "Ġsnapdragon": 5963,
      "ĠCÃģC": 5964,
      "ĠClip": 5965,
      "rrrrrrrrrrrrrrrr": 5966,
      "Ġá»ĳm": 5967,
      "bbxbxbx": 5968,
      "Ġthá»ıa": 5969,
      "ĠtuÃ½p": 5970,
      "pqpq": 5971,
      "Ġhjhj": 5972,
      "Ġvirut": 5973,
      "Ġfilm": 5974,
      "commend": 5975,
      "ĠMicrosoft": 5976,
      "CARAB": 5977,
      "ttttttttttttttyyyyttttttttt": 5978,
      "Ġtttttttttttttttttttttttt": 5979,
      "ID": 5980,
      "KH": 5981,
      "Ná»Ļi": 5982,
      "OO": 5983,
      "OU": 5984,
      "PS": 5985,
      "Uá»": 5986,
      "aja": 5987,
      "cjc": 5988,
      "gjx": 5989,
      "ji": 5990,
      "kak": 5991,
      "lb": 5992,
      "lhx": 5993,
      "mw": 5994,
      "oa": 5995,
      "oq": 5996,
      "uo": 5997,
      "vb": 5998,
      "vn": 5999,
      "we": 6000,
      "xk": 6001,
      "ĠÃ³": 6002,
      "ĠÃºp": 6003,
      "ĲNG": 6004,
      "ĴI": 6005,
      "Ľc": 6006,
      "Ġtáº£n": 6007,
      "Ġtiá»ĩt": 6008,
      "ĠtÄĥn": 6009,
      "Ġtiá»ĩc": 6010,
      "Ġtone": 6011,
      "Ġtáº¹t": 6012,
      "Ġce": 6013,
      "ĠcÃ´n": 6014,
      "Ġcáº¡ch": 6015,
      "ĠÄĳao": 6016,
      "ĠÄĳua": 6017,
      "ĠÄĳiá»ĩp": 6018,
      "ĠÄĳáº¯p": 6019,
      "ĠmÃ³": 6020,
      "ĠmÃ©": 6021,
      "Ġmáº§m": 6022,
      "ĠmÃºi": 6023,
      "Ġmáº¯ng": 6024,
      "Ġlá»ĳ": 6025,
      "Ġlanh": 6026,
      "ĠlÃºn": 6027,
      "Ġnháº¥p": 6028,
      "Ġnhiá»ħu": 6029,
      "Ġvk": 6030,
      "ĠvÃª": 6031,
      "Ġhc": 6032,
      "Ġhung": 6033,
      "Ġhcm": 6034,
      "ĠchÆ°á»Łi": 6035,
      "Ġku": 6036,
      "Ġkiu": 6037,
      "Ġnk": 6038,
      "Ġnn": 6039,
      "Ġnong": 6040,
      "ĠnÃ¡ch": 6041,
      "Ġnáº¥c": 6042,
      "Ġneu": 6043,
      "ĠsÃ¡": 6044,
      "Ġstt": 6045,
      "ĠgáºŃp": 6046,
      "ĠgÃ³t": 6047,
      "ĠbÆ°u": 6048,
      "Ġbla": 6049,
      "Ġráº¯c": 6050,
      "ĠngÃ³": 6051,
      "ĠngÃ´": 6052,
      "Ġtriá»ģu": 6053,
      "ĠtrÄĥng": 6054,
      "Ġtrá»Ļi": 6055,
      "Ġtrym": 6056,
      "ĠTiáº¿t": 6057,
      "ĠTik": 6058,
      "ĠTgdd": 6059,
      "Ġphe": 6060,
      "Ġpho": 6061,
      "Ġmá»ĩnh": 6062,
      "Ġmá»Ļc": 6063,
      "ĠcÃ³c": 6064,
      "ĠMÃ´": 6065,
      "ĠMac": 6066,
      "ĠNO": 6067,
      "ĠNc": 6068,
      "ĠNáº£n": 6069,
      "ĠNAY": 6070,
      "Ġá»ī": 6071,
      "Ġá»ľ": 6072,
      "int": 6073,
      "ont": 6074,
      "ĠSE": 6075,
      "ĠSd": 6076,
      "ĠSim": 6077,
      "ĠSCARAB": 6078,
      "ĠHhhhhhhhhh": 6079,
      "ĠÄĲÃłi": 6080,
      "ĠÄĲau": 6081,
      "ĠÄĲÆ°a": 6082,
      "ĠÄĲáºŃp": 6083,
      "Ġdá»Ļi": 6084,
      "ÃŃa": 6085,
      "Ġsá»¹": 6086,
      "Ġlá»©a": 6087,
      "Ġlá»ģu": 6088,
      "ĠGÃł": 6089,
      "ĠGá»įn": 6090,
      "ĠGalaxy": 6091,
      "ĠVÃłng": 6092,
      "ĠViáº¿t": 6093,
      "ĠÄĳiÃªu": 6094,
      "ĠChuyá»ĥn": 6095,
      "ĠLai": 6096,
      "ĠLÃ²ng": 6097,
      "kkz": 6098,
      "ĠBáº£": 6099,
      "ĠBÆ°á»Ľc": 6100,
      "ĠBá»įc": 6101,
      "ĠBÃ¡o": 6102,
      "ĠKb": 6103,
      "ĠKkk": 6104,
      "ĠDK": 6105,
      "ĠDc": 6106,
      "ĠDiá»ĩn": 6107,
      "ĠDiá»ĩp": 6108,
      "ĠDiá»ħm": 6109,
      "ĠPlus": 6110,
      "ĠGiÃł": 6111,
      "ĠGiáº·t": 6112,
      "ĠGiÃºp": 6113,
      "Ġhá»Ļt": 6114,
      "Ġhop": 6115,
      "ĠAB": 6116,
      "Ġtoáº£": 6117,
      "ĠTri": 6118,
      "ĠTranh": 6119,
      "ĠTroi": 6120,
      "ĠTrum": 6121,
      "nnf": 6122,
      "ĠthÃ¡g": 6123,
      "ĠQuyá»ģn": 6124,
      "Ġthoáº£": 6125,
      "ĠRemote": 6126,
      "ĠOng": 6127,
      "ĠOPP": 6128,
      "iec": 6129,
      "Ġtá»±Ná»Ļi": 6130,
      "ĠÄĲá»Ŀi": 6131,
      "ĠÄĲá»±ng": 6132,
      "ĠÄĲá»īnh": 6133,
      "ĠÃĬ": 6134,
      "ĠÃĵ": 6135,
      "ĠbÃ©n": 6136,
      "ĠVá»£": 6137,
      "Ġrá»ī": 6138,
      "Ġrá»ķ": 6139,
      "hhhhhh": 6140,
      "ĠchÃªnh": 6141,
      "ĠHot": 6142,
      "rome": 6143,
      "ĠTá»Ľi": 6144,
      "Ġduty": 6145,
      "jfnf": 6146,
      "icon": 6147,
      "ĠCá»§": 6148,
      "itch": 6149,
      "ord": 6150,
      "Ġsuc": 6151,
      "isfree": 6152,
      "ĠTHI": 6153,
      "ĠTHÃĶNG": 6154,
      "ÃĢNH": 6155,
      "áº¢O": 6156,
      "Ġclm": 6157,
      "Ġstyle": 6158,
      "ĠNHÃĢ": 6159,
      "tobe": 6160,
      "ĠTRUNG": 6161,
      "ĠmÃ¬n": 6162,
      "ĠvÃŃa": 6163,
      "ĠSoáº¡n": 6164,
      "ĠQUY": 6165,
      "gitech": 6166,
      "Ġdkm": 6167,
      "ĠNghá»ī": 6168,
      "kvkv": 6169,
      "ĠCHá»Ī": 6170,
      "ĠCHá»Ĭ": 6171,
      "kkkkkkkkkkkkkkkkkkkkkkkkkkkkkkkkkkkkkkkkkkkkkkkkkkkkkkkkkkkkkkkk": 6172,
      "vvvvvvvv": 6173,
      "ĠchÃ¬a": 6174,
      "ĠÄĳÃºg": 6175,
      "ĠMobi": 6176,
      "ĠMobile": 6177,
      "Ġprime": 6178,
      "nnnnnnnnnnnnnnnnnnnnnnnnnnnnnnnnnnnnnnnnnnnnnnnnnnnnnnnnnnnnnnnn": 6179,
      "ÃĴNG": 6180,
      "Ġdriver": 6181,
      "Ġáº¤n": 6182,
      "Ġdislike": 6183,
      "Ġdonate": 6184,
      "ĠMinn": 6185,
      "ĠKá»ĥ": 6186,
      "ĠTiKi": 6187,
      "lablab": 6188,
      "Ġblue": 6189,
      "Æ¯á»ľNG": 6190,
      "Anh": 6191,
      "Do": 6192,
      "Kh": 6193,
      "PU": 6194,
      "cr": 6195,
      "dhd": 6196,
      "jai": 6197,
      "jks": 6198,
      "kj": 6199,
      "kin": 6200,
      "lan": 6201,
      "ohx": 6202,
      "puf": 6203,
      "sj": 6204,
      "vw": 6205,
      "®A": 6206,
      "Ġáºł": 6207,
      "ĲT": 6208,
      "Ġtáº¡": 6209,
      "ĠtÃ¡m": 6210,
      "ĠtÃ©p": 6211,
      "ĠtÃ²a": 6212,
      "ĠcÃºc": 6213,
      "Ġcá»ĳt": 6214,
      "ĠÄĳÅ©a": 6215,
      "ĠmÃ³i": 6216,
      "Ġmiáº¿n": 6217,
      "ĠlÆ¡": 6218,
      "Ġláº¡m": 6219,
      "Ġláº¥p": 6220,
      "ĠlÃ©m": 6221,
      "hÃ¨o": 6222,
      "Ġnháº¯m": 6223,
      "Ġnhá»ĳt": 6224,
      "Ġváº¥p": 6225,
      "Ġváº¯ng": 6226,
      "ĠvÆ°á»Ŀn": 6227,
      "Ġht": 6228,
      "Ġhem": 6229,
      "ĠhÆ°ng": 6230,
      "ĠhÆ¡m": 6231,
      "Ġchau": 6232,
      "ĠchÆ°á»Ľc": 6233,
      "ĠchÄĥc": 6234,
      "ĠsÃ¬": 6235,
      "Ġsua": 6236,
      "ĠsÃ©t": 6237,
      "ĠsÃºp": 6238,
      "ĠsÃłm": 6239,
      "ĠgÃłi": 6240,
      "Ġgáº§y": 6241,
      "ĠgÃ¡c": 6242,
      "Ġgat": 6243,
      "Ġby": 6244,
      "Ġbáº§n": 6245,
      "Ġtháº§m": 6246,
      "Ġtháº§u": 6247,
      "ĠdÆ°á»£c": 6248,
      "ĠdÃłn": 6249,
      "ĠrÃ²": 6250,
      "Ġnga": 6251,
      "ĠngÃ¢y": 6252,
      "Ġngáº¡c": 6253,
      "ĠngÃµ": 6254,
      "ĠngáºŃm": 6255,
      "ĠÄĳá»į": 6256,
      "ĠÄĳá»Ĺi": 6257,
      "ĠÄĳá»±c": 6258,
      "ĠÄĳá»Ľp": 6259,
      "Ġxs": 6260,
      "ĠxÃ¹": 6261,
      "Ġxau": 6262,
      "ĠxÃ´ng": 6263,
      "ĠTA": 6264,
      "ĠTy": 6265,
      "ĠTÃ¡c": 6266,
      "ĠTuyá»ģn": 6267,
      "ĠTáºłI": 6268,
      "ĠTÃŃn": 6269,
      "Ġphanh": 6270,
      "ĠCung": 6271,
      "ĠCÆ°Æ¡ng": 6272,
      "Ġmá»ī": 6273,
      "Ġmá»Ļng": 6274,
      "ĠMu": 6275,
      "ĠMáºł": 6276,
      "ĠNho": 6277,
      "ĠNáº¡p": 6278,
      "ĠNá»ĩ": 6279,
      "ĠquáºŃt": 6280,
      "Ġquoc": 6281,
      "Ġcá»Ľ": 6282,
      "onic": 6283,
      "ĠHP": 6284,
      "ĠHÃłnh": 6285,
      "ĠHiá»ĥu": 6286,
      "ĠHá»Ļi": 6287,
      "ĠHSD": 6288,
      "ĠÄĲáº¥y": 6289,
      "ĠÄĲÃªm": 6290,
      "ĠÄĲá»ĳi": 6291,
      "Ġtá»ĳng": 6292,
      "Ġdá»¡": 6293,
      "Ġsá»į": 6294,
      "Ġokk": 6295,
      "Ġokeeee": 6296,
      "Ġokkkkkkkkkkkkkkkkk": 6297,
      "ĠGD": 6298,
      "ĠGu": 6299,
      "ĠGhi": 6300,
      "ĠVan": 6301,
      "ĠVOS": 6302,
      "Ġná»¡": 6303,
      "ĠChe": 6304,
      "ĠChá»ĳt": 6305,
      "ĠLau": 6306,
      "ĠLÆ°á»£ng": 6307,
      "ĠLag": 6308,
      "ĠLÃĬN": 6309,
      "ĠLáºłI": 6310,
      "kke": 6311,
      "Ġshoppe": 6312,
      "ĠBáºŃt": 6313,
      "ĠBáº¥m": 6314,
      "ĠThÃł": 6315,
      "ĠThao": 6316,
      "ĠPC": 6317,
      "ĠPho": 6318,
      "ĠNghÃ¨o": 6319,
      "ĠAM": 6320,
      "ĠAdd": 6321,
      "Ġtoc": 6322,
      "Ġtoáº¹t": 6323,
      "ĠTrÃŃ": 6324,
      "ĠTráº»": 6325,
      "ĠTruyá»ĩn": 6326,
      "nnc": 6327,
      "ĠXÃłm": 6328,
      "ĠRÃµ": 6329,
      "jdjs": 6330,
      "ĠwÃ¡": 6331,
      "Ġwep": 6332,
      "Ġdoc": 6333,
      "Ġexynos": 6334,
      "Ġkhoáº£nh": 6335,
      "ĠPháº£n": 6336,
      "ĠPháºŃt": 6337,
      "ĠiOS": 6338,
      "ĠQuoc": 6339,
      "ĠchÃ¡o": 6340,
      "ife": 6341,
      "ĠÃįt": 6342,
      "ace": 6343,
      "Ġje": 6344,
      "ĠdÃ¹g": 6345,
      "Ġzi": 6346,
      "Ġzá»ĭ": 6347,
      "aaaaaa": 6348,
      "Ġrá»§a": 6349,
      "ĠEo": 6350,
      "jjz": 6351,
      "Ġgá»Ŀ": 6352,
      "outer": 6353,
      "use": 6354,
      "ĠquyÃªn": 6355,
      "Ġhiu": 6356,
      "Ġhigh": 6357,
      "bsjs": 6358,
      "bsite": 6359,
      "ath": 6360,
      "Ġduong": 6361,
      "bbf": 6362,
      "ĠICM": 6363,
      "ĠKhong": 6364,
      "ĠKhai": 6365,
      "nxn": 6366,
      "Ġinternet": 6367,
      "Ġcase": 6368,
      "jdjdnd": 6369,
      "ggggggg": 6370,
      "Äĳt": 6371,
      "ĠTHP": 6372,
      "ĠSá»Ŀ": 6373,
      "jxj": 6374,
      "Ġyoutobe": 6375,
      "Ġviu": 6376,
      "Ġhahh": 6377,
      "ĠHá»ıi": 6378,
      "Ġghim": 6379,
      "ĠThuá»³": 6380,
      "ĠÆ°iiii": 6381,
      "ĠNHáº¤T": 6382,
      "Ġhihihi": 6383,
      "ĠNGAY": 6384,
      "Ġrun": 6385,
      "ĠKHI": 6386,
      "ĠKHá»": 6387,
      "Ġghen": 6388,
      "ĠChÃ¡u": 6389,
      "hcm": 6390,
      "udud": 6391,
      "jvjv": 6392,
      "ĠKhoÃ¡": 6393,
      "ĠSoan": 6394,
      "tttttttttttttttttttttttttt": 6395,
      "ÃĤU": 6396,
      "Ġokila": 6397,
      "Ġvailon": 6398,
      "hvhv": 6399,
      "kksks": 6400,
      "Ġmlem": 6401,
      "ĠCSKH": 6402,
      "ĠhÃ¢y": 6403,
      "ÆłI": 6404,
      "ĠchÃ¬m": 6405,
      "ĠInDo": 6406,
      "eeeeeeeeeeeeeeeeeeeeeeeeeeeeeeee": 6407,
      "ndndndndndndndnd": 6408,
      "Ġkkkkkk": 6409,
      "ĠCÃģI": 6410,
      "cccccccccccccccc": 6411,
      "amamamam": 6412,
      "dddddddddddddddddddddddddddddddd": 6413,
      "áº¶NG": 6414,
      "Ġnháº½o": 6415,
      "Ġcá»«i": 6416,
      "Ġytb": 6417,
      "Ġkarao": 6418,
      "Ġhá»ıa": 6419,
      "ĠLGBT": 6420,
      "iififif": 6421,
      "Ġreaction": 6422,
      "ĠÌĤÌ": 6423,
      "ĠJBL": 6424,
      "ĠTrump": 6425,
      "ĠOPPO": 6426,
      "KhÄĥn": 6427,
      "II": 6428,
      "MM": 6429,
      "Sáº£n": 6430,
      "XH": 6431,
      "bank": 6432,
      "dr": 6433,
      "dnd": 6434,
      "duc": 6435,
      "gkd": 6436,
      "jnh": 6437,
      "lal": 6438,
      "msms": 6439,
      "no": 6440,
      "ph": 6441,
      "ple": 6442,
      "rt": 6443,
      "sw": 6444,
      "znz": 6445,
      "zada": 6446,
      "Å¨": 6447,
      "ĠÃºc": 6448,
      "ĢU": 6449,
      "ĤN": 6450,
      "ĮN": 6451,
      "Ńng": 6452,
      "ĠtÃł": 6453,
      "ĠtÃ¡p": 6454,
      "ĠtÃ©m": 6455,
      "Ġtiger": 6456,
      "Ġcb": 6457,
      "Ġcj": 6458,
      "ĠcÆ°a": 6459,
      "Ġcuu": 6460,
      "ĠcÃºp": 6461,
      "Ġccc": 6462,
      "Ġmem": 6463,
      "Ġmáº¡c": 6464,
      "Ġmáº§u": 6465,
      "ĠlÃ¹ng": 6466,
      "Ġlem": 6467,
      "ĠlÃ´n": 6468,
      "ĠlÆ°á»Ŀng": 6469,
      "Ġláº§y": 6470,
      "ĠlÃ¨": 6471,
      "ĠlÃ¡ng": 6472,
      "Ġláº¥m": 6473,
      "Ġlá»ĳc": 6474,
      "Ġlone": 6475,
      "Ġluyáº¿n": 6476,
      "ĠnhÃ³": 6477,
      "Ġnham": 6478,
      "ĠnhÃ¢y": 6479,
      "ĠnhÃŃch": 6480,
      "ĠvÃ¨o": 6481,
      "Ġhg": 6482,
      "Ġhm": 6483,
      "Ġhau": 6484,
      "Ġháº¯c": 6485,
      "Ġhiá»ĩp": 6486,
      "Ġchong": 6487,
      "ĠkiÃªng": 6488,
      "ĠnÃ´i": 6489,
      "ĠnÃ£y": 6490,
      "Ġsns": 6491,
      "Ġgel": 6492,
      "Ġbj": 6493,
      "Ġbáº¿": 6494,
      "ĠbÃ³n": 6495,
      "Ġbook": 6496,
      "Ġbjo": 6497,
      "ĠbÆ°á»Ľm": 6498,
      "Ġtháº¯t": 6499,
      "ĠtháºŃp": 6500,
      "Ġdh": 6501,
      "Ġdx": 6502,
      "Ġdáº¡n": 6503,
      "Ġdiá»ĩu": 6504,
      "Ġdbd": 6505,
      "Ġduyen": 6506,
      "Ġráº§n": 6507,
      "ĠrÃ¹a": 6508,
      "Ġrieng": 6509,
      "áº¿m": 6510,
      "Ġngt": 6511,
      "Ġngáº¥t": 6512,
      "ĠngÃło": 6513,
      "ĠngÆ°ng": 6514,
      "Ġtráº©u": 6515,
      "ĠÄĳá»Ľn": 6516,
      "ĠgiÃ£": 6517,
      "Ġxáº¿": 6518,
      "Ġxua": 6519,
      "Ġxxx": 6520,
      "ĠTáº¥m": 6521,
      "ĠTIá»": 6522,
      "ĠTáº¶NG": 6523,
      "Ġpháº£m": 6524,
      "ĠCEO": 6525,
      "ĠClear": 6526,
      "Ġchá»«": 6527,
      "Ġchá»Ńa": 6528,
      "ĠMáº¯t": 6529,
      "ĠNch": 6530,
      "Ġquáº¡o": 6531,
      "Ġquáº©y": 6532,
      "Ġá»ĭ": 6533,
      "Ġá»Ľn": 6534,
      "Ġcá»ĵng": 6535,
      "Ġbá»Ľi": 6536,
      "Ġbá»±a": 6537,
      "Ġbá»ĩt": 6538,
      "ins": 6539,
      "Ġtá»ĭt": 6540,
      "ĠSD": 6541,
      "ĠSÆ°": 6542,
      "ĠHA": 6543,
      "ĠHz": 6544,
      "ĠHÃ³a": 6545,
      "ĠHÃĮNH": 6546,
      "ĠÄĲá»ĳ": 6547,
      "ĠÄĲá»ĭa": 6548,
      "Ġdá»ım": 6549,
      "Ġom": 6550,
      "Ġoy": 6551,
      "Ġtá»ĳtCháº¥t": 6552,
      "Ġkout": 6553,
      "Ġsá»¥c": 6554,
      "Ġsá»¥p": 6555,
      "Ġsá»©t": 6556,
      "Ġlá»ķ": 6557,
      "Ġlá»Ļt": 6558,
      "ĠGh": 6559,
      "ĠGÃ¬": 6560,
      "ĠVo": 6561,
      "Ġnhá»ķ": 6562,
      "Ġlui": 6563,
      "Ġná»ģ": 6564,
      "aula": 6565,
      "ĠChua": 6566,
      "ĠChau": 6567,
      "ĠChÆ°Æ¡ng": 6568,
      "ĠLon": 6569,
      "ĠLinda": 6570,
      "ĠBl": 6571,
      "ĠBinh": 6572,
      "ĠBáº£nh": 6573,
      "ĠBit": 6574,
      "ĠBÃģ": 6575,
      "ĠgÃ¬n": 6576,
      "ĠKg": 6577,
      "ĠThÆ¡": 6578,
      "ĠThÆ°á»Ŀng": 6579,
      "ĠluÃ´nn": 6580,
      "ĠluÃ´nnn": 6581,
      "ĠDN": 6582,
      "ĠDong": 6583,
      "ĠDá»ĭ": 6584,
      "ĠPaula": 6585,
      "Ġyen": 6586,
      "ĠNguyá»ĩt": 6587,
      "ĠNgta": 6588,
      "iie": 6589,
      "ĠbÃ¡i": 6590,
      "Ġhoy": 6591,
      "ĠAE": 6592,
      "ttt": 6593,
      "Ġtuá»ĩ": 6594,
      "hhf": 6595,
      "Ġfpt": 6596,
      "ĠXo": 6597,
      "ĠXáº¡o": 6598,
      "ĠRA": 6599,
      "ĠRi": 6600,
      "ĠReno": 6601,
      "ĠMá»ıng": 6602,
      "Ġchuá»Ĺi": 6603,
      "ĠOkkkkkkkkkkkkkkkk": 6604,
      "ies": 6605,
      "Ġey": 6606,
      "jsns": 6607,
      "jsis": 6608,
      "ĠPháº©m": 6609,
      "Ġvá»¥n": 6610,
      "ndns": 6611,
      "Ġburn": 6612,
      "ĠÄĲá»Ĵ": 6613,
      "ĠÄĲá»©ng": 6614,
      "ĠÄĲá»ĶI": 6615,
      "Ġcoa": 6616,
      "Ġcome": 6617,
      "Ġcover": 6618,
      "Ġcotton": 6619,
      "Ġdag": 6620,
      "Ġdap": 6621,
      "Ġcuc": 6622,
      "ĠVá»¥": 6623,
      "ĠVá»ı": 6624,
      "Ġspen": 6625,
      "jjn": 6626,
      "jjx": 6627,
      "ĠFM": 6628,
      "ĠThÃ¹ng": 6629,
      "our": 6630,
      "ĠHoÃł": 6631,
      "Ġrecommend": 6632,
      "Ġhih": 6633,
      "Ġhit": 6634,
      "bsks": 6635,
      "ster": 6636,
      "ĠTá»ª": 6637,
      "Ġcamara": 6638,
      "jfz": 6639,
      "ica": 6640,
      "icial": 6641,
      "bbc": 6642,
      "ĠIp": 6643,
      "ĠmÃ£nh": 6644,
      "eback": 6645,
      "ĠKhung": 6646,
      "Ġhaizzz": 6647,
      "nxx": 6648,
      "gggggg": 6649,
      "ĠÄĳoan": 6650,
      "ckh": 6651,
      "agen": 6652,
      "ĠsuÃ½t": 6653,
      "jxx": 6654,
      "iiiiiiiii": 6655,
      "mmmmm": 6656,
      "ĠkhÃ´g": 6657,
      "ĠLá»±c": 6658,
      "ĠLá»Ľp": 6659,
      "Ġclg": 6660,
      "jcj": 6661,
      "Ġmed": 6662,
      "ĠBá»Ĭ": 6663,
      "Ġmuot": 6664,
      "Ġbot": 6665,
      "Ġbody": 6666,
      "ĠNHÃī": 6667,
      "ÃģY": 6668,
      "ÃģNG": 6669,
      "ĠTRONG": 6670,
      "jwjw": 6671,
      "ashi": 6672,
      "Ġhead": 6673,
      "ĠhÃłg": 6674,
      "ÃĵNG": 6675,
      "Iá»ĦN": 6676,
      "ĠmÃ¬h": 6677,
      "ĠPHÃį": 6678,
      "ĠPHáº¢I": 6679,
      "ĠÄĳkm": 6680,
      "Ġcomb": 6681,
      "Ġcomp": 6682,
      "cece": 6683,
      "akakk": 6684,
      "Ġnek": 6685,
      "ĠchÃ©o": 6686,
      "urur": 6687,
      "ĠNghiá»ĩp": 6688,
      "ĠLuáºŃn": 6689,
      "ĠhÃ²m": 6690,
      "ĠchÃ¹m": 6691,
      "Ġnyc": 6692,
      "ĠKhá»Łi": 6693,
      "ĠCSVN": 6694,
      "ĠthÃŃm": 6695,
      "ÃļNG": 6696,
      "Ġauth": 6697,
      "ĠcÃºm": 6698,
      "nnsnsns": 6699,
      "ĠvuÃ´ng": 6700,
      "ĠThoi": 6701,
      "UYÃĬN": 6702,
      "ĠUSD": 6703,
      "ĠtÃºm": 6704,
      "ĠHOT": 6705,
      "ĠSAO": 6706,
      "jgjgjgjg": 6707,
      "okokokokokokokokokokokokokokokok": 6708,
      "Ġksao": 6709,
      "bbbbbbbbbbbbbbbb": 6710,
      "LED": 6711,
      "dback": 6712,
      "Ġjob": 6713,
      "qqqqqqqq": 6714,
      "ĠShin": 6715,
      "ĠFire": 6716,
      "Iáº¾U": 6717,
      "Ġhahahaha": 6718,
      "ĠThÃ¡nh": 6719,
      "Ġwebsite": 6720,
      "ĠNÃĢO": 6721,
      "ĠSnapdragon": 6722,
      "rpod": 6723,
      "ĠNÃĵI": 6724,
      "Ġsilicon": 6725,
      "ĠÃĵc": 6726,
      "ĠNá»ĩm": 6727,
      "Ġkaraoke": 6728,
      "ĠTIá»ĢN": 6729,
      "DA": 6730,
      "Fi": 6731,
      "Fone": 6732,
      "OLED": 6733,
      "TV": 6734,
      "cw": 6735,
      "es": 6736,
      "fs": 6737,
      "foy": 6738,
      "fkf": 6739,
      "gw": 6740,
      "hk": 6741,
      "iok": 6742,
      "jkd": 6743,
      "kÄĳ": 6744,
      "ler": 6745,
      "lol": 6746,
      "man": 6747,
      "ob": 6748,
      "ov": 6749,
      "oll": 6750,
      "oxy": 6751,
      "pig": 6752,
      "ram": 6753,
      "tj": 6754,
      "tkd": 6755,
      "uro": 6756,
      "uoc": 6757,
      "ure": 6758,
      "wa": 6759,
      "xit": 6760,
      "zf": 6761,
      "¡n": 6762,
      "§i": 6763,
      "¨n": 6764,
      "ªnh": 6765,
      "®NG": 6766,
      "ÃĪ": 6767,
      "Ġáº£": 6768,
      "Ġáº¹": 6769,
      "ĠÃło": 6770,
      "Ġáº¥p": 6771,
      "ĮC": 6772,
      "Ńu": 6773,
      "á»£": 6774,
      "ĠtÃłng": 6775,
      "ĠtÃły": 6776,
      "Ġton": 6777,
      "Ġtuan": 6778,
      "Ġcart": 6779,
      "Ġclear": 6780,
      "ĠÄĳÃªn": 6781,
      "ĠÄĳmm": 6782,
      "Ġmáº£ng": 6783,
      "Ġmáº©u": 6784,
      "Ġmien": 6785,
      "Ġlh": 6786,
      "ĠlÆ°á»£": 6787,
      "ĠlÃº": 6788,
      "ĠlÃªu": 6789,
      "Ġláº¥n": 6790,
      "Ġlinda": 6791,
      "Ġnháº±ng": 6792,
      "Ġnháº±m": 6793,
      "Ġváº¡i": 6794,
      "Ġváº§n": 6795,
      "Ġváº¯c": 6796,
      "Ġvat": 6797,
      "Ġviettel": 6798,
      "ĠhÆ°á»Ŀng": 6799,
      "Ġhuá»ĳng": 6800,
      "Ġchon": 6801,
      "Ġcháº£i": 6802,
      "ĠchÆ°ng": 6803,
      "Ġnáº¿n": 6804,
      "Ġnáº£y": 6805,
      "Ġsm": 6806,
      "Ġsáº¡o": 6807,
      "ĠsÆ°u": 6808,
      "Ġsrm": 6809,
      "Ġgv": 6810,
      "ĠgÃ²": 6811,
      "ĠgÃło": 6812,
      "Ġbam": 6813,
      "Ġbáº¿n": 6814,
      "Ġbee": 6815,
      "ĠbÃ©t": 6816,
      "Ġthá»ĳn": 6817,
      "Ġdb": 6818,
      "ĠdÃº": 6819,
      "ĠdÆ°a": 6820,
      "ĠdÅ©ng": 6821,
      "Ġdáº·m": 6822,
      "Ġrv": 6823,
      "Ġráº§u": 6824,
      "Ġrouter": 6825,
      "Ġpm": 6826,
      "Ġpack": 6827,
      "Ġngan": 6828,
      "Ġngáº«m": 6829,
      "ĠtrÃ¡n": 6830,
      "Ġtrá»įc": 6831,
      "ĠlÃły": 6832,
      "Ġxam": 6833,
      "Ġxáº¹p": 6834,
      "Ġxáº»": 6835,
      "ĠxÆ°á»Łng": 6836,
      "ĠTD": 6837,
      "ĠTáº¡o": 6838,
      "ĠTáº©y": 6839,
      "ĠTUYá»": 6840,
      "Ġphao": 6841,
      "Ġpháº«n": 6842,
      "Ġphá»Ļng": 6843,
      "ĠCáº¥p": 6844,
      "ĠCÃĴ": 6845,
      "ĠMao": 6846,
      "ĠMom": 6847,
      "ĠthÃ¬a": 6848,
      "ĠNe": 6849,
      "ĠNy": 6850,
      "ĠquÃ©": 6851,
      "Ġcá»Łi": 6852,
      "Ġcá»ĵn": 6853,
      "Ġbá»«a": 6854,
      "Ã¹y": 6855,
      "ĠnÃ³c": 6856,
      "ĠSX": 6857,
      "ĠHn": 6858,
      "ĠHÆ°": 6859,
      "ĠHáº¡n": 6860,
      "Ġnhanhhhh": 6861,
      "Ġthá»±": 6862,
      "ĠÄĲáº¿": 6863,
      "ĠÄĲÃ¹": 6864,
      "ĠÄĲai": 6865,
      "ĠÄĲen": 6866,
      "ĠÄĲáº¦U": 6867,
      "ĠchÃ´n": 6868,
      "Ġoce": 6869,
      "ĠquÃ¡t": 6870,
      "Ġsá»¯": 6871,
      "Ġlá»Ļi": 6872,
      "Ġokla": 6873,
      "ĠkhÃ¡t": 6874,
      "ĠGIá»": 6875,
      "ĠGAM": 6876,
      "ĠViá»ĩc": 6877,
      "ĠVÃĮ": 6878,
      "amer": 6879,
      "Ġnhá»Ļt": 6880,
      "Ġluá»Ļc": 6881,
      "ĠÄĳÃ³m": 6882,
      "ĠLÆ°á»Ŀi": 6883,
      "ĠLáº¡c": 6884,
      "ĠBÃ¹": 6885,
      "ĠBáº¯p": 6886,
      "ĠBÃºn": 6887,
      "ĠphÃ¢m": 6888,
      "ĠKÃ¬": 6889,
      "ĠKiáº¿m": 6890,
      "Ġyáº¿t": 6891,
      "Ġloáº¡t": 6892,
      "ĠNgá»Ļ": 6893,
      "ĠÄĳá»Ļn": 6894,
      "Ġemail": 6895,
      "ens": 6896,
      "Ġhoáº£": 6897,
      "ĠAh": 6898,
      "Ġtottttttttttttttyyyyttttttttt": 6899,
      "ĠNháº«n": 6900,
      "ĠNhá»ĭ": 6901,
      "ĠTruy": 6902,
      "ĠTrai": 6903,
      "ĠTráº¯ng": 6904,
      "ĠTrÃ¡nh": 6905,
      "hha": 6906,
      "aah": 6907,
      "Ġfim": 6908,
      "Ġmá»įt": 6909,
      "Ġchá»ĭch": 6910,
      "ĠQuyáº¿t": 6911,
      "ĠÄĳá»ĵi": 6912,
      "ĠMá»ĩt": 6913,
      "Ġchuá»ĵng": 6914,
      "Ġchiu": 6915,
      "ĠOkkkkkkkkkkkkkkkkkkkkkkkkkkkkkkkk": 6916,
      "Ġtap": 6917,
      "Ġei": 6918,
      "Ġeat": 6919,
      "jshs": 6920,
      "ĠPhÆ°á»£ng": 6921,
      "oos": 6922,
      "ĠKhÃºc": 6923,
      "ndbd": 6924,
      "Ġthuc": 6925,
      "Ġthuoc": 6926,
      "Ġngá»¥c": 6927,
      "Ġngá»«ng": 6928,
      "Ġbut": 6929,
      "ify": 6930,
      "ĠChá»Ĺ": 6931,
      "ppppp": 6932,
      "Ġmain": 6933,
      "ĠVá»ĩ": 6934,
      "ĠkÃ©n": 6935,
      "Ġspam": 6936,
      "Ġrá»Ĺi": 6937,
      "ĠEM": 6938,
      "Ġantutu": 6939,
      "hdh": 6940,
      "ĠFPT": 6941,
      "ĠHoáº·c": 6942,
      "kdn": 6943,
      "bsvs": 6944,
      "ĠTá»°": 6945,
      "ĠTá»īnh": 6946,
      "Ġvlon": 6947,
      "Ġnhá»īnh": 6948,
      "jfjjf": 6949,
      "icm": 6950,
      "iÃªp": 6951,
      "ĠnhuáºŃn": 6952,
      "Ġthien": 6953,
      "reat": 6954,
      "ĠThá»īnh": 6955,
      "ĠCá»¥": 6956,
      "Ġinf": 6957,
      "jdjdjdj": 6958,
      "ggggg": 6959,
      "ĠPhÃŃa": 6960,
      "uuuuuu": 6961,
      "Äĳn": 6962,
      "aging": 6963,
      "Ġsuper": 6964,
      "ism": 6965,
      "ĠLogitech": 6966,
      "ĠTHPT": 6967,
      "ĠCHÆ¯A": 6968,
      "lass": 6969,
      "iiiiiiiiiiiiiii": 6970,
      "áº¢M": 6971,
      "ĠLá»«a": 6972,
      "ose": 6973,
      "osos": 6974,
      "Ġmail": 6975,
      "Ġproduc": 6976,
      "iend": 6977,
      "ĠhÃ³c": 6978,
      "ĠtrÃŃch": 6979,
      "ĠÄĲá»Ļi": 6980,
      "uts": 6981,
      "Ġbenh": 6982,
      "Ġbede": 6983,
      "Ġbelike": 6984,
      "ĠÃ´k": 6985,
      "kxk": 6986,
      "jaj": 6987,
      "Ġfun": 6988,
      "ĠNGO": 6989,
      "ĠNGON": 6990,
      "ĠKHÃģ": 6991,
      "fuo": 6992,
      "ÃĬM": 6993,
      "ÃĬU": 6994,
      "Ġtym": 6995,
      "ydy": 6996,
      "ĠHDMI": 6997,
      "Ġcomeback": 6998,
      "Ġcsgt": 6999,
      "ĠTIN": 7000,
      "ĠthÃ´n": 7001,
      "ĠÆłn": 7002,
      "kksksks": 7003,
      "fect": 7004,
      "mxmx": 7005,
      "ĠNguoi": 7006,
      "Ġusd": 7007,
      "Ġmáº½o": 7008,
      "Ġoffline": 7009,
      "ĠhÃºp": 7010,
      "Ġpop": 7011,
      "anananan": 7012,
      "jajajaja": 7013,
      "Ġyeah": 7014,
      "ĠTRá»ľI": 7015,
      "Ġgroup": 7016,
      "alalalalalalalal": 7017,
      "zzzzzzzzzzzzzzzz": 7018,
      "ĠHehe": 7019,
      "Ġzá»Ŀi": 7020,
      "ĠDMX": 7021,
      "ĠLUÃĶN": 7022,
      "Ġmeow": 7023,
      "Ġassmin": 7024,
      "ĠWiFi": 7025,
      "ĠNHá»®NG": 7026,
      "ĠTHáº¤Y": 7027,
      "ĠMobiFone": 7028,
      "ANH": 7029,
      "ING": 7030,
      "ME": 7031,
      "MS": 7032,
      "PH": 7033,
      "VE": 7034,
      "VID": 7035,
      "bk": 7036,
      "bhx": 7037,
      "ciy": 7038,
      "dh": 7039,
      "dn": 7040,
      "dv": 7041,
      "dbd": 7042,
      "fv": 7043,
      "fort": 7044,
      "gks": 7045,
      "hai": 7046,
      "hjj": 7047,
      "hat": 7048,
      "iai": 7049,
      "ist": 7050,
      "jeb": 7051,
      "kong": 7052,
      "lk": 7053,
      "lin": 7054,
      "mh": 7055,
      "mv": 7056,
      "msk": 7057,
      "okk": 7058,
      "oled": 7059,
      "sl": 7060,
      "tp": 7061,
      "tw": 7062,
      "tx": 7063,
      "tid": 7064,
      "vice": 7065,
      "ws": 7066,
      "wksn": 7067,
      "witch": 7068,
      "ĠÃ¢": 7069,
      "Ġay": 7070,
      "ĠÆ°Æ¡ng": 7071,
      "Ġáº³ng": 7072,
      "įi": 7073,
      "Ńm": 7074,
      "áº¼": 7075,
      "Ġtd": 7076,
      "Ġtq": 7077,
      "ĠtÆ°ng": 7078,
      "ĠtÃ¡nh": 7079,
      "Ġtieu": 7080,
      "ĠcÃłn": 7081,
      "ĠcÃºn": 7082,
      "ĠÄĳay": 7083,
      "ĠÄĳiáº¿c": 7084,
      "Ġmc": 7085,
      "ĠmÆ¡i": 7086,
      "Ġmáº§n": 7087,
      "Ġmáº¡n": 7088,
      "Ġmiá»ĩt": 7089,
      "Ġlua": 7090,
      "ĠlÃ£": 7091,
      "Ġláº·p": 7092,
      "ĠlÆ°á»£n": 7093,
      "Ġnhay": 7094,
      "ĠnhÃ³c": 7095,
      "ĠvÃ¹": 7096,
      "Ġvac": 7097,
      "Ġváº©y": 7098,
      "Ġváº«y": 7099,
      "Ġhh": 7100,
      "Ġhanh": 7101,
      "ĠhÃłu": 7102,
      "Ġhard": 7103,
      "Ġchplay": 7104,
      "Ġkid": 7105,
      "Ġkiep": 7106,
      "Ġktra": 7107,
      "Ġklq": 7108,
      "ĠnÄĥn": 7109,
      "Ġnáº¡t": 7110,
      "Ġnáº·n": 7111,
      "Ġsáº§u": 7112,
      "ĠsÃºt": 7113,
      "Ġsáº£y": 7114,
      "Ġsky": 7115,
      "Ġgon": 7116,
      "ĠgáºŃt": 7117,
      "Ġgáº§m": 7118,
      "Ġgen": 7119,
      "Ġgá»ĵng": 7120,
      "Ġben": 7121,
      "Ġbáº§y": 7122,
      "Ġbáº©y": 7123,
      "Ġbolsa": 7124,
      "Ġtháº¡ch": 7125,
      "Ġdg": 7126,
      "Ġráº£": 7127,
      "Ġrem": 7128,
      "Ġran": 7129,
      "Ġráº¡ch": 7130,
      "Ġrá»įi": 7131,
      "ĠrÃ¡o": 7132,
      "Ġpv": 7133,
      "Ġpas": 7134,
      "Ãªt": 7135,
      "Ġngá»ĳc": 7136,
      "Ġnguyá»ģn": 7137,
      "Ġtrg": 7138,
      "Ġtrá»į": 7139,
      "ĠtrÆ°Æ¡ng": 7140,
      "ĠgiÃ´ng": 7141,
      "ĠgiÃ£y": 7142,
      "Ã¢c": 7143,
      "ĠkhÃŃa": 7144,
      "Ġxáº¯c": 7145,
      "ĠxÆ°ng": 7146,
      "Ġxáº£o": 7147,
      "ĠTF": 7148,
      "ĠTáº¥u": 7149,
      "ĠTom": 7150,
      "Ġpháº©n": 7151,
      "ĠCáº¯t": 7152,
      "ĠCáº£nh": 7153,
      "ĠCáºŃu": 7154,
      "Ġmá»£": 7155,
      "Ġmá»ģnh": 7156,
      "Ġchá»ķi": 7157,
      "Ġchá»įi": 7158,
      "ĠMv": 7159,
      "ĠMÃª": 7160,
      "ĠMáº¯c": 7161,
      "ĠMat": 7162,
      "ĠMIá»ĦN": 7163,
      "ĠNT": 7164,
      "Ġá»ª": 7165,
      "Ġá»Ļ": 7166,
      "Ġá»©a": 7167,
      "Ġcá»įng": 7168,
      "Ġcá»įp": 7169,
      "Ġbá»Ł": 7170,
      "Ġbá»ķng": 7171,
      "Ġhá»ī": 7172,
      "Ġkhau": 7173,
      "Ġkháº³ng": 7174,
      "Ġtá»ĭ": 7175,
      "ĠSMS": 7176,
      "ĠSáº¼": 7177,
      "chi": 7178,
      "ĠHs": 7179,
      "ĠHÃ¡": 7180,
      "ĠHan": 7181,
      "ĠHÃŃt": 7182,
      "ĠHar": 7183,
      "ĠHahaha": 7184,
      "ĠÄĲan": 7185,
      "ĠÄĲÃłn": 7186,
      "ĠÄĲáº¡o": 7187,
      "Ġog": 7188,
      "Ġop": 7189,
      "Ġsá»©": 7190,
      "Ġokkkkk": 7191,
      "Ġokokokokokok": 7192,
      "Ġbá»ĭa": 7193,
      "ĠluÃ¢n": 7194,
      "Ġná»ī": 7195,
      "ĠCháº¥p": 7196,
      "ĠLA": 7197,
      "ĠLS": 7198,
      "ĠLÃŃ": 7199,
      "ĠLáº®": 7200,
      "ĠLisa": 7201,
      "ĠBT": 7202,
      "ĠBon": 7203,
      "ĠBiÃªn": 7204,
      "ĠBá»ĭch": 7205,
      "ĠphÃ¬": 7206,
      "ĠKáº»": 7207,
      "ĠKkkk": 7208,
      "ĠThang": 7209,
      "ĠThÆ°á»£ng": 7210,
      "ĠThiá»ĩt": 7211,
      "ĠThÄĥng": 7212,
      "ĠDD": 7213,
      "ĠDÃ¬": 7214,
      "ĠDÄĥm": 7215,
      "ĠDkm": 7216,
      "Ġab": 7217,
      "Ġar": 7218,
      "Ġav": 7219,
      "ĠPR": 7220,
      "ĠPanda": 7221,
      "Ġyd": 7222,
      "ĠGiáºŃt": 7223,
      "iis": 7224,
      "enen": 7225,
      "Ġhoáº¡n": 7226,
      "ĠAlo": 7227,
      "Ġnhaaaaaaaaa": 7228,
      "Ġtoo": 7229,
      "Ġtotttttttttttttttttttttttttt": 7230,
      "ĠNhan": 7231,
      "ĠNhiá»ĩt": 7232,
      "ĠTre": 7233,
      "hhx": 7234,
      "aak": 7235,
      "Ġfom": 7236,
      "ĠthÃ¡p": 7237,
      "uis": 7238,
      "eed": 7239,
      "ĠXH": 7240,
      "ĠXl": 7241,
      "ĠRÄĥng": 7242,
      "ĠRubik": 7243,
      "ĠMá»ģm": 7244,
      "ĠÆ¡iiiii": 7245,
      "Ġwow": 7246,
      "Ġchun": 7247,
      "Ġsop": 7248,
      "ĠOn": 7249,
      "ĠOr": 7250,
      "Ġtab": 7251,
      "Ġez": 7252,
      "ggd": 7253,
      "Ġxuong": 7254,
      "ĠPhÆ°á»Ŀng": 7255,
      "ooc": 7256,
      "oow": 7257,
      "Ġicm": 7258,
      "Ġicon": 7259,
      "Ãµng": 7260,
      "ĠQuáº£n": 7261,
      "ĠQuáºŃt": 7262,
      "ĠÃłk": 7263,
      "ĠKhÃ´": 7264,
      "mmz": 7265,
      "ndj": 7266,
      "ndnx": 7267,
      "ttttt": 7268,
      "Ġngá»£m": 7269,
      "ĠchÃ¡nh": 7270,
      "ĠÄĲá»Ĥ": 7271,
      "ĠÄĲá»ĩm": 7272,
      "ĠÃī": 7273,
      "Ġza": 7274,
      "ĠVá»Ľ": 7275,
      "Ġrá»£": 7276,
      "Ġrá»©a": 7277,
      "arch": 7278,
      "Ġgá»ī": 7279,
      "hdbd": 7280,
      "kkkkkkkkk": 7281,
      "ĠkÃ¬m": 7282,
      "llagen": 7283,
      "Ġrefund": 7284,
      "rop": 7285,
      "bshs": 7286,
      "Ġdit": 7287,
      "ation": 7288,
      "star": 7289,
      "Ġduc": 7290,
      "Ġduoi": 7291,
      "jfs": 7292,
      "bbz": 7293,
      "ĠInn": 7294,
      "Ġokey": 7295,
      "rea": 7296,
      "reamer": 7297,
      "ĠThá»©c": 7298,
      "Ġsales": 7299,
      "ĠCá»Ńa": 7300,
      "Ġsearch": 7301,
      "ĠKháº£": 7302,
      "jdjdj": 7303,
      "its": 7304,
      "ork": 7305,
      "ĠLoáº¡n": 7306,
      "ĠTHAY": 7307,
      "ĠTHáºº": 7308,
      "ĠCHáº¤T": 7309,
      "ĠSá»¬": 7310,
      "ĠUáº§y": 7311,
      "Ġmom": 7312,
      "Ġmobi": 7313,
      "jxnx": 7314,
      "Ġyour": 7315,
      "jsjsjsj": 7316,
      "ĠJoh": 7317,
      "ĠLá»Ľn": 7318,
      "Ġxoa": 7319,
      "ĠxoÃłi": 7320,
      "Ġxoáº¯n": 7321,
      "ĠNhá»¥c": 7322,
      "ĠHá»ķ": 7323,
      "Ġmes": 7324,
      "igaming": 7325,
      "rry": 7326,
      "ĠBá»ģn": 7327,
      "hhhhhhhhhhh": 7328,
      "own": 7329,
      "ĠÄĳuá»¹": 7330,
      "ĠThá»ĭt": 7331,
      "ahahaha": 7332,
      "ĠTuáº§n": 7333,
      "ĠNhÆ°g": 7334,
      "áºłP": 7335,
      "ĠNGá»": 7336,
      "áº¤P": 7337,
      "kwi": 7338,
      "ĠChÃ¡nh": 7339,
      "kgd": 7340,
      "jzbz": 7341,
      "hcn": 7342,
      "ĠHuong": 7343,
      "ĠAdmin": 7344,
      "Ġtrum": 7345,
      "bab": 7346,
      "Ġá»Ķng": 7347,
      "ĠTINH": 7348,
      "Ġhdsd": 7349,
      "ĠCuong": 7350,
      "ĠCute": 7351,
      "kksksksks": 7352,
      "hshshshs": 7353,
      "Iá»ĨU": 7354,
      "ĠTeam": 7355,
      "ofou": 7356,
      "Ġlens": 7357,
      "Ġhuáº¥n": 7358,
      "kkdkdkd": 7359,
      "ĠInternet": 7360,
      "ahahahahahahahah": 7361,
      "Ġmicro": 7362,
      "Ġblack": 7363,
      "Ġyear": 7364,
      "Ġamoled": 7365,
      "Ġpew": 7366,
      "Ġvietnam": 7367,
      "ĠSALE": 7368,
      "fire": 7369,
      "kekekeke": 7370,
      "ĠKhÃ³c": 7371,
      "Æ¯á»¢NG": 7372,
      "ÄĤM": 7373,
      "ÃīO": 7374,
      "krkr": 7375,
      "ĠTHá»¨": 7376,
      "Ġskin": 7377,
      "ĠCOVID": 7378,
      "Ġexpress": 7379,
      "oydoyd": 7380,
      "ĠNHANH": 7381,
      "NNNN": 7382,
      "ĠchÆ°i": 7383,
      "ikokokokokokOkikokokokokokOkikokokokokokOkikokokokokokOk": 7384,
      "Ġhomie": 7385,
      "Ġfeedback": 7386,
      "Iá»ĤM": 7387,
      "ĠTKC": 7388,
      "ĠTikinow": 7389,
      "ĠAMOLED": 7390,
      "ashion": 7391,
      "ollow": 7392,
      "ĠCÃĴN": 7393,
      "CK": 7394,
      "ED": 7395,
      "EU": 7396,
      "GT": 7397,
      "HD": 7398,
      "HCM": 7399,
      "Ngon": 7400,
      "OM": 7401,
      "OR": 7402,
      "Pay": 7403,
      "Qu": 7404,
      "Tá»ĳt": 7405,
      "az": 7406,
      "ass": 7407,
      "beo": 7408,
      "dio": 7409,
      "fk": 7410,
      "fl": 7411,
      "fast": 7412,
      "gu": 7413,
      "ham": 7414,
      "ill": 7415,
      "jy": 7416,
      "jgg": 7417,
      "jbs": 7418,
      "jis": 7419,
      "kns": 7420,
      "khx": 7421,
      "lc": 7422,
      "long": 7423,
      "lsk": 7424,
      "mk": 7425,
      "msm": 7426,
      "ment": 7427,
      "nq": 7428,
      "nbs": 7429,
      "oao": 7430,
      "ohc": 7431,
      "qh": 7432,
      "rh": 7433,
      "roup": 7434,
      "tz": 7435,
      "uk": 7436,
      "uz": 7437,
      "udd": 7438,
      "ufu": 7439,
      "xiy": 7440,
      "yr": 7441,
      "yu": 7442,
      "ªNG": 7443,
      "¬I": 7444,
      "ĠÃº": 7445,
      "Ġáº¯t": 7446,
      "ĨT": 7447,
      "İI": 7448,
      "Ĺn": 7449,
      "á»Ŀi": 7450,
      "áºª": 7451,
      "ĠtÃ²": 7452,
      "Ġtong": 7453,
      "Ġteo": 7454,
      "ĠtÃ©t": 7455,
      "ĠtÃłm": 7456,
      "Ġcy": 7457,
      "Ġcáº¡": 7458,
      "ĠcÃºi": 7459,
      "Ġcsk": 7460,
      "ĠÄĳÆ°": 7461,
      "ĠÄĳan": 7462,
      "ĠÄĳáº½": 7463,
      "ĠÄĳÃ©c": 7464,
      "ĠmÆ°": 7465,
      "Ġmáº£i": 7466,
      "Ġmáº¡t": 7467,
      "ĠmÃµi": 7468,
      "ĠlÃ³i": 7469,
      "Ġláº·t": 7470,
      "ĠláºŃy": 7471,
      "Ġláº¡ng": 7472,
      "ĠlÃ¨o": 7473,
      "ĠlÃ¹m": 7474,
      "ĠnhÃ´": 7475,
      "ĠnhÃ¨": 7476,
      "Ġvy": 7477,
      "Ġvung": 7478,
      "Ġven": 7479,
      "ĠvÆ°á»Ľng": 7480,
      "Ġviá»ħn": 7481,
      "Ġvol": 7482,
      "Ġvos": 7483,
      "Ġvtv": 7484,
      "Ġhq": 7485,
      "Ġhr": 7486,
      "Ġháº¥t": 7487,
      "Ġháº«": 7488,
      "Ġháº¯t": 7489,
      "Ġhhh": 7490,
      "Ġhum": 7491,
      "Ġcham": 7492,
      "Ġchiáº¿t": 7493,
      "Ġcháº¯t": 7494,
      "Ġchen": 7495,
      "Ġcháº¥n": 7496,
      "Ġchuyá»ģn": 7497,
      "Ġchym": 7498,
      "Ġkt": 7499,
      "ĠkÃ´": 7500,
      "Ġken": 7501,
      "Ġkak": 7502,
      "Ġking": 7503,
      "ĠnÃłi": 7504,
      "Ġnáº¥m": 7505,
      "Ġnáº¿p": 7506,
      "ĠnÃ£n": 7507,
      "ĠnÃºm": 7508,
      "ĠnÃŃn": 7509,
      "Ġsin": 7510,
      "ĠsÆ°á»Ľc": 7511,
      "ĠsÆ°ng": 7512,
      "Ġsach": 7513,
      "ĠsÆ°á»Ŀn": 7514,
      "ĠsÄĳt": 7515,
      "Ġge": 7516,
      "Ġgáº¡": 7517,
      "Ġgap": 7518,
      "Ġgáº«y": 7519,
      "Ġgold": 7520,
      "Ġbx": 7521,
      "Ġbáº§m": 7522,
      "Ġbáº¡t": 7523,
      "Ġbim": 7524,
      "Ġboy": 7525,
      "ĠbiÃªt": 7526,
      "Ġbrand": 7527,
      "Ġtháº·c": 7528,
      "Ġtháº±g": 7529,
      "Ġdv": 7530,
      "Ġdkd": 7531,
      "Ġrh": 7532,
      "Ġrá»ĵ": 7533,
      "Ġráº£i": 7534,
      "Ġrinh": 7535,
      "Ġren": 7536,
      "ĠriÃªu": 7537,
      "Ġroom": 7538,
      "Ġpc": 7539,
      "Ġpet": 7540,
      "Ġngáº£": 7541,
      "ĠngÃ³ng": 7542,
      "ĠngÃ²i": 7543,
      "ĠthÃ¢t": 7544,
      "Ġtrá»ĵ": 7545,
      "Ġtrau": 7546,
      "Ġtráº½": 7547,
      "Ġtriá»ĩt": 7548,
      "ĠÄĳá»įng": 7549,
      "Ġgiup": 7550,
      "Ġgiun": 7551,
      "ĠkhÃ¨": 7552,
      "Ġxx": 7553,
      "ĠxÃło": 7554,
      "ĠxÃ©o": 7555,
      "ĠxÃ³c": 7556,
      "Ġxhcn": 7557,
      "ĠTang": 7558,
      "ĠTÃ´n": 7559,
      "ĠToi": 7560,
      "ĠTuyá»ĥn": 7561,
      "Ġvá»Ĺ": 7562,
      "Ġvá»įc": 7563,
      "Ġphin": 7564,
      "Ġqt": 7565,
      "ĠCanh": 7566,
      "ĠCan": 7567,
      "ĠCÃ¡p": 7568,
      "ĠCall": 7569,
      "ĠCPU": 7570,
      "Ġmá»«": 7571,
      "Ġchá»¥y": 7572,
      "ĠMN": 7573,
      "ĠMb": 7574,
      "ĠMÃ¡t": 7575,
      "ĠMá»Ļc": 7576,
      "ĠMÃ£nh": 7577,
      "ĠMed": 7578,
      "ĠMod": 7579,
      "ĠNu": 7580,
      "ĠNÃ³n": 7581,
      "ĠNÆ¯á»ļC": 7582,
      "ĠNew": 7583,
      "ĠNáºłP": 7584,
      "Ġqui": 7585,
      "ĠquÆ¡": 7586,
      "Ġá»©": 7587,
      "Ġá»Ľi": 7588,
      "Ġcá»Ł": 7589,
      "Ġbá»ĩ": 7590,
      "Ġbá»ĥn": 7591,
      "Ġbá»¥c": 7592,
      "ĠvÃłnh": 7593,
      "Ġhá»ķi": 7594,
      "Ġhá»Ńi": 7595,
      "Ġhá»ĭn": 7596,
      "Ġkhá»ĳng": 7597,
      "amin": 7598,
      "ĠSuy": 7599,
      "ĠSÃ´ng": 7600,
      "ĠSÃºng": 7601,
      "ĠSer": 7602,
      "ĠSet": 7603,
      "ĠSty": 7604,
      "ĠSup": 7605,
      "ĠSusan": 7606,
      "ĠSena": 7607,
      "ĠHÃªn": 7608,
      "ĠHÃŃ": 7609,
      "ĠHÃ¢n": 7610,
      "ĠHÃĶ": 7611,
      "ĠHAY": 7612,
      "ĠHÆłN": 7613,
      "ĠHIáº¾U": 7614,
      "Ġthá»ķ": 7615,
      "ĠÄĲÃ¡": 7616,
      "ĠÄĲÄ©": 7617,
      "ĠÄĲÃ¹a": 7618,
      "ĠÄĲcm": 7619,
      "Ġdá»©a": 7620,
      "ĠÄĳáº¹pKhÄĥn": 7621,
      "Ġoanh": 7622,
      "Ġoder": 7623,
      "Ġsá»įt": 7624,
      "Ġlá»ģ": 7625,
      "Ġlá»©t": 7626,
      "Ġlá»Łm": 7627,
      "Ġlá»¥a": 7628,
      "anx": 7629,
      "anas": 7630,
      "Ġbá»ĭnh": 7631,
      "ĠkhÃ¡n": 7632,
      "Ġcá»§i": 7633,
      "ĠGo": 7634,
      "ĠVd": 7635,
      "ĠVÆ°á»£ng": 7636,
      "ĠViá»ģn": 7637,
      "ĠVáº¥n": 7638,
      "amen": 7639,
      "Ġnhá»įn": 7640,
      "ĠChang": 7641,
      "ĠChinh": 7642,
      "ĠLÃłng": 7643,
      "ĠLáº¡y": 7644,
      "ĠLuu": 7645,
      "ĠLá»ĭch": 7646,
      "kkv": 7647,
      "kkx": 7648,
      "Ġcont": 7649,
      "ĠBs": 7650,
      "ĠBÃ²": 7651,
      "ĠBáº¿n": 7652,
      "ĠBáº¡ch": 7653,
      "ĠphÃ´": 7654,
      "ĠphÃ¨o": 7655,
      "ĠKÃŃ": 7656,
      "ĠKÃ©o": 7657,
      "Ġláº¯mm": 7658,
      "ĠThai": 7659,
      "ĠDO": 7660,
      "ĠDÆ¡": 7661,
      "ĠDÃły": 7662,
      "ĠDon": 7663,
      "ĠDÆ°á»¡ng": 7664,
      "Ġalaska": 7665,
      "ĠÄĳÃ£ng": 7666,
      "ĠGiáº£": 7667,
      "Ġlozz": 7668,
      "Ġhoay": 7669,
      "ĠAk": 7670,
      "ĠActive": 7671,
      "Ġnhac": 7672,
      "Ġtok": 7673,
      "ĠNhiÃªn": 7674,
      "ĠNháºŃp": 7675,
      "ĠNhat": 7676,
      "Ġáº¡h": 7677,
      "ĠTruong": 7678,
      "Ġtuáº¥n": 7679,
      "hhee": 7680,
      "ĠnhÃłu": 7681,
      "Ġfont": 7682,
      "rap": 7683,
      "ĠQR": 7684,
      "ĠQuyÃªn": 7685,
      "erry": 7686,
      "Ġthoy": 7687,
      "ĠXU": 7688,
      "ĠXao": 7689,
      "ĠXÆ°a": 7690,
      "ĠXáº¡c": 7691,
      "ĠRF": 7692,
      "ĠRAM": 7693,
      "jdd": 7694,
      "jdbx": 7695,
      "jdndnd": 7696,
      "Ġchuá»µ": 7697,
      "idnd": 7698,
      "Ġchien": 7699,
      "Ġká»ģnh": 7700,
      "Ġsorry": 7701,
      "iel": 7702,
      "Ġdoáº¡": 7703,
      "Ġdown": 7704,
      "Ġev": 7705,
      "ĠkhoÃ¡c": 7706,
      "jsk": 7707,
      "jsn": 7708,
      "oot": 7709,
      "ĠQuáºŃn": 7710,
      "ĠQuá»¹": 7711,
      "mmx": 7712,
      "ddd": 7713,
      "ndjd": 7714,
      "Å©y": 7715,
      "ĠchÃ¡c": 7716,
      "ĠbuÃ´ng": 7717,
      "ĠÄĲá»¡": 7718,
      "ĠÄĲá»©a": 7719,
      "ĠNhÃŃm": 7720,
      "Ġcod": 7721,
      "Ġcol": 7722,
      "Ġcov": 7723,
      "Ġja": 7724,
      "Ġtá»ĩp": 7725,
      "bey": 7726,
      "nnnnnnn": 7727,
      "Ġrá»Ĺng": 7728,
      "nsbs": 7729,
      "Ġank": 7730,
      "jja": 7731,
      "jjw": 7732,
      "jjcc": 7733,
      "Ġgá»£i": 7734,
      "hdb": 7735,
      "hdjd": 7736,
      "hdhs": 7737,
      "ĠFake": 7738,
      "ĠThÃ¡ng": 7739,
      "hhhhhhh": 7740,
      "llo": 7741,
      "Ġhien": 7742,
      "ĠTá»¥t": 7743,
      "Ġcammera": 7744,
      "Ġthá»ĭnh": 7745,
      "jfjd": 7746,
      "ĠtuyÃªt": 7747,
      "ĠIb": 7748,
      "ĠIu": 7749,
      "eeeee": 7750,
      "eeeeee": 7751,
      "cci": 7752,
      "ĠKháº£i": 7753,
      "Ġinox": 7754,
      "ĠOki": 7755,
      "Ġtes": 7756,
      "Ġkhum": 7757,
      "ĠChá»ĭu": 7758,
      "Ġband": 7759,
      "ĠTHáº¾": 7760,
      "ĠCHU": 7761,
      "ĠCHÃĵ": 7762,
      "ĠCHÃįNH": 7763,
      "ĠUltra": 7764,
      "Ġmoáº¹": 7765,
      "Ġmode": 7766,
      "fff": 7767,
      "jxkx": 7768,
      "Ġyoutu": 7769,
      "ĠLá»¥c": 7770,
      "ĠLá»ģu": 7771,
      "Ġchá»¯i": 7772,
      "ixel": 7773,
      "Ġhave": 7774,
      "Ġsting": 7775,
      "ĠHá»Ĺ": 7776,
      "ĠHá»ĺ": 7777,
      "ĠhÃ³i": 7778,
      "bdbdbd": 7779,
      "bdbdbdb": 7780,
      "ĠBá»ķ": 7781,
      "ĠBá»ĺ": 7782,
      "oycoy": 7783,
      "kfnf": 7784,
      "ows": 7785,
      "ĠDá»Ĭ": 7786,
      "ĠÆ°iiiii": 7787,
      "jgd": 7788,
      "jgxg": 7789,
      "tore": 7790,
      "iá»ħng": 7791,
      "ĠTRáº¦N": 7792,
      "ase": 7793,
      "Ġhello": 7794,
      "ĠCamara": 7795,
      "áºłO": 7796,
      "max": 7797,
      "Ġbá»ķn": 7798,
      "ily": 7799,
      "Ġhangg": 7800,
      "ĠKHO": 7801,
      "Ġgháº»": 7802,
      "kgkg": 7803,
      "áº¾U": 7804,
      "Ġfreefire": 7805,
      "ĠKhoe": 7806,
      "Ġcmnl": 7807,
      "ĠChÃŃp": 7808,
      "gio": 7809,
      "jtjd": 7810,
      "Ġlqmb": 7811,
      "load": 7812,
      "bsbsbs": 7813,
      "ĠCAM": 7814,
      "ĠÆłI": 7815,
      "ĠNá»¯": 7816,
      "ĠNá»ķ": 7817,
      "áº¦Y": 7818,
      "mxn": 7819,
      "Ġsetup": 7820,
      "ĠKhá»ıi": 7821,
      "ĠÄĳÃłoNgon": 7822,
      "ĠTefal": 7823,
      "ĠuiTá»ĳt": 7824,
      "ĠthÃŃt": 7825,
      "lyf": 7826,
      "uxux": 7827,
      "Ġoffice": 7828,
      "Ġhuá»·": 7829,
      "Ġhsd": 7830,
      "Ġhsau": 7831,
      "áº®C": 7832,
      "ĠTPHCM": 7833,
      "ĠVietnam": 7834,
      "ĠVirus": 7835,
      "bdbdbdbdbdbdb": 7836,
      "ĠRá»ĴI": 7837,
      "ĠHOA": 7838,
      "ĠMixiG": 7839,
      "ĠSAU": 7840,
      "ĠViettelPay": 7841,
      "jejeje": 7842,
      "ĠTRá»Ĭ": 7843,
      "lwlw": 7844,
      "hihihihihihihihi": 7845,
      "gygy": 7846,
      "mmmmmmmmmmmmmmmmmmmmmmmmmmmmmmmm": 7847,
      "ĠLazada": 7848,
      "ĠVIET": 7849,
      "ĠCombo": 7850,
      "Ġddr": 7851,
      "ĠCáº¢M": 7852,
      "ĠMÃĢU": 7853,
      "xxxxxxxx": 7854,
      "ĠCMND": 7855,
      "Ġmodem": 7856,
      "ĠnhÃŃm": 7857,
      "ĠKICM": 7858,
      "Ġblutooth": 7859,
      "ĠSenka": 7860,
      "ĠNchung": 7861,
      "ĠBlack": 7862,
      "Ġpackaging": 7863,
      "ĠTFT": 7864,
      "Ġháº«ng": 7865,
      "ĠStyle": 7866,
      "anasonic": 7867,
      "AS": 7868,
      "BS": 7869,
      "ChÃ": 7870,
      "EM": 7871,
      "HA": 7872,
      "IF": 7873,
      "JPH": 7874,
      "KM": 7875,
      "KY": 7876,
      "Kong": 7877,
      "Ng": 7878,
      "Ph": 7879,
      "QJPH": 7880,
      "Th": 7881,
      "ahh": 7882,
      "bu": 7883,
      "bbs": 7884,
      "bhs": 7885,
      "bum": 7886,
      "cel": 7887,
      "ex": 7888,
      "ess": 7889,
      "fx": 7890,
      "ghh": 7891,
      "ghf": 7892,
      "hl": 7893,
      "ij": 7894,
      "jp": 7895,
      "jnd": 7896,
      "jbd": 7897,
      "knxnx": 7898,
      "li": 7899,
      "lip": 7900,
      "nr": 7901,
      "nng": 7902,
      "ner": 7903,
      "ning": 7904,
      "nksks": 7905,
      "oz": 7906,
      "si": 7907,
      "tg": 7908,
      "tor": 7909,
      "uch": 7910,
      "und": 7911,
      "uss": 7912,
      "uld": 7913,
      "vr": 7914,
      "wr": 7915,
      "wjf": 7916,
      "woow": 7917,
      "xoy": 7918,
      "yid": 7919,
      "¥m": 7920,
      "Ìģ": 7921,
      "ĠÃ¬": 7922,
      "Ġang": 7923,
      "ĠÃ¢y": 7924,
      "ĠÃªu": 7925,
      "Ġii": 7926,
      "Ġen": 7927,
      "Ġáº¾": 7928,
      "Ġamen": 7929,
      "ħu": 7930,
      "įa": 7931,
      "ĴN": 7932,
      "á»Ł": 7933,
      "áº°": 7934,
      "Ġtx": 7935,
      "ĠtÃ¬": 7936,
      "Ġtáº¡c": 7937,
      "ĠtÃłnh": 7938,
      "ĠtÃ¡ng": 7939,
      "Ġtáº£ng": 7940,
      "ĠtÃ¨o": 7941,
      "ĠtÃ¢ng": 7942,
      "ĠtÄ©u": 7943,
      "Ġtggd": 7944,
      "Ġcr": 7945,
      "Ġcra": 7946,
      "ĠcÄĥm": 7947,
      "ĠcÃ²i": 7948,
      "Ġcta": 7949,
      "Ġcpu": 7950,
      "Ġcdm": 7951,
      "ĠcÃ¢p": 7952,
      "Ġcool": 7953,
      "nhou": 7954,
      "ĠÄĤN": 7955,
      "ĠÄĳh": 7956,
      "ĠÄĳn": 7957,
      "ĠÄĳÆ¡i": 7958,
      "ĠÄĳÃºc": 7959,
      "ĠÄĳhs": 7960,
      "Ġmd": 7961,
      "Ġmg": 7962,
      "ĠmÆ°á»£c": 7963,
      "ĠmÃ¢u": 7964,
      "ĠmÄĥ": 7965,
      "Ġmáº§y": 7966,
      "ĠmÃ©t": 7967,
      "Ġlin": 7968,
      "ĠlÆ¡i": 7969,
      "ĠlÃ¡y": 7970,
      "ĠlÃ©": 7971,
      "ĠlÃ©o": 7972,
      "Ġliv": 7973,
      "Ġláº·n": 7974,
      "ĠlÃ¡m": 7975,
      "Ġlip": 7976,
      "Ġline": 7977,
      "Ġliu": 7978,
      "ĠlÃ©n": 7979,
      "Ġliá»ħu": 7980,
      "ĠnhÆ¡": 7981,
      "Ġnhem": 7982,
      "Ġnhang": 7983,
      "ĠnhÃło": 7984,
      "ĠnhÃ¡t": 7985,
      "ĠnhÅ©": 7986,
      "Ġvp": 7987,
      "ĠvÃ³": 7988,
      "Ġváº¡": 7989,
      "Ġváº¡n": 7990,
      "Ġváº¡y": 7991,
      "ĠvÃ©t": 7992,
      "ĠviÃª": 7993,
      "ĠvÃ£n": 7994,
      "Ġvali": 7995,
      "Ġháº¹p": 7996,
      "ĠhiÃªn": 7997,
      "Ġháº§m": 7998,
      "Ġhii": 7999,
      "Ġháº§y": 8000,
      "Ġháº¡ch": 8001,
      "Ġhrm": 8002,
      "Ġcháº¡p": 8003,
      "Ġkáº½": 8004,
      "Ġket": 8005,
      "Ġkit": 8006,
      "Ġkcn": 8007,
      "Ġkicm": 8008,
      "Ġnm": 8009,
      "Ġnin": 8010,
      "Ġneo": 8011,
      "Ġnka": 8012,
      "Ġnáºµng": 8013,
      "Ġsáº£": 8014,
      "Ġsáº£o": 8015,
      "Ġsee": 8016,
      "Ġsáº¥m": 8017,
      "Ġshs": 8018,
      "Ġgj": 8019,
      "ĠgÃ¹": 8020,
      "Ġgoc": 8021,
      "Ġbd": 8022,
      "Ġbg": 8023,
      "Ġbáº¥y": 8024,
      "Ġbui": 8025,
      "ĠbÃµ": 8026,
      "ĠbÆ°á»Ľng": 8027,
      "ĠbiÃª": 8028,
      "Ġbiáº¿ng": 8029,
      "Ġbáº«y": 8030,
      "Ġboom": 8031,
      "Ġbáº±g": 8032,
      "Ġthk": 8033,
      "Ġthiá»ĩc": 8034,
      "ĠthiÃªu": 8035,
      "Ġds": 8036,
      "Ġdá»ĵn": 8037,
      "ĠdÃ¹i": 8038,
      "Ġdmm": 8039,
      "Ġdá»ĳc": 8040,
      "Ġrf": 8041,
      "ĠrÃ´": 8042,
      "ĠráºŃt": 8043,
      "ĠrÆ¡m": 8044,
      "ĠrÃ¡n": 8045,
      "ĠrÃ¨n": 8046,
      "Ġpu": 8047,
      "ĠpÃł": 8048,
      "Ġpua": 8049,
      "Ġpit": 8050,
      "Ġpol": 8051,
      "Ġpanda": 8052,
      "Ã¬a": 8053,
      "ĠngÆ¡i": 8054,
      "Ġngoi": 8055,
      "Ġngá»ĳn": 8056,
      "ĠthÃ©t": 8057,
      "ĠtrÆ¡": 8058,
      "Ġtriáº¿t": 8059,
      "Ġtráº¯c": 8060,
      "ĠtrÃ¨o": 8061,
      "Ġtrip": 8062,
      "ĠÄĳá»Ł": 8063,
      "Ġgil": 8064,
      "Ġgiu": 8065,
      "ĠgiÃ³ng": 8066,
      "ĠkhÃ´i": 8067,
      "ĠkhÃ¢m": 8068,
      "ĠxÆ¡": 8069,
      "ual": 8070,
      "ĠTS": 8071,
      "ĠTÃły": 8072,
      "ĠTÆ°Æ¡ng": 8073,
      "ĠTuyÃªn": 8074,
      "ĠTim": 8075,
      "ĠTÄ©nh": 8076,
      "ĠTá»ĭch": 8077,
      "ĠTÃ¹y": 8078,
      "Ġvá»į": 8079,
      "Ġpháº£": 8080,
      "ĠphiÃªu": 8081,
      "Ġphom": 8082,
      "ĠCang": 8083,
      "ĠCac": 8084,
      "ĠCty": 8085,
      "Ġchá»Ń": 8086,
      "ĠMÃłng": 8087,
      "ĠMÃ©": 8088,
      "ĠMÆ°a": 8089,
      "ĠMá»ĳt": 8090,
      "ĠMá»ĵm": 8091,
      "ĠMÃĥ": 8092,
      "ĠMÃģY": 8093,
      "ĠNS": 8094,
      "ĠNd": 8095,
      "ĠNai": 8096,
      "ĠNáº¿n": 8097,
      "ĠNáº±m": 8098,
      "ĠNeu": 8099,
      "ĠNQJPH": 8100,
      "Ġá»į": 8101,
      "Ġá»Ľ": 8102,
      "Ġá»Ĺn": 8103,
      "Ġcá»±u": 8104,
      "Ġbá»ĵng": 8105,
      "Ġbá»Ĺng": 8106,
      "Ġhá»Ŀ": 8107,
      "Ġhá»Ľt": 8108,
      "Ġhá»¡i": 8109,
      "Ġhá»¥i": 8110,
      "ĠkhÃł": 8111,
      "Ġkhoi": 8112,
      "ĠkháºŃp": 8113,
      "ĠSK": 8114,
      "ĠSU": 8115,
      "ĠSs": 8116,
      "ĠSho": 8117,
      "ĠSung": 8118,
      "ĠSáº¯m": 8119,
      "ĠSBT": 8120,
      "cha": 8121,
      "chc": 8122,
      "chd": 8123,
      "Ãºy": 8124,
      "ĠHao": 8125,
      "ĠHÃ¡n": 8126,
      "ĠHÃ¨n": 8127,
      "ĠHáº¾T": 8128,
      "ĠHigh": 8129,
      "Ġnhanhh": 8130,
      "ĠÄĲN": 8131,
      "ĠÄĲÃ´": 8132,
      "ĠÄĲáº§n": 8133,
      "ĠÄĲÃº": 8134,
      "ĠÄĲiá»ĩp": 8135,
      "ĠÄĲkm": 8136,
      "ĠÄĲÄĤNG": 8137,
      "Ġdá»Ļ": 8138,
      "Ġdá»Ń": 8139,
      "Ġdá»įng": 8140,
      "Ġdá»©t": 8141,
      "ĠchÃ¹ng": 8142,
      "ĠgiÃ¡ng": 8143,
      "emon": 8144,
      "ĠquÃ¡nh": 8145,
      "Ġlá»«": 8146,
      "Ġlá»Ļng": 8147,
      "anc": 8148,
      "Ġokkk": 8149,
      "Ġbá»ĭp": 8150,
      "Äĥg": 8151,
      "Æ°á»Ľn": 8152,
      "ĠGA": 8153,
      "ĠGÃ¡i": 8154,
      "ĠGÃ³c": 8155,
      "ĠGÃĮ": 8156,
      "ĠGrab": 8157,
      "ĠVa": 8158,
      "ĠVÃĶ": 8159,
      "ĠVcl": 8160,
      "Ġnhá»¯": 8161,
      "Ġnhá»į": 8162,
      "Ġluot": 8163,
      "Ġná»±c": 8164,
      "ĠCha": 8165,
      "ĠChao": 8166,
      "ĠChÃłng": 8167,
      "ĠChan": 8168,
      "ĠChÄĥm": 8169,
      "ĠChim": 8170,
      "ĠCháº¥m": 8171,
      "ĠChina": 8172,
      "ĠChrome": 8173,
      "ĠLao": 8174,
      "ĠLee": 8175,
      "ĠLáº¯m": 8176,
      "ĠLÃ³t": 8177,
      "ĠLap": 8178,
      "ĠLuc": 8179,
      "ĠLÃĿ": 8180,
      "ĠLÆ¯á»¢NG": 8181,
      "ĠBay": 8182,
      "ĠBÃ©o": 8183,
      "ĠBÆ¡m": 8184,
      "Ġgiá»ĳ": 8185,
      "ĠKs": 8186,
      "ĠKÃªu": 8187,
      "ĠThá»į": 8188,
      "áº»m": 8189,
      "ĠDay": 8190,
      "ĠDiÃªn": 8191,
      "ĠDiá»ĩt": 8192,
      "ĠDáº¡ng": 8193,
      "ĠDit": 8194,
      "ĠDuc": 8195,
      "ĠDep": 8196,
      "ĠDAT": 8197,
      "Ġsaoooo": 8198,
      "Ġas": 8199,
      "Ġquad": 8200,
      "iá»ĥng": 8201,
      "ĠPo": 8202,
      "ĠPr": 8203,
      "ĠPlay": 8204,
      "ĠPark": 8205,
      "ĠPass": 8206,
      "Ġchá»īn": 8207,
      "Ġyo": 8208,
      "ĠGil": 8209,
      "ĠGiáºŃn": 8210,
      "ĠGian": 8211,
      "ĠÄĳÃ¡ch": 8212,
      "ĠnháºŃndkd": 8213,
      "Ġlog": 8214,
      "Ġloay": 8215,
      "Ġloang": 8216,
      "ĠNge": 8217,
      "ĠNgÅ©": 8218,
      "pport": 8219,
      "ĠhoÃłnh": 8220,
      "ĠAm": 8221,
      "ĠAr": 8222,
      "ĠAhihi": 8223,
      "ĠAlaska": 8224,
      "eoeo": 8225,
      "Ġtom": 8226,
      "ĠtoÃł": 8227,
      "ĠtoÃ©t": 8228,
      "ĠTrÆ°": 8229,
      "ĠTreo": 8230,
      "ĠTrÄĥm": 8231,
      "ĠTrÃ¡i": 8232,
      "ĠTrÃ£i": 8233,
      "tte": 8234,
      "tter": 8235,
      "oid": 8236,
      "oisw": 8237,
      "Ġtum": 8238,
      "Ġtuii": 8239,
      "nnÄĳ": 8240,
      "hhc": 8241,
      "Ġtrá»«ng": 8242,
      "Ġfail": 8243,
      "ral": 8244,
      "ĠÄĳÃ¢uu": 8245,
      "alth": 8246,
      "Ġairpod": 8247,
      "ĠÃ¡k": 8248,
      "Ġsing": 8249,
      "Ġphá»ĩ": 8250,
      "ĠXO": 8251,
      "ĠXa": 8252,
      "ĠRE": 8253,
      "ĠRom": 8254,
      "ĠMá»©c": 8255,
      "ĠMá»ĮI": 8256,
      "Ġchuá»Ļng": 8257,
      "Ġchill": 8258,
      "ĠOanh": 8259,
      "Ġdom": 8260,
      "Ġdoub": 8261,
      "Ġtaxi": 8262,
      "ĠxuÃ´i": 8263,
      "jsbs": 8264,
      "ĠPhuc": 8265,
      "Ġitel": 8266,
      "ksjs": 8267,
      "ĠQuÃ©t": 8268,
      "Ġbas": 8269,
      "Ġthue": 8270,
      "Ġngá»Ľ": 8271,
      "Ġngá»£i": 8272,
      "ĠnghÄ©nh": 8273,
      "ĠÄĲá»¨C": 8274,
      "ĠÄĲá»ªNG": 8275,
      "ĠNhÃ¬": 8276,
      "ĠÃĤn": 8277,
      "Ġcollagen": 8278,
      "ĠChá»īnh": 8279,
      "Ġxinhh": 8280,
      "Ġzl": 8281,
      "Ġzo": 8282,
      "pppppp": 8283,
      "Ġcust": 8284,
      "Ġmar": 8285,
      "ĠVá»¹": 8286,
      "ĠVá»Ĭ": 8287,
      "Ġspa": 8288,
      "Ġrá»Ŀ": 8289,
      "ĠER": 8290,
      "ĠEx": 8291,
      "sss": 8292,
      "oke": 8293,
      "nsn": 8294,
      "nson": 8295,
      "nsms": 8296,
      "arena": 8297,
      "Ġanker": 8298,
      "oud": 8299,
      "out": 8300,
      "lly": 8301,
      "ĠchÃªt": 8302,
      "kdj": 8303,
      "bsh": 8304,
      "ata": 8305,
      "ĠTá»Ľ": 8306,
      "ĠTá»Ń": 8307,
      "ĠTá»ĺI": 8308,
      "ĠTá»ĲT": 8309,
      "ĠYen": 8310,
      "bbbv": 8311,
      "Ġuiii": 8312,
      "ĠIQ": 8313,
      "ĠIOS": 8314,
      "res": 8315,
      "redit": 8316,
      "ĠCá»Ŀ": 8317,
      "ĠCá»°C": 8318,
      "Ġhaizzzz": 8319,
      "ĠVNA": 8320,
      "itamin": 8321,
      "ĠPhÃª": 8322,
      "ĠÄĳoÃ¡": 8323,
      "ĠÄĳoáº¡t": 8324,
      "Äĳj": 8325,
      "orld": 8326,
      "Ġsupport": 8327,
      "ĠkhuÃ¢n": 8328,
      "isk": 8329,
      "ĠLol": 8330,
      "Ġbank": 8331,
      "ĠTHEO": 8332,
      "ĠTHÃĢNH": 8333,
      "ĠSá»ķ": 8334,
      "ĠSá»©c": 8335,
      "ĠSá»£i": 8336,
      "ĠUV": 8337,
      "ĠUh": 8338,
      "ĠUp": 8339,
      "ĠÃĶNG": 8340,
      "ĠmoÃ¡": 8341,
      "Ġmore": 8342,
      "ÃĢY": 8343,
      "ĠÃŃu": 8344,
      "mmmmmm": 8345,
      "ĠJJ": 8346,
      "ĠJs": 8347,
      "bxb": 8348,
      "bxnx": 8349,
      "ĠLá»Ĺ": 8350,
      "tain": 8351,
      "ixix": 8352,
      "oshop": 8353,
      "ĠnuÃ´n": 8354,
      "Ġclone": 8355,
      "Ġhappy": 8356,
      "Ġpromax": 8357,
      "Ġstand": 8358,
      "Ġstore": 8359,
      "Ġstress": 8360,
      "Ġstreamer": 8361,
      "ĠGiá»¯": 8362,
      "ĠxoÃ¡y": 8363,
      "ĠNhá»±t": 8364,
      "ĠhÃ³t": 8365,
      "ndndnd": 8366,
      "ĠWeb": 8367,
      "ĠWow": 8368,
      "ĠThuong": 8369,
      "ĠhÃ¡ch": 8370,
      "ĠÃģi": 8371,
      "ĠÃģp": 8372,
      "ĠÄĳuá»£": 8373,
      "Ġvnch": 8374,
      "ahahah": 8375,
      "ĠÃ´g": 8376,
      "apa": 8377,
      "apore": 8378,
      "kxkx": 8379,
      "ÃģI": 8380,
      "ÃģT": 8381,
      "Ġhihihihi": 8382,
      "ĠChuc": 8383,
      "bib": 8384,
      "bfnf": 8385,
      "eeeeeeeee": 8386,
      "áºłC": 8387,
      "áºłM": 8388,
      "áº¤U": 8389,
      "ilo": 8390,
      "Ġchuan": 8391,
      "ÃĵC": 8392,
      "ĠTot": 8393,
      "Iá»ĢU": 8394,
      "ĠDoanh": 8395,
      "Ġmiss": 8396,
      "ĠPHá»": 8397,
      "sky": 8398,
      "ĠÄĳáº¿ch": 8399,
      "ĠQUAN": 8400,
      "gian": 8401,
      "Ġtá»§i": 8402,
      "ÃĤM": 8403,
      "jjjjj": 8404,
      "iiiiiiiiiiiiiiiiiiiiiiii": 8405,
      "ĠNgoan": 8406,
      "ooooo": 8407,
      "Ġlquan": 8408,
      "loz": 8409,
      "jdjjd": 8410,
      "Ġleg": 8411,
      "Ġlevi": 8412,
      "ĠhÃ²n": 8413,
      "ĠNá»ĥ": 8414,
      "ĠGá»ĮI": 8415,
      "Ġmessage": 8416,
      "ĠHaizzz": 8417,
      "ĠDuong": 8418,
      "ofi": 8419,
      "Ġá»Ĳc": 8420,
      "indle": 8421,
      "indows": 8422,
      "lsls": 8423,
      "áº¬P": 8424,
      "ÃļT": 8425,
      "ĠÄĲoáº¡n": 8426,
      "ĠLevi": 8427,
      "ĠSHI": 8428,
      "ÃįCH": 8429,
      "nnsnsnsnsns": 8430,
      "ĠvÃµng": 8431,
      "kfkfkfkf": 8432,
      "Ġbthg": 8433,
      "hwhw": 8434,
      "áº®T": 8435,
      "Ġshock": 8436,
      "ĠMoon": 8437,
      "mdmd": 8438,
      "ĠroÃłi": 8439,
      "nnxnxnxnxnx": 8440,
      "uuuuuuuuuuuuuuuuuuuuuuuu": 8441,
      "Ġtnao": 8442,
      "ĠGhÃ©t": 8443,
      "ĠGhÃ©p": 8444,
      "brh": 8445,
      "Ġtroll": 8446,
      "opro": 8447,
      "Ġgram": 8448,
      "ĠSony": 8449,
      "Ġngá»«i": 8450,
      "ĠBest": 8451,
      "Ġtphcm": 8452,
      "ieieie": 8453,
      "ĠNhuá»ĩ": 8454,
      "Ġrá»§i": 8455,
      "btc": 8456,
      "ĠHead": 8457,
      "coycoy": 8458,
      "ahahahh": 8459,
      "áº¶T": 8460,
      "Ġghet": 8461,
      "ĠrÃ¬a": 8462,
      "Ġndns": 8463,
      "Ġunbox": 8464,
      "hdhdhdhhd": 8465,
      "ĠComfort": 8466,
      "Ġalbum": 8467,
      "igigigig": 8468,
      "jjjjjjjjjjjjjjjj": 8469,
      "tjdtjdtjdtjd": 8470,
      "rist": 8471,
      "ĠNGHá»": 8472,
      "Ġflag": 8473,
      "sksoisw": 8474,
      "ĠhÆ¡p": 8475,
      "ĠngÆ°Æ¡i": 8476,
      "jjgjgjgjgjg": 8477,
      "ĠdÄ©a": 8478,
      "ĠPhÃŃm": 8479,
      "Ġscreen": 8480,
      "Ġwiffi": 8481,
      "ĠTHUá»ĲC": 8482,
      "ĠTOÃĢN": 8483,
      "Ġá»¨ng": 8484,
      "ĠGHz": 8485,
      "ĠOfficial": 8486,
      "bbxbxbxbxbx": 8487,
      "ĠsÃ¡u": 8488,
      "ĠABe": 8489,
      "Ġgato": 8490,
      "ĠMáºłNG": 8491,
      "iififififif": 8492,
      "ĠBitis": 8493,
      "ĠOkkkkkkkkkkkkkkkkkkkkkk": 8494,
      "ckhck": 8495,
      "ÃĪO": 8496,
      "Ġcarton": 8497,
      "MEI": 8498,
      "Ġpastel": 8499,
      "ĠLáº®M": 8500,
      "ĠInnisfree": 8501,
      "QuÃ¢n": 8502,
      "flix": 8503,
      "oaoknxnx": 8504,
      "Ġcskh": 8505,
      "ĠMbps": 8506,
      "ĠHÃĶM": 8507,
      "jjccjcjc": 8508,
      "nhouse": 8509,
      "ĠSBTC": 8510,
      "ĠnháºŃndkdsksoisw": 8511,
      "Ġdouble": 8512,
      "Ġcustom": 8513,
      "ĠÄĳuá»£c": 8514,
      "ĠnháºŃndkdsksoiswoaoknxnx": 8515,
      "BI": 8516,
      "CD": 8517,
      "FC": 8518,
      "HH": 8519,
      "IT": 8520,
      "IEU": 8521,
      "Jz": 8522,
      "LL": 8523,
      "OC": 8524,
      "OX": 8525,
      "TE": 8526,
      "TEL": 8527,
      "ax": 8528,
      "bao": 8529,
      "ban": 8530,
      "bkk": 8531,
      "bns": 8532,
      "band": 8533,
      "ca": 8534,
      "cit": 8535,
      "di": 8536,
      "fc": 8537,
      "fr": 8538,
      "for": 8539,
      "fhf": 8540,
      "gb": 8541,
      "gk": 8542,
      "gjd": 8543,
      "gjs": 8544,
      "gig": 8545,
      "hon": 8546,
      "hbb": 8547,
      "ib": 8548,
      "ih": 8549,
      "jnn": 8550,
      "jak": 8551,
      "kbd": 8552,
      "kyd": 8553,
      "ktd": 8554,
      "lg": 8555,
      "lie": 8556,
      "may": 8557,
      "nch": 8558,
      "njs": 8559,
      "nisfree": 8560,
      "oj": 8561,
      "odd": 8562,
      "pi": 8563,
      "pyd": 8564,
      "ris": 8565,
      "rjr": 8566,
      "sz": 8567,
      "tif": 8568,
      "uhd": 8569,
      "uko": 8570,
      "vbi": 8571,
      "wj": 8572,
      "word": 8573,
      "xc": 8574,
      "xd": 8575,
      "xur": 8576,
      "xkdjd": 8577,
      "ya": 8578,
      "yf": 8579,
      "yt": 8580,
      "yod": 8581,
      "ycy": 8582,
      "za": 8583,
      "zer": 8584,
      "zve": 8585,
      "zkz": 8586,
      "¢P": 8587,
      "¢y": 8588,
      "¨T": 8589,
      "©n": 8590,
      "«g": 8591,
      "°A": 8592,
      "Ã¼": 8593,
      "Ä¨": 8594,
      "ÌĤ": 8595,
      "ĠÃ²": 8596,
      "Ġinh": 8597,
      "ĠÃ¹i": 8598,
      "Ġá»ĳi": 8599,
      "ĠÆ°á»Ľp": 8600,
      "ĨÌ": 8601,
      "ĲC": 8602,
      "ĺT": 8603,
      "á»Ľc": 8604,
      "Ġtáº©m": 8605,
      "ĠtÆ°Æ¡": 8606,
      "ĠtÃºng": 8607,
      "ĠtiÃªng": 8608,
      "Ġtiu": 8609,
      "Ġtiá»ģm": 8610,
      "Ġcp": 8611,
      "ĠcÃ¹": 8612,
      "Ġcui": 8613,
      "Ġcáº±m": 8614,
      "ĠcÆ°á»¡ng": 8615,
      "ĠÄĳáº§n": 8616,
      "ĠÄĳoi": 8617,
      "ĠÄĳiá»ĥu": 8618,
      "ĠÄĳÆ¡m": 8619,
      "ĠmÃªn": 8620,
      "ĠmiÃªn": 8621,
      "ĠmÃºc": 8622,
      "ĠmÃŃt": 8623,
      "ĠmÃ¡ch": 8624,
      "Ġmus": 8625,
      "ĠmÃ¢t": 8626,
      "ĠmÄĥt": 8627,
      "Ġlt": 8628,
      "Ġláº£": 8629,
      "Ġláº¿t": 8630,
      "Ġláº¡t": 8631,
      "ĠlÃ¡nh": 8632,
      "Ġlieu": 8633,
      "Ġláº¡p": 8634,
      "Ġláº¹o": 8635,
      "ĠlÃµm": 8636,
      "Ġláº±n": 8637,
      "ĠlÆ°Æ¡n": 8638,
      "ĠnhÃ¢": 8639,
      "ĠnhÄĥng": 8640,
      "Ġnhiet": 8641,
      "Ġnháº¥c": 8642,
      "ĠvÃ¨": 8643,
      "Ġvina": 8644,
      "ĠviÃªt": 8645,
      "Ġviec": 8646,
      "Ġhj": 8647,
      "Ġhv": 8648,
      "Ġhx": 8649,
      "Ġhjj": 8650,
      "ĠhÆ°u": 8651,
      "Ġhiii": 8652,
      "Ġhun": 8653,
      "Ġcháº§n": 8654,
      "Ġcháº¡nh": 8655,
      "ĠchÆ°á»Ľng": 8656,
      "Ġchrome": 8657,
      "Ġkao": 8658,
      "Ġkon": 8659,
      "Ġkien": 8660,
      "ĠkiÃªm": 8661,
      "ĠnÃª": 8662,
      "ĠnÃ¬": 8663,
      "Ġnáº¡o": 8664,
      "Ġnat": 8665,
      "Ġniu": 8666,
      "Ġnail": 8667,
      "ĠnÃ©n": 8668,
      "Ġnáº¿m": 8669,
      "Ġsf": 8670,
      "Ġsy": 8671,
      "ĠsÃ´": 8672,
      "Ġsal": 8673,
      "Ġsbs": 8674,
      "ĠsÃ¡p": 8675,
      "Ġsms": 8676,
      "Ġgf": 8677,
      "Ġganh": 8678,
      "ĠgÃŃ": 8679,
      "ĠgÃ¢n": 8680,
      "ĠgÄĥng": 8681,
      "ĠgÃ£i": 8682,
      "ĠgÃºt": 8683,
      "ĠgÃ²i": 8684,
      "Ġgom": 8685,
      "ĠgÃŃa": 8686,
      "Ġbs": 8687,
      "Ġbv": 8688,
      "ĠbÃ³i": 8689,
      "Ġbal": 8690,
      "ĠbÄĥm": 8691,
      "Ġbien": 8692,
      "Ġbig": 8693,
      "ĠbÆ°á»Łi": 8694,
      "Ġbgio": 8695,
      "áº¥ng": 8696,
      "Ġthj": 8697,
      "Ġthw": 8698,
      "Ġtháº©n": 8699,
      "Ġthá»ĳt": 8700,
      "Ġthag": 8701,
      "Ġthieu": 8702,
      "Ġdiá»ģu": 8703,
      "Ġdie": 8704,
      "Ġdet": 8705,
      "ĠdÃ²i": 8706,
      "ĠdÃ¬m": 8707,
      "Ġdjdnd": 8708,
      "Ġron": 8709,
      "ĠrÃ£": 8710,
      "ĠráºŃn": 8711,
      "Ġráº§m": 8712,
      "Ġrá»Ļ": 8713,
      "ĠrÃ©t": 8714,
      "Ġria": 8715,
      "Ġrank": 8716,
      "Ġpay": 8717,
      "Ġpai": 8718,
      "Ġpic": 8719,
      "Ġping": 8720,
      "áº¿ch": 8721,
      "Ġngai": 8722,
      "ĠngÃ³c": 8723,
      "Ġngá»įn": 8724,
      "Ġtry": 8725,
      "ĠtrÆ¡i": 8726,
      "Ġtram": 8727,
      "ĠtrÃº": 8728,
      "ĠtrÄ©": 8729,
      "ĠÄĳá»±": 8730,
      "Ġgiay": 8731,
      "aoksn": 8732,
      "ĠkhÃ©p": 8733,
      "Ġxn": 8734,
      "ĠxÃª": 8735,
      "Ġxen": 8736,
      "Ġxá»Ļn": 8737,
      "uaua": 8738,
      "ĠTx": 8739,
      "ĠTung": 8740,
      "ĠTÃło": 8741,
      "ĠTÃ´m": 8742,
      "ĠTáº±m": 8743,
      "ĠTáº¤T": 8744,
      "ĠTiger": 8745,
      "ĠTÃĢI": 8746,
      "ĠTÄĤNG": 8747,
      "ĠTÃįNH": 8748,
      "Ġvá»Ľt": 8749,
      "Ġphang": 8750,
      "Ġphá»įt": 8751,
      "Ġphot": 8752,
      "Ġpháº«m": 8753,
      "Ġqtr": 8754,
      "Ġqtv": 8755,
      "ĠCN": 8756,
      "ĠCc": 8757,
      "ĠCk": 8758,
      "ĠCua": 8759,
      "ĠCÃły": 8760,
      "ĠCá»į": 8761,
      "ĠCáº©n": 8762,
      "ĠCal": 8763,
      "ĠCÄĥn": 8764,
      "ĠCÃ¡nh": 8765,
      "ĠCÃ¡o": 8766,
      "ĠCÃĻNG": 8767,
      "ĠCÅ¨": 8768,
      "ĠMr": 8769,
      "ĠMan": 8770,
      "ĠMÄ©": 8771,
      "ĠMix": 8772,
      "ĠMum": 8773,
      "ĠMÆ°á»£n": 8774,
      "ĠMáº¸": 8775,
      "ĠMTP": 8776,
      "ĠNN": 8777,
      "ĠNon": 8778,
      "ĠNÄĤM": 8779,
      "Ġquáº¡": 8780,
      "ĠquáºŃy": 8781,
      "Ġquá»¹": 8782,
      "Ġá»¥": 8783,
      "Ġá»³": 8784,
      "Ġá»ı": 8785,
      "Ġá»ıi": 8786,
      "Ġbá»Ŀi": 8787,
      "Ġbá»Ńa": 8788,
      "Ġhá»ĭ": 8789,
      "Ġkhanh": 8790,
      "Ġkháº¥u": 8791,
      "Ġkhiá»ħng": 8792,
      "amm": 8793,
      "ĠSong": 8794,
      "ĠSÄ©": 8795,
      "ĠSÃ¢m": 8796,
      "ĠSáº£m": 8797,
      "ĠSns": 8798,
      "ĠSÆ°á»Ľng": 8799,
      "ĠSÆ¯": 8800,
      "ĠSáºµn": 8801,
      "ĠSmart": 8802,
      "ĠStore": 8803,
      "chk": 8804,
      "cho": 8805,
      "chs": 8806,
      "chx": 8807,
      "chia": 8808,
      "ĠHS": 8809,
      "ĠHk": 8810,
      "ĠHÃ¢": 8811,
      "ĠHung": 8812,
      "ĠHÃło": 8813,
      "ĠHÆ°á»Ŀng": 8814,
      "ĠHoi": 8815,
      "ĠHÃ¡t": 8816,
      "ĠHah": 8817,
      "ĠHien": 8818,
      "ĠHáº¹n": 8819,
      "ĠHÃĥ": 8820,
      "Ġnhanhhh": 8821,
      "Ġnhanhhhhhhhhhhhh": 8822,
      "Ġthá»ıi": 8823,
      "ĠÄĲam": 8824,
      "ĠÄĲáº£m": 8825,
      "ĠÄĲÃ¡p": 8826,
      "ĠÄĲÃĵ": 8827,
      "ĠÄĲIá»ĨN": 8828,
      "ĠÄĲÆłN": 8829,
      "ĠÄĲÃīO": 8830,
      "Ġoai": 8831,
      "ĠoÃ¡nh": 8832,
      "how": 8833,
      "air": 8834,
      "Ġlá»£": 8835,
      "Ġlá»Ł": 8836,
      "Ġokeeeeeeeeeeeeeeee": 8837,
      "ĠkhÃ¡i": 8838,
      "ĠGiáº¿t": 8839,
      "ĠGáº¯n": 8840,
      "ĠGoi": 8841,
      "ĠGPS": 8842,
      "ĠVay": 8843,
      "ĠVoi": 8844,
      "ĠViÃªt": 8845,
      "Ġngheo": 8846,
      "Ġnhá»§": 8847,
      "Ġlunnn": 8848,
      "Ġná»Ń": 8849,
      "Ġná»©a": 8850,
      "ĠÄĳit": 8851,
      "ĠÄĳien": 8852,
      "ĠChj": 8853,
      "ĠLÃ²": 8854,
      "ĠLáº§y": 8855,
      "ĠLiá»ĩu": 8856,
      "ĠLáº¡nh": 8857,
      "ĠLá»ĵn": 8858,
      "ĠLAN": 8859,
      "ĠLINH": 8860,
      "ĠLite": 8861,
      "kka": 8862,
      "kkw": 8863,
      "ĠBB": 8864,
      "ĠBÃ³": 8865,
      "ĠBÃ£": 8866,
      "ĠBai": 8867,
      "ĠBáº¡c": 8868,
      "ĠBáº¡t": 8869,
      "ĠBrand": 8870,
      "ĠphÃ¨n": 8871,
      "ĠKu": 8872,
      "ĠKen": 8873,
      "ĠKiá»ĥm": 8874,
      "ĠKÃªnh": 8875,
      "ĠKá»·": 8876,
      "ĠKáº¾T": 8877,
      "ĠDA": 8878,
      "ĠDI": 8879,
      "ĠDh": 8880,
      "ĠDn": 8881,
      "ĠDinh": 8882,
      "ĠDcm": 8883,
      "ĠDlv": 8884,
      "ĠDáº¦N": 8885,
      "ĠDAC": 8886,
      "ĠPA": 8887,
      "ĠPS": 8888,
      "ĠPed": 8889,
      "ĠNgáº¯n": 8890,
      "Æ°Æ¡u": 8891,
      "enal": 8892,
      "Ġhoáº£ng": 8893,
      "ĠAo": 8894,
      "ĠAnn": 8895,
      "ĠNhÃłn": 8896,
      "ĠNháº¯n": 8897,
      "ĠTrÃ²": 8898,
      "ĠTrÃ¹ng": 8899,
      "ĠTrÃ²n": 8900,
      "Æ°á»Ŀm": 8901,
      "Ġtur": 8902,
      "nnz": 8903,
      "hhb": 8904,
      "hhahs": 8905,
      "Ġtrá»ı": 8906,
      "aal": 8907,
      "Ġfáº£i": 8908,
      "Ġfhe": 8909,
      "Ġfind": 8910,
      "Ġfashion": 8911,
      "hing": 8912,
      "Ġmá»įe": 8913,
      "alk": 8914,
      "als": 8915,
      "ĠchÃºg": 8916,
      "ĠlÃ²ngggggggg": 8917,
      "Ġaiz": 8918,
      "uiwksn": 8919,
      "eep": 8920,
      "ees": 8921,
      "ĠXs": 8922,
      "ĠXÃģ": 8923,
      "ĠXIN": 8924,
      "ĠRÃ¨m": 8925,
      "ĠMá»¸": 8926,
      "Ġwc": 8927,
      "Ġwas": 8928,
      "Ġwtf": 8929,
      "Ġword": 8930,
      "Ġchuong": 8931,
      "Ġchuá»ĵn": 8932,
      "ide": 8933,
      "idbrh": 8934,
      "Ġká»ģ": 8935,
      "ĠOi": 8936,
      "ĠOTP": 8937,
      "Ġdoan": 8938,
      "Ġever": 8939,
      "Ġkhoanh": 8940,
      "ggh": 8941,
      "jsiai": 8942,
      "ĠPha": 8943,
      "ĠPhu": 8944,
      "ĠPhá»ĳ": 8945,
      "ĠPháº¡t": 8946,
      "Ġia": 8947,
      "ksow": 8948,
      "kskx": 8949,
      "ĠQuÃª": 8950,
      "tex": 8951,
      "ĠKhÃ¹ng": 8952,
      "mmer": 8953,
      "ĠhÃ£i": 8954,
      "ndjdjd": 8955,
      "ĠphÃ¡c": 8956,
      "Ġbubg": 8957,
      "ĠÄĲá»Ĭ": 8958,
      "Ġcoppy": 8959,
      "ĠChá»¥t": 8960,
      "Ġzkk": 8961,
      "bdj": 8962,
      "beb": 8963,
      "bell": 8964,
      "Ġmap": 8965,
      "Ġmask": 8966,
      "Ġspham": 8967,
      "ĠEng": 8968,
      "ĠEuro": 8969,
      "ĠAnhQuÃ¢n": 8970,
      "ĠTikiN": 8971,
      "nsj": 8972,
      "aris": 8973,
      "arge": 8974,
      "iate": 8975,
      "hdhhd": 8976,
      "ĠFC": 8977,
      "ĠFE": 8978,
      "ĠFr": 8979,
      "ĠFRE": 8980,
      "ĠFPS": 8981,
      "ĠThÃŃ": 8982,
      "ĠGiÃ¡m": 8983,
      "ĠHoÃ¡": 8984,
      "ĠHoáº¡t": 8985,
      "kdjdjd": 8986,
      "kdkx": 8987,
      "ĠkÃŃm": 8988,
      "Ġquyen": 8989,
      "ĠhiÃªu": 8990,
      "row": 8991,
      "rodf": 8992,
      "bsbb": 8993,
      "atar": 8994,
      "sta": 8995,
      "ĠTá»©": 8996,
      "Ġdum": 8997,
      "Ġvlin": 8998,
      "jfkf": 8999,
      "ĠÄĳth": 9000,
      "ĠID": 9001,
      "ĠIN": 9002,
      "ĠIm": 9003,
      "ĠIMEI": 9004,
      "Ġthing": 9005,
      "ĠCá»«": 9006,
      "ĠCá»¤C": 9007,
      "ĠCá»Ńu": 9008,
      "Ġsell": 9009,
      "ĠKha": 9010,
      "Ġtrailer": 9011,
      "nxh": 9012,
      "Ġinb": 9013,
      "Ġint": 9014,
      "Ġinnisfree": 9015,
      "ĠVNCH": 9016,
      "tttttttttttt": 9017,
      "ckx": 9018,
      "aga": 9019,
      "Ġtele": 9020,
      "Ġtext": 9021,
      "Ġkhuáº¥t": 9022,
      "ĠkhuÃ´ng": 9023,
      "ĠTHAN": 9024,
      "ĠTHÃļ": 9025,
      "ĠTHÃĬM": 9026,
      "ĠÌĨÌ": 9027,
      "ĠSá»§a": 9028,
      "ĠUn": 9029,
      "ther": 9030,
      "jxhx": 9031,
      "ĠÃŃn": 9032,
      "nnnnnnnnn": 9033,
      "nnnnnnnnnnnnn": 9034,
      "ĠJa": 9035,
      "ĠJd": 9036,
      "bxhx": 9037,
      "aaaaaaaaaa": 9038,
      "ĠLá»¯": 9039,
      "vvc": 9040,
      "vvv": 9041,
      "osnsns": 9042,
      "Ġnum": 9043,
      "ĠTuyáº¿n": 9044,
      "Æ¯Æł": 9045,
      "Ġhas": 9046,
      "ĠlÅ©i": 9047,
      "jcjf": 9048,
      "ĠHá»©a": 9049,
      "ĠHá»ĮC": 9050,
      "ĠHá»¢P": 9051,
      "igree": 9052,
      "vel": 9053,
      "Ġcá»¥t": 9054,
      "ĠWD": 9055,
      "ĠWith": 9056,
      "kfkd": 9057,
      "ĠnghÃªnh": 9058,
      "Ġonsc": 9059,
      "ĠThun": 9060,
      "ĠhÃ¡o": 9061,
      "Ġmuá»": 9062,
      "ĠboÃ¡c": 9063,
      "ĠNHÃĵ": 9064,
      "ĠNHÃĤN": 9065,
      "jgs": 9066,
      "jgjf": 9067,
      "kek": 9068,
      "ĠTRÃĬN": 9069,
      "ĠTRáºº": 9070,
      "ĠTRÆ¯á»ļC": 9071,
      "Ġfuck": 9072,
      "elin": 9073,
      "Ġsdung": 9074,
      "ncjc": 9075,
      "jwjs": 9076,
      "xyc": 9077,
      "Ġhealth": 9078,
      "ĠAnker": 9079,
      "ĠNGUYÃĬN": 9080,
      "Ġruá»Ļng": 9081,
      "ĠZá»": 9082,
      "hihihi": 9083,
      "ÃĵA": 9084,
      "ÄĲT": 9085,
      "Ġghz": 9086,
      "Ġsony": 9087,
      "Ġsonic": 9088,
      "kgxg": 9089,
      "ful": 9090,
      "wwwwww": 9091,
      "ggggggggg": 9092,
      "xxx": 9093,
      "vsf": 9094,
      "jfjfjf": 9095,
      "oga": 9096,
      "ĠPHÃĴNG": 9097,
      "ĠPHáºłM": 9098,
      "ĠTrá»©ng": 9099,
      "ĠChÃºa": 9100,
      "bzbs": 9101,
      "ĠHDR": 9102,
      "ĠHuáº¿": 9103,
      "ĠHuá»ĩ": 9104,
      "ĠQUA": 9105,
      "ĠQUAY": 9106,
      "jts": 9107,
      "Ġnext": 9108,
      "ĠNghá»ĩ": 9109,
      "ĠTIáº¾": 9110,
      "ĠSá»Ńu": 9111,
      "ĠLuÃ¢n": 9112,
      "ĠBuá»ķi": 9113,
      "ĠCuoc": 9114,
      "Ġdá»Łm": 9115,
      "hehehe": 9116,
      "ĠShiper": 9117,
      "Ġformosa": 9118,
      "bsbsbsbs": 9119,
      "ĠCHá»ĲNG": 9120,
      "ĠCHá»¬I": 9121,
      "ĠÆłN": 9122,
      "ĠNá»Ĺ": 9123,
      "ĠNá»®A": 9124,
      "ĠPhá»¥ng": 9125,
      "ĠÃĤy": 9126,
      "ghj": 9127,
      "cola": 9128,
      "gdh": 9129,
      "ĠKhá»±a": 9130,
      "ĠCSGT": 9131,
      "ĠReview": 9132,
      "lsl": 9133,
      "Ġhahaaa": 9134,
      "ĠDior": 9135,
      "Ġkill": 9136,
      "oxoy": 9137,
      "ĠOkela": 9138,
      "jdjdjdjdjdjdjdjd": 9139,
      "gxg": 9140,
      "ĠRambo": 9141,
      "ĠTá»§nn": 9142,
      "bwb": 9143,
      "ĠNgá»«": 9144,
      "ĠNgá»©a": 9145,
      "ÆłM": 9146,
      "ĠchÃ¬u": 9147,
      "trc": 9148,
      "áº®NG": 9149,
      "Ġmacbook": 9150,
      "jcjcjjccjcjc": 9151,
      "Ġkbiet": 9152,
      "vtvt": 9153,
      "ĠdÃ¬a": 9154,
      "ncncncnc": 9155,
      "Ġamaz": 9156,
      "hhshs": 9157,
      "ĠRá»Ńa": 9158,
      "uuuuuuuuuuuuuuuuuuuuuuuuuuuuuuuu": 9159,
      "Ġcá»Ńu": 9160,
      "mlem": 9161,
      "jdkdjdjd": 9162,
      "ĠCTV": 9163,
      "ĠCTKM": 9164,
      "ĠKhÃ³a": 9165,
      "ĠÃļi": 9166,
      "Ġdzá»ĭ": 9167,
      "ĠClub": 9168,
      "ĠNoble": 9169,
      "gggggggggggggggggggggggggggggggg": 9170,
      "ÄĤN": 9171,
      "chchchch": 9172,
      "jdjdjdjfnf": 9173,
      "Ġdrama": 9174,
      "ĠHongKong": 9175,
      "Ġmakeup": 9176,
      "ktx": 9177,
      "bdndjff": 9178,
      "mobile": 9179,
      "áº¶C": 9180,
      "Ġservice": 9181,
      "ĠData": 9182,
      "iiiiiiiiiiiiiiiiiiiiiiiiiiiiiiiiiiiiiiiiiiiiiiiiiiiiiiiiiiiiiiii": 9183,
      "puchia": 9184,
      "Ġtá»©k": 9185,
      "Ġaloana": 9186,
      "Ġfast": 9187,
      "ĠIPS": 9188,
      "jfjfjfjfjfjfjfjf": 9189,
      "ĠnhÃ£m": 9190,
      "jdhdjdjdjdjfnf": 9191,
      "Ġwhat": 9192,
      "Ġwill": 9193,
      "Iáº¾N": 9194,
      "ĠMaruko": 9195,
      "rsenal": 9196,
      "cmcmcmcm": 9197,
      "vyvyvyvy": 9198,
      "ĠSIM": 9199,
      "ssssssssssssssssssssssssssssssss": 9200,
      "ĠFormosa": 9201,
      "ĠÄĥjns": 9202,
      "Ġhuhuhu": 9203,
      "ĠNÃĢY": 9204,
      "ĠKhuÃ´n": 9205,
      "Ġmodel": 9206,
      "Ġfriend": 9207,
      "Ġknow": 9208,
      "ĠBIET": 9209,
      "Ġxá»īn": 9210,
      "fupf": 9211,
      "mzmzxkdjd": 9212,
      "lblb": 9213,
      "Ġkute": 9214,
      "ĠÃĬm": 9215,
      "lablablablab": 9216,
      "jaiaoksn": 9217,
      "ĠCheck": 9218,
      "athan": 9219,
      "Ġhmr": 9220,
      "Ġcombat": 9221,
      "Ġtoner": 9222,
      "ĠKHÃģCH": 9223,
      "ĠHÃ¡hhahs": 9224,
      "kwijsiai": 9225,
      "Ġtrump": 9226,
      "Ġtráº½n": 9227,
      "ĠSuper": 9228,
      "Ġdownload": 9229,
      "ĠMixiGaming": 9230,
      "ĠVIETTEL": 9231,
      "woowosnsns": 9232,
      "Ġlivet": 9233,
      "Ġninja": 9234,
      "ĠCacao": 9235,
      "ĠDATA": 9236,
      "Ġbasic": 9237,
      "Ġstandee": 9238,
      "Ġlegend": 9239,
      "ĠnháºŃndkdsksoiswoaoknxnxmzmzxkdjd": 9240,
      "ĠPedigree": 9241,
      "Ġfheidbrh": 9242,
      "uiwksnjaiaoksn": 9243,
      "rodfbdndjff": 9244,
      "Æ¯ÆłNG": 9245,
      "Ġonscreen": 9246,
      "ĠNHÃĵM": 9247,
      "jcjcjjccjcjcu": 9248,
      "kwijsiaiwoowosnsns": 9249,
      "ĠnháºŃndkdsksoiswoaoknxnxmzmzxkdjdjcjcjjccjcjcu": 9250,
      "Ġfheidbrhrodfbdndjff": 9251,
      "kwijsiaiwoowosnsnsuiwksnjaiaoksn": 9252,
      "Ġfheidbrhrodfbdndjffjdhdjdjdjdjfnf": 9253,
      "AA": 9254,
      "Be": 9255,
      "CE": 9256,
      "DT": 9257,
      "FF": 9258,
      "Ho": 9259,
      "Huy": 9260,
      "OW": 9261,
      "ST": 9262,
      "TC": 9263,
      "TS": 9264,
      "Tr": 9265,
      "UD": 9266,
      "af": 9267,
      "aw": 9268,
      "bit": 9269,
      "baha": 9270,
      "cd": 9271,
      "cp": 9272,
      "cid": 9273,
      "cat": 9274,
      "cur": 9275,
      "ev": 9276,
      "fter": 9277,
      "gc": 9278,
      "gjj": 9279,
      "gst": 9280,
      "hch": 9281,
      "hjd": 9282,
      "hÄĳ": 9283,
      "iem": 9284,
      "ipp": 9285,
      "jm": 9286,
      "jhh": 9287,
      "jid": 9288,
      "jcc": 9289,
      "jaha": 9290,
      "jjsjs": 9291,
      "kan": 9292,
      "kjs": 9293,
      "knd": 9294,
      "kck": 9295,
      "lj": 9296,
      "lhd": 9297,
      "lone": 9298,
      "mn": 9299,
      "mcm": 9300,
      "msmsm": 9301,
      "mail": 9302,
      "mnsms": 9303,
      "nao": 9304,
      "nÄĳ": 9305,
      "nff": 9306,
      "oho": 9307,
      "obd": 9308,
      "ohs": 9309,
      "po": 9310,
      "put": 9311,
      "page": 9312,
      "qa": 9313,
      "qn": 9314,
      "qow": 9315,
      "rv": 9316,
      "ron": 9317,
      "rim": 9318,
      "rst": 9319,
      "sr": 9320,
      "su": 9321,
      "sns": 9322,
      "sig": 9323,
      "tkz": 9324,
      "tfd": 9325,
      "uck": 9326,
      "ueu": 9327,
      "vu": 9328,
      "vas": 9329,
      "vml": 9330,
      "xa": 9331,
      "xr": 9332,
      "xu": 9333,
      "xin": 9334,
      "xig": 9335,
      "yl": 9336,
      "yv": 9337,
      "yx": 9338,
      "ykd": 9339,
      "yld": 9340,
      "zr": 9341,
      "zon": 9342,
      "zbx": 9343,
      "zbz": 9344,
      "zhz": 9345,
      "¥n": 9346,
      "³m": 9347,
      "Ãķ": 9348,
      "Ġua": 9349,
      "ĠÃ¹": 9350,
      "Ġuá»ĳn": 9351,
      "ĠÃºi": 9352,
      "ĠÆ¯á»": 9353,
      "Ġáº¹c": 9354,
      "ĭp": 9355,
      "ĺNG": 9356,
      "nger": 9357,
      "Ġtf": 9358,
      "Ġten": 9359,
      "Ġtáº¯n": 9360,
      "ĠtÄĥm": 9361,
      "Ġtáº¡t": 9362,
      "Ġtáº¡ch": 9363,
      "ĠtÃ²i": 9364,
      "Ġtip": 9365,
      "ĠtÆ°á»Ľi": 9366,
      "Ġci": 9367,
      "ĠcÆ°á»Ľc": 9368,
      "Ġcáº§y": 9369,
      "ĠcÃ¹n": 9370,
      "nhf": 9371,
      "nhx": 9372,
      "ĠÄĳr": 9373,
      "ĠÄĳv": 9374,
      "ĠÄĳÃ¬": 9375,
      "ĠÄĳui": 9376,
      "ĠÄĳáº·ng": 9377,
      "ĠÄĳáº·n": 9378,
      "ĠÄĳÃłm": 9379,
      "ĠÄĳÃŃu": 9380,
      "Ġmao": 9381,
      "Ġmin": 9382,
      "ĠmÃº": 9383,
      "ĠmÃ¢m": 9384,
      "Ġmuá»ĳng": 9385,
      "Ġmoc": 9386,
      "Ġmood": 9387,
      "Ġmxh": 9388,
      "Ġmjnh": 9389,
      "ĠmÆ°á»Ľn": 9390,
      "Ġláº£nh": 9391,
      "Ġlim": 9392,
      "ĠlÃ³p": 9393,
      "ĠlÄĳ": 9394,
      "ĠlÃ¹a": 9395,
      "Ġlá»ĳn": 9396,
      "ĠlÃ³a": 9397,
      "Ġnháº£": 9398,
      "Ġnhiá»ĩn": 9399,
      "ĠnhÃ´ng": 9400,
      "Ġnháº¯t": 9401,
      "ĠnhÃºng": 9402,
      "ĠnhiÃª": 9403,
      "ĠnhÃ¨o": 9404,
      "Ġnháº©y": 9405,
      "Ġnhism": 9406,
      "ĠvÃº": 9407,
      "ĠvÃ¡t": 9408,
      "Ġvoc": 9409,
      "Ġvma": 9410,
      "Ġváº¹o": 9411,
      "Ġhl": 9412,
      "Ġhag": 9413,
      "Ġhel": 9414,
      "Ġháºµn": 9415,
      "Ġhhhh": 9416,
      "Ġháºµng": 9417,
      "Ġháº±n": 9418,
      "Ġchx": 9419,
      "Ġchy": 9420,
      "Ġchem": 9421,
      "Ġcháº§y": 9422,
      "Ġchuá»ĳt": 9423,
      "Ġkung": 9424,
      "Ġkakaka": 9425,
      "Ġnáº¡i": 9426,
      "ĠnÃŃ": 9427,
      "ĠnÃªm": 9428,
      "Ġniá»ģng": 9429,
      "Ġsj": 9430,
      "Ġsr": 9431,
      "ĠsÃ³": 9432,
      "Ġsáº§n": 9433,
      "ĠsÃŃ": 9434,
      "ĠsÃłnh": 9435,
      "ĠsÃ¡n": 9436,
      "Ġshe": 9437,
      "Ġsap": 9438,
      "ĠsÆ°á»Łi": 9439,
      "Ġsbtc": 9440,
      "ĠgÆ°á»£ng": 9441,
      "ĠgÃ´ng": 9442,
      "Ġgáº¯p": 9443,
      "Ġgá»Ļp": 9444,
      "Ġgfy": 9445,
      "Ġgarena": 9446,
      "Ġbr": 9447,
      "ĠbÆ°a": 9448,
      "Ġbáº£nh": 9449,
      "Ġbiáº¿u": 9450,
      "ĠbÃŃch": 9451,
      "Ġbcs": 9452,
      "ĠthÆ¡i": 9453,
      "Ġthuy": 9454,
      "Ġtháº£n": 9455,
      "ĠthÄĥ": 9456,
      "Ġthap": 9457,
[...]
